{
  "version": "1.0",
  "truncation": null,
  "padding": null,
  "added_tokens": [
    {
      "id": 0,
      "content": "[PAD]",
      "single_word": false,
      "lstrip": false,
      "rstrip": false,
      "normalized": false,
      "special": true
    },
    {
      "id": 1,
      "content": "[BOS]",
      "single_word": false,
      "lstrip": false,
      "rstrip": false,
      "normalized": false,
      "special": true
    },
    {
      "id": 2,
      "content": "[EOS]",
      "single_word": false,
      "lstrip": false,
      "rstrip": false,
      "normalized": false,
      "special": true
    },
    {
      "id": 3,
      "content": "[UNK]",
      "single_word": false,
      "lstrip": false,
      "rstrip": false,
      "normalized": false,
      "special": true
    }
  ],
  "normalizer": {
    "type": "Sequence",
    "normalizers": [
      {
        "type": "NFKC"
      },
      {
        "type": "StripAccents"
      },
      {
        "type": "NFD"
      },
      {
        "type": "Lowercase"
      }
    ]
  },
  "pre_tokenizer": {
    "type": "Sequence",
    "pretokenizers": [
      {
        "type": "Whitespace"
      },
      {
        "type": "Punctuation",
        "behavior": "Isolated"
      },
      {
        "type": "Digits",
        "individual_digits": true
      },
      {
        "type": "ByteLevel",
        "add_prefix_space": true,
        "trim_offsets": true,
        "use_regex": true
      }
    ]
  },
  "post_processor": {
    "type": "TemplateProcessing",
    "single": [
      {
        "SpecialToken": {
          "id": "[BOS]",
          "type_id": 0
        }
      },
      {
        "Sequence": {
          "id": "A",
          "type_id": 0
        }
      },
      {
        "SpecialToken": {
          "id": "[EOS]",
          "type_id": 0
        }
      }
    ],
    "pair": [
      {
        "SpecialToken": {
          "id": "[BOS]",
          "type_id": 0
        }
      },
      {
        "Sequence": {
          "id": "A",
          "type_id": 0
        }
      },
      {
        "SpecialToken": {
          "id": "[EOS]",
          "type_id": 0
        }
      },
      {
        "SpecialToken": {
          "id": "[BOS]",
          "type_id": 0
        }
      },
      {
        "Sequence": {
          "id": "B",
          "type_id": 0
        }
      },
      {
        "SpecialToken": {
          "id": "[EOS]",
          "type_id": 0
        }
      }
    ],
    "special_tokens": {
      "[BOS]": {
        "id": "[BOS]",
        "ids": [
          1
        ],
        "tokens": [
          "[BOS]"
        ]
      },
      "[EOS]": {
        "id": "[EOS]",
        "ids": [
          2
        ],
        "tokens": [
          "[EOS]"
        ]
      }
    }
  },
  "decoder": {
    "type": "ByteLevel",
    "add_prefix_space": true,
    "trim_offsets": true,
    "use_regex": true
  },
  "model": {
    "type": "BPE",
    "dropout": null,
    "unk_token": "[UNK]",
    "continuing_subword_prefix": null,
    "end_of_word_suffix": null,
    "fuse_unk": false,
    "byte_fallback": false,
    "ignore_merges": false,
    "vocab": {
      "[PAD]": 0,
      "[BOS]": 1,
      "[EOS]": 2,
      "[UNK]": 3,
      "!": 4,
      "\"": 5,
      "#": 6,
      "$": 7,
      "%": 8,
      "&": 9,
      "'": 10,
      "(": 11,
      ")": 12,
      "*": 13,
      "+": 14,
      ",": 15,
      "-": 16,
      ".": 17,
      "/": 18,
      "0": 19,
      "1": 20,
      "2": 21,
      "3": 22,
      "4": 23,
      "5": 24,
      "6": 25,
      "7": 26,
      "8": 27,
      "9": 28,
      ":": 29,
      ";": 30,
      "<": 31,
      "=": 32,
      ">": 33,
      "?": 34,
      "@": 35,
      "[": 36,
      "\\": 37,
      "]": 38,
      "^": 39,
      "_": 40,
      "`": 41,
      "a": 42,
      "b": 43,
      "c": 44,
      "d": 45,
      "e": 46,
      "f": 47,
      "g": 48,
      "h": 49,
      "i": 50,
      "j": 51,
      "k": 52,
      "l": 53,
      "m": 54,
      "n": 55,
      "o": 56,
      "p": 57,
      "q": 58,
      "r": 59,
      "s": 60,
      "t": 61,
      "u": 62,
      "v": 63,
      "w": 64,
      "x": 65,
      "y": 66,
      "z": 67,
      "{": 68,
      "|": 69,
      "}": 70,
      "~": 71,
      "¡": 72,
      "¢": 73,
      "£": 74,
      "¤": 75,
      "¥": 76,
      "¦": 77,
      "§": 78,
      "¨": 79,
      "©": 80,
      "ª": 81,
      "«": 82,
      "¬": 83,
      "®": 84,
      "¯": 85,
      "°": 86,
      "±": 87,
      "²": 88,
      "³": 89,
      "´": 90,
      "µ": 91,
      "¶": 92,
      "·": 93,
      "¸": 94,
      "¹": 95,
      "º": 96,
      "»": 97,
      "¼": 98,
      "½": 99,
      "¾": 100,
      "¿": 101,
      "Â": 102,
      "Ã": 103,
      "Ä": 104,
      "Å": 105,
      "Æ": 106,
      "Ç": 107,
      "È": 108,
      "É": 109,
      "Ê": 110,
      "Ë": 111,
      "Ì": 112,
      "Í": 113,
      "Î": 114,
      "Ï": 115,
      "Ð": 116,
      "Ñ": 117,
      "Ò": 118,
      "Ó": 119,
      "Ô": 120,
      "Õ": 121,
      "×": 122,
      "Ø": 123,
      "Ù": 124,
      "Ú": 125,
      "Û": 126,
      "Ý": 127,
      "Þ": 128,
      "ß": 129,
      "à": 130,
      "á": 131,
      "â": 132,
      "ã": 133,
      "ä": 134,
      "å": 135,
      "æ": 136,
      "ç": 137,
      "è": 138,
      "é": 139,
      "ê": 140,
      "í": 141,
      "î": 142,
      "ï": 143,
      "ð": 144,
      "ā": 145,
      "Ĉ": 146,
      "ď": 147,
      "ē": 148,
      "ĕ": 149,
      "ė": 150,
      "ę": 151,
      "Ğ": 152,
      "ğ": 153,
      "Ġ": 154,
      "ġ": 155,
      "Ģ": 156,
      "ģ": 157,
      "Ĥ": 158,
      "ĥ": 159,
      "Ħ": 160,
      "ħ": 161,
      "Ĩ": 162,
      "ĩ": 163,
      "Ī": 164,
      "ī": 165,
      "Ĭ": 166,
      "ĭ": 167,
      "Į": 168,
      "į": 169,
      "İ": 170,
      "ı": 171,
      "Ĳ": 172,
      "ĳ": 173,
      "Ĵ": 174,
      "ĵ": 175,
      "Ķ": 176,
      "ķ": 177,
      "ĸ": 178,
      "Ĺ": 179,
      "ĺ": 180,
      "Ļ": 181,
      "ļ": 182,
      "Ľ": 183,
      "ľ": 184,
      "Ŀ": 185,
      "ŀ": 186,
      "Ł": 187,
      "ł": 188,
      "Ń": 189,
      "Ġå": 190,
      "Ġæ": 191,
      "Ġç": 192,
      "Ġä": 193,
      "Ġè": 194,
      "ļĦ": 195,
      "ĠçļĦ": 196,
      "Ġã": 197,
      "ĠãĢ": 198,
      "Ġä¸": 199,
      "Ġé": 200,
      "Ġ,": 201,
      "ĠãĢĤ": 202,
      "ä¸": 203,
      "äº": 204,
      "Ġäº": 205,
      "ĴĮ": 206,
      "Ġåı": 207,
      "ĠåĴĮ": 208,
      "Ġæľ": 209,
      "Ġåħ": 210,
      "Ġä»": 211,
      "åĬ": 212,
      "åĪ": 213,
      "Ľ½": 214,
      "Ġåľ": 215,
      "Ġ1": 216,
      "Ġè¿": 217,
      "Ġ0": 218,
      "¼ļ": 219,
      "å®": 220,
      "è®": 221,
      "åħ": 222,
      "ä»": 223,
      "Ġ2": 224,
      "Ġ.": 225,
      "Ġå®": 226,
      "Ġåľ¨": 227,
      "æľ": 228,
      "ĠãĢģ": 229,
      "ĠæĪ": 230,
      "Ġå¹": 231,
      "ĠåĲ": 232,
      "åĳ": 233,
      "ä¼ļ": 234,
      "ä½": 235,
      "ç»": 236,
      "Ġç»": 237,
      "åı": 238,
      "Ġä¸Ģ": 239,
      "å¤": 240,
      "åĽ½": 241,
      "åĲ": 242,
      "Ġä½": 243,
      "æĸ": 244,
      "Ġæī": 245,
      "ĺ¯": 246,
      "¡Į": 247,
      "ĠåĪ": 248,
      "Ġå°": 249,
      "Ġå¤": 250,
      "Ġæĸ": 251,
      "Ġè®": 252,
      "ĠæĹ": 253,
      "åĳĺ": 254,
      "Ġ)": 255,
      "Ġè¯": 256,
      "Ġ(": 257,
      "çĶ": 258,
      "ĠäºĨ": 259,
      "è®®": 260,
      "åº": 261,
      "Ġ9": 262,
      "ĠæĶ": 263,
      "Ġè¿Ļ": 264,
      "Ġåį": 265,
      "ĠåĽ½": 266,
      "Ġå·": 267,
      "³ķ": 268,
      "Ġæĺ¯": 269,
      "è¿": 270,
      "Ġç¬": 271,
      "Ġäºº": 272,
      "Ġ3": 273,
      "ĠåĨ": 274,
      "æĿ": 275,
      "ä¹": 276,
      "å±": 277,
      "Ġæľī": 278,
      "Ġç¬¬": 279,
      "è¯": 280,
      "Ġä¸į": 281,
      "Ġå¹´": 282,
      "Ġå¯": 283,
      "¦ģ": 284,
      "Ġæı": 285,
      "è¡Į": 286,
      "ĠçĶ": 287,
      "éĻ": 288,
      "ĥ½": 289,
      "ĠæĬ": 290,
      "Ġ5": 291,
      "Ġä»¥": 292,
      "çº": 293,
      "åĨ": 294,
      "æŀ": 295,
      "Ġ4": 296,
      "ĠæĪĳ": 297,
      "åĩ": 298,
      "ĠéĢ": 299,
      "ĠæĿ": 300,
      "ĠæıĲ": 301,
      "Ġä¹": 302,
      "Ġä¿": 303,
      "å®ļ": 304,
      "éĩ": 305,
      "Ġå¯¹": 306,
      "Ġ/": 307,
      "ä½ľ": 308,
      "Ġä¸Ń": 309,
      "Ġåıĳ": 310,
      "Ġ6": 311,
      "äºİ": 312,
      "ĠåĬ": 313,
      "åľ": 314,
      "ĠçĽ": 315,
      "é¢": 316,
      "Ġèģ": 317,
      "å®¶": 318,
      "æľī": 319,
      "Ġéĩ": 320,
      "Ġä¼ļ": 321,
      "äºº": 322,
      "å¾": 323,
      "ĲĨ": 324,
      "Ġåħ¶": 325,
      "ä»¬": 326,
      "ä¸ª": 327,
      "æŃ": 328,
      "åĲĪ": 329,
      "ĠåĮ": 330,
      "æ³ķ": 331,
      "åĬ¨": 332,
      "éĹ": 333,
      "Ġè´": 334,
      "ä¸º": 335,
      "Ġæĸ¹": 336,
      "Ġ7": 337,
      "æĭ": 338,
      "å¹": 339,
      "å°": 340,
      "Ġ8": 341,
      "Ġè§": 342,
      "æĢ": 343,
      "Ġç§": 344,
      "å¼": 345,
      "ĠæīĢ": 346,
      "ĠèģĶ": 347,
      "Ġå·¥": 348,
      "éĿ": 349,
      "§Ķ": 350,
      "è¦ģ": 351,
      "Ġä»ĸ": 352,
      "Ġåı¯": 353,
      "ĥ¨": 354,
      "ĠéĹ": 355,
      "ĠåĽ": 356,
      "çĶ¨": 357,
      "å¸": 358,
      "å±ķ": 359,
      "ç«": 360,
      "ĠèĢ": 361,
      "åĽ": 362,
      "åŃ": 363,
      "Ġ;": 364,
      "Ġå¹¶": 365,
      "Ġèµ": 366,
      "Ġå¼": 367,
      "ĠæŃ": 368,
      "Ġä¸º": 369,
      "çĽ": 370,
      "ī¹": 371,
      "æł": 372,
      "§Ķåĳĺ": 373,
      "ĠæĹ¥": 374,
      "ĠæĮ": 375,
      "Ġæķ": 376,
      "§Ķåĳĺä¼ļ": 377,
      "ĠæľĪ": 378,
      "åĬĽ": 379,
      "åį": 380,
      "åĬ¡": 381,
      "Ġä¸İ": 382,
      "Ġè¿Ľ": 383,
      "Ġåĩ": 384,
      "é¢ĺ": 385,
      "¡¨": 386,
      "åĮ": 387,
      "åĩº": 388,
      "æĹ": 389,
      "è§": 390,
      "ä¾": 391,
      "çº¦": 392,
      "Ġ:": 393,
      "è´": 394,
      "æķ": 395,
      "Ġå§Ķåĳĺä¼ļ": 396,
      "Ġå¤§": 397,
      "Ġåħ¬": 398,
      "é¡": 399,
      "æ´": 400,
      "Ġæİ": 401,
      "Ġå¦": 402,
      "Ġåħ³": 403,
      "äºĽ": 404,
      "Ġåº": 405,
      "ĠåŁ": 406,
      "¡Ī": 407,
      "ĠéĹ®": 408,
      "Ġåľ°": 409,
      "Ġé¢": 410,
      "éĻħ": 411,
      "°ĳ": 412,
      "Ġæł": 413,
      "Ġä¼": 414,
      "Ġå¾": 415,
      "ç§": 416,
      "äºĭ": 417,
      "Ġèĩ": 418,
      "ĠåĽ½å®¶": 419,
      "Ġå°Ĩ": 420,
      "ĠèģĶåĲĪ": 421,
      "å¯": 422,
      "çĲĨ": 423,
      "Ġå·¥ä½ľ": 424,
      "Ġ-": 425,
      "ĠåĲĦ": 426,
      "æĪ": 427,
      "æĺ": 428,
      "ĠéĹ®é¢ĺ": 429,
      "ĠæĶ¿": 430,
      "Ġå½": 431,
      "èĢ": 432,
      "ĠãĢĬ": 433,
      "ĠãĢĭ": 434,
      "Ġå¥": 435,
      "ĠéĿ": 436,
      "åĪ©": 437,
      "Ġä¼ļè®®": 438,
      "éĿ¢": 439,
      "Ġè¡Į": 440,
      "æµ": 441,
      "ä¼": 442,
      "Ġä¸Ĭ": 443,
      "æĶ": 444,
      "»º": 445,
      "åħ³": 446,
      "ä¸Ģ": 447,
      "Ġçī¹": 448,
      "åĳĬ": 449,
      "æĢ§": 450,
      "ĠåĽ½éĻħ": 451,
      "Ġç»ı": 452,
      "æ¡Ī": 453,
      "ç½": 454,
      "ĠæĬ¥": 455,
      "Ġåıĳå±ķ": 456,
      "ĠæĪĸ": 457,
      "İ°": 458,
      "åĪ°": 459,
      "Ł¥": 460,
      "Ġ\"": 461,
      "ĠåĨ³": 462,
      "Ħı": 463,
      "Ġå¸": 464,
      "Ġæ³ķ": 465,
      "å¥": 466,
      "ĠèģĶåĲĪåĽ½": 467,
      "ĠæĢ": 468,
      "æĿĥ": 469,
      "åıĬ": 470,
      "èµ": 471,
      "æ¬": 472,
      "Ġå»º": 473,
      "åĬ©": 474,
      "åĵ": 475,
      "¨ĭ": 476,
      "ĠåºĶ": 477,
      "Ġæĥ": 478,
      "Ġæľº": 479,
      "ķ¿": 480,
      "çĶŁ": 481,
      "ĠæĬ¥åĳĬ": 482,
      "Ġä¸»": 483,
      "èĥ½": 484,
      "çķ": 485,
      "åĪ«": 486,
      "éĹ´": 487,
      "Ġå®ŀ": 488,
      "åŁ": 489,
      "æĺ¯": 490,
      "Ġå°±": 491,
      "ĠéĢļ": 492,
      "æĮ": 493,
      "ç»ĩ": 494,
      "Ġç»Ħ": 495,
      "æĬ": 496,
      "æį": 497,
      "æ°ĳ": 498,
      "ĠæĪĲ": 499,
      "Ġæ¯": 500,
      "è¿ĩ": 501,
      "Ġç¼": 502,
      "Ġå®ī": 503,
      "Ġâ": 504,
      "Ġåİ": 505,
      "®¡": 506,
      "³»": 507,
      "éĥ¨": 508,
      "ĠæľĢ": 509,
      "¤¾": 510,
      "ä¾Ľ": 511,
      "Ġä½ľ": 512,
      "ä»¶": 513,
      "Ġå¿": 514,
      "ĠâĢ": 515,
      "Ġä¿Ŀ": 516,
      "Ġa": 517,
      "ä¹¦": 518,
      "ĠæĹ¶": 519,
      "Ġéĩį": 520,
      "Ġä¸Ģä¸ª": 521,
      "īį": 522,
      "Ġæ²": 523,
      "Ġä½ł": 524,
      "ä¿": 525,
      "æĸ¹": 526,
      "ĠæıĲä¾Ľ": 527,
      "ä¸ļ": 528,
      "Ġéĺ": 529,
      "æĸ¯": 530,
      "°ĥ": 531,
      "å¿": 532,
      "ĠåŁº": 533,
      "ĠæĪĳä»¬": 534,
      "ä½ĵ": 535,
      "Ġæĭ": 536,
      "Ġä¾": 537,
      "ĠèĢĮ": 538,
      "åºľ": 539,
      "Ġä¹ĭ": 540,
      "çŃ": 541,
      "ç§į": 542,
      "å¹´": 543,
      "Ġæ¬": 544,
      "«ĺ": 545,
      "äºļ": 546,
      "å·": 547,
      "éķ¿": 548,
      "Ġç¤¾": 549,
      "ĠéĿŀ": 550,
      "Ġè¯¥": 551,
      "Ġåįı": 552,
      "æ±": 553,
      "è¾": 554,
      "Ġèĩª": 555,
      "ĠåĬł": 556,
      "éĢ": 557,
      "Ġèĥ½": 558,
      "è¡¨": 559,
      "ĠåĪ°": 560,
      "Ġå¼Ģ": 561,
      "åĪ¶": 562,
      "ĠèµĦ": 563,
      "Ġåħ¨": 564,
      "¡®": 565,
      "åº¦": 566,
      "Ħ¿": 567,
      "çī": 568,
      "åĨµ": 569,
      "ĠæĿ¡": 570,
      "æĸ½": 571,
      "ĠåıĬ": 572,
      "ĠåĮħ": 573,
      "åĬł": 574,
      "Ġåģ": 575,
      "Ġä¸ĭ": 576,
      "ĠæĽ": 577,
      "¾İ": 578,
      "æŀĦ": 579,
      "æį®": 580,
      "ĠæĶ¯": 581,
      "éģ": 582,
      "Ġåħ³äºİ": 583,
      "å½": 584,
      "åľ¨": 585,
      "æĿ¥": 586,
      "å¤§": 587,
      "Ġç»Ħç»ĩ": 588,
      "Ġæ´": 589,
      "Ġè¿ĺ": 590,
      "å¾Ĺ": 591,
      "ä»¥": 592,
      "Ġé¡": 593,
      "åĮĸ": 594,
      "æĪĲ": 595,
      "é¡¹": 596,
      "ç¨ĭ": 597,
      "Ġå®¡": 598,
      "Ġä»¥åıĬ": 599,
      "Ġä½¿": 600,
      "Ġè§Ħ": 601,
      "ĠåŃ": 602,
      "ç«ĭ": 603,
      "åŁŁ": 604,
      "Ġä¹Ł": 605,
      "èĢħ": 606,
      "ĠåĽł": 607,
      "æĮģ": 608,
      "ĠéĻ": 609,
      "æī": 610,
      "æľŁ": 611,
      "ĠåĲĪ": 612,
      "èĩ": 613,
      "Ġè¿Ľè¡Į": 614,
      "ĠçĽ®": 615,
      "åľ°": 616,
      "Ġæĥħ": 617,
      "Ġç¤¾ä¼ļ": 618,
      "Ġäºĭ": 619,
      "æĭ¬": 620,
      "ĠåĪĨ": 621,
      "åĪĨ": 622,
      "ľĢ": 623,
      "ĠåĮħæĭ¬": 624,
      "Ġè¦ģ": 625,
      "ç»Ń": 626,
      "ĠçŃ": 627,
      "æŀľ": 628,
      "åħ¨": 629,
      "Ġå¤ļ": 630,
      "æĶ¿": 631,
      "Ġä½Ĩ": 632,
      "Ġè¿ĻäºĽ": 633,
      "æĹ¶": 634,
      "Ġæī§": 635,
      "Ġå¦Ĥ": 636,
      "Ġä»£": 637,
      "Ġä»»": 638,
      "Ġå¢": 639,
      "ç»Ħ": 640,
      "Ġå·²": 641,
      "ä¸Ń": 642,
      "ĠçĶŁ": 643,
      "ä»ĸ": 644,
      "å°Ķ": 645,
      "ĠéĢļè¿ĩ": 646,
      "Ġè¯´": 647,
      "éĩĳ": 648,
      "Ġéĥ¨": 649,
      "ĠéľĢ": 650,
      "æµİ": 651,
      "è®¡": 652,
      "Ġçº": 653,
      "Ġå±": 654,
      "å¥³": 655,
      "Ġè¢": 656,
      "Ġåħ¶ä»ĸ": 657,
      "åħ¥": 658,
      "æ±Ĥ": 659,
      "Ġæĸĩ": 660,
      "ĠéĤ": 661,
      "éĺ": 662,
      "æİ": 663,
      "æĦı": 664,
      "æĺİ": 665,
      "ĠæĮĩ": 666,
      "Ġæĸ°": 667,
      "Ġç¡®": 668,
      "Ġæĸ¹æ¡Ī": 669,
      "ĠåĲĮ": 670,
      "Ġæľ¬": 671,
      "Ġæī§è¡Į": 672,
      "ĠçĲĨ": 673,
      "ĠçĽ¸": 674,
      "ĠæĥħåĨµ": 675,
      "æ²": 676,
      "Ġéĩĩ": 677,
      "ĠæĽ´": 678,
      "Ġä¸ª": 679,
      "åĿ": 680,
      "Ħ¶": 681,
      "Ġçī¹åĪ«": 682,
      "Ġæµ": 683,
      "Ġè¢«": 684,
      "ĠåĪ¶": 685,
      "æŁ¥": 686,
      "åĽ¢": 687,
      "Ġä»İ": 688,
      "çĽ®": 689,
      "Ġæľīåħ³": 690,
      "Ġä»£è¡¨": 691,
      "Ġåı·": 692,
      "Ġå¿ħ": 693,
      "å¼ı": 694,
      "åĲĮ": 695,
      "ç»Ł": 696,
      "ĠåĨħ": 697,
      "æĭī": 698,
      "Ġç§ĺ": 699,
      "ç©": 700,
      "Ġè¾": 701,
      "æ¬¡": 702,
      "ĠæĶ¿åºľ": 703,
      "Ġå®ĥ": 704,
      "åĪĴ": 705,
      "Ġè¡¨": 706,
      "Ġé¡¹": 707,
      "Ġc": 708,
      "ä¸»": 709,
      "ĠåĲĳ": 710,
      "Ġæĸ¹éĿ¢": 711,
      "ĠæĿ¥": 712,
      "çİ°": 713,
      "Ġç»ıæµİ": 714,
      "ĠåĨ³è®®": 715,
      "å¹³": 716,
      "åŃĲ": 717,
      "Ġæ´»": 718,
      "åıĸ": 719,
      "ĠåĮº": 720,
      "ĠçĶ±": 721,
      "è¿Ľ": 722,
      "æ¯": 723,
      "Ġåĩº": 724,
      "è®º": 725,
      "Ġè¡ĮåĬ¨": 726,
      "Ġæ²¡": 727,
      "ĠæľºæŀĦ": 728,
      "Ġé¢Ħ": 729,
      "Ġç®¡": 730,
      "Ġæ³": 731,
      "æ´²": 732,
      "æº": 733,
      "Ġç§ĺä¹¦": 734,
      "Ġå¦ĩ": 735,
      "ĠæīĢæľī": 736,
      "ç³»": 737,
      "Ġä¿¡": 738,
      "Ġç¾İ": 739,
      "Ġå°ı": 740,
      "æŃ¤": 741,
      "Ġéĥ½": 742,
      "åŃ¦": 743,
      "Ġå¦ĩå¥³": 744,
      "Ġè®¤": 745,
      "åĲİ": 746,
      "Ġå®īåħ¨": 747,
      "Ġä»ĸä»¬": 748,
      "å¤Ħ": 749,
      "Ġè½": 750,
      "åīį": 751,
      "ĠäººæĿĥ": 752,
      "æºĲ": 753,
      "æľ¯": 754,
      "Ġåĳ": 755,
      "çĤ": 756,
      "Ġéģ": 757,
      "Ġæ´»åĬ¨": 758,
      "Ġç»ĵ": 759,
      "å¤ļ": 760,
      "Ġçİ°": 761,
      "¨Ģ": 762,
      "ĠæĿĥ": 763,
      "Ġä¸¤": 764,
      "Ġæĺ": 765,
      "Ġå½ĵ": 766,
      "ä¹ī": 767,
      "Ġçľ": 768,
      "åĮº": 769,
      "ĠéĤ£": 770,
      "Ġå¢ŀ": 771,
      "ĠåıĤ": 772,
      "ĠæŃ£": 773,
      "¥¿": 774,
      "Ġä¸ĵ": 775,
      "Ġé«ĺ": 776,
      "æģ": 777,
      "Ġå»ºè®®": 778,
      "Ġé¢Ĩ": 779,
      "Ġçł": 780,
      "åıĳ": 781,
      "æĬ¤": 782,
      "å¢": 783,
      "ĠåıĹ": 784,
      "Ġæł¹": 785,
      "è°ĥ": 786,
      "å¤ĸ": 787,
      "çī©": 788,
      "éģĵ": 789,
      "Ġç½": 790,
      "åĨħ": 791,
      "èĤ": 792,
      "Ġçİ": 793,
      "æľ¬": 794,
      "®µ": 795,
      "Ġæ²¡æľī": 796,
      "Ġè®®": 797,
      "ĠåĲİ": 798,
      "ķĨ": 799,
      "çķĮ": 800,
      "Ġæ¶": 801,
      "Ġè®¾": 802,
      "Ġåħ¬çº¦": 803,
      "Ġé¡¹çĽ®": 804,
      "ĠåĬŀ": 805,
      "éĩı": 806,
      "ĠæĢ»": 807,
      "å¿ĥ": 808,
      "æłĩ": 809,
      "Ġè¿ĩ": 810,
      "Ġç¼Ķ": 811,
      "éĹ¨": 812,
      "äº¤": 813,
      "ä¿Ŀ": 814,
      "è¨Ģ": 815,
      "Ġèį": 816,
      "å¾ĭ": 817,
      "ç«¥": 818,
      "ĿĢ": 819,
      "æł·": 820,
      "Ġæ°": 821,
      "ä½ķ": 822,
      "Ġæķ°": 823,
      "Ġå¤§ä¼ļ": 824,
      "çĦ¶": 825,
      "ĠåĮºåŁŁ": 826,
      "èµĦ": 827,
      "ä¸Ĭ": 828,
      "ĠæľŁ": 829,
      "äºĭä¼ļ": 830,
      "åĨ³": 831,
      "Ġå¤ĸ": 832,
      "åĢ": 833,
      "ä¸ĭ": 834,
      "åĪĻ": 835,
      "Ģæľ¯": 836,
      "æľº": 837,
      "åħ¶": 838,
      "éĩĮ": 839,
      "æĥ": 840,
      "ĠåĲĪä½ľ": 841,
      "Ġç¼Ķçº¦": 842,
      "±»": 843,
      "çĤ¹": 844,
      "ç®": 845,
      "Ġéļ": 846,
      "çº§": 847,
      "ĠæĹł": 848,
      "çŃĸ": 849,
      "ĠåĦ¿": 850,
      "èģ": 851,
      "ĠæķĻ": 852,
      "Ġå¥¹": 853,
      "åİ": 854,
      "¤º": 855,
      "å¢ĥ": 856,
      "ĠçĶ¨": 857,
      "Ġæł¹æį®": 858,
      "ĠæĶ¹": 859,
      "Ġè§Ħå®ļ": 860,
      "äº§": 861,
      "ĠéľĢè¦ģ": 862,
      "Ġç®¡çĲĨ": 863,
      "åĩĨ": 864,
      "ĠæĦı": 865,
      "åħ±": 866,
      "Ġåı¯ä»¥": 867,
      "ĠçĲĨäºĭä¼ļ": 868,
      "Ġè®¡": 869,
      "Ġåģļ": 870,
      "Ġç«": 871,
      "Ġå¾Ī": 872,
      "å½ĵ": 873,
      "éĩį": 874,
      "ĠåİŁ": 875,
      "ä½į": 876,
      "Ġåı¯èĥ½": 877,
      "å¼º": 878,
      "Ġèĭ": 879,
      "Ġæį": 880,
      "ĠåĨ³å®ļ": 881,
      "åĵģ": 882,
      "ĠæıĲåĩº": 883,
      "Ġéĩĩåıĸ": 884,
      "ç»ı": 885,
      "ĠçłĶ": 886,
      "ç®Ĺ": 887,
      "Ġä¸¾": 888,
      "ĠæĬĢæľ¯": 889,
      "Ġäºİ": 890,
      "ĠåĦ¿ç«¥": 891,
      "æķ°": 892,
      "åįģ": 893,
      "Ġä¸ĸ": 894,
      "Ġå¾Ĺ": 895,
      "Ġæ³ķå¾ĭ": 896,
      "Ġéĺ¿": 897,
      "æķĪ": 898,
      "ªæĸ½": 899,
      "çİ": 900,
      "ĠåĪ©": 901,
      "Ġä¿ĥ": 902,
      "Ġ?": 903,
      "åĴĮ": 904,
      "ç¤º": 905,
      "©¬": 906,
      "æĸĻ": 907,
      "åħĭ": 908,
      "ĠéĽ": 909,
      "Ġå¤Ħ": 910,
      "æĸĩ": 911,
      "ĠæŃ¤": 912,
      "Ĳĥ": 913,
      "èĤ²": 914,
      "åħĥ": 915,
      "åı£": 916,
      "æ²»": 917,
      "Ļ¨": 918,
      "é¡»": 919,
      "Ġèİ": 920,
      "Ġè§£": 921,
      "è½": 922,
      "ä»»": 923,
      "å¸Ń": 924,
      "åĵį": 925,
      "Ġè¯·": 926,
      "įåĬ¡": 927,
      "æģ¯": 928,
      "åĪĹ": 929,
      "Ġæł¸": 930,
      "ĠçĽĳ": 931,
      "Ĭ¯": 932,
      "å¯¹": 933,
      "æŃ¢": 934,
      "Ġå¹³": 935,
      "ĠæĶ¯æĮģ": 936,
      "ç©¶": 937,
      "å¦": 938,
      "±åĵį": 939,
      "çĸ": 940,
      "Ġæ³¨": 941,
      "Ġç»§": 942,
      "Ġå¿ħé¡»": 943,
      "Ġè°ĥ": 944,
      "Ġç¬¬äº": 945,
      "çĲĥ": 946,
      "Ġb": 947,
      "ĠéĢĤ": 948,
      "å®ŀ": 949,
      "Ġæ¸": 950,
      "è®¾": 951,
      "å®³": 952,
      "åĻ¨": 953,
      "Ġ%": 954,
      "å°ĳ": 955,
      "Ġå¼º": 956,
      "ĠåĢ": 957,
      "ĠæĪĺ": 958,
      "Ġç³»": 959,
      "ç®¡": 960,
      "ĠæĿĥåĪ©": 961,
      "Ġæģ": 962,
      "Ġå·´": 963,
      "Ġåħ·": 964,
      "å¸¸": 965,
      "ĠåĴĮå¹³": 966,
      "Ġå½±åĵį": 967,
      "ĠæĢ§": 968,
      "ĠâĢľ": 969,
      "éļ": 970,
      "è£": 971,
      "ĠæľįåĬ¡": 972,
      "Ġè¯Ħ": 973,
      "ĠçłĶç©¶": 974,
      "Ġåħ±": 975,
      "æ¬¾": 976,
      "æ³": 977,
      "Ġç§ĺä¹¦éķ¿": 978,
      "Ġä¿ĿæĬ¤": 979,
      "Ġæ°ĳ": 980,
      "Ġç»Ļ": 981,
      "æ°": 982,
      "ħ§": 983,
      "Ġç»§ç»Ń": 984,
      "ĠæĶ¿çŃĸ": 985,
      "åĪĩ": 986,
      "Ġä¿ĥè¿Ľ": 987,
      "Ġæ¯ı": 988,
      "å±Ĭ": 989,
      "æĺĵ": 990,
      "ĠæĶ¶": 991,
      "Ġéĩįè¦ģ": 992,
      "ç½²": 993,
      "Ġè¶": 994,
      "ĠåħĪ": 995,
      "å£": 996,
      "è§ģ": 997,
      "é«ĺ": 998,
      "èī": 999,
      "Ġä¸ĸçķĮ": 1000,
      "ä¹Ī": 1001,
      "Ġçİ¯": 1002,
      "æŃ¥": 1003,
      "Ġç»´": 1004,
      "Ġè¦ģæ±Ĥ": 1005,
      "å¯Ł": 1006,
      "Ġæī¿": 1007,
      "ĠçŃī": 1008,
      "ä¸»ä¹ī": 1009,
      "è¾¾": 1010,
      "Ġåıį": 1011,
      "ĠåĬłå¼º": 1012,
      "éĽ": 1013,
      "ĠåŃ¦": 1014,
      "å¤ĩ": 1015,
      "Ġs": 1016,
      "åľº": 1017,
      "Ġè®¤ä¸º": 1018,
      "åºĶ": 1019,
      "æīĢ": 1020,
      "Ġç³»ç»Ł": 1021,
      "åºŃ": 1022,
      "ç´": 1023,
      "å§": 1024,
      "ĠâĢĿ": 1025,
      "ªåĬĽ": 1026,
      "ĠçĽ®æłĩ": 1027,
      "Ġèĩ³": 1028,
      "è§Ĩ": 1029,
      "Ġæ¯Ķ": 1030,
      "Ġè°": 1031,
      "Ġè®¡åĪĴ": 1032,
      "Ġä½¿çĶ¨": 1033,
      "ĦŁ": 1034,
      "Ġæİªæĸ½": 1035,
      "ĠæĪĲåĳĺ": 1036,
      "æ¯Ķ": 1037,
      "Ġç§ĳ": 1038,
      "Ġä¸ĢäºĽ": 1039,
      "å°¼": 1040,
      "çī¹": 1041,
      "è¯Ĩ": 1042,
      "Ġåīį": 1043,
      "Ġé£": 1044,
      "éĺŁ": 1045,
      "åħ°": 1046,
      "Ġç¡®ä¿Ŀ": 1047,
      "Ġèİ·": 1048,
      "Ĺħ": 1049,
      "Ġäº§": 1050,
      "åıĹ": 1051,
      "ĠÂ": 1052,
      "éĻ¢": 1053,
      "é¢Ŀ": 1054,
      "Ġä»»ä½ķ": 1055,
      "ĠåĲį": 1056,
      "ĠæıĲäº¤": 1057,
      "ĠÂ·": 1058,
      "ĠåŁºéĩĳ": 1059,
      "ĠæĮģ": 1060,
      "ä¸į": 1061,
      "Ġå®¶": 1062,
      "åĭ": 1063,
      "æĿ¡": 1064,
      "Ġçİ¯å¢ĥ": 1065,
      "Ġä¸»å¸Ń": 1066,
      "Ġæŀ": 1067,
      "èĻ": 1068,
      "Ġèįī": 1069,
      "æ¸": 1070,
      "çķ¥": 1071,
      "åĽ½å®¶": 1072,
      "äººåĳĺ": 1073,
      "Ġå¥³": 1074,
      "è¿°": 1075,
      "è¶": 1076,
      "Ġèĥ½åĬĽ": 1077,
      "Ġä¸»è¦ģ": 1078,
      "Ġæİ¥": 1079,
      "Ġæľª": 1080,
      "ĠçĶµ": 1081,
      "Ġåıª": 1082,
      "Ġç¼Ķçº¦åĽ½": 1083,
      "ä¸Ķ": 1084,
      "Ġä¿¡æģ¯": 1085,
      "Ġç´": 1086,
      "ĠåĬªåĬĽ": 1087,
      "æŃ£": 1088,
      "è¥¿": 1089,
      "Ġåĵ": 1090,
      "è´¹": 1091,
      "Ġè¡": 1092,
      "Ġæ³¨æĦı": 1093,
      "Ġé¦": 1094,
      "Ġæµ·": 1095,
      "çŃī": 1096,
      "ĠèģĮ": 1097,
      "Ġå»ºç«ĭ": 1098,
      "çĽĬ": 1099,
      "è´£": 1100,
      "ĠæĬĬ": 1101,
      "Ġè´¢": 1102,
      "´åĬ©": 1103,
      "åı¸": 1104,
      "Ġä¸ī": 1105,
      "éª": 1106,
      "Ġåĩı": 1107,
      "Ġä½ľä¸º": 1108,
      "èĲ": 1109,
      "Ġçľĭ": 1110,
      "ç±»": 1111,
      "èĩ³": 1112,
      "ĠæĻ": 1113,
      "è§£": 1114,
      "Ġç¨ĭ": 1115,
      "Ġæ¶Ī": 1116,
      "ĠèµĦæºĲ": 1117,
      "Ġèī": 1118,
      "èĪ": 1119,
      "èµ·": 1120,
      "Ġåħ¨çĲĥ": 1121,
      "Ġæ®µ": 1122,
      "Ġè¿Ļç§į": 1123,
      "ĠèĢĥ": 1124,
      "åĴĮåĽ½": 1125,
      "Ġåıĸ": 1126,
      "Ġåįıè°ĥ": 1127,
      "ĠæĬķ": 1128,
      "Ġè¿Ĳ": 1129,
      "åºı": 1130,
      "ĠéĢī": 1131,
      "éĻ¤": 1132,
      "Ġå®Į": 1133,
      "åħ¬": 1134,
      "å¯¼": 1135,
      "ĠæķĻèĤ²": 1136,
      "å¸ĥ": 1137,
      "åģ": 1138,
      "ĠæĮī": 1139,
      "å±Ģ": 1140,
      "Ġç©": 1141,
      "ĠåĿ": 1142,
      "ä¸İ": 1143,
      "èģĶ": 1144,
      "æł¼": 1145,
      "Ġåįģ": 1146,
      "Ġçī": 1147,
      "åķĨ": 1148,
      "è°": 1149,
      "Ġè£": 1150,
      "ĠåľŁ": 1151,
      "Ġå·²ç»ı": 1152,
      "Ġå¦Ĥæŀľ": 1153,
      "è·": 1154,
      "çħ§": 1155,
      "Ġè¿Ļä¸ª": 1156,
      "Ġä¸¾è¡Į": 1157,
      "º«": 1158,
      "Ġå®¡è®®": 1159,
      "çĶ±": 1160,
      "Ġäººåĳĺ": 1161,
      "å¼Ģ": 1162,
      "¡ŀ": 1163,
      "æĶ¿åºľ": 1164,
      "Ġæĸĩä»¶": 1165,
      "åĲį": 1166,
      "Ġæ¬§": 1167,
      "Ġèįīæ¡Ī": 1168,
      "å¤©": 1169,
      "Ġå®ŀçİ°": 1170,
      "äºĨ": 1171,
      "è¯Ŀ": 1172,
      "èĢĮ": 1173,
      "ĠåĽłæŃ¤": 1174,
      "å¤Ł": 1175,
      "èī²": 1176,
      "Ġä¸ŃåĽ½": 1177,
      "Ġäº¤": 1178,
      "èĻĳ": 1179,
      "ĠåħĪçĶŁ": 1180,
      "ĠåĽŀ": 1181,
      "Ġè¡Įä¸º": 1182,
      "ĠçĿĢ": 1183,
      "Ġåı¸": 1184,
      "Įĥ": 1185,
      "çİĩ": 1186,
      "Ġå®¡æŁ¥": 1187,
      "ĠæľŁéĹ´": 1188,
      "Ġæı´åĬ©": 1189,
      "ĠåĲĦåĽ½": 1190,
      "Ġå®ļ": 1191,
      "ĠæĪĺçķ¥": 1192,
      "Ġèµ·": 1193,
      "çļĦ": 1194,
      "æ´¾": 1195,
      "æĸ°": 1196,
      "Ġè·": 1197,
      "æ»": 1198,
      "æ´»": 1199,
      "Ġå®£": 1200,
      "çĹħ": 1201,
      "ç½ª": 1202,
      "å·¥": 1203,
      "Ġæ£": 1204,
      "Ġæ±": 1205,
      "æľĽ": 1206,
      "Ġd": 1207,
      "ĠæĶ¿æ²»": 1208,
      "ĠçĽ¸åħ³": 1209,
      "Ġä¹ĭéĹ´": 1210,
      "å¦Ĥ": 1211,
      "Ġå®ŀæĸ½": 1212,
      "Ġç¬¬äºĮ": 1213,
      "Ġè¡¨ç¤º": 1214,
      "è¯·": 1215,
      "å£«": 1216,
      "ĠåıĤä¸İ": 1217,
      "æĹı": 1218,
      "ĠäºĭåĬ¡": 1219,
      "¦åĻ¨": 1220,
      "Ġç²": 1221,
      "è¯ī": 1222,
      "è´¨": 1223,
      "ä¸ī": 1224,
      "è®Ń": 1225,
      "Ġe": 1226,
      "éĻ©": 1227,
      "ªģ": 1228,
      "Ġåī": 1229,
      "¨è®º": 1230,
      "ç¾İ": 1231,
      "ĠçĪ": 1232,
      "ĠåĽłä¸º": 1233,
      "Ġå¼Ģå±ķ": 1234,
      "Ġæīĵ": 1235,
      "ä¿¡": 1236,
      "Ġæİ¨": 1237,
      "ĠæĮģç»Ń": 1238,
      "Ġæ¬¡": 1239,
      "ĠæľīæķĪ": 1240,
      "å¥½": 1241,
      "åħ±åĴĮåĽ½": 1242,
      "Ġé¢ĨåŁŁ": 1243,
      "Ġä½ľåĩº": 1244,
      "Ġå¢ŀåĬł": 1245,
      "ĠèĢĥèĻĳ": 1246,
      "ä»½": 1247,
      "Ġè´Ł": 1248,
      "ŀĭ": 1249,
      "Ġæļ": 1250,
      "çĽŁ": 1251,
      "èĩ´": 1252,
      "ĠèĲ": 1253,
      "Ġè§£åĨ³": 1254,
      "ĠéĿŀæ´²": 1255,
      "è®¢": 1256,
      "ĠæŁ": 1257,
      "Ġç«ĭ": 1258,
      "Ġè¿Ļä¸Ģ": 1259,
      "ĠéĻĦ": 1260,
      "ĠçŁ¥": 1261,
      "åĿ¦": 1262,
      "Ġå¾ĹåĪ°": 1263,
      "¦»": 1264,
      "¡Ģ": 1265,
      "Ġè½¬": 1266,
      "æĬ¥": 1267,
      "ĠèĤ": 1268,
      "åı¯": 1269,
      "Ġè®¸": 1270,
      "Ġåį³": 1271,
      "Ġäººæ°ĳ": 1272,
      "Ġé¢Ħç®Ĺ": 1273,
      "ĠæĦŁ": 1274,
      "Ġè¯ģ": 1275,
      "Ġç¾İåĽ½": 1276,
      "´åĬĽ": 1277,
      "æĥħ": 1278,
      "Ġæłĩ": 1279,
      "Ġè¾¾": 1280,
      "ä»£": 1281,
      "Ġè®¨è®º": 1282,
      "Ġèİ·å¾Ĺ": 1283,
      "Ġåħ¶ä¸Ń": 1284,
      "²ç": 1285,
      "Ġåĩł": 1286,
      "æĸ¯åĿ¦": 1287,
      "Ġéħ": 1288,
      "ĠçĻ": 1289,
      "Ġä¼Ĭ": 1290,
      "Ġå°½": 1291,
      "ä¾ĭ": 1292,
      "è¯ģ": 1293,
      "Ġåľ°åĮº": 1294,
      "ç½Ĺ": 1295,
      "å·±": 1296,
      "çĵ": 1297,
      "¨ģ": 1298,
      "ĠåŁºç": 1299,
      "ç¥": 1300,
      "Ġä»į": 1301,
      "Ġéļ¾": 1302,
      "å·´": 1303,
      "æµĭ": 1304,
      "èĥ": 1305,
      "æŀ¶": 1306,
      "Ġæ¡": 1307,
      "ĠåŁ¹": 1308,
      "ĠæĶ¯åĬ©": 1309,
      "Ġæ°´": 1310,
      "ĠåķĨ": 1311,
      "åħĪ": 1312,
      "è®¤": 1313,
      "Ġå¥½": 1314,
      "Ġå°ıç»Ħ": 1315,
      "éħ": 1316,
      "Ń¦": 1317,
      "éĶ": 1318,
      "ĠåĴ": 1319,
      "Ġè®®ç¨ĭ": 1320,
      "Ġèĩªå·±": 1321,
      "Ġåħħ": 1322,
      "ĠåıĬåħ¶": 1323,
      "Ġé¦ĸ": 1324,
      "åĩ»": 1325,
      "ĠåĨĽ": 1326,
      "Ġç¬¬ä¸Ģ": 1327,
      "å®¤": 1328,
      "å¤į": 1329,
      "Ġå½¢": 1330,
      "è¿Ĳ": 1331,
      "æ®µ": 1332,
      "Ġçĭ": 1333,
      "çĿĢ": 1334,
      "¸æĺĵ": 1335,
      "Ġé©¬": 1336,
      "Ġä½ĵ": 1337,
      "Ġä»£è¡¨åĽ¢": 1338,
      "ĠåįĹ": 1339,
      "Ġç¼ĸ": 1340,
      "åİ»": 1341,
      "Ġå¸Į": 1342,
      "å§ĭ": 1343,
      "Ġè°ĥæŁ¥": 1344,
      "Ġéĩĳ": 1345,
      "Ġç¨ĭåºı": 1346,
      "Ġä¼ł": 1347,
      "¨¡": 1348,
      "Ġæĸ¹æ³ķ": 1349,
      "Ġè¥¿": 1350,
      "åĢĻ": 1351,
      "åĭĴ": 1352,
      "Ġè§Ĥ": 1353,
      "Ġåıĺ": 1354,
      "ĠéĴ": 1355,
      "æĻ": 1356,
      "Ġä¾Ŀ": 1357,
      "ĠæıĲé«ĺ": 1358,
      "ä¾¿": 1359,
      "Ġæ·": 1360,
      "ĠåĩĨ": 1361,
      "Ġå·¥ä½ľäººåĳĺ": 1362,
      "Ġæĺİ": 1363,
      "ĠåŁºç¡Ģ": 1364,
      "ç¼": 1365,
      "éªĮ": 1366,
      "ĠéĽĨ": 1367,
      "Ġä¸¥": 1368,
      "Ġçī¹æ´¾": 1369,
      "Ġä½Ĩæĺ¯": 1370,
      "Ġæĥ³": 1371,
      "Ġä½ľçĶ¨": 1372,
      "è§Ħ": 1373,
      "Ġèĥ½å¤Ł": 1374,
      "Ġä¿®": 1375,
      "Ġä¸Ģé¡¹": 1376,
      "Ġè¡ĮæĶ¿": 1377,
      "ĠèµĦæĸĻ": 1378,
      "çľ": 1379,
      "ä½¿": 1380,
      "Ġè®©": 1381,
      "Ġå¤ĦçĲĨ": 1382,
      "Ĭ¯ç½ª": 1383,
      "ĠçĶ±äºİ": 1384,
      "Ġp": 1385,
      "ĠæŃ£åľ¨": 1386,
      "ĠéĿ¢": 1387,
      "ĠåŁ¹è®Ń": 1388,
      "èĩª": 1389,
      "ĠæĮĩåĩº": 1390,
      "ä»·": 1391,
      "æķĻ": 1392,
      "ĠåĨľ": 1393,
      "Ġä¼ĺ": 1394,
      "Ġä¸ľ": 1395,
      "åĬ¿": 1396,
      "Ĭ¶": 1397,
      "åŀĭ": 1398,
      "ĠçĽ®åīį": 1399,
      "éĹ®": 1400,
      "ĬĤ": 1401,
      "é©¬": 1402,
      "Ġçģ": 1403,
      "Ġåı¦": 1404,
      "ä¸ĢæŃ¥": 1405,
      "Ġæķ°æį®": 1406,
      "Ġåħ¬åı¸": 1407,
      "Ġæµģ": 1408,
      "ĠäºĮ": 1409,
      "åĸ": 1410,
      "Ġç½ĳ": 1411,
      "Ġåıĳè¨Ģ": 1412,
      "åıĺ": 1413,
      "éĤ": 1414,
      "±¡": 1415,
      "Ġè¿Ľä¸ĢæŃ¥": 1416,
      "Ġåİ»": 1417,
      "æı": 1418,
      "ĠèĢħ": 1419,
      "åĽł": 1420,
      "²ģ": 1421,
      "Ġè´¹": 1422,
      "Ġç¾İåħĥ": 1423,
      "Ġçī¹æ´¾åĽ¢": 1424,
      "Ġæĸ¹å¼ı": 1425,
      "Ġå¸Ĥ": 1426,
      "ĠéĩĮ": 1427,
      "Ġè®¸å¤ļ": 1428,
      "Ġåį±": 1429,
      "Ġä»»åĬ¡": 1430,
      "Ġå®ĥä»¬": 1431,
      "Ġå¸¸": 1432,
      "Ġåıĸå¾Ĺ": 1433,
      "ĠåıĤåĬł": 1434,
      "ä¼°": 1435,
      "åĽ´": 1436,
      "Ġä¸Ńå¿ĥ": 1437,
      "éĿŀ": 1438,
      "Ġäººåı£": 1439,
      "Ģä¹Ī": 1440,
      "ĠæĦıè§ģ": 1441,
      "Ġåı¸æ³ķ": 1442,
      "ĠæĿ¡çº¦": 1443,
      "ĠæľºåĪ¶": 1444,
      "Ġæ¡Ī": 1445,
      "Ġä¸ĵå®¶": 1446,
      "è¯¢": 1447,
      "ĠåĨį": 1448,
      "Ġç¨": 1449,
      "Ġèĭ±": 1450,
      "çº³": 1451,
      "è£ħ": 1452,
      "Ġå¼Ģå§ĭ": 1453,
      "ĠåŃĺ": 1454,
      "ĠåĴ¨": 1455,
      "çķĻ": 1456,
      "Ġm": 1457,
      "ĠåĪ¶å®ļ": 1458,
      "ĠçĽ´": 1459,
      "Ġæĳ": 1460,
      "Ġæīĭ": 1461,
      "åĨĽ": 1462,
      "ŀį": 1463,
      "Ł³": 1464,
      "ĠåİŁåĪĻ": 1465,
      "åĪ¤": 1466,
      "Ġi": 1467,
      "åĽĽ": 1468,
      "ĠéĹ´": 1469,
      "Ġè¯´æĺİ": 1470,
      "Ġä¸Ģç§į": 1471,
      "Ġéķ¿": 1472,
      "¾¤": 1473,
      "èį": 1474,
      "Ġç§į": 1475,
      "Ġä»Ĭ": 1476,
      "Ġé»": 1477,
      "çģ": 1478,
      "Ĩæŀ¶": 1479,
      "Ġå¿ħè¦ģ": 1480,
      "åĲ¦": 1481,
      "ä¼´": 1482,
      "æ¶": 1483,
      "Ġä¾Ľ": 1484,
      "Ġä¾ĭ": 1485,
      "Ġl": 1486,
      "ĠåĪĹ": 1487,
      "Ġéĺ²": 1488,
      "è¯´": 1489,
      "ç»Ħç»ĩ": 1490,
      "Ġè¯Ħä¼°": 1491,
      "Ġåĩıå°ĳ": 1492,
      "Ġåıĳå±ķä¸Ń": 1493,
      "Ġåıĳå±ķä¸ŃåĽ½å®¶": 1494,
      "ĠèŃ¦": 1495,
      "ĠæĻ®": 1496,
      "Ġæī©": 1497,
      "Ġéĵ": 1498,
      "Ġåħ±åĲĮ": 1499,
      "Ġåįķ": 1500,
      "ç¡®": 1501,
      "èĦ": 1502,
      "ĠæĹ¶éĹ´": 1503,
      "Ġå®¶åºŃ": 1504,
      "§è§Ĩ": 1505,
      "ĠåĲĦç§į": 1506,
      "Ġç©º": 1507,
      "ĠæŁĲ": 1508,
      "ĠæĸĩåĮĸ": 1509,
      "Ġç¡®å®ļ": 1510,
      "æŀĲ": 1511,
      "å®ĺ": 1512,
      "æĹ¥": 1513,
      "Ġç§ĺä¹¦å¤Ħ": 1514,
      "æĸ¹éĿ¢": 1515,
      "ĠçĶ³": 1516,
      "Ġæ¡Ĩæŀ¶": 1517,
      "éĢł": 1518,
      "Ġå¼ºè°ĥ": 1519,
      "ĠåĲĮæĹ¶": 1520,
      "Ġä¸ļ": 1521,
      "åĪ©äºļ": 1522,
      "æĪĺ": 1523,
      "æİ¥": 1524,
      "an": 1525,
      "è¯Ń": 1526,
      "è¯º": 1527,
      "å¸Ĥ": 1528,
      "åĲĳ": 1529,
      "Ġæ¬§æ´²": 1530,
      "ĠçĽ®çļĦ": 1531,
      "ĠåıĪ": 1532,
      "å°¼äºļ": 1533,
      "å¾·": 1534,
      "çŁ¥": 1535,
      "é£": 1536,
      "Ġå¹³çŃī": 1537,
      "Ġè¿Ľç¨ĭ": 1538,
      "æĶ¾": 1539,
      "Ġç»Ł": 1540,
      "Ļä¼´": 1541,
      "è¿ĳ": 1542,
      "Ġæ®": 1543,
      "ĠåĽ¢": 1544,
      "Ġæ»": 1545,
      "ĠèĻ": 1546,
      "è¯¥": 1547,
      "Ġç±»": 1548,
      "ıŃ": 1549,
      "ĠåĪĽ": 1550,
      "Ġè¡¥": 1551,
      "Ġå¹¿": 1552,
      "ĠçĶ·": 1553,
      "è±¡": 1554,
      "Ġåħ·æľī": 1555,
      "åĵ¥": 1556,
      "ĠçĶŁæ´»": 1557,
      "²çªģ": 1558,
      "ĠçĽĳç": 1559,
      "ĠæłĩåĩĨ": 1560,
      "å®¹": 1561,
      "Ġçĭ¬": 1562,
      "Ġéĥ¨åĪĨ": 1563,
      "Ġæ¬¾": 1564,
      "ĠæĬķèµĦ": 1565,
      "Ġç§»": 1566,
      "Ġä»¥ä¾¿": 1567,
      "çĵ¦": 1568,
      "Ġä¼ļåĳĺ": 1569,
      "Ġå·¥ä½ľç»Ħ": 1570,
      "éĻĲ": 1571,
      "Ġé¼": 1572,
      "ĠåĪ©çĶ¨": 1573,
      "ĮĥåĽ´": 1574,
      "Ġåħ·ä½ĵ": 1575,
      "ĠéĢł": 1576,
      "Ġæ¸ħ": 1577,
      "Ġéĥ¨éĹ¨": 1578,
      "åĬŀ": 1579,
      "ç´ł": 1580,
      "ĠèĢĮä¸Ķ": 1581,
      "ĠåıĳçĶŁ": 1582,
      "ĠåĪĳ": 1583,
      "Ġç¬¬ä¸ī": 1584,
      "è·¯": 1585,
      "ĠèĪ": 1586,
      "ĠæĭŁ": 1587,
      "Ġæ£Ģ": 1588,
      "Ġå»ºè®¾": 1589,
      "ĠåŁºæľ¬": 1590,
      "ĠåħħåĪĨ": 1591,
      "Ġå¼Ģåıĳ": 1592,
      "Ġåħ¨éĿ¢": 1593,
      "ĠçĶŁäº§": 1594,
      "æŀĹ": 1595,
      "è¶³": 1596,
      "Ġè¿Ļæł·": 1597,
      "Ġä¸įåĲĮ": 1598,
      "Ġè´¸æĺĵ": 1599,
      "ĠâĢĶ": 1600,
      "è¾¹": 1601,
      "ĠéĻĲ": 1602,
      "ĠåĪĨæŀĲ": 1603,
      "æŀģ": 1604,
      "Ġè´¹çĶ¨": 1605,
      "Ġè£ģ": 1606,
      "ä¼ļè®®": 1607,
      "ĠæģĲ": 1608,
      "ĳĹ": 1609,
      "Ġæī¹": 1610,
      "åĬ±": 1611,
      "èĪ¬": 1612,
      "Ĥ¨": 1613,
      "åĳ½": 1614,
      "ģä¸ļ": 1615,
      "åĸĦ": 1616,
      "Ġä¸įæĺ¯": 1617,
      "Ġåĸ": 1618,
      "Ġåį°": 1619,
      "åĢ¼": 1620,
      "Ġè´Łè´£": 1621,
      "Ġå¸ĮæľĽ": 1622,
      "ĠçĬ¯ç½ª": 1623,
      "Ġä¼ļåĳĺåĽ½": 1624,
      "ĠåĽĽ": 1625,
      "Ġé«ĺçº§": 1626,
      "ĠæĪĲä¸º": 1627,
      "åħŃ": 1628,
      "Ġä¸ĢèĪ¬": 1629,
      "åŁº": 1630,
      "Ġç»´æĮģ": 1631,
      "ĠçĦ¶": 1632,
      "Ġçº¦": 1633,
      "ĠåĲĦé¡¹": 1634,
      "ĠåĮ»": 1635,
      "ĠåºĶå½ĵ": 1636,
      "äºī": 1637,
      "ĠéĢĤå½ĵ": 1638,
      "er": 1639,
      "Ġä¾µ": 1640,
      "Ġè®°": 1641,
      "ĠæĮīçħ§": 1642,
      "Ġåįł": 1643,
      "Ġç¼Ķçº¦æĸ¹": 1644,
      "Ġå¸®": 1645,
      "éĿ©": 1646,
      "Ġé¼ĵ": 1647,
      "å¤±": 1648,
      "æµģ": 1649,
      "å²": 1650,
      "è¡": 1651,
      "Ġç¦ģ": 1652,
      "Ġç»ĵæŀľ": 1653,
      "Ġäºļ": 1654,
      "ä»ĺ": 1655,
      "Ġå£": 1656,
      "ĠéĻ¤": 1657,
      "ĠåĪ¶åº¦": 1658,
      "Ġçİ°åľ¨": 1659,
      "Ġåľ°æĸ¹": 1660,
      "äºĭå¤Ħ": 1661,
      "Ġè´£": 1662,
      "Ġéļ¾æ°ĳ": 1663,
      "Ġèī¾": 1664,
      "Ġæĺ¯åĲ¦": 1665,
      "ĠæŃ¤å¤ĸ": 1666,
      "Ġå¯¼": 1667,
      "ç«ł": 1668,
      "ä¼Ĺ": 1669,
      "ĠçľŁ": 1670,
      "Ġä¸ºäºĨ": 1671,
      "Ġè§ģ": 1672,
      "Ġæİ¥åıĹ": 1673,
      "Ġæ°Ķ": 1674,
      "çıŃ": 1675,
      "åī": 1676,
      "åįķ": 1677,
      "ĠåĴ¨è¯¢": 1678,
      "Ġç®": 1679,
      "ĠåºĶè¯¥": 1680,
      "é¢Ĩ": 1681,
      "Ġåħ¬åħ±": 1682,
      "å½ķ": 1683,
      "ç»ĵ": 1684,
      "åĦ¿": 1685,
      "Ġç§¯": 1686,
      "Ġåħ³ç³»": 1687,
      "Ġè®¾ç«ĭ": 1688,
      "ĠåŃĺåľ¨": 1689,
      "çĥ": 1690,
      "è®¸": 1691,
      "Ġå¯¹äºİ": 1692,
      "æ°´": 1693,
      "Ġä¸ĩ": 1694,
      "è®°": 1695,
      "Ġæ¶ĪéĻ¤": 1696,
      "ç¦»": 1697,
      "èĲ¥": 1698,
      "Ŀ£": 1699,
      "Ġ*": 1700,
      "ĠéĢłæĪĲ": 1701,
      "æİĴ": 1702,
      "Ġèĥ": 1703,
      "éĴ": 1704,
      "ĠåĬŀäºĭå¤Ħ": 1705,
      "Ġæİ§": 1706,
      "ä¸¾": 1707,
      "æĪ·": 1708,
      "æĸŃ": 1709,
      "ç½®": 1710,
      "Ġæĺ¾": 1711,
      "å¾ħ": 1712,
      "ĠèĮĥåĽ´": 1713,
      "Ġæľºä¼ļ": 1714,
      "Ġå°¤": 1715,
      "Ġä»Ģä¹Ī": 1716,
      "ĠéĶ": 1717,
      "Ġæķ´": 1718,
      "ĠèĩªçĶ±": 1719,
      "éĢļ": 1720,
      "Ġäº§çĶŁ": 1721,
      "Ġé£İ": 1722,
      "Ġä¼Ļä¼´": 1723,
      "æ³¨": 1724,
      "ä¼¯": 1725,
      "ĠåįıåĬ©": 1726,
      "éĺ²": 1727,
      "ĠåĬŀæ³ķ": 1728,
      "ç±": 1729,
      "çĬ¯": 1730,
      "åľŁ": 1731,
      "Ġå®ª": 1732,
      "éĢī": 1733,
      "ĠåıĹåĪ°": 1734,
      "Ġè´£ä»»": 1735,
      "ĠæķĪ": 1736,
      "ĠæľĢåĲİ": 1737,
      "ç§ĳ": 1738,
      "Ġç¥": 1739,
      "Ġä¸¥éĩį": 1740,
      "Ġèµŀ": 1741,
      "ç¢": 1742,
      "Ġæī¿è¯º": 1743,
      "Ġçī©": 1744,
      "Ġå¸¦": 1745,
      "éĽĨ": 1746,
      "Ġå¼ķ": 1747,
      "ĠåĮĹ": 1748,
      "Ġæļ´åĬĽ": 1749,
      "ĠæģĲæĢ": 1750,
      "ĠåĬŀåħ¬": 1751,
      "Ġå¤©": 1752,
      "å¸Ī": 1753,
      "Ġg": 1754,
      "æĭ©": 1755,
      "ĠæĢ§åĪ«": 1756,
      "Ġè¿Ľå±ķ": 1757,
      "ĠèµĦéĩĳ": 1758,
      "Ġé¼ĵåĬ±": 1759,
      "Ġå¹²": 1760,
      "Ġè°Ī": 1761,
      "Ġæ®ĭ": 1762,
      "æĦ¿": 1763,
      "Ġè®®å®ļ": 1764,
      "Ġä»·": 1765,
      "äºĪ": 1766,
      "æ´ĭ": 1767,
      "ç»´": 1768,
      "Ġæ¶ī": 1769,
      "Ġä¸´": 1770,
      "Ġå¡ŀ": 1771,
      "æĴ": 1772,
      "Ġäººéģĵ": 1773,
      "ar": 1774,
      "Ġå¤±": 1775,
      "Ġä¹ī": 1776,
      "èĳĹ": 1777,
      "éĥ¨éĹ¨": 1778,
      "ĭç»": 1779,
      "å¤´": 1780,
      "Ġå¸ĥ": 1781,
      "çĻ": 1782,
      "ĠæĮĳ": 1783,
      "on": 1784,
      "ĠçŃ¹": 1785,
      "ĠæŃ§è§Ĩ": 1786,
      "Ġä¸įèĥ½": 1787,
      "Ġçº³": 1788,
      "Ġæĭī": 1789,
      "Ġæ¬¢": 1790,
      "Ġäººéģĵä¸»ä¹ī": 1791,
      "ĠæģĲæĢĸ": 1792,
      "çº¿": 1793,
      "Ġèº«": 1794,
      "ĠæįĲ": 1795,
      "Ġè´«": 1796,
      "åŃĹ": 1797,
      "Ġéļı": 1798,
      "Ġå¤į": 1799,
      "Ġf": 1800,
      "è¿İ": 1801,
      "ĠåĬ¨": 1802,
      "èº«": 1803,
      "Ġåģļæ³ķ": 1804,
      "Ġå¸®åĬ©": 1805,
      "ä¹ł": 1806,
      "æĶ¶": 1807,
      "æ»ĭ": 1808,
      "åº·": 1809,
      "ĠåıĮ": 1810,
      "æĿŁ": 1811,
      "ç©º": 1812,
      "ĠçĽĳæµĭ": 1813,
      "Ġå¹¶ä¸Ķ": 1814,
      "Ġä¹īåĬ¡": 1815,
      "æ»ĭçĹħ": 1816,
      "ĠåĽ½åĨħ": 1817,
      "æĢģ": 1818,
      "Ġå¸Ĥåľº": 1819,
      "Ġä»¥èī²": 1820,
      "Ġä»¥èī²åĪĹ": 1821,
      "Ġä¸ªäºº": 1822,
      "æŃ¦åĻ¨": 1823,
      "Ġè®®å®ļä¹¦": 1824,
      "Ġç´¢": 1825,
      "Ġé©": 1826,
      "Ġä¼ģä¸ļ": 1827,
      "Ġè¿Ŀ": 1828,
      "ĠèĦ": 1829,
      "Ġèī¾æ»ĭçĹħ": 1830,
      "Ġåģ¥": 1831,
      "ĠçĶ¨äºİ": 1832,
      "ĥı": 1833,
      "Ġh": 1834,
      "å¯Į": 1835,
      "¶è¡Į": 1836,
      "Ġä¸ĢåĪĩ": 1837,
      "Ġè®º": 1838,
      "ç»ľ": 1839,
      "Ġç´§": 1840,
      "è½¦": 1841,
      "Ġæİ§åĪ¶": 1842,
      "Ġå°±æĺ¯": 1843,
      "çĸĹ": 1844,
      "éļ¾": 1845,
      "éĥ¨åĪĨ": 1846,
      "Ġæ³ķéĻ¢": 1847,
      "æŁ": 1848,
      "å¡ŀ": 1849,
      "Ġå°¤åħ¶": 1850,
      "éļľ": 1851,
      "åŃĺ": 1852,
      "Ġä¸Ģæ¬¡": 1853,
      "Ġç§¯æŀģ": 1854,
      "ĠæŃ»": 1855,
      "Ġå®īæİĴ": 1856,
      "Ġç¬¬äºĶ": 1857,
      "ĠèĢģ": 1858,
      "Ġåį«": 1859,
      "or": 1860,
      "ĠæŃ¦": 1861,
      "ĠäºĶ": 1862,
      "ĠæĶ¾": 1863,
      "Ġå½¢å¼ı": 1864,
      "åħ·": 1865,
      "Ġå¦Ĥä½ķ": 1866,
      "Ġæ¶īåıĬ": 1867,
      "åįĹ": 1868,
      "éĢŁ": 1869,
      "Ġä¸ļåĬ¡": 1870,
      "æĥ³": 1871,
      "ĠçŃ¾": 1872,
      "å¤«": 1873,
      "Ġ!": 1874,
      "åıį": 1875,
      "Ġæ¬¢è¿İ": 1876,
      "ĠåĬ³": 1877,
      "è®¡åĪĴ": 1878,
      "ĠéĢĤçĶ¨": 1879,
      "ä¹ĭ": 1880,
      "Ġäºĭé¡¹": 1881,
      "Ġçĭ¬ç«ĭ": 1882,
      "ĠçĬ¶": 1883,
      "Ġå±Ģ": 1884,
      "¦Ĥ": 1885,
      "æ¯Ĵ": 1886,
      "æ°Ķ": 1887,
      "Ġå®ŀéĻħ": 1888,
      "Ġçĸ": 1889,
      "Ġæī¹åĩĨ": 1890,
      "ĠçŁ¥éģĵ": 1891,
      "Ġä»¥ä¸ĭ": 1892,
      "ĠæĿ¡ä»¶": 1893,
      "Ġå¤ª": 1894,
      "Ġç¼º": 1895,
      "ç¾İåħĥ": 1896,
      "ĠæĶ¹éĿ©": 1897,
      "Ġæĭħ": 1898,
      "å¹²": 1899,
      "åĽ¾": 1900,
      "ĠåĬŀåħ¬å®¤": 1901,
      "å®ī": 1902,
      "ĠåĲĹ": 1903,
      "ĠåĨ²çªģ": 1904,
      "Ġæ¨¡": 1905,
      "Ġç²¾": 1906,
      "Ġä½ı": 1907,
      "Ġè¿ĩç¨ĭ": 1908,
      "é¦": 1909,
      "Ġæĸ¯": 1910,
      "Ġç¬¬åįģ": 1911,
      "Ġç¨³": 1912,
      "ĠæĹ¥èĩ³": 1913,
      "Ġr": 1914,
      "ĠæĮĳæĪĺ": 1915,
      "Ġå°½ç®¡": 1916,
      "æ®": 1917,
      "ĠåŁİ": 1918,
      "Ġéĥ¨éĺŁ": 1919,
      "Ġéģµ": 1920,
      "Ġå£°": 1921,
      "Ġäººä»¬": 1922,
      "ĠæĪĸèĢħ": 1923,
      "Ġç§ģ": 1924,
      "Ġå¾·": 1925,
      "Ġå·´åĭĴ": 1926,
      "ĠéĢīä¸¾": 1927,
      "Ġå®ĮæĪĲ": 1928,
      "Ġå°ĳ": 1929,
      "èŀį": 1930,
      "Ġä¾ĭå¦Ĥ": 1931,
      "å¨ģ": 1932,
      "Ġä¸¤ä¸ª": 1933,
      "Ġå®ĺ": 1934,
      "Ġç®Ģ": 1935,
      "å®Ī": 1936,
      "Ġç»¼": 1937,
      "Ġçķ": 1938,
      "ç§°": 1939,
      "çĸ¾": 1940,
      "Ġçĥ": 1941,
      "Ġå·´åĭĴæĸ¯åĿ¦": 1942,
      "ç´¢": 1943,
      "Ġç«ĭæ³ķ": 1944,
      "å¿µ": 1945,
      "ĭç»į": 1946,
      "Ġå±¥": 1947,
      "Ġè¿Ļæĸ¹éĿ¢": 1948,
      "æĮ¥": 1949,
      "æ¯Ķäºļ": 1950,
      "æĭīä¼¯": 1951,
      "Ġä»ĭç»į": 1952,
      "åĪĳ": 1953,
      "ĠæİĴ": 1954,
      "å¾Ģ": 1955,
      "å»º": 1956,
      "Ġå¿ĥ": 1957,
      "ĠåĪĳäºĭ": 1958,
      "Ġè¶ħ": 1959,
      "Ġæ¦Ĥ": 1960,
      "çĪ": 1961,
      "Ġt": 1962,
      "ĠéĤ£äºĽ": 1963,
      "é¡¾": 1964,
      "ĠéĻĦä»¶": 1965,
      "Ġä¼ĺåħĪ": 1966,
      "Ġæ·±": 1967,
      "Ġåģ¥åº·": 1968,
      "ĠæŃ¦åĻ¨": 1969,
      "Ġåįıå®ļ": 1970,
      "ĠéĿŀå¸¸": 1971,
      "èĭ": 1972,
      "Ġ[": 1973,
      "Ġæīį": 1974,
      "Ġè®¤è¯Ĩ": 1975,
      "ĠåĮĸ": 1976,
      "ĠåįıåķĨ": 1977,
      "Ġä¸´æĹ¶": 1978,
      "Ġåĳĺ": 1979,
      "Ġç½ª": 1980,
      "èģĮ": 1981,
      "Ġå¢ŀéķ¿": 1982,
      "in": 1983,
      "ĠéĿŀæĶ¿åºľ": 1984,
      "æķ´": 1985,
      "å±ŀ": 1986,
      "¦ı": 1987,
      "ĠéĩĩçĶ¨": 1988,
      "éĤ¦": 1989,
      "ĠæĪĲæŀľ": 1990,
      "åįĪ": 1991,
      "ĠåĪ©çĽĬ": 1992,
      "éĽ·": 1993,
      "Ġä¹ĭåĲİ": 1994,
      "Ġä½İ": 1995,
      "Ġåħ³åĪĩ": 1996,
      "ĠåĨĽäºĭ": 1997,
      "ĠéĿĴ": 1998,
      "Ġå±¥è¡Į": 1999,
      "Ġå°¼": 2000,
      "ĠæįŁ": 2001,
      "ĠçĽ´æİ¥": 2002,
      "å±Ĥ": 2003,
      "Ġç§ĳåŃ¦": 2004,
      "æł¡": 2005,
      "Ġéĩĳèŀį": 2006,
      "çĽ´": 2007,
      "Ġåĩºçİ°": 2008,
      "åħ³ç³»": 2009,
      "Ġæ²»": 2010,
      "ĠåĪĻ": 2011,
      "çĶ³": 2012,
      "èĦĳ": 2013,
      "Ġæ³¢": 2014,
      "Ġç¬¬åĽĽ": 2015,
      "æīĭ": 2016,
      "ĠçŁ": 2017,
      "Ġè§Ĥå¯Ł": 2018,
      "ĠæĶ¹åĸĦ": 2019,
      "Ġåĳ¼": 2020,
      "Ġç¨³å®ļ": 2021,
      "Ġç»¼åĲĪ": 2022,
      "Ġè¾ĥ": 2023,
      "Ġè§ĦåĪĴ": 2024,
      "èĬĤ": 2025,
      "Ġæŀģ": 2026,
      "Ġé¢Ĩå¯¼": 2027,
      "Ġè®²": 2028,
      "Ġå®Ĺ": 2029,
      "Ġä»¬": 2030,
      "al": 2031,
      "Ġè´¢æĶ¿": 2032,
      "Ġä»įçĦ¶": 2033,
      "ç¨": 2034,
      "ĠèĻ½": 2035,
      "ĠçĽĳçĿ£": 2036,
      "Ġåħĭ": 2037,
      "ĠæĬ¥åĳĬåĳĺ": 2038,
      "Ġç¤¾åĮº": 2039,
      "éĵ": 2040,
      "Ġåħ³æ³¨": 2041,
      "æľª": 2042,
      "ĠåĲ¬": 2043,
      "Ġ]": 2044,
      "Ġèĭı": 2045,
      "Ġç§įæĹı": 2046,
      "ĠæĺŁ": 2047,
      "¡Ķ": 2048,
      "ĠçĪ±": 2049,
      "çĮ": 2050,
      "é£Ł": 2051,
      "Ġæ»¡": 2052,
      "ĠåľŁèĳĹ": 2053,
      "Ġå¨ģ": 2054,
      "ĠéĴĪ": 2055,
      "»¶": 2056,
      "æķ£": 2057,
      "ĠæĹłæ³ķ": 2058,
      "Ġå®¡è®¡": 2059,
      "Ġä¹ĭåīį": 2060,
      "ĠæŃ¦è£ħ": 2061,
      "Ġäº«": 2062,
      "ä¹İ": 2063,
      "éĹ»": 2064,
      "ĠéĩįçĶ³": 2065,
      "ä½İ": 2066,
      "Ġå½ĵå±Ģ": 2067,
      "åĬŁ": 2068,
      "è£ģ": 2069,
      "Ġè§Ĩ": 2070,
      "Ġè¯Ħä»·": 2071,
      "Ġç¦ģæŃ¢": 2072,
      "Ġä¸¤å¹´": 2073,
      "ĠéĻĲåĪ¶": 2074,
      "Ġæ¡Īä»¶": 2075,
      "ĠèŃ¦å¯Ł": 2076,
      "Ġæ®ĭçĸ¾": 2077,
      "Ġç»ĵæŀĦ": 2078,
      "Ġé£İéĻ©": 2079,
      "åħį": 2080,
      "éħį": 2081,
      "Ġçİ°æľī": 2082,
      "en": 2083,
      "Ġéĺ²æŃ¢": 2084,
      "Ġç¬¬åħŃ": 2085,
      "Ġè¡¨æĺİ": 2086,
      "ĠåİŁåĽł": 2087,
      "èİ": 2088,
      "Ġåį°åº¦": 2089,
      "Ġåį¡": 2090,
      "åģ¥": 2091,
      "Ġä¹Į": 2092,
      "ĠåıĹå®³": 2093,
      "ĠåĽ½éĻħæ³ķ": 2094,
      "çīĻ": 2095,
      "èģĶçĽŁ": 2096,
      "Ġå·®": 2097,
      "Ġåħ¬æ°ĳ": 2098,
      "Ġç»ıè´¹": 2099,
      "ç¢į": 2100,
      "ĳŀ": 2101,
      "Ġé¢ĨåľŁ": 2102,
      "Ġè¿Ļé¡¹": 2103,
      "Ġè½½": 2104,
      "ĠéĴĪå¯¹": 2105,
      "Ġè´¢åĬ¡": 2106,
      "Ġåĳ¼åĲ": 2107,
      "Ġä»¥æĿ¥": 2108,
      "ĠæĴ": 2109,
      "å²Ľ": 2110,
      "æ³Ľ": 2111,
      "Ġè¶Ĭ": 2112,
      "ĠæĮĩå¯¼": 2113,
      "ä¼ł": 2114,
      "Ġé¢Ħéĺ²": 2115,
      "ç¥¨": 2116,
      "Ġåħ¨åĽ½": 2117,
      "Ġéĺ¿æĭīä¼¯": 2118,
      "æĢ¥": 2119,
      "ä»¤": 2120,
      "çł": 2121,
      "æĶ¯": 2122,
      "åĨĻ": 2123,
      "Ġå°Ĭ": 2124,
      "ĠæľĢè¿ĳ": 2125,
      "Ġè¯Ń": 2126,
      "äºĮ": 2127,
      "çĲĨä¼ļ": 2128,
      "ĠçĤ": 2129,
      "Ġè´©": 2130,
      "ĠéģŃ": 2131,
      "ĠèĻ½çĦ¶": 2132,
      "Ġç¾¤": 2133,
      "Ġæīĵåĩ»": 2134,
      "ĠæģĲæĢĸä¸»ä¹ī": 2135,
      "ĠåĪĿ": 2136,
      "Ġåįĥ": 2137,
      "Ġä¾¿": 2138,
      "ĠæĹ¶åĢĻ": 2139,
      "æĽ": 2140,
      "Ġå¥¥": 2141,
      "Ġå®īçĲĨä¼ļ": 2142,
      "ĲæĸĻ": 2143,
      "ĠæŀĦ": 2144,
      "çĶµ": 2145,
      "Ġç»ĦæĪĲ": 2146,
      "ĠæĹħ": 2147,
      "ç½Ĺæĸ¯": 2148,
      "Ġn": 2149,
      "æĭīåħĭ": 2150,
      "ĠåŁĥ": 2151,
      "æĭħ": 2152,
      "Ġå¹¿æ³Ľ": 2153,
      "éģį": 2154,
      "Ġèµ°": 2155,
      "ĠçĦ¶èĢĮ": 2156,
      "Ġä¸Ģä»½": 2157,
      "Ġåĳ¨": 2158,
      "æľºæŀĦ": 2159,
      "é»": 2160,
      "ĠéľĢæ±Ĥ": 2161,
      "ä¸´": 2162,
      "Ġä»¤": 2163,
      "åĿĽ": 2164,
      "Ġèĭ¥": 2165,
      "æĦŁ": 2166,
      "ä¸¹": 2167,
      "Ġéģĵ": 2168,
      "ĠçĻ»": 2169,
      "ä»ħ": 2170,
      "Ġè¿ĩåİ»": 2171,
      "åģ¿": 2172,
      "ĠåĨħå®¹": 2173,
      "Ġæĸ°éĹ»": 2174,
      "åĽŀ": 2175,
      "Ġä¸ĵéĹ¨": 2176,
      "è¿ª": 2177,
      "Ġä¸ĢçĽ´": 2178,
      "ĠæŁ¥": 2179,
      "Ħç½Ĺæĸ¯": 2180,
      "Ġåıĳè¾¾": 2181,
      "Ġåį«çĶŁ": 2182,
      "Ġç»Łè®¡": 2183,
      "Ġè¯·æ±Ĥ": 2184,
      "Ġåıĳçİ°": 2185,
      "Ġåľ°ä½į": 2186,
      "å°ı": 2187,
      "åħ»": 2188,
      "æµ·": 2189,
      "Ġäººç±»": 2190,
      "Ġéĩįæĸ°": 2191,
      "Ġå¯¼èĩ´": 2192,
      "Ġæİ¨åĬ¨": 2193,
      "Ġä¼°": 2194,
      "ĠéĿŀæ³ķ": 2195,
      "Ġä¿Ŀéļľ": 2196,
      "Ġäºī": 2197,
      "éĶ®": 2198,
      "¦åĲĪ": 2199,
      "ĠèĬ": 2200,
      "ĠäºĨè§£": 2201,
      "ĠåĪļ": 2202,
      "Ġæ°ĳä¸»": 2203,
      "ä¹ħ": 2204,
      "æľĪ": 2205,
      "ĠçĶ³è¯·": 2206,
      "ĠåĽ¾": 2207,
      "ĠåĲĮæĦı": 2208,
      "ĠçĬ¶åĨµ": 2209,
      "Ġè´§": 2210,
      "Ġä¼Ĭæĭīåħĭ": 2211,
      "Ġå°±ä¸ļ": 2212,
      "æŁĵ": 2213,
      "Ġåĳ¼åĲģ": 2214,
      "Ġéķ¿æľŁ": 2215,
      "ĠæŁĲäºĽ": 2216,
      "Ġå¹´åº¦": 2217,
      "Ġè¿ĳ": 2218,
      "Ġåī¯": 2219,
      "ĠæĶ¶åĪ°": 2220,
      "Ġä¸įä¼ļ": 2221,
      "Ġæį®": 2222,
      "ĠåŁİå¸Ĥ": 2223,
      "ĠæĺŁæľŁ": 2224,
      "Ġå±ħ": 2225,
      "ĠåıĳæĮ¥": 2226,
      "ĠåĿĩ": 2227,
      "Ġè°ĪåĪ¤": 2228,
      "Ġå¢ĥ": 2229,
      "é©": 2230,
      "è®¨": 2231,
      "èĥģ": 2232,
      "éĩĬ": 2233,
      "Ġå®£è¨Ģ": 2234,
      "æīĺ": 2235,
      "æ£": 2236,
      "Ġå¯¹è¯Ŀ": 2237,
      "è¯ķ": 2238,
      "æĻ¯": 2239,
      "ĠæĻ®éģį": 2240,
      "Ġåħ³éĶ®": 2241,
      "ĠåĽłç´ł": 2242,
      "ĠéĢīæĭ©": 2243,
      "Ġçº³åħ¥": 2244,
      "Ġç»ıéªĮ": 2245,
      "Ġæĺİç¡®": 2246,
      "Ġè¯ķ": 2247,
      "åĶ": 2248,
      "Ġå®Įåħ¨": 2249,
      "ĠåĪ¶è®¢": 2250,
      "Ġw": 2251,
      "Ġåģľ": 2252,
      "Ġå®ļæľŁ": 2253,
      "ç³»ç»Ł": 2254,
      "ç¬": 2255,
      "Ġè®ºåĿĽ": 2256,
      "ĠèĲ½": 2257,
      "¶æ®µ": 2258,
      "ĠåĨħéĥ¨": 2259,
      "Ġç¦»": 2260,
      "Ġæł¼": 2261,
      "Ġåį´": 2262,
      "un": 2263,
      "è§Ĥ": 2264,
      "Ġè¿Ŀåıį": 2265,
      "Ġæī¿è®¤": 2266,
      "Ġæī©å¤§": 2267,
      "ĠæĢ»ç»Ł": 2268,
      "å¿«": 2269,
      "ĠéĽĨåĽ¢": 2270,
      "çĮ®": 2271,
      "Ġç»ĵæĿŁ": 2272,
      "Ġä¿Ŀè¯ģ": 2273,
      "Ġad": 2274,
      "é²ģ": 2275,
      "Ġäº§åĵģ": 2276,
      "åį«": 2277,
      "Ġæĭ¥": 2278,
      "Ġç½ĳç»ľ": 2279,
      "ĠèĬĤ": 2280,
      "Ġåı¤": 2281,
      "ĠèģĶç³»": 2282,
      "Ġç¬¦åĲĪ": 2283,
      "ĠåľŁåľ°": 2284,
      "Ġè´¨": 2285,
      "Ġè¿Ļæĺ¯": 2286,
      "ĠçŁ¥è¯Ĩ": 2287,
      "ç«Ļ": 2288,
      "Ġä¿ĿæĮģ": 2289,
      "Ġç½Ĺ": 2290,
      "äº¡": 2291,
      "Ġè§ĦåĪĻ": 2292,
      "Ġç²®": 2293,
      "Ġå¯Ĩ": 2294,
      "ĠéĿ¢ä¸´": 2295,
      "Ġé£ŀ": 2296,
      "åı°": 2297,
      "æİ§": 2298,
      "Ġäº¿": 2299,
      "Ġåİħ": 2300,
      "Ġç»ĵè®º": 2301,
      "æ¨¡": 2302,
      "Ġè¿ŀ": 2303,
      "æİªæĸ½": 2304,
      "æĴŃ": 2305,
      "ĠæĿĲæĸĻ": 2306,
      "Ġä¸Ĭè¿°": 2307,
      "Ġä¸ĭåĪĹ": 2308,
      "ĠåĢ¡": 2309,
      "Ġéģµå®Ī": 2310,
      "åºķ": 2311,
      "at": 2312,
      "æ´Ľ": 2313,
      "Ġç«ŀ": 2314,
      "Ġåĳĺé¢Ŀ": 2315,
      "Ġå®¹": 2316,
      "ä¸ĵ": 2317,
      "ç±³": 2318,
      "©ļ": 2319,
      "ĠæĿ¡æ¬¾": 2320,
      "ĠåĿļ": 2321,
      "æļ": 2322,
      "ĠåĪ¤": 2323,
      "é¾": 2324,
      "ĠåĩĨå¤ĩ": 2325,
      "ĠæĽ¾": 2326,
      "Ġä¸ĵä¸ļ": 2327,
      "ä¸ĥ": 2328,
      "Ġè¯¥åĽ½": 2329,
      "Ġç»ıå¸¸": 2330,
      "Ġéĩįå¤§": 2331,
      "Ġç§°": 2332,
      "Ġè®¾è®¡": 2333,
      "Ġè®°å½ķ": 2334,
      "Ġæĭĺ": 2335,
      "Ġåıªæľī": 2336,
      "Ġä¸įæĸŃ": 2337,
      "ç»Ĩ": 2338,
      "Ġæİ¢": 2339,
      "è°Ī": 2340,
      "ç¾¤": 2341,
      "ĠçŃĶ": 2342,
      "Ġæ°ĶåĢĻ": 2343,
      "ĠåĬłåħ¥": 2344,
      "ĠåĢº": 2345,
      "ĠæĤ¨": 2346,
      "ĠæĪĲåĬŁ": 2347,
      "Ġk": 2348,
      "ĠæĹ¥æľ¬": 2349,
      "ĠæĿ¥èĩª": 2350,
      "Ġä»İèĢĮ": 2351,
      "Ġæ¾": 2352,
      "Ġåįıè®®": 2353,
      "ĠæĹ©": 2354,
      "Ġä¹¦": 2355,
      "Ġä¾µçĬ¯": 2356,
      "ĠèĩªçĦ¶": 2357,
      "Ġè£ħ": 2358,
      "Ġè¾¹": 2359,
      "ç¥ŀ": 2360,
      "ä¸ľ": 2361,
      "å§Ķåĳĺä¼ļ": 2362,
      "ĠèĤ¡": 2363,
      "ĠåħŃ": 2364,
      "ĠæĦŁåĪ°": 2365,
      "Ġæ³ķåºŃ": 2366,
      "Ġè¿ĲåĬ¨": 2367,
      "è´Ń": 2368,
      "Ġæī¾": 2369,
      "ä¸ĸ": 2370,
      "Ġæķ´ä¸ª": 2371,
      "Ġå¨ģèĥģ": 2372,
      "Ġå½ĵåľ°": 2373,
      "Ġåıĳè¾¾åĽ½å®¶": 2374,
      "è¶Ĭ": 2375,
      "Ġå¯»": 2376,
      "çīĩ": 2377,
      "åł": 2378,
      "èħ": 2379,
      "ĠéĩįçĤ¹": 2380,
      "ç½ĳ": 2381,
      "èµĦæºĲ": 2382,
      "¢å¤į": 2383,
      "å¼ł": 2384,
      "æĺŁ": 2385,
      "Ġé£Ł": 2386,
      "ĠæĶ¶åħ¥": 2387,
      "ĠæĪ¿": 2388,
      "ĠæŃ£å¼ı": 2389,
      "Ġæ¼": 2390,
      "ç»Ļ": 2391,
      "Ġç©ºéĹ´": 2392,
      "Ġé»ĳ": 2393,
      "Ġè£ģåĨĽ": 2394,
      "Ġå±ŀ": 2395,
      "Ġadd": 2396,
      "æĿĳ": 2397,
      "Ġä»·åĢ¼": 2398,
      "ĠæĪĲåĳĺåĽ½": 2399,
      "ä¹Ŀ": 2400,
      "Ġç¡®è®¤": 2401,
      "Ġæģ¢å¤į": 2402,
      "as": 2403,
      "ĠåĳĬ": 2404,
      "åħ´": 2405,
      "Ġè®¡ç®Ĺ": 2406,
      "ĠäºĴ": 2407,
      "æ¼": 2408,
      "æĭ¿": 2409,
      "ä½ı": 2410,
      "Ġåħį": 2411,
      "Ġå®ªæ³ķ": 2412,
      "Ġå®ĹæķĻ": 2413,
      "ĠæİĪ": 2414,
      "Ġäºĭä»¶": 2415,
      "ç½ļ": 2416,
      "ĠçĻ»è®°": 2417,
      "è½½": 2418,
      "ĠæįĲåĬ©": 2419,
      "Ġçł´": 2420,
      "Ġè¯¦": 2421,
      "Ġä¼Ļä¼´åħ³ç³»": 2422,
      "Ġäºĭå®ŀ": 2423,
      "Ġåıįå¯¹": 2424,
      "ĠæĽ´åĬł": 2425,
      "ä¹Ĳ": 2426,
      "ĠåºĶçĶ¨": 2427,
      "æĪ¿": 2428,
      "ĠæĪĳåĽ½": 2429,
      "ĠéĽĩ": 2430,
      "Ġå¤ĸåĽ½": 2431,
      "è¾ĵ": 2432,
      "Ġæĭ¥æľī": 2433,
      "è°¢": 2434,
      "Ġç¨ĭåº¦": 2435,
      "ĠåºĶå¯¹": 2436,
      "å½¢": 2437,
      "èĮĥ": 2438,
      "Ġä¹ĭä¸Ģ": 2439,
      "ĠæĦ¿": 2440,
      "ĠæĲ": 2441,
      "èį¯": 2442,
      "ĠåŃ¦æł¡": 2443,
      "Ġå»¶": 2444,
      "Ġä¸Ģæł·": 2445,
      "Ġå²ģ": 2446,
      "Ġä¼°è®¡": 2447,
      "åĬ©äºİ": 2448,
      "ĠæĤ": 2449,
      "ĠçĶµåŃĲ": 2450,
      "Ġè®¢": 2451,
      "æľĹ": 2452,
      "es": 2453,
      "ī´": 2454,
      "Ġä½łä»¬": 2455,
      "Ġè§£éĩĬ": 2456,
      "ĠåĲĪåĲĮ": 2457,
      "Ġç£": 2458,
      "Ġæ¯Ĵ": 2459,
      "æ¸¯": 2460,
      "Ġè¿ĺæĺ¯": 2461,
      "Ġæµ·æ´ĭ": 2462,
      "ĠéĢı": 2463,
      "Ġèį¯": 2464,
      "ĠæĶ¹è¿Ľ": 2465,
      "åĨĮ": 2466,
      "Ġåįĥå¹´": 2467,
      "Ġçªģ": 2468,
      "Ġçĳŀ": 2469,
      "æ¥": 2470,
      "æİª": 2471,
      "Ġè¯¾": 2472,
      "æ²¹": 2473,
      "¡çĮ®": 2474,
      "Ġæķĳ": 2475,
      "æ¡": 2476,
      "Ġå°ļ": 2477,
      "æ¸¡": 2478,
      "ĠåĽŀé¡¾": 2479,
      "ĠåıĺåĮĸ": 2480,
      "ĠæĹ¨": 2481,
      "çĽ¸": 2482,
      "Ġæľ¬åĽ½": 2483,
      "Ġè®¿": 2484,
      "Ġéĵ¶è¡Į": 2485,
      "åŃ©": 2486,
      "äºĶ": 2487,
      "Ġå¤ĸäº¤": 2488,
      "ĠåİĨ": 2489,
      "åºĵ": 2490,
      "Ġæ¯ıä¸ª": 2491,
      "Ġåľ£": 2492,
      "Ġè¾¾åĪ°": 2493,
      "ĠåŁºäºİ": 2494,
      "åĳ¨": 2495,
      "ĠæĹ¨åľ¨": 2496,
      "ĠåĲĮæł·": 2497,
      "ä¹ı": 2498,
      "Ġé¢ĺ": 2499,
      "è¡ĮåĬ¨": 2500,
      "Ġå¿«": 2501,
      "Ġå°Ĭéĩį": 2502,
      "Ġç¼ĸåĨĻ": 2503,
      "ĠéĻį": 2504,
      "ĠåĬĽ": 2505,
      "çİĭ": 2506,
      "ĠåĲ¸": 2507,
      "Ġå·¥ç¨ĭ": 2508,
      "¿Ģ": 2509,
      "Ġåĥı": 2510,
      "ĠåĽ°": 2511,
      "Ġå¢ĥåĨħ": 2512,
      "Ġæ±ĩ": 2513,
      "äºĴ": 2514,
      "Ġå§Ķ": 2515,
      "Ġä¿ĿçķĻ": 2516,
      "Ġä¿Ħç½Ĺæĸ¯": 2517,
      "Ġåģļåĩº": 2518,
      "ĠæľīåĬ©äºİ": 2519,
      "Ġè¿ĺæľī": 2520,
      "ĠåĩĨåĪĻ": 2521,
      "Ġåĵª": 2522,
      "Ġç»ĻäºĪ": 2523,
      "Ġä¸Ģèĩ´": 2524,
      "å±ħ": 2525,
      "ĠçĶŁçī©": 2526,
      "Ġéħį": 2527,
      "ĠèĲ¥": 2528,
      "Ġå±ķ": 2529,
      "Ġç¾¤ä½ĵ": 2530,
      "Ġè¶³": 2531,
      "ĠæľªæĿ¥": 2532,
      "Ġçħ§": 2533,
      "ĠéĿŀæŃ£": 2534,
      "Ġè´©è¿Ĳ": 2535,
      "Ġå¥³å£«": 2536,
      "ĠåĨľä¸ļ": 2537,
      "Ġä»ħ": 2538,
      "åħħ": 2539,
      "åį¡": 2540,
      "æĳ": 2541,
      "ĠåĵĪ": 2542,
      "äº²": 2543,
      "Ġåħ¥": 2544,
      "Ġåį±éĻ©": 2545,
      "Ġä¸Ģèµ·": 2546,
      "è¥¿äºļ": 2547,
      "æ»¡": 2548,
      "ªĴ": 2549,
      "Ġè·¨": 2550,
      "Ġè®¾æĸ½": 2551,
      "è½»": 2552,
      "Ġæ³ķå®ĺ": 2553,
      "Ġæ½": 2554,
      "Ġçº²": 2555,
      "ĠåĢ¡è®®": 2556,
      "Ġo": 2557,
      "ĠæīĢè¿°": 2558,
      "Ġéģ¿": 2559,
      "ĠåĬ³åĬ¨": 2560,
      "Ġå¤§åŃ¦": 2561,
      "Ġå®£ä¼ł": 2562,
      "çĬ¶": 2563,
      "Ġå¸¦æĿ¥": 2564,
      "å¤ª": 2565,
      "Ġæ´¾": 2566,
      "ĠæŀĦæĪĲ": 2567,
      "ç»Ŀ": 2568,
      "Ġæ°ĳéĹ´": 2569,
      "æıĲ": 2570,
      "Ġå®ŀä½ĵ": 2571,
      "Ġè¾¾æĪĲ": 2572,
      "ä¼¤": 2573,
      "ĠåŃ¦çĶŁ": 2574,
      "åĶ®": 2575,
      "Ġè®¾å¤ĩ": 2576,
      "Ġé¥": 2577,
      "Ġä»¤äºº": 2578,
      "æľį": 2579,
      "Ġåı¬": 2580,
      "å¯Ĩ": 2581,
      "æĺł": 2582,
      "ĠåĶ": 2583,
      "åı²": 2584,
      "ĠæŃ¥": 2585,
      "Ġé¦Ļ": 2586,
      "çīĪ": 2587,
      "å°Ħ": 2588,
      "Ġæĺ¾ç¤º": 2589,
      "Ġä¸¾åĬŀ": 2590,
      "Ġj": 2591,
      "æĶ¹": 2592,
      "è¡Įä¸º": 2593,
      "Ġä¿Ŀåģ¥": 2594,
      "ç©·": 2595,
      "åĿı": 2596,
      "Ġäººæķ°": 2597,
      "ĠéĿĴå¹´": 2598,
      "ĠèĴ": 2599,
      "åįĩ": 2600,
      "Ġç®¡åĪ¶": 2601,
      "Ġä¸įè¿ĩ": 2602,
      "åĿĩ": 2603,
      "ĠåĪĩ": 2604,
      "Ġæĳ©": 2605,
      "Ġèĭıä¸¹": 2606,
      "æĹł": 2607,
      "ĠåıĹå®³èĢħ": 2608,
      "Ġåı£": 2609,
      "Ġç´§æĢ¥": 2610,
      "ĠåĪ«": 2611,
      "Ġä¸įå¾Ĺ": 2612,
      "Ġå¾Īå¤ļ": 2613,
      "ĠæŃ»äº¡": 2614,
      "ĠèĲ½å®ŀ": 2615,
      "åĽ°": 2616,
      "Ġåĩºåı£": 2617,
      "Ġç¦ı": 2618,
      "Ġè½¦": 2619,
      "ĠæĭĺçķĻ": 2620,
      "Ġä¸ĢåĲį": 2621,
      "ĠæĶ¯ä»ĺ": 2622,
      "ĠéĢļçŁ¥": 2623,
      "Ġå§": 2624,
      "is": 2625,
      "ç¤¾": 2626,
      "ĠçĥŃ": 2627,
      "ç«¯": 2628,
      "Ġè¿Ľåħ¥": 2629,
      "å§Ĩ": 2630,
      "Ġä¼łç»Ł": 2631,
      "Ġéº": 2632,
      "ĠåĮ»çĸĹ": 2633,
      "Ġç»Ĩ": 2634,
      "è´¥": 2635,
      "Ġå·¥ä¸ļ": 2636,
      "Ġä¸»ç®¡": 2637,
      "Ġç¼ºä¹ı": 2638,
      "å¸¦": 2639,
      "ĠèĥĮ": 2640,
      "éľ": 2641,
      "ĠæĶ¹åıĺ": 2642,
      "Ġåį¢": 2643,
      "ĠæĿ¡ä¾ĭ": 2644,
      "åıĭ": 2645,
      "Ġç»Ī": 2646,
      "è¿ľ": 2647,
      "Ġè¾©": 2648,
      "Ġè®¿éĹ®": 2649,
      "è¿«": 2650,
      "ĠåĪĹåħ¥": 2651,
      "çĸĳ": 2652,
      "Ġçİ°è±¡": 2653,
      "ĠæĮĩæłĩ": 2654,
      "éģĩ": 2655,
      "Ġæ°ĳæĹı": 2656,
      "ä»Ĭ": 2657,
      "Ġéħ·": 2658,
      "æħ": 2659,
      "Ġå±ĢåĬ¿": 2660,
      "ĠçĽ¸äºĴ": 2661,
      "æł¹": 2662,
      "åĵĪ": 2663,
      "Ġäº«æľī": 2664,
      "è®©": 2665,
      "Ġç²®é£Ł": 2666,
      "æį¢": 2667,
      "Ġåĸľ": 2668,
      "åı·": 2669,
      "Ġä½į": 2670,
      "ĠçĪ¶": 2671,
      "ĠåķĨä¸ļ": 2672,
      "ç»ĥ": 2673,
      "Ġå®ĺåĳĺ": 2674,
      "Ġä¸įåı¯": 2675,
      "Ġå·¥åħ·": 2676,
      "Ġæ°´å¹³": 2677,
      "å§Ķ": 2678,
      "Ġæł¸æŃ¦åĻ¨": 2679,
      "å«": 2680,
      "Ġç«ŀäºī": 2681,
      "ģè®¸": 2682,
      "è®¾æĸ½": 2683,
      "Ġè´«ç©·": 2684,
      "æ·": 2685,
      "Ġåıįæĺł": 2686,
      "Ġéĥ¨éķ¿": 2687,
      "Ġè¯ģæĺİ": 2688,
      "ĠçĹħ": 2689,
      "ĠèĲ¨": 2690,
      "Ġä»Ĭå¤©": 2691,
      "Ġå¾Ģ": 2692,
      "åħ«": 2693,
      "Ġæ»¡è¶³": 2694,
      "ĠæľĢé«ĺ": 2695,
      "®æŀĹ": 2696,
      "åĲī": 2697,
      "Ġä»¥ä¸Ĭ": 2698,
      "Ġèŀį": 2699,
      "Ġæĸĩä¹¦": 2700,
      "Ġå¤ļè¾¹": 2701,
      "Ġéħ·åĪĳ": 2702,
      "ĠåĲİç»Ń": 2703,
      "ĠçŃ¾ç½²": 2704,
      "ĠæľĢå¤§": 2705,
      "ĠåŃ©": 2706,
      "Ġå®¢": 2707,
      "ç²": 2708,
      "ĠåĨľæĿĳ": 2709,
      "çľĭ": 2710,
      "Ġåħģè®¸": 2711,
      "Ġéĺ¶æ®µ": 2712,
      "ĠæľīäºĽ": 2713,
      "ĠåĪĽéĢł": 2714,
      "Ġå®£å¸ĥ": 2715,
      "Ġè°ĥæķ´": 2716,
      "ĠçĻ½": 2717,
      "ĠèµĦäº§": 2718,
      "ĠæĢİ": 2719,
      "Ġèĭ¥å¹²": 2720,
      "Ġåĵ¥": 2721,
      "ĠæİĪæĿĥ": 2722,
      "Ġè¡¥åħħ": 2723,
      "åĲĪä½ľ": 2724,
      "ĠæıĲè®®": 2725,
      "Ġè¶ħè¿ĩ": 2726,
      "Ġå¥³æĢ§": 2727,
      "ĠåºŁ": 2728,
      "Ġåī¥": 2729,
      "ĠåŃ©åŃĲ": 2730,
      "ĠæĪĲç«ĭ": 2731,
      "Ġè¯ī": 2732,
      "ĠæıĲåĪ°": 2733,
      "Ġå°ĳæķ°": 2734,
      "ĠåĮĸåŃ¦": 2735,
      "ĠçľĭåĪ°": 2736,
      "å¼±": 2737,
      "Ġè¿½": 2738,
      "Ġæķ°éĩı": 2739,
      "Ġéī´": 2740,
      "Ġæīĭæ®µ": 2741,
      "Ġåį±æľº": 2742,
      "Ġé¡¾": 2743,
      "é¾Ħ": 2744,
      "Ġå®ŀè¡Į": 2745,
      "Ġè·Ł": 2746,
      "èµĶ": 2747,
      "am": 2748,
      "å¤ļæķ°": 2749,
      "æ±Ĺ": 2750,
      "Ġçº½": 2751,
      "åħļ": 2752,
      "ĠéĤ£ä¹Ī": 2753,
      "Ġæ£ĢæŁ¥": 2754,
      "æ¬¢": 2755,
      "Ġè¡ĮåĬ¨è®¡åĪĴ": 2756,
      "Ġå¤§éĩı": 2757,
      "Ġä¿®è®¢": 2758,
      "æĤ": 2759,
      "çºª": 2760,
      "Ġèī¾æ»ĭçĹħæ¯Ĵ": 2761,
      "æĿĥåĪ©": 2762,
      "Ġè´¨éĩı": 2763,
      "ĠéĢĢ": 2764,
      "ĠæĿĥåĬĽ": 2765,
      "Ġç»´æĬ¤": 2766,
      "æĮĩ": 2767,
      "Ġä¸ĢçĤ¹": 2768,
      "é©»": 2769,
      "Ġåįıä¼ļ": 2770,
      "ĠéĶĢ": 2771,
      "ĠåĪĨéħį": 2772,
      "Ġæ³ķåĽ½": 2773,
      "èĢĥ": 2774,
      "Ġé¦ĸèĦĳ": 2775,
      "Ġä¸ĭåįĪ": 2776,
      "èµĽ": 2777,
      "ä¼¼": 2778,
      "Ġç²¾ç¥ŀ": 2779,
      "ĠäººåĬĽ": 2780,
      "Ġèĭ±è¯Ń": 2781,
      "æł¸": 2782,
      "åħ¸": 2783,
      "el": 2784,
      "Ġä¸ºæŃ¤": 2785,
      "ĠçĶļ": 2786,
      "Ġäºļæ´²": 2787,
      "ĠåŁºéĩĳä¼ļ": 2788,
      "åħī": 2789,
      "Ġä¾ĽåºĶ": 2790,
      "ä¼¦": 2791,
      "é¢Ħ": 2792,
      "Ġå¾ģ": 2793,
      "èĲ¨": 2794,
      "Ġéª": 2795,
      "å¸ģ": 2796,
      "Ġç§ģèĲ¥": 2797,
      "ĠçĲĨçĶ±": 2798,
      "ĠåĬłæĭ¿": 2799,
      "ĠåĬłæĭ¿å¤§": 2800,
      "Ġæ¾³": 2801,
      "ĠèģĮä¸ļ": 2802,
      "ĠåİĨåı²": 2803,
      "Ġæ£®æŀĹ": 2804,
      "Ġæµĭ": 2805,
      "Ġéĩĩè´Ń": 2806,
      "Ġéĺ¿å¯Į": 2807,
      "ĠéĿŀæŃ£å¼ı": 2808,
      "åĳ³": 2809,
      "Ġéĺ¿å¯Įæ±Ĺ": 2810,
      "Ġç¼ĸåĪ¶": 2811,
      "Ġæ®ĭçĸ¾äºº": 2812,
      "ç»Ī": 2813,
      "ĠçŁŃ": 2814,
      "ä½³": 2815,
      "Ġåľ¨åĨħ": 2816,
      "ĠçĤ¹": 2817,
      "ĠåĲĦæĸ¹": 2818,
      "Ġç§»æ°ĳ": 2819,
      "Ġäº¤æµģ": 2820,
      "Ġè´¢äº§": 2821,
      "åħ¬åı¸": 2822,
      "Ġç½²": 2823,
      "Ġåħ¨ä½ĵ": 2824,
      "æ°ĳä¸»": 2825,
      "Ġå£°æĺİ": 2826,
      "éĨ": 2827,
      "å¡Ķ": 2828,
      "ĠåĨ³çŃĸ": 2829,
      "Ġéĺ»": 2830,
      "åĭ¤": 2831,
      "ĠåĪļæŀľ": 2832,
      "Ġåģĩ": 2833,
      "Ġæī©æķ£": 2834,
      "Ġè·¯": 2835,
      "åıĺåĮĸ": 2836,
      "è¸": 2837,
      "ĠèģĮèĥ½": 2838,
      "é¦Ĩ": 2839,
      "Ġåıĳè¡¨": 2840,
      "Ġèī¯": 2841,
      "æ®Ĭ": 2842,
      "Ġå®ŀè´¨": 2843,
      "çĭ": 2844,
      "èĢ³": 2845,
      "Ġä¸įä»ħ": 2846,
      "Ġèĥ½æºĲ": 2847,
      "ĠåŃ¦ä¹ł": 2848,
      "Ġèĳ": 2849,
      "çİ¯": 2850,
      "Ġèĸ": 2851,
      "Ġåĳ¢": 2852,
      "Ġåħ»": 2853,
      "Ġä¼¼": 2854,
      "Ġä¸Ģéĥ¨åĪĨ": 2855,
      "ĠçĶ³è¯ī": 2856,
      "ĠèµĶ": 2857,
      "åįİ": 2858,
      "ä¿ĥ": 2859,
      "Ġé»İ": 2860,
      "è¾ĥ": 2861,
      "ĠçĦ¶åĲİ": 2862,
      "æ²Ļ": 2863,
      "Ġçī¹æ®Ĭ": 2864,
      "ĠæĭŁè®®": 2865,
      "Ġä¸»ä»»": 2866,
      "Ġç´¢èµĶ": 2867,
      "è¡¡": 2868,
      "ĠæĶ¯åĩº": 2869,
      "Ġåıªæĺ¯": 2870,
      "é¡¿": 2871,
      "Ġè®Ń": 2872,
      "Ġé©»": 2873,
      "ic": 2874,
      "å¾Ļ": 2875,
      "Ġè¯ģæį®": 2876,
      "Ġè´¡çĮ®": 2877,
      "ĠèĪª": 2878,
      "ä¸ģ": 2879,
      "Ġèµ·æĿ¥": 2880,
      "Ġç¬¬äºĮåįģ": 2881,
      "éĩĮäºļ": 2882,
      "ĠéģĹ": 2883,
      "éº": 2884,
      "ĠæıĲæ¡Ī": 2885,
      "Ġæ¯Ĵåĵģ": 2886,
      "Ġåİĭ": 2887,
      "éĶĢ": 2888,
      "ĠåįģåĪĨ": 2889,
      "ĠæīĢä»¥": 2890,
      "å£°": 2891,
      "ĠæĢ»éĥ¨": 2892,
      "ĠæĶ¶éĽĨ": 2893,
      "Ġè¿Ĳè¾ĵ": 2894,
      "Ġçº½çº¦": 2895,
      "æĸ¯åħ°": 2896,
      "Ġå±Ĭ": 2897,
      "Ġæ½ľ": 2898,
      "Ġåľ°çĤ¹": 2899,
      "Ġå¤ĩ": 2900,
      "ç±į": 2901,
      "ç¼ĸ": 2902,
      "Ġéĩįè¦ģæĢ§": 2903,
      "Ġæķ¦": 2904,
      "ĠèĩªæĦ¿": 2905,
      "ĠéĢĲ": 2906,
      "å«©": 2907,
      "ĠæĭŁè®¢": 2908,
      "ä½Ļ": 2909,
      "çĽĸ": 2910,
      "Ġå¢ŀå¼º": 2911,
      "ĠèµĶåģ¿": 2912,
      "ĠåĨįæ¬¡": 2913,
      "Ġä»ĬåĲİ": 2914,
      "ĠçĻ¾": 2915,
      "Ġåįķä½į": 2916,
      "è½¬": 2917,
      "ĠåĢºåĬ¡": 2918,
      "ĠéĢļå¸¸": 2919,
      "Ġè´«åĽ°": 2920,
      "åĨħçĵ¦": 2921,
      "è¯į": 2922,
      "Ġå¯ĨåĪĩ": 2923,
      "Ġå¦Ĥä¸ĭ": 2924,
      "Ġæ¯ıå¹´": 2925,
      "ĠåĬłä»¥": 2926,
      "Ġè§Ĥå¯Łåĳĺ": 2927,
      "ç®¡çĲĨ": 2928,
      "ĠåĽ°éļ¾": 2929,
      "Ġåı¦å¤ĸ": 2930,
      "Ġæ²»çĸĹ": 2931,
      "å±±": 2932,
      "Ġun": 2933,
      "Ġå°ļæľª": 2934,
      "å»": 2935,
      "Ġä¿®æŃ£": 2936,
      "Ġç¥ŀ": 2937,
      "åĥı": 2938,
      "Ġæł¸å¿ĥ": 2939,
      "Ġä¸Ģå®ļ": 2940,
      "Ġçģ¾": 2941,
      "Ġé¢ĺä¸º": 2942,
      "Ġæī¿æĭħ": 2943,
      "Ġå¾ħ": 2944,
      "Ġäº¤æĺĵ": 2945,
      "ĠæĽ´å¥½": 2946,
      "Ġä¸ĩç¾İåħĥ": 2947,
      "ªĴä½ĵ": 2948,
      "éĵ¶è¡Į": 2949,
      "å¾Ħ": 2950,
      "å·´å«©": 2951,
      "éª¤": 2952,
      "ĠæĿ¥è¯´": 2953,
      "Ġé»İå·´å«©": 2954,
      "ĠèĤ¯": 2955,
      "æ¸¸": 2956,
      "ä¼Ĭ": 2957,
      "ĠæĪª": 2958,
      "ĠæĿĢ": 2959,
      "Ġå¾·åĽ½": 2960,
      "Ġå±ŀäºİ": 2961,
      "ĠæľĢç»Ī": 2962,
      "Ġé¦Ļæ¸¯": 2963,
      "çĹ": 2964,
      "Ġè¯¦ç»Ĩ": 2965,
      "Ġæ°ĶåĢĻåıĺåĮĸ": 2966,
      "Ġçº²é¢Ĩ": 2967,
      "ĠéĢıæĺİ": 2968,
      "æĺ¾": 2969,
      "Ġç§»å¾Ļ": 2970,
      "Ġå®ªç«ł": 2971,
      "Ġåįłé¢Ĩ": 2972,
      "ĠèģĶçĽŁ": 2973,
      "ĠçŃĶå¤į": 2974,
      "æķĳ": 2975,
      "ĠæĿ¥æºĲ": 2976,
      "ĠåĤ¨": 2977,
      "Ġä»İäºĭ": 2978,
      "Ġé¢Ŀ": 2979,
      "Ġåħ¬å¹³": 2980,
      "Ġæķ¦ä¿ĥ": 2981,
      "ĠçŁ³": 2982,
      "ĠæľīéĻĲ": 2983,
      "Ġèħ": 2984,
      "Ġä¸īä¸ª": 2985,
      "å°Ĩ": 2986,
      "Ġè®®ä¼ļ": 2987,
      "çĪ±": 2988,
      "ĠåĽ¢ä½ĵ": 2989,
      "éĥ¨éĺŁ": 2990,
      "ĠçŃ¹å¤ĩ": 2991,
      "Ġç»Łä¸Ģ": 2992,
      "æ¶ī": 2993,
      "åį³": 2994,
      "ĠåĲ§": 2995,
      "Ġä¾Ŀçħ§": 2996,
      "é»İ": 2997,
      "è¸ª": 2998,
      "Ġå·¨": 2999,
      "Ġæ¨¡å¼ı": 3000,
      "Ġå¤§å¤ļæķ°": 3001,
      "Ġæĭħä»»": 3002,
      "éĻį": 3003,
      "äº¬": 3004,
      "ĠéĢļä¿¡": 3005,
      "Ġæº": 3006,
      "Ġé¦ĸèĦĳä¼ļè®®": 3007,
      "Ġæ¯Ľ": 3008,
      "è®¼": 3009,
      "Ġæ¯Ķè¾ĥ": 3010,
      "Ġè¯¾ç¨ĭ": 3011,
      "ç»©": 3012,
      "Ġè§Ĵ": 3013,
      "Ġéĺ¿å°Ķ": 3014,
      "Ġå¸¸é©»": 3015,
      "Ġç½ªè¡Į": 3016,
      "Ġåĭ": 3017,
      "Ġä¸ĵé¢ĺ": 3018,
      "ĠèĬ±": 3019,
      "Ġå¾®": 3020,
      "Ġè¿ħ": 3021,
      "Ġäº¿ç¾İåħĥ": 3022,
      "ĠæĹ¢": 3023,
      "çŁ": 3024,
      "Ġä¹°": 3025,
      "æĿĤ": 3026,
      "Ġä»·æł¼": 3027,
      "Ġä¼¤": 3028,
      "Ġè¿ľ": 3029,
      "Ġæ¶Īè´¹": 3030,
      "ĠåĬ©": 3031,
      "éļĨ": 3032,
      "Ġæ²Ļ": 3033,
      "Ġéī´äºİ": 3034,
      "ĠåĩºçīĪ": 3035,
      "Ġæ¯į": 3036,
      "Ġä»ĺ": 3037,
      "å®ĥ": 3038,
      "Ġåħ¬å¼Ģ": 3039,
      "Ġä¼ĬæľĹ": 3040,
      "ĠåĳĬè¯ī": 3041,
      "å·ŀ": 3042,
      "Ġçģ«": 3043,
      "ļ®": 3044,
      "Ġéģ¿åħį": 3045,
      "èģĶéĤ¦": 3046,
      "ĠæŃ¥éª¤": 3047,
      "ĠçĶŁåĳ½": 3048,
      "éĩįè¦ģ": 3049,
      "Ġå¯»æ±Ĥ": 3050,
      "Ġæľīäºº": 3051,
      "Ġåı¤å·´": 3052,
      "Ġåĸľæ¬¢": 3053,
      "ĠæĭĴ": 3054,
      "ĠäºĪ": 3055,
      "ç§»": 3056,
      "åħµ": 3057,
      "ç»´äºļ": 3058,
      "Ġåħ¶å®ĥ": 3059,
      "Ġä¸įè¦ģ": 3060,
      "ĠåĲ«": 3061,
      "Ġåı¬å¼Ģ": 3062,
      "Ġåįļ": 3063,
      "Ġå¤ļæł·": 3064,
      "è§ī": 3065,
      "è´´": 3066,
      "è¾ĸ": 3067,
      "ĠèĴĻ": 3068,
      "æ¢": 3069,
      "ĠåŁºç¡Ģè®¾æĸ½": 3070,
      "èĬ": 3071,
      "ĠæļĤ": 3072,
      "ç¨İ": 3073,
      "ä¸ĵåĳĺ": 3074,
      "Ġå¾ĭ": 3075,
      "Ġèĩ³å°ĳ": 3076,
      "æ¯į": 3077,
      "ĠèģĶéĤ¦": 3078,
      "Ġè¿ħéĢŁ": 3079,
      "ĠæľĢä½³": 3080,
      "Ġæµģç¦»": 3081,
      "ĠèĪ¹": 3082,
      "Ġèĭ±åĽ½": 3083,
      "Ġèº«ä»½": 3084,
      "Ġåħ¬ä¼Ĺ": 3085,
      "å¤±æīĢ": 3086,
      "Ġè¶ĭ": 3087,
      "éĥ½": 3088,
      "ĠåķĨå®ļ": 3089,
      "è´¸æĺĵ": 3090,
      "Ġæĸ½": 3091,
      "Ġä»¥åīį": 3092,
      "Ġæ¬§æ´²èģĶçĽŁ": 3093,
      "Ġä¸Ģä½į": 3094,
      "Ġé«ĺçº§ä¸ĵåĳĺ": 3095,
      "Ġæµģç¦»å¤±æīĢ": 3096,
      "Ġå¼ķèµ·": 3097,
      "Ġä¸»é¢ĺ": 3098,
      "çģ¾": 3099,
      "éŁ³": 3100,
      "è®¯": 3101,
      "Ġä½ĵåĪ¶": 3102,
      "å¼ķ": 3103,
      "çŃĳ": 3104,
      "ĠèĢĮè¨Ģ": 3105,
      "ĠåĢŁ": 3106,
      "èįī": 3107,
      "ĠæĢĿ": 3108,
      "Ġå¥¹ä»¬": 3109,
      "Ġè¶ĬæĿ¥": 3110,
      "ç¿": 3111,
      "Ġè¶ĬæĿ¥è¶Ĭ": 3112,
      "Ġä¼łæĴŃ": 3113,
      "¸åıĳ": 3114,
      "çİĭåĽ½": 3115,
      "it": 3116,
      "ĠçĶļèĩ³": 3117,
      "ĠæľĿ": 3118,
      "ĠæĦıä¹ī": 3119,
      "Ġè¿ĩæ¸¡": 3120,
      "ĠæľīåĪ©": 3121,
      "éĿł": 3122,
      "ä¸ĩ": 3123,
      "Ġæł¸åĩĨ": 3124,
      "è®¡åĪĴç½²": 3125,
      "Ġå¢¨": 3126,
      "èĲ½": 3127,
      "Ġè¿Ĳä½ľ": 3128,
      "Ġç»Ŀ": 3129,
      "Ġèı": 3130,
      "ĠåŃĲ": 3131,
      "Ġæĵ": 3132,
      "å¸Ŀ": 3133,
      "ĠæĹ¥åĨħçĵ¦": 3134,
      "Ġæ··": 3135,
      "Ġç¢": 3136,
      "Ġä»»åĳ½": 3137,
      "Ġæ£Ģå¯Ł": 3138,
      "ĻåĪ©äºļ": 3139,
      "å¦ĩ": 3140,
      "éľĢ": 3141,
      "ĠäºĪä»¥": 3142,
      "Ġè§ĤçĤ¹": 3143,
      "ĠæŃ¤ç±»": 3144,
      "Ġéĥ¨ç½²": 3145,
      "Ġæ¯Ķä¾ĭ": 3146,
      "ĠæįŁå¤±": 3147,
      "ĠåĲĥ": 3148,
      "Ġè®Ńç»ĥ": 3149,
      "Ġæ¿Ģ": 3150,
      "Ġè½»": 3151,
      "ĠéĤĢ": 3152,
      "Ġä¸İä¼ļ": 3153,
      "çģ«": 3154,
      "ĠçķĻ": 3155,
      "ed": 3156,
      "ĠåĲĦä¸ª": 3157,
      "Ġå²": 3158,
      "Ġåħī": 3159,
      "çĻ½": 3160,
      "äººæ°ĳ": 3161,
      "Ġè¥¿çıŃ": 3162,
      "Ġè¥¿çıŃçīĻ": 3163,
      "çľŁ": 3164,
      "ç¾İæ´²": 3165,
      "çĻ¾": 3166,
      "Ġåľº": 3167,
      "æ¶Ī": 3168,
      "Ġæ¦Ĥå¿µ": 3169,
      "ĠæĪĺäºī": 3170,
      "ĠæĬµ": 3171,
      "èµı": 3172,
      "ĠæľīæĿĥ": 3173,
      "ĠæĪĲæľ¬": 3174,
      "ĠåĲī": 3175,
      "è´§": 3176,
      "Ġä¸Ģå¹´": 3177,
      "Ġä¸Ģçº§": 3178,
      "Ġè´Ń": 3179,
      "²ľ": 3180,
      "Ġæ¸©": 3181,
      "Ġè´¸åıĳ": 3182,
      "çĥĪ": 3183,
      "Ġè¯Ńè¨Ģ": 3184,
      "åĩı": 3185,
      "¤į": 3186,
      "Ġé¢ĦæľŁ": 3187,
      "Ġæ¢": 3188,
      "ĠåªĴä½ĵ": 3189,
      "ĠçĽ¸ä¿¡": 3190,
      "Ġè¡¨çİ°": 3191,
      "çľģ": 3192,
      "å¼Ĥ": 3193,
      "æĬĢæľ¯": 3194,
      "è¿Ķ": 3195,
      "Ġå¹³æ°ĳ": 3196,
      "ĠéĤĢè¯·": 3197,
      "åİĨ": 3198,
      "æ®ĸ": 3199,
      "Ġæĥ©": 3200,
      "å¤§åĪ©äºļ": 3201,
      "ç¼º": 3202,
      "Ġåĩłä¸ª": 3203,
      "Ġä½ıæĪ¿": 3204,
      "éĢģ": 3205,
      "Ġä¼¼ä¹İ": 3206,
      "ä¹°": 3207,
      "ĠåıĮæĸ¹": 3208,
      "Ġèī¯å¥½": 3209,
      "Ġæ°¸": 3210,
      "äº«": 3211,
      "ĠæĢ§è´¨": 3212,
      "ĠæĬĢ": 3213,
      "éĢĶ": 3214,
      "è¶£": 3215,
      "Ġåĩºå¸Ń": 3216,
      "ĠåĽ½æ°ĳ": 3217,
      "ĠçľŁæŃ£": 3218,
      "ĠéģŃåıĹ": 3219,
      "Ġè¨Ģ": 3220,
      "Ġæ¾³å¤§åĪ©äºļ": 3221,
      "Ġæ±¡": 3222,
      "éģ£": 3223,
      "Ġç¨İ": 3224,
      "Ġé¦ĸåħĪ": 3225,
      "Ġä¸¾æİª": 3226,
      "ĠåİĦ": 3227,
      "ĠæĻº": 3228,
      "Ġç£ĭ": 3229,
      "Ġçł´åĿı": 3230,
      "ĠåĪĨåĪ«": 3231,
      "ĠæĴ¤": 3232,
      "å©ļ": 3233,
      "Ġç£ĭåķĨ": 3234,
      "èı": 3235,
      "Ġé¢Ħè®¡": 3236,
      "å¼¹": 3237,
      "Ġæ¸¸": 3238,
      "Ġå¾ĭå¸Ī": 3239,
      "ĠåıĬæĹ¶": 3240,
      "Ġå¦ĤæŃ¤": 3241,
      "Ġå¤´": 3242,
      "å¥Ĺ": 3243,
      "Ġä¸¤æĢ§": 3244,
      "éĴ±": 3245,
      "ĠèģĮä½į": 3246,
      "Ġx": 3247,
      "çĵľ": 3248,
      "ĠæĮĩæİ§": 3249,
      "ĠçĮ": 3250,
      "ĠçĲĨè§£": 3251,
      "Ġæīįèĥ½": 3252,
      "Ġv": 3253,
      "ĠéĻ¤äºĨ": 3254,
      "Ġåħ¬æŃ£": 3255,
      "Ġin": 3256,
      "è¥¿åĵ¥": 3257,
      "Ġå»ºçŃĳ": 3258,
      "ĭåıĭ": 3259,
      "Ġå®ļä¹ī": 3260,
      "il": 3261,
      "æĹ¦": 3262,
      "ĠæĦŁè°¢": 3263,
      "æĬĢ": 3264,
      "ĠæĽ¿": 3265,
      "ĠçļĦè¯Ŀ": 3266,
      "ĠåĲĪæ³ķ": 3267,
      "Ġçº§": 3268,
      "Ġèĩ´": 3269,
      "å®¢": 3270,
      "æķĻèĤ²": 3271,
      "Ġå¢¨è¥¿åĵ¥": 3272,
      "åįı": 3273,
      "è§¦": 3274,
      "Ġèµ·è¯ī": 3275,
      "åĽŃ": 3276,
      "æ¸ħ": 3277,
      "Ġè®²ä¹ł": 3278,
      "Ġæ¼Ķ": 3279,
      "ĩĥ": 3280,
      "Ġçº¢": 3281,
      "Ġçĵ": 3282,
      "Ġèį¯çī©": 3283,
      "éķ": 3284,
      "ä»İ": 3285,
      "ĠåĨĻ": 3286,
      "Ġè´Ŀ": 3287,
      "åħ¬çº¦": 3288,
      "Ġå¡Ķ": 3289,
      "ur": 3290,
      "åİŁ": 3291,
      "ĠéĻįä½İ": 3292,
      "åįĸ": 3293,
      "Ġå®ŀè´¨æĢ§": 3294,
      "Ġä¸ľè¥¿": 3295,
      "ĠçĶ·å¥³": 3296,
      "å¿į": 3297,
      "é£İ": 3298,
      "Ġå¹³åĿĩ": 3299,
      "Ġçºª": 3300,
      "±¼": 3301,
      "å¤®": 3302,
      "ĠèģĶåĲĪçİĭåĽ½": 3303,
      "ĠæĦ¿æĦı": 3304,
      "Ġèĩ´åĬĽ": 3305,
      "Ġç«ĭåį³": 3306,
      "ĠåĪ¶éĢł": 3307,
      "åĨ²çªģ": 3308,
      "å°±": 3309,
      "Ġè¡Įä½¿": 3310,
      "Ġä¸įè¶³": 3311,
      "Ġè¾©è®º": 3312,
      "ad": 3313,
      "Ġè´¦": 3314,
      "Ġè¶ĭåĬ¿": 3315,
      "Ġå·¥äºº": 3316,
      "Ġå½ĵåīį": 3317,
      "Ġä¾Ŀæį®": 3318,
      "ä»Ģä¹Ī": 3319,
      "æĢĿ": 3320,
      "è¢": 3321,
      "æįķ": 3322,
      "ĠèĥĮæĻ¯": 3323,
      "å¿Ĺ": 3324,
      "ĠåĢ¼": 3325,
      "æı´": 3326,
      "Ġç½ĳç«Ļ": 3327,
      "è¯ĳ": 3328,
      "Ġå·´è¥¿": 3329,
      "Ġå®¡åĪ¤": 3330,
      "Ġä¸ĥ": 3331,
      "Ġç±»ä¼¼": 3332,
      "ĠæįŁå®³": 3333,
      "Ġåıĳåĩº": 3334,
      "Ġåįģå¹´": 3335,
      "ĠéĢģ": 3336,
      "ĠèµĦåĬ©": 3337,
      "Ġal": 3338,
      "ĠçķĮ": 3339,
      "éŁ": 3340,
      "ĠçĶŁæķĪ": 3341,
      "åľ°åĮº": 3342,
      "Ġæģ¶": 3343,
      "ĠæįĲæ¬¾": 3344,
      "ĠæĹ¥æľŁ": 3345,
      "Ġèį·": 3346,
      "ĠåĲ¯": 3347,
      "åĪĿ": 3348,
      "Ġå¤įæĿĤ": 3349,
      "æļ´åĬĽ": 3350,
      "è¯¯": 3351,
      "Ġå¼Ģåıĳç½²": 3352,
      "Ġå±Ĥ": 3353,
      "ç¦ı": 3354,
      "Ġ'": 3355,
      "Ġco": 3356,
      "Ġè¿ĻéĩĮ": 3357,
      "éº¦": 3358,
      "Ġä»½": 3359,
      "ĠæľīæīĢ": 3360,
      "å½±": 3361,
      "ĠåĲĦçº§": 3362,
      "éĻĨ": 3363,
      "Ġéļľ": 3364,
      "èĴ": 3365,
      "ĠæĭĴç»Ŀ": 3366,
      "Ġçĸ¾": 3367,
      "åĨį": 3368,
      "Ġæķ°åŃĹ": 3369,
      "Ġæ¯«": 3370,
      "åĮħ": 3371,
      "Ġéļľç¢į": 3372,
      "Ġçľģ": 3373,
      "Ġä¸Ĭè¯ī": 3374,
      "ĠçĹ": 3375,
      "çģŃ": 3376,
      "Ġç¿": 3377,
      "ĠåĬłåĭĴ": 3378,
      "Ġæĺİæĺ¾": 3379,
      "åĪ»": 3380,
      "è§Ħæ¨¡": 3381,
      "ĠéĤ£ä¸ª": 3382,
      "ĠçĪĨ": 3383,
      "æ²ĥ": 3384,
      "Ġæ¸ħåįķ": 3385,
      "ĠåĬłåĭĴæ¯Ķ": 3386,
      "ĠåĽ½éĻħåħ¬çº¦": 3387,
      "Ġå½¢æĪĲ": 3388,
      "Ġåĩłä¹İ": 3389,
      "ä¸Ģèĩ´": 3390,
      "Ġé«ĺçº§åĪ«": 3391,
      "æĹº": 3392,
      "é©¬éĩĮ": 3393,
      "ĠæĮĩå®ļ": 3394,
      "Ġåħ¨éĥ¨": 3395,
      "ĠæĢĢ": 3396,
      "æ°ĳä¸»åħ±åĴĮåĽ½": 3397,
      "åįĬ": 3398,
      "éĤ£": 3399,
      "Ġç´¢é©¬éĩĮ": 3400,
      "Ġäºĭæĥħ": 3401,
      "ĠâĢĻ": 3402,
      "Ġåħ±åĴĮåĽ½": 3403,
      "Ġä¸ĭéĻį": 3404,
      "ĠæĭĽ": 3405,
      "¤¼": 3406,
      "çŁ³": 3407,
      "Ġåħ«": 3408,
      "Ġçī¹å®ļ": 3409,
      "Ġä¸ĢèĪ¬æĢ§": 3410,
      "Ġçľ¼": 3411,
      "ĠéĢĤåºĶ": 3412,
      "Ġå¥³åŃ©": 3413,
      "Ġèĸª": 3414,
      "Ġä½ĵç³»": 3415,
      "Ĺı": 3416,
      "ĠçĽ¸å½ĵ": 3417,
      "Ġæİ¢è®¨": 3418,
      "Ġè®²ä¹łçıŃ": 3419,
      "ĠéĤ£æł·": 3420,
      "Ġå¾Īå¤§": 3421,
      "ĠåķĨåĵģ": 3422,
      "Ġçĸ¾çĹħ": 3423,
      "ĠæķĪçİĩ": 3424,
      "Ġéĩĩåıĸè¡ĮåĬ¨": 3425,
      "ĠåĲĪçĲĨ": 3426,
      "ä¸ĸçķĮ": 3427,
      "æĿ¿": 3428,
      "Ġçī©è´¨": 3429,
      "æĢ»": 3430,
      "ĠåľŁèĢ³": 3431,
      "æ³ķéĻ¢": 3432,
      "Ġç®¡è¾ĸ": 3433,
      "ĠåıįåºĶ": 3434,
      "ĠåľŁèĢ³åħ¶": 3435,
      "Ġåķ": 3436,
      "åī§": 3437,
      "Ġçİĩ": 3438,
      "ç³»åĪĹ": 3439,
      "Ġæī¾åĪ°": 3440,
      "Ġor": 3441,
      "Ġå¿ĥçĲĨ": 3442,
      "ĠéļıçĿĢ": 3443,
      "Ġä¸Ģç³»åĪĹ": 3444,
      "ĠæľĢæĸ°": 3445,
      "å¨": 3446,
      "Ĳå¾ħ": 3447,
      "æ£®": 3448,
      "æ¹": 3449,
      "ĠéĶĻ": 3450,
      "Ġé¡¾éĹ®": 3451,
      "Ġç±": 3452,
      "Ġä¸ĵå®¶ç»Ħ": 3453,
      "ä¹Ł": 3454,
      "Ġä¸Ńå¤®": 3455,
      "æĽ¼": 3456,
      "Ġä¸İä¼ļèĢħ": 3457,
      "é¥": 3458,
      "Ġå¼¹": 3459,
      "ĠæĹ¥çĽĬ": 3460,
      "Ġæ´¥": 3461,
      "åħĭæĸ¯åĿ¦": 3462,
      "ĠæĢİä¹Ī": 3463,
      "ĠæĦıåĳ³": 3464,
      "Ġèİ«": 3465,
      "Ġå¹²äºĭ": 3466,
      "ĠèĢ¶": 3467,
      "åĢº": 3468,
      "Ġå±ħæ°ĳ": 3469,
      "åĽº": 3470,
      "æŃ§è§Ĩ": 3471,
      "å·²": 3472,
      "Ġä¿®æĶ¹": 3473,
      "Ġä»»æĭ©": 3474,
      "å¹³æ´ĭ": 3475,
      "Ġè¶³å¤Ł": 3476,
      "Ġè¿Ļæ¬¡": 3477,
      "è¾Ĩ": 3478,
      "ĠæĬĹ": 3479,
      "Ġæľ¬èº«": 3480,
      "Ġé©±": 3481,
      "å¤º": 3482,
      "å¢ŀ": 3483,
      "Ġæİ¥è§¦": 3484,
      "æĬ¼": 3485,
      "Ġèĩ´åĬĽäºİ": 3486,
      "Ġæķ°é¢Ŀ": 3487,
      "Ġå·¨å¤§": 3488,
      "Ġèµŀèµı": 3489,
      "Ġä¾¿åĪ©": 3490,
      "Ġç§ģèĲ¥éĥ¨éĹ¨": 3491,
      "Ġé¢Ĩå¯¼äºº": 3492,
      "Ġå®¹æĺĵ": 3493,
      "åīĤ": 3494,
      "Ġçİ°ä»£": 3495,
      "å¾ģ": 3496,
      "Ġä¾µå®³": 3497,
      "Ġèĩ³åħ³": 3498,
      "Ġä¼ļè®¡": 3499,
      "Ġçģµ": 3500,
      "Ġåį¢æĹº": 3501,
      "Ġå·´åŁº": 3502,
      "Ġåį¢æĹºè¾¾": 3503,
      "ĠéĹ¨": 3504,
      "èĮ": 3505,
      "Ĳè´¥": 3506,
      "ĠæµģåĬ¨": 3507,
      "è¿Ł": 3508,
      "Ġéľ": 3509,
      "ĠæĹłè®º": 3510,
      "ĠæĬ¤": 3511,
      "Ġå·´åŁºæĸ¯åĿ¦": 3512,
      "ĠåĢĻ": 3513,
      "Ġæ¬§çĽŁ": 3514,
      "å¤§åĪ©": 3515,
      "ĠæŃ¤ç§į": 3516,
      "Ġå¾Ģå¾Ģ": 3517,
      "Ġè§Ĩä¸º": 3518,
      "Ġé¢ģ": 3519,
      "Ġè¯Ħè®º": 3520,
      "é²ľ": 3521,
      "Ġä¸ĵåĳĺ": 3522,
      "Ġæ³°": 3523,
      "Ġæħ": 3524,
      "å¹ħ": 3525,
      "Ġä»Ĭå¹´": 3526,
      "ĠäººæĿĥå§Ķåĳĺä¼ļ": 3527,
      "Ġæľĭåıĭ": 3528,
      "Ġç»ıè¿ĩ": 3529,
      "ĠåįĹéĿŀ": 3530,
      "Ġä¿Ħç½Ĺæĸ¯èģĶéĤ¦": 3531,
      "å»·": 3532,
      "ĠçłĶè®¨": 3533,
      "Ġéĩįè§Ĩ": 3534,
      "Ġèĩ³åħ³éĩįè¦ģ": 3535,
      "Ġæľºåħ³": 3536,
      "Ġå½Ĵ": 3537,
      "çłģ": 3538,
      "Ġå±±": 3539,
      "Ġç¤º": 3540,
      "ĠæĦıå¤§åĪ©": 3541,
      "æī¬": 3542,
      "å¼ĥ": 3543,
      "Ġä¸ĬåįĪ": 3544,
      "Ġä¿ĿéĻ©": 3545,
      "Ġå¤Ħäºİ": 3546,
      "ĠåģľæŃ¢": 3547,
      "è¡¥": 3548,
      "Ġæĵį": 3549,
      "Ġè´§çī©": 3550,
      "ĠéĶĢåĶ®": 3551,
      "Ġä¼ļè®®å®¤": 3552,
      "Ġè¡¨åĨ³": 3553,
      "æĬ¥åĳĬ": 3554,
      "¡«": 3555,
      "Ġåľ°éĽ·": 3556,
      "ĠçŃ¹èµĦ": 3557,
      "Ġè§ī": 3558,
      "ĠåĬ³å·¥": 3559,
      "èŃ¦": 3560,
      "ĠçĬ¯": 3561,
      "ĠçłĶç©¶æīĢ": 3562,
      "ĠæľĢä½İ": 3563,
      "ĠæĪªèĩ³": 3564,
      "ĠçĶµè¯Ŀ": 3565,
      "å®īåħ¨": 3566,
      "ĠåĲįåįķ": 3567,
      "ĭ±": 3568,
      "ĠçĽĳçĭ±": 3569,
      "åĲ«": 3570,
      "é¦ĸ": 3571,
      "Ġç¬¬ä¸ĥ": 3572,
      "us": 3573,
      "Ġcn": 3574,
      "Ġå¤ĸåľ°": 3575,
      "ch": 3576,
      "ĠæĦıåĳ³çĿĢ": 3577,
      "å¨ģçī¹": 3578,
      "èģĺ": 3579,
      "Ġç§ĳå¨ģçī¹": 3580,
      "ĠéĽĨä¸Ń": 3581,
      "åİĭ": 3582,
      "Ġä¸Ķ": 3583,
      "Ġè¿«": 3584,
      "è§Ĵ": 3585,
      "æĿĢ": 3586,
      "ĠæīĢæ¶ī": 3587,
      "å®¡": 3588,
      "ĠåĲĦèĩª": 3589,
      "Ġåĳ½": 3590,
      "Ġç¦ıåĪ©": 3591,
      "ĠåĪĽæĸ°": 3592,
      "ĠçłĶè®¨ä¼ļ": 3593,
      "ĠåĶ¯": 3594,
      "åħ¹": 3595,
      "Ġå°ıæĹ¶": 3596,
      "ĠåıĮè¾¹": 3597,
      "Ġå¤§çº¦": 3598,
      "åĬłæĭī": 3599,
      "ĠéĤ£éĩĮ": 3600,
      "å¹´äºº": 3601,
      "Ġç«Ļ": 3602,
      "Ġæķĳæµİ": 3603,
      "Ġç¬¬ä¸Ģæ¬¡": 3604,
      "Ġéº»": 3605,
      "Ġä»¥å¤ĸ": 3606,
      "ĠåįĬ": 3607,
      "Ġå·¥ä½ľéĺŁ": 3608,
      "éĴĪ": 3609,
      "Ġä½ķ": 3610,
      "Ġç½Ĺé©¬": 3611,
      "èµĸ": 3612,
      "ĠåĮĹäº¬": 3613,
      "Ġçĳŀå£«": 3614,
      "ĠæĶ»": 3615,
      "ĠåĲ¦": 3616,
      "Ġæķ°çĽ®": 3617,
      "ĠåŁĥåıĬ": 3618,
      "Ġå¤§è§Ħæ¨¡": 3619,
      "å¹¿": 3620,
      "Ġç¦»å¼Ģ": 3621,
      "Ġè¯¸": 3622,
      "Ġç±³": 3623,
      "ah": 3624,
      "Ġè½¬è®©": 3625,
      "Ġè®¸åı¯": 3626,
      "Ġä¿¡æīĺ": 3627,
      "ĠåĬŁ": 3628,
      "ĠæĦıè¯Ĩ": 3629,
      "Ġå¹³è¡¡": 3630,
      "Ġå¹´é¾Ħ": 3631,
      "Ġå¹´è½»": 3632,
      "Ġå¢ŀè¿Ľ": 3633,
      "ion": 3634,
      "Ġä¹ĭå¤ĸ": 3635,
      "Ġå¤ªå¹³æ´ĭ": 3636,
      "æ¡ĳ": 3637,
      "Ġåį³ä½¿": 3638,
      "å°Ķåħ°": 3639,
      "Ġæī§æ³ķ": 3640,
      "Ġè´§å¸ģ": 3641,
      "Ġçĩĥ": 3642,
      "Ġè½¯": 3643,
      "ĠæŃ¦è£ħåĨ²çªģ": 3644,
      "è¯»": 3645,
      "Ġå°¼æĹ¥": 3646,
      "åĲĦ": 3647,
      "çĤ¸": 3648,
      "Ġä»¥åĲİ": 3649,
      "Ġå©ļ": 3650,
      "åĨħäºļ": 3651,
      "Ġä¸ºä»Ģä¹Ī": 3652,
      "·æ¬¾": 3653,
      "Ġåºĵ": 3654,
      "ĠéĺĲ": 3655,
      "å°¼è¥¿äºļ": 3656,
      "ĠæĢ»ä½ĵ": 3657,
      "Ġç«ĭåľº": 3658,
      "å¹¶": 3659,
      "è¯Ħ": 3660,
      "åı¥": 3661,
      "Ġç¼ĵ": 3662,
      "¸åħ³": 3663,
      "Ġæīĺ": 3664,
      "ro": 3665,
      "Ġå¼ĢæĶ¾": 3666,
      "åĬ³": 3667,
      "Ġå¤ļæł·æĢ§": 3668,
      "æ¯ģ": 3669,
      "ĠæĮª": 3670,
      "Ġåįĸ": 3671,
      "ĠçĲĨè®º": 3672,
      "æĿ¡ä»¶": 3673,
      "Ġæ±¡æŁĵ": 3674,
      "Ġæĭīä¸ģ": 3675,
      "et": 3676,
      "èĭ¦": 3677,
      "Ġä¸»æĮģ": 3678,
      "Ġå½ĵäºĭ": 3679,
      "æ¥ļ": 3680,
      "ĠåĽº": 3681,
      "åŃĲèĥ½": 3682,
      "Ġå¾ħéģĩ": 3683,
      "Ġæ±½": 3684,
      "ĠåĬĽéĩı": 3685,
      "åº§": 3686,
      "Ġä¸ĸçºª": 3687,
      "ä¸½": 3688,
      "Ġå»¶éķ¿": 3689,
      "èİ±": 3690,
      "ĠåĪĩå®ŀ": 3691,
      "æĺĤ": 3692,
      "Ġé£Łçī©": 3693,
      "ļåĲĪ": 3694,
      "ĠéļıåĲİ": 3695,
      "Ġäººå£«": 3696,
      "Ġç§ģäºº": 3697,
      "Ġèİ·åıĸ": 3698,
      "Ġè¿Ķ": 3699,
      "Ġæĭ¿": 3700,
      "éľ²": 3701,
      "ĠæİĴæĶ¾": 3702,
      "Ġä¸įåĪ©": 3703,
      "æĥħåĨµ": 3704,
      "åŃ£": 3705,
      "éĺ¿": 3706,
      "Ġè°¨": 3707,
      "ĠæĻ®éĢļ": 3708,
      "ĠåĪ¶è£ģ": 3709,
      "Ġè§īå¾Ĺ": 3710,
      "Ġèı²": 3711,
      "æ¥¼": 3712,
      "æĭīå¤«": 3713,
      "Ġè§ĦèĮĥ": 3714,
      "ĠåĪļæŀľæ°ĳä¸»åħ±åĴĮåĽ½": 3715,
      "Ġä¼Ĭæĸ¯åħ°": 3716,
      "ĠæĶ¸åħ³": 3717,
      "ĠçĶ·åŃĲ": 3718,
      "å±¿": 3719,
      "Ġç¬¬äºĶåįģ": 3720,
      "ĠèģĮè´£": 3721,
      "¤Ĳ": 3722,
      "ĠæīĢä½ľ": 3723,
      "ä¸Ńå¿ĥ": 3724,
      "è·Ŀ": 3725,
      "Ġå¤§å®¶": 3726,
      "ĠæĮģä¹ħ": 3727,
      "Ġéģĩ": 3728,
      "Ġå®ĺæĸ¹": 3729,
      "ĠçĶŁæĢģ": 3730,
      "ĠæĹı": 3731,
      "ĠéħĮ": 3732,
      "å®¾": 3733,
      "æĭľ": 3734,
      "ĠèģĶç»ľ": 3735,
      "æĹ¶éĹ´": 3736,
      "å¹ķ": 3737,
      "æŃ»": 3738,
      "Ġç§ĳç´¢": 3739,
      "Ġæķħ": 3740,
      "Ġè¿Ľåı£": 3741,
      "Ġä»²": 3742,
      "ĠæĽ¿ä»£": 3743,
      "Ġç©¿": 3744,
      "Ġç§ĳç´¢æ²ĥ": 3745,
      "Ġè¯īè®¼": 3746,
      "ä½ľçĶ¨": 3747,
      "Ġä¹ł": 3748,
      "ĠéĢĶ": 3749,
      "ĠçĶ¨æĪ·": 3750,
      "Ġåģı": 3751,
      "ĠæĿ¥æĸĩ": 3752,
      "Ġç»´ä¹Ł": 3753,
      "Ġç»´ä¹Łçº³": 3754,
      "Ġç¿»": 3755,
      "æīį": 3756,
      "Ġæµ·åľ°": 3757,
      "Ġè´¦æĪ·": 3758,
      "èĬ±": 3759,
      "å²¸": 3760,
      "ev": 3761,
      "ĠæľĢå¥½": 3762,
      "Ġä¹Łè®¸": 3763,
      "ĠéĽ¶": 3764,
      "Ġæĭīä¸ģç¾İæ´²": 3765,
      "Ġæīĵç®Ĺ": 3766,
      "Ġä»²è£ģ": 3767,
      "Ġä¸Ńä¸ľ": 3768,
      "ĠçĪ¶æ¯į": 3769,
      "æĸĹ": 3770,
      "ĠæĹħæ¸¸": 3771,
      "Ġè¡¨è¾¾": 3772,
      "Ġåħ¨ä½ĵä¼ļè®®": 3773,
      "çŃĶ": 3774,
      "Ġåħ´": 3775,
      "ĠæľīæĹ¶": 3776,
      "ĠåĪĴ": 3777,
      "Ġäº«åıĹ": 3778,
      "Ġç§įæĹıæŃ§è§Ĩ": 3779,
      "æı´åĬ©": 3780,
      "ĠéĤ®": 3781,
      "ĠåİĭåĬĽ": 3782,
      "Ġä¸¥æł¼": 3783,
      "Ġæ¯įäº²": 3784,
      "å§Ķä¼ļ": 3785,
      "ĠæĻļ": 3786,
      "ĠéĢļæĬ¥": 3787,
      "Ġæ²»çĲĨ": 3788,
      "ol": 3789,
      "Ġæ³ķæ²»": 3790,
      "å·¥ä½ľ": 3791,
      "Ġçĵ¦": 3792,
      "Ġåįĩ": 3793,
      "Ġè°ģ": 3794,
      "Ġç»ıèĲ¥": 3795,
      "çĿ": 3796,
      "è´«": 3797,
      "ĠæľŁéĻĲ": 3798,
      "Ġä¸Ģä¸ĭ": 3799,
      "ĠæķĮ": 3800,
      "èĨ": 3801,
      "ĠæĢģ": 3802,
      "ĠåĢĻéĢī": 3803,
      "Ġæĭ¨": 3804,
      "Ġè·¨åĽ½": 3805,
      "ĠåĿĲ": 3806,
      "çĭ¬": 3807,
      "ç§¯": 3808,
      "Ġåı«": 3809,
      "ĠéģŃåĪ°": 3810,
      "ä¼ĹåĽ½": 3811,
      "åĿĹ": 3812,
      "åıª": 3813,
      "ĠèĦĨ": 3814,
      "Ìģ": 3815,
      "Ġèĩªæ²»": 3816,
      "Ġå¤§éĥ¨åĪĨ": 3817,
      "æĴĴ": 3818,
      "åĴ": 3819,
      "ĠéĴ±": 3820,
      "Ġå¯Į": 3821,
      "æĻ®": 3822,
      "os": 3823,
      "Ġå®īä¿Ŀ": 3824,
      "ĠæĶ»åĩ»": 3825,
      "Ġéĩįå»º": 3826,
      "Ġåĵ¥ä¼¦": 3827,
      "Ġçİ»": 3828,
      "æķ¦": 3829,
      "æĸ¯æĭīå¤«": 3830,
      "Ġæľªèĥ½": 3831,
      "Ġäº²": 3832,
      "ĠåĪ©æ¯Ķ": 3833,
      "Ńåĩ»": 3834,
      "ĠåĲİæŀľ": 3835,
      "åºĹ": 3836,
      "ĠäººåĬĽèµĦæºĲ": 3837,
      "åħĭåħ°": 3838,
      "Ġéĺ¿æł¹": 3839,
      "ä¹±": 3840,
      "ĠæıĲåıĬ": 3841,
      "Ġéĺ¿æł¹å»·": 3842,
      "ĠåįĹæĸ¯æĭīå¤«": 3843,
      "ä¿®": 3844,
      "ĠéħĮæĥħ": 3845,
      "Ġåıĳå¸ĥ": 3846,
      "ĠåĪĨåıĳ": 3847,
      "Ġæł¹æľ¬": 3848,
      "Ġç¾İåĪ©": 3849,
      "¹ģ": 3850,
      "ĠåĪ©æ¯ĶéĩĮäºļ": 3851,
      "Ġåī¥å¤º": 3852,
      "Ġåįıè°ĥåĳĺ": 3853,
      "å¥ĩ": 3854,
      "Ġå®ŀéªĮ": 3855,
      "ĠèµĦæł¼": 3856,
      "Ġä¾ĽèµĦ": 3857,
      "Ġè¡¥æķĳ": 3858,
      "ĠåĪ¤åĨ³": 3859,
      "åĨľ": 3860,
      "Ġé¢Ħæµĭ": 3861,
      "Ġèį·åħ°": 3862,
      "Ġè±": 3863,
      "ĠæĤ£": 3864,
      "ĠèĦĨå¼±": 3865,
      "Ġç¾İåĪ©åĿ": 3866,
      "è§ĦåĪĻ": 3867,
      "Ġæ£Ģå¯Łå®ĺ": 3868,
      "æľįåĬ¡": 3869,
      "ĠçŁ³æ²¹": 3870,
      "Ġåħ¬åĬ¡": 3871,
      "ĠåĪĿæŃ¥": 3872,
      "Ġä¸įåĨį": 3873,
      "æ¬§": 3874,
      "ĠæĮªå¨ģ": 3875,
      "éĴŁ": 3876,
      "ĠåĶ¯ä¸Ģ": 3877,
      "ĠèĢĮæĺ¯": 3878,
      "Ġåĵ¥ä¼¦æ¯Ķäºļ": 3879,
      "ĠéĻĪ": 3880,
      "Ġä¿¡ä»»": 3881,
      "Ġå®¢æĪ·": 3882,
      "Ġç¾İåĪ©åĿļåĲĪ": 3883,
      "Ġç¾İåĪ©åĿļåĲĪä¼ĹåĽ½": 3884,
      "Ġé£ŀæľº": 3885,
      "Ġéķ": 3886,
      "ĠæŁ¥æĺİ": 3887,
      "æĨ": 3888,
      "Ġåľ¨äºİ": 3889,
      "æī¹": 3890,
      "ĠèĻĲå¾ħ": 3891,
      "Ġåħ¬å¸ĥ": 3892,
      "ĨŁ": 3893,
      "èī¯": 3894,
      "ĠæĽ´æĸ°": 3895,
      "Ġæķ°æį®åºĵ": 3896,
      "Ġè®®äºĭ": 3897,
      "Ġè¾¾å°Ķ": 3898,
      "Ġæ²¿": 3899,
      "ĠåĬ©çĲĨ": 3900,
      "Ġå®ŀéĻħä¸Ĭ": 3901,
      "ĠæĹħè¡Į": 3902,
      "ĠæĬĢèĥ½": 3903,
      "ĠåĩĢ": 3904,
      "ec": 3905,
      "åį±": 3906,
      "Ġåį°åº¦å°¼è¥¿äºļ": 3907,
      "Ġçļ®": 3908,
      "ĠæıĲè¯·": 3909,
      "ĠæĬķç¥¨": 3910,
      "Ġé«ĺåº¦": 3911,
      "Ġç¬¬ä¸īåįģ": 3912,
      "ir": 3913,
      "ĠåĪĳæ³ķ": 3914,
      "ĠéĽĨä½ĵ": 3915,
      "Ġç§ĳæĬĢ": 3916,
      "åı¤": 3917,
      "åł¡": 3918,
      "æģ©": 3919,
      "Ġåı°": 3920,
      "è¿ĺ": 3921,
      "ĠæĮĩåįĹ": 3922,
      "Ġä¸¹": 3923,
      "Ġå¤ĸéĥ¨": 3924,
      "Ġæĳĺ": 3925,
      "åľ°ä½į": 3926,
      "ĠéŁ³": 3927,
      "Ġèµ·èįī": 3928,
      "Ġäºĭå®ŀä¸Ĭ": 3929,
      "åŁºéĩĳ": 3930,
      "åı¯èĥ½": 3931,
      "Ġè´·æ¬¾": 3932,
      "Ġè½¬ç§»": 3933,
      "Ġåħ¼": 3934,
      "Ġäº¤éĢļ": 3935,
      "ĠåĲ¯åĬ¨": 3936,
      "Ġä¹Ŀ": 3937,
      "Ġæĭĸ": 3938,
      "Ġé¡µ": 3939,
      "åľŃ": 3940,
      "éĥ¨éķ¿": 3941,
      "æī°": 3942,
      "ĠéŁ": 3943,
      "Ġé¡»": 3944,
      "Ġæ¸Ķ": 3945,
      "Ġæ¸ħæ¥ļ": 3946,
      "Ġçģ¾å®³": 3947,
      "Ġçİĭ": 3948,
      "Ġå¯¹æŃ¤": 3949,
      "èİ·": 3950,
      "Ġè¾¹çķĮ": 3951,
      "Ġèµĭ": 3952,
      "Ġå½ĵæĹ¶": 3953,
      "Ġé¡º": 3954,
      "ĠéĢĶå¾Ħ": 3955,
      "ĠæķĪæŀľ": 3956,
      "Ġorg": 3957,
      "Ġç§ĳçī¹": 3958,
      "Ġç©Ĩ": 3959,
      "å®ľ": 3960,
      "ĠæĬķåħ¥": 3961,
      "Ġä½Ļ": 3962,
      "Ġç¼´": 3963,
      "èĹı": 3964,
      "åĩł": 3965,
      "ĠéĢŁ": 3966,
      "è£Ķ": 3967,
      "Ġé¢Ŀå¤ĸ": 3968,
      "åĪ¸": 3969,
      "ĠèµĦæľ¬": 3970,
      "Ġå¤§ä½¿": 3971,
      "Ġæ¯ģ": 3972,
      "Ġçľĭæ³ķ": 3973,
      "ĠäºĮåįģ": 3974,
      "ĠæĢ»æĺ¯": 3975,
      "Ġåıĺå¾Ĺ": 3976,
      "Ġå±ħä½ı": 3977,
      "ĠçĶ¨éĢĶ": 3978,
      "ĠåĮħåĲ«": 3979,
      "Ġå½ĵçĦ¶": 3980,
      "ĠåĩºæĿ¥": 3981,
      "Ġæĺ¯åĽł": 3982,
      "Ġæĺ¯åĽłä¸º": 3983,
      "æĶ¶åħ¥": 3984,
      "ĠéĢ®": 3985,
      "Ġå¥ĸ": 3986,
      "è§Ī": 3987,
      "Ġæł¸æŁ¥": 3988,
      "Ġå¼Ģåıĳè®¡åĪĴç½²": 3989,
      "Ġéģĵè·¯": 3990,
      "ĠèįĴ": 3991,
      "ĠåĮĸåŃ¦åĵģ": 3992,
      "Ġç±»åŀĭ": 3993,
      "Ġæĸ¯æ´Ľ": 3994,
      "ĠæĢģåº¦": 3995,
      "æµ¦": 3996,
      "ĠæĽ´ä¸º": 3997,
      "ĠçĽ¸å¯¹": 3998,
      "Ġè¡Ģ": 3999,
      "ĠåĲĮä¸Ģ": 4000,
      "ĠæŃ£å¦Ĥ": 4001,
      "æĨ¾": 4002,
      "ĠæĦ": 4003,
      "Ġè¿ĶåĽŀ": 4004,
      "è¿ªçĵ¦": 4005,
      "Ġç§ĳçī¹è¿ªçĵ¦": 4006,
      "çİ¯å¢ĥ": 4007,
      "Ġçİ°å®ŀ": 4008,
      "ĠæĶ¾åľ¨": 4009,
      "Ġè¢Ńåĩ»": 4010,
      "ĠåĨ°": 4011,
      "è®¿": 4012,
      "Ġå¤±ä¸ļ": 4013,
      "Ġçİ°éĩĳ": 4014,
      "Ġä»£çĲĨ": 4015,
      "ä»Ģ": 4016,
      "èĢģ": 4017,
      "ä¸¥": 4018,
      "Ġçĳŀåħ¸": 4019,
      "Ġå±ķå¼Ģ": 4020,
      "Ġå¼ºè¿«": 4021,
      "åīĬ": 4022,
      "ĠéĢ®æįķ": 4023,
      "im": 4024,
      "cc": 4025,
      "Ġä¹¦éĿ¢": 4026,
      "Ġæĸ¹åĲĳ": 4027,
      "Ġç¥¨": 4028,
      "çłĶ": 4029,
      "Ġé£Łåĵģ": 4030,
      "ĠéĻĦå±ŀ": 4031,
      "ĠçĽĳå¯Ł": 4032,
      "Ġæľ¬æĸĩ": 4033,
      "ºæľ¯": 4034,
      "Ġç¾": 4035,
      "æ¼ł": 4036,
      "Ġä¸»æĿĥ": 4037,
      "ĠæľĿé²ľ": 4038,
      "Ġç§įæĹıä¸»ä¹ī": 4039,
      "Ġè®¢æŃ£": 4040,
      "åį«çĶŁ": 4041,
      "ĠæĹ¶æľŁ": 4042,
      "è·µ": 4043,
      "èĪª": 4044,
      "èĴĤ": 4045,
      "Ġæ³¢æĸ¯": 4046,
      "Ġåĵģ": 4047,
      "ĠçĶµè§Ĩ": 4048,
      "ĠåĿļæĮģ": 4049,
      "åĪĨä¹ĭ": 4050,
      "Ġéĩĩåıĸæİªæĸ½": 4051,
      "Ġä¼ĳ": 4052,
      "ç¨¿": 4053,
      "Ġä¸»å¸ŃåĽ¢": 4054,
      "Ġæ¯ıå¤©": 4055,
      "Ġå¹¸": 4056,
      "æķħ": 4057,
      "ĠåĵªäºĽ": 4058,
      "Ġç»´åĴĮ": 4059,
      "æĹ©": 4060,
      "Ġè¯Ńæĸĩ": 4061,
      "Ġéĩı": 4062,
      "Ġç¬¬äºĮæ¬¡": 4063,
      "Ġç»Ń": 4064,
      "åİĤ": 4065,
      "ĠæĮĩç¤º": 4066,
      "Ġæī§è¡Įå±Ģ": 4067,
      "æ´ģ": 4068,
      "ĠæīĢæľīäºº": 4069,
      "Ġçī¹è®¾": 4070,
      "Ġé¸": 4071,
      "äººæ°ĳåħ±åĴĮåĽ½": 4072,
      "Ġçİ°è¡Į": 4073,
      "åĬªåĬĽ": 4074,
      "Ġæ°ĳä¼Ĺ": 4075,
      "ĠèĲ¥åħ»": 4076,
      "ĠæŃ£ç¡®": 4077,
      "Ġæłĳ": 4078,
      "å°½": 4079,
      "æ¼Ķ": 4080,
      "Ġå¤±è¸ª": 4081,
      "ĠéĹ®è´£": 4082,
      "ĠåĿ¦": 4083,
      "ĠåĢĻéĢīäºº": 4084,
      "Ġç»ĵåĲĪ": 4085,
      "èĩªçĶ±": 4086,
      "ĠåįĹéĥ¨": 4087,
      "Ġè¯ķéªĮ": 4088,
      "Ġä¹Įåħĭåħ°": 4089,
      "åłĤ": 4090,
      "æĪĳ": 4091,
      "¡èĲ": 4092,
      "Ġæ¹": 4093,
      "Ġå¸¸è®¾": 4094,
      "Ġéļ¾ä»¥": 4095,
      "å¯Įå°Ķ": 4096,
      "Ġä¾ĿçĦ¶": 4097,
      "Ġåľ°çĲĥ": 4098,
      "Ġå°Ĩä¼ļ": 4099,
      "ac": 4100,
      "ĠåıĹçĽĬ": 4101,
      "Ġè£ģåĨ³": 4102,
      "Ġè¾¾å°Ķå¯Įå°Ķ": 4103,
      "Ġè¿Ļä¹Ī": 4104,
      "Ġæ²¹": 4105,
      "ĠåīĬ": 4106,
      "æĳ©": 4107,
      "ä¿Ħ": 4108,
      "éĢĤ": 4109,
      "ç»ıæµİ": 4110,
      "ĠæŃ£å¸¸": 4111,
      "èĦ±": 4112,
      "Ġåŀĭ": 4113,
      "ĠæĢ»é¢Ŀ": 4114,
      "ĠåıĻåĪ©äºļ": 4115,
      "Ġé¥®": 4116,
      "Ġä½¿å¾Ĺ": 4117,
      "çĥŃ": 4118,
      "Ġä¸»æµģ": 4119,
      "Ġè´Ńä¹°": 4120,
      "Ġç«ł": 4121,
      "Ġæ¡Īæĸĩ": 4122,
      "Ġç¬¬åĽĽåįģ": 4123,
      "Ġå·¥åıĳ": 4124,
      "æĤī": 4125,
      "Ġåį«æĺŁ": 4126,
      "Ġä»¥æľŁ": 4127,
      "ĠæĢ¥": 4128,
      "Ġç®Ģåįķ": 4129,
      "Ġåħ¨ä¸ĸçķĮ": 4130,
      "æ°§": 4131,
      "Ġçī¹çĤ¹": 4132,
      "ĠåĲİåĭ¤": 4133,
      "Ġå¿Ĺ": 4134,
      "Ġåı¯èĥ½æĢ§": 4135,
      "Ġåħĥ": 4136,
      "Ġch": 4137,
      "Ġæ±½è½¦": 4138,
      "Ġèĵ": 4139,
      "ĠåĬŁèĥ½": 4140,
      "Ġåıªè¦ģ": 4141,
      "¦Ĩ": 4142,
      "Ġå¼±": 4143,
      "ĠåĢ¼å¾Ĺ": 4144,
      "Ġéĺģ": 4145,
      "Ġå§Ķä¼ļ": 4146,
      "Ŀè´": 4147,
      "id": 4148,
      "åĿĢ": 4149,
      "å»¶": 4150,
      "Ġè¡Įä¸ļ": 4151,
      "Ġå¥³ç«¥": 4152,
      "Ġæĺ¾çĦ¶": 4153,
      "æĭīåľŃ": 4154,
      "Ġåįıä½ľ": 4155,
      "ĠåŃĲå¥³": 4156,
      "ĠåĪĨäº«": 4157,
      "¡èĲĦ": 4158,
      "ĠéĺŁ": 4159,
      "è¥¿åħ°": 4160,
      "Ġåī¥åīĬ": 4161,
      "Ġèº«ä½ĵ": 4162,
      "Ġå¼ºåĪ¶": 4163,
      "Ġçħ": 4164,
      "ĠåŃĹ": 4165,
      "ĠéĢıæĺİåº¦": 4166,
      "Ġè§Ħæ¨¡": 4167,
      "Ġä¸ŃæľŁ": 4168,
      "è°ĪåĪ¤": 4169,
      "Ġèīºæľ¯": 4170,
      "Ġé¢ģå¸ĥ": 4171,
      "Ġè®®äºĭè§ĦåĪĻ": 4172,
      "Ġæĸ°è¥¿åħ°": 4173,
      "Ġåħ¨çĲĥåĮĸ": 4174,
      "Ġå¤ļå¹´": 4175,
      "éĺ²ç": 4176,
      "è´·": 4177,
      "æĭŁ": 4178,
      "ĠçĿ": 4179,
      "Ġç¡": 4180,
      "Ġé¢Ħéĺ²ç": 4181,
      "Ġé¢Ħéĺ²çĬ¯ç½ª": 4182,
      "Ġç§Ł": 4183,
      "è´£ä»»": 4184,
      "ĠçĬ¶æĢģ": 4185,
      "Ġä¹ĭä¸Ń": 4186,
      "æłĩåĩĨ": 4187,
      "Ġä¼Ĺ": 4188,
      "Ġå¦ĩå¥³åľ°ä½į": 4189,
      "ĠçĶŁæ®ĸ": 4190,
      "ĠçĿĢéĩį": 4191,
      "ĠçĽ¸åĲĮ": 4192,
      "æįŁ": 4193,
      "Ġéļ¾æ°ĳç½²": 4194,
      "Ġå¡ŀæĭī": 4195,
      "Ġæĭħä¿Ŀ": 4196,
      "ĠåĲģ": 4197,
      "ä¼Ļä¼´": 4198,
      "Ġä¸Ģå¤©": 4199,
      "Ġå¤ļæķ°": 4200,
      "ab": 4201,
      "å·®": 4202,
      "ĠåĨ·": 4203,
      "ĠéĿŀæ´²èģĶçĽŁ": 4204,
      "Ġå¹¶éĿŀ": 4205,
      "ĠåĪĨç±»": 4206,
      "Ġä¹ĭä¸ĭ": 4207,
      "Ġæľį": 4208,
      "ĠåĲģè¯·": 4209,
      "Ġæļ´åĬĽè¡Įä¸º": 4210,
      "èª": 4211,
      "åĪļ": 4212,
      "Ġåı¯éĿł": 4213,
      "Ġèĳ¡èĲĦ": 4214,
      "ĠåĽ¢ç»ĵ": 4215,
      "Ġå¹²é¢Ħ": 4216,
      "Ġéĺģä¸ĭ": 4217,
      "ĠåİŁåŃĲèĥ½": 4218,
      "om": 4219,
      "è½®": 4220,
      "çĸĨ": 4221,
      "Ġæ³¢æĸ¯å°¼äºļ": 4222,
      "ĠçŁ¿": 4223,
      "åİħ": 4224,
      "Ġæĳ©æ´Ľ": 4225,
      "ĠæľīåĪ©äºİ": 4226,
      "Ġäºīåıĸ": 4227,
      "Ġè¯ķåĽ¾": 4228,
      "Ġç¼©": 4229,
      "Ġæ¬¡çº§": 4230,
      "Ġå¿«éĢŁ": 4231,
      "å¿ħ": 4232,
      "Ġçº¦æĿŁ": 4233,
      "ĠéĽ·": 4234,
      "æĥ¯": 4235,
      "ĠäºĭåĬ¡éĥ¨": 4236,
      "éģĹ": 4237,
      "Ġè½½æľī": 4238,
      "Ġæ³ķä»¤": 4239,
      "Ġæµĭè¯ķ": 4240,
      "Ġå°½åı¯èĥ½": 4241,
      "ĠçĪĨçĤ¸": 4242,
      "ĠåĽ½å®¶ä¸Ģ": 4243,
      "ĠåĽ½å®¶ä¸Ģçº§": 4244,
      "ĠçĽ¸æ¯Ķ": 4245,
      "Ġç»ĦæĪĲéĥ¨åĪĨ": 4246,
      "Ġå°¼æĹ¥åĪ©äºļ": 4247,
      "Ġå¡ŀæµ¦": 4248,
      "Ġä½ĵèĤ²": 4249,
      "è·¯æĸ¯": 4250,
      "Ġæ´Ĺ": 4251,
      "Ġå¡ŀæµ¦è·¯æĸ¯": 4252,
      "ĠéĽĩåĳĺ": 4253,
      "Ġä»»æľŁ": 4254,
      "åıĤ": 4255,
      "Ġå·®å¼Ĥ": 4256,
      "ĠéĶĻè¯¯": 4257,
      "ĠåĲ¸å¼ķ": 4258,
      "ĠåŁĥå¡ŀ": 4259,
      "ĠåĮ»çĶŁ": 4260,
      "Ġåįİ": 4261,
      "Ġå°ģ": 4262,
      "ç³": 4263,
      "ĠæĪĳè¦ģ": 4264,
      "Ġæĳ©æ´Ľåĵ¥": 4265,
      "Ġåı¯è¡Į": 4266,
      "Ġå¸ĥéļĨ": 4267,
      "ĠçĽ¸åºĶ": 4268,
      "ĠçĪ¶äº²": 4269,
      "Ġåı¦ä¸Ģ": 4270,
      "åĿ¡": 4271,
      "åĮĹ": 4272,
      "ĠèĪªç©º": 4273,
      "Ġæķ£": 4274,
      "ĠéĤ»": 4275,
      "åģĩ": 4276,
      "çª": 4277,
      "Ġæ´¥è´´": 4278,
      "Ġå²Ľ": 4279,
      "åĨ·": 4280,
      "æ±¶": 4281,
      "ä¿Ħæ¯Ķäºļ": 4282,
      "ĠåŁĥå¡ŀä¿Ħæ¯Ķäºļ": 4283,
      "Ġå¤Ħç½ļ": 4284,
      "ĠæŀĹ": 4285,
      "ĠåĽŀçŃĶ": 4286,
      "Ġæ··åĲĪ": 4287,
      "ay": 4288,
      "ä¼ģä¸ļ": 4289,
      "Ġä¸ĸçķĮéĵ¶è¡Į": 4290,
      "Ġå¹´ä»£": 4291,
      "Ġå¡«": 4292,
      "ĠæĬ¥éģĵ": 4293,
      "Ġä¸Ģå®¶": 4294,
      "æ¹¾": 4295,
      "Ġå¸ĥéļĨè¿ª": 4296,
      "Ġæĳĺè¦ģ": 4297,
      "æ³¢": 4298,
      "çĹĩ": 4299,
      "å¼Ģåıĳ": 4300,
      "Ġä¸Ĭåįĩ": 4301,
      "Ġå®¹å¿į": 4302,
      "ĠéĢĲæŃ¥": 4303,
      "ĠåľĨ": 4304,
      "æī¾": 4305,
      "ul": 4306,
      "Ġå·®è·Ŀ": 4307,
      "Ġä¸Ģä½ĵ": 4308,
      "Ġå¿ĹæĦ¿": 4309,
      "Ġæ»¡æĦı": 4310,
      "Ġå·¥ç¨ĭå¤Ħ": 4311,
      "Ġåł": 4312,
      "Ġå·ŀ": 4313,
      "Ġåº·": 4314,
      "ĠæĿĳ": 4315,
      "Ġä¾Ŀèµĸ": 4316,
      "åĬŀæ³ķ": 4317,
      "åĪ©æĺĤ": 4318,
      "ĠåıĤèĢĥ": 4319,
      "Ġæ²ī": 4320,
      "ç¬Ķ": 4321,
      "Ġå¡ŀæĭīåĪ©æĺĤ": 4322,
      "ĠæĭŁå®ļ": 4323,
      "Ġåıĸæ¶Ī": 4324,
      "ĠéģĩåĪ°": 4325,
      "æģĲ": 4326,
      "Ġåĺ": 4327,
      "ĠæĥħæĬ¥": 4328,
      "Ġä¸ľå¸Ŀ": 4329,
      "Ġä»ĩ": 4330,
      "Ġä¸ľå¸Ŀæ±¶": 4331,
      "ĠéĹŃ": 4332,
      "å§»": 4333,
      "åįĥ": 4334,
      "Ġèµŀæī¬": 4335,
      "Ġéĺ¿å°ĶåıĬ": 4336,
      "èĥŀ": 4337,
      "èħĬ": 4338,
      "çĻ»": 4339,
      "éĶĻ": 4340,
      "Ġæ½ľåľ¨": 4341,
      "ĠæĦŁæŁĵ": 4342,
      "ä¸īå±Ĭ": 4343,
      "åľ°äºļ": 4344,
      "ĠæİĮ": 4345,
      "ĠçĹĽ": 4346,
      "Ġæ»¥": 4347,
      "Ġè¾ĵ": 4348,
      "Ġå¤«": 4349,
      "Ġä¸ĢæĿ¡": 4350,
      "Ġåįģä¸Ģ": 4351,
      "éĢĲ": 4352,
      "Ġä¼¤å®³": 4353,
      "Ġan": 4354,
      "éĨĴ": 4355,
      "Ġéĺ²æ²»": 4356,
      "Ġåıªèĥ½": 4357,
      "Ġçª": 4358,
      "Ġä¼¦": 4359,
      "Ġæ´¾éģ£": 4360,
      "Ġåİ»å¹´": 4361,
      "ĠæķĻå¸Ī": 4362,
      "è¾ĳ": 4363,
      "Ġèı²å¾ĭ": 4364,
      "Ġè¿ĽæŃ¥": 4365,
      "æĻļ": 4366,
      "Ġå°ıå²Ľ": 4367,
      "ĠéħĴ": 4368,
      "ĠåĲĪå¹¶": 4369,
      "ĠéĿ¢åīį": 4370,
      "Ġæ³°åĽ½": 4371,
      "Ġæ³ķæ¡Ī": 4372,
      "ĠåŁºåľ°": 4373,
      "Ġå±ĤéĿ¢": 4374,
      "Ġåħ±è¯Ĩ": 4375,
      "Ġç¼ħ": 4376,
      "Ġå¤ļå°ĳ": 4377,
      "ä¼Ĳ": 4378,
      "ĠèĩªåĬ¨": 4379,
      "Ġèı²å¾ĭå®¾": 4380,
      "Ġè¯¸å¦Ĥ": 4381,
      "ĠåĤ¨åŃĺ": 4382,
      "ĠåĢ¾": 4383,
      "ĠåĨĽéĺŁ": 4384,
      "ĠåĮ»éĻ¢": 4385,
      "Ġæķı": 4386,
      "ĠèĦ±": 4387,
      "Ġäººéģĵä¸»ä¹īæ³ķ": 4388,
      "Ġè®¡ç®Ĺæľº": 4389,
      "æİĪ": 4390,
      "ĠçĶ·æĢ§": 4391,
      "åŁİ": 4392,
      "ĠåĪ¶æŃ¢": 4393,
      "Ġçİ¯å¢ĥç½²": 4394,
      "Ġè¡Ĺ": 4395,
      "Ġä¸Ĭæĸĩ": 4396,
      "Ġçģµæ´»": 4397,
      "æ´»åĬ¨": 4398,
      "Ġéĺ»ç¢į": 4399,
      "ĠéĿ¢å¯¹": 4400,
      "Ġè¿Ħ": 4401,
      "ep": 4402,
      "Ġå¼ºçĥĪ": 4403,
      "Ġæ¨¡åŀĭ": 4404,
      "æĮĩåĩº": 4405,
      "Ġäºļå¤ª": 4406,
      "çĳŀ": 4407,
      "ĠéĢĥ": 4408,
      "Ġå©ļå§»": 4409,
      "å¥¥": 4410,
      "ĠçīĻ": 4411,
      "éħ¬": 4412,
      "Ġç©·": 4413,
      "Ġä¹Ĳ": 4414,
      "æ£Ģ": 4415,
      "Ġæĥ©ç½ļ": 4416,
      "Ġå®ŀè·µ": 4417,
      "ĠåĩºçīĪçī©": 4418,
      "çĶ¸": 4419,
      "Ġåį³å°Ĩ": 4420,
      "ĠæĦŁè§ī": 4421,
      "çĽĺ": 4422,
      "ĠåķĬ": 4423,
      "Ġå®½": 4424,
      "Ġåĩıè½»": 4425,
      "å°ĳå¹´": 4426,
      "Ġéģĵå¾·": 4427,
      "Ġéĵģ": 4428,
      "ĠéĿĴå°ĳå¹´": 4429,
      "Ġæ³ķè§Ħ": 4430,
      "Ġè¿Ħä»Ĭ": 4431,
      "ĠçĲĥ": 4432,
      "ĠåĽ½ç±į": 4433,
      "Ġåįķçĭ¬": 4434,
      "è´¸": 4435,
      "èµ«": 4436,
      "Ġä¸ŃéĿŀ": 4437,
      "Ġè§Ĵåº¦": 4438,
      "Ġçı": 4439,
      "èµ°": 4440,
      "æı¡": 4441,
      "ĠçŃ¹æİª": 4442,
      "ĠèµĭäºĪ": 4443,
      "ĠæĪĲå°±": 4444,
      "ĠéĻ¤éĿŀ": 4445,
      "Ġåħįè´¹": 4446,
      "ĠåĩłåĨħäºļ": 4447,
      "ĠåºŁçī©": 4448,
      "çľ¼": 4449,
      "ig": 4450,
      "éĢĴ": 4451,
      "ç¨ĭåºı": 4452,
      "æ·±": 4453,
      "Ġå¸Ĳ": 4454,
      "Ġç¡®å®ŀ": 4455,
      "ç©ºéĹ´": 4456,
      "æ¤į": 4457,
      "ĠæķĻåŃ¦": 4458,
      "Ġæıı": 4459,
      "Ġåħĭç½Ĺ": 4460,
      "ĠæĿ°": 4461,
      "Ġè½¦è¾Ĩ": 4462,
      "Ġæİ¨è¿Ľ": 4463,
      "åľ°åĪ©": 4464,
      "è¾±": 4465,
      "Ġå¥¥åľ°åĪ©": 4466,
      "Ġæĺĵ": 4467,
      "ä»°": 4468,
      "Ġåºĩ": 4469,
      "åºĬ": 4470,
      "Ġç»ıåİĨ": 4471,
      "Ġéĺ¿å¡ŀ": 4472,
      "æ¸Ĳ": 4473,
      "Ġè±¡": 4474,
      "å¤§ä¼ļ": 4475,
      "ass": 4476,
      "ĠçĽĳç®¡": 4477,
      "Ġè¯Ŀ": 4478,
      "ĠçĩĥæĸĻ": 4479,
      "Ġè§£éĻ¤": 4480,
      "Ġé»Ħ": 4481,
      "Ġä¸°": 4482,
      "Ġç¬¬ä¹Ŀ": 4483,
      "ĠãĢĮ": 4484,
      "Ġé«ĺåħ´": 4485,
      "åŃķ": 4486,
      "æľºåħ³": 4487,
      "Ġç¹ģ": 4488,
      "èĪ¹": 4489,
      "ĠåĩĨç¡®": 4490,
      "ĠãĢį": 4491,
      "ĠåĽłèĢĮ": 4492,
      "æĥł": 4493,
      "æĶ¿çŃĸ": 4494,
      "Ġå°±æŃ¤": 4495,
      "æĭľçĸĨ": 4496,
      "Ġéĺ¿å¡ŀæĭľçĸĨ": 4497,
      "åĩ½": 4498,
      "ĠèĬ¬": 4499,
      "Ġå¸ĮèħĬ": 4500,
      "Ġæ²³": 4501,
      "æĿĲ": 4502,
      "Ġä¸ļç»©": 4503,
      "æĬĹ": 4504,
      "ĠåŃŁ": 4505,
      "Ġå½»": 4506,
      "Ġè½¯ä»¶": 4507,
      "Ġå¹³åı°": 4508,
      "Ġæĭħå¿ĥ": 4509,
      "ĠåĲĪä½ľä¼Ļä¼´": 4510,
      "çīĮ": 4511,
      "åĪ©çĶ¨": 4512,
      "ĠåºĩæĬ¤": 4513,
      "Ġå¼Ĺ": 4514,
      "ç´§": 4515,
      "ä¼ĳ": 4516,
      "Ġåħ¬åĬ¡åĳĺ": 4517,
      "ç¤¾ä¼ļ": 4518,
      "ĠçĶ¨æĿ¥": 4519,
      "æī¿": 4520,
      "ii": 4521,
      "Ġè¡¡": 4522,
      "èģĶåĲĪ": 4523,
      "Ġçİ»åĪ©": 4524,
      "Ġä¸īå¹´": 4525,
      "ĠéĩĬ": 4526,
      "ĠåĨ²": 4527,
      "Ġè§£åĨ³åĬŀæ³ķ": 4528,
      "Ġæ±Ĥ": 4529,
      "Ġéĺ¿å°ĶåıĬåĪ©äºļ": 4530,
      "åĪ¶åº¦": 4531,
      "ĠåĪ©æ¯Ķäºļ": 4532,
      "em": 4533,
      "æ²³": 4534,
      "Ġçī¹å¾ģ": 4535,
      "ĠæĻºåĪ©": 4536,
      "ç§ģ": 4537,
      "å¾ª": 4538,
      "èĭı": 4539,
      "Ġå¼¹èį¯": 4540,
      "Ġç¼ħçĶ¸": 4541,
      "ĠèĤ¯å®ļ": 4542,
      "ww": 4543,
      "Ġè¯ģä¹¦": 4544,
      "éĺ¶æ®µ": 4545,
      "æĹ¨": 4546,
      "Ġåŀ": 4547,
      "Ġå®Įæķ´": 4548,
      "çŁ¥è¯Ĩ": 4549,
      "ent": 4550,
      "rc": 4551,
      "åģľ": 4552,
      "ĠèĤ¯å°¼äºļ": 4553,
      "æ³Ĭ": 4554,
      "Ġäº¦": 4555,
      "ĠèµŀåĲĮ": 4556,
      "Ġä¿ĥè¯·": 4557,
      "èīº": 4558,
      "éĺ³": 4559,
      "Ġè´Łæĭħ": 4560,
      "ĠåıįæģĲ": 4561,
      "Ġå®¶åºŃæļ´åĬĽ": 4562,
      "Ġå¾Ĺä»¥": 4563,
      "Ġäº¤æį¢": 4564,
      "Ġåº¦": 4565,
      "Ġç»¿": 4566,
      "ĠåįģäºĮ": 4567,
      "Ġèģļ": 4568,
      "éĹŃ": 4569,
      "ĠæĢĿæĥ³": 4570,
      "Ġæľªç»ı": 4571,
      "Ġåħ±åĲĮä½ĵ": 4572,
      "Ġå¦¨": 4573,
      "Ġè¯į": 4574,
      "æĳĬ": 4575,
      "ĠåĨ³å¿ĥ": 4576,
      "Ġæľ¨": 4577,
      "Ġè°ĥåĬ¨": 4578,
      "Ġé«ĺä¸ĵ": 4579,
      "Ġé©¬æĿ¥": 4580,
      "Ġç¤¼": 4581,
      "ĠåĩºçĶŁ": 4582,
      "èĢ¶": 4583,
      "Ġè¯ģå®ŀ": 4584,
      "Ġå¡ŀå°Ķ": 4585,
      "Ġwww": 4586,
      "ĠåĪ¶ä½ľ": 4587,
      "st": 4588,
      "Ġæŀ¶": 4589,
      "Ġåľ°çĲĨ": 4590,
      "Ġcl": 4591,
      "é©¬æĭī": 4592,
      "ĠèħĲè´¥": 4593,
      "ĠæķĪåĬĽ": 4594,
      "Ġth": 4595,
      "ç¿°": 4596,
      "ĠåĬ¨çī©": 4597,
      "Ġç¾İæ´²": 4598,
      "Ġå¤ĸåĭ¤": 4599,
      "ĠåĮħå®¹": 4600,
      "ĠçĶ³è¯īäºº": 4601,
      "Ġæł¼é²ģ": 4602,
      "Ġæİ¨å¹¿": 4603,
      "Ġç¤ºèĮĥ": 4604,
      "Ġåħĭç½Ĺåľ°äºļ": 4605,
      "æ¿Ģ": 4606,
      "Ġä½ĵçİ°": 4607,
      "éŁ©": 4608,
      "Ġå½»åºķ": 4609,
      "Ġç±»åĪ«": 4610,
      "Ġè¯»": 4611,
      "Ġæ¸¯": 4612,
      "æĢķ": 4613,
      "æİī": 4614,
      "ov": 4615,
      "ĠæºĲ": 4616,
      "Ġäºīç«¯": 4617,
      "éħ¸": 4618,
      "Ġè®®é¢ĺ": 4619,
      "å¹²è¾¾": 4620,
      "Ġä¹Įå¹²è¾¾": 4621,
      "Ġå¤ļä¸ª": 4622,
      "Ġè¢«åĳĬ": 4623,
      "Ġèī²": 4624,
      "Ġç¬¬ä¸Ģä¸ª": 4625,
      "Ġæ¶µ": 4626,
      "´è´£": 4627,
      "èĮ¨": 4628,
      "åĲīäºļ": 4629,
      "å¿ĺ": 4630,
      "ĠèģĶåĲĪä¼ļ": 4631,
      "Ġå·¦": 4632,
      "Ġèĳ£": 4633,
      "ĠæĪĺæĸĹ": 4634,
      "Ġåį±å®³": 4635,
      "åĦ¿ç«¥": 4636,
      "ĠçĶµå½±": 4637,
      "æ¼łåĮĸ": 4638,
      "Ġä¸ĵéĹ¨æľºæŀĦ": 4639,
      "Ġæķ´ä½ĵ": 4640,
      "åį±æľº": 4641,
      "æħ¢": 4642,
      "Ġçº¿": 4643,
      "Ġè¥¿éĿŀ": 4644,
      "Ġèİ±": 4645,
      "Ġæł¼é²ģåĲīäºļ": 4646,
      "Ġä»ĺæ¬¾": 4647,
      "Ġä»¥å¾Ģ": 4648,
      "éĤ®": 4649,
      "çĽĳ": 4650,
      "Ġæĵįä½ľ": 4651,
      "ç¦ģ": 4652,
      "Ġåıĭ": 4653,
      "ä¼Ļ": 4654,
      "Ġå·¥èµĦ": 4655,
      "Ġå¤ļç§į": 4656,
      "Ġé©¬æĿ¥è¥¿äºļ": 4657,
      "èĢĹ": 4658,
      "Ġçºªå¿µ": 4659,
      "é¼": 4660,
      "Ġç³": 4661,
      "Ġy": 4662,
      "ĠæĹłæł¸": 4663,
      "éħĴ": 4664,
      "å°¼æĸ¯": 4665,
      "Ġæ³¢åħ°": 4666,
      "éĹ®é¢ĺ": 4667,
      "Ġå¤§å¹ħ": 4668,
      "è¡Ģ": 4669,
      "Ġå¼ĢæĶ¯": 4670,
      "çł´": 4671,
      "ĠèĩªæĪĳ": 4672,
      "Ġæ¯ĽéĩĮ": 4673,
      "Ġä¸¹éº¦": 4674,
      "Ġæ¬§åħĥ": 4675,
      "Ġè®¤åı¯": 4676,
      "èĸ": 4677,
      "Ġä¿ĥä½¿": 4678,
      "Ġé©±éĢĲ": 4679,
      "Ġä¼¯": 4680,
      "ä¿¡æģ¯": 4681,
      "ĠèŀįèµĦ": 4682,
      "ĠéĩĬæĶ¾": 4683,
      "Ġçªģåĩº": 4684,
      "Ġæ¤į": 4685,
      "Ġå¤ĸå±Ĥ": 4686,
      "å¸Ĥåľº": 4687,
      "Ġè°ĭ": 4688,
      "Ġè½®": 4689,
      "Ġè°´è´£": 4690,
      "Ġæ¯ĶèµĽ": 4691,
      "Ġæļ´": 4692,
      "Ġèĩªèº«": 4693,
      "Ġå¯»æī¾": 4694,
      "ĠåĲİæĿ¥": 4695,
      "ĠéĢĤåĲĪ": 4696,
      "ĠåĽĽä¸ª": 4697,
      "ç¼ĺ": 4698,
      "Ġå¥ĩ": 4699,
      "è´Ŀ": 4700,
      "ĠæĿĤ": 4701,
      "ç¼©": 4702,
      "å¡ŀåĵ¥": 4703,
      "ĠåĪĨæĳĬ": 4704,
      "æŃ¦": 4705,
      "æī§": 4706,
      "aw": 4707,
      "Ġä¼°è®¡æķ°": 4708,
      "ĠæīĢè½½": 4709,
      "Ġå·©": 4710,
      "ĠéļĲ": 4711,
      "Ġé»ĳå¡ŀåĵ¥": 4712,
      "ĠæĸĹ": 4713,
      "ĠéļĶ": 4714,
      "è¿ĲåĬ¨": 4715,
      "ĠåıĸåĨ³": 4716,
      "ĠéĺĲè¿°": 4717,
      "ĠæĽ´å¤§": 4718,
      "Ġæ¬¾é¡¹": 4719,
      "é±¼": 4720,
      "ĠæĲľ": 4721,
      "ĠåĽ¾ä¹¦": 4722,
      "ĠåĸĢ": 4723,
      "©´": 4724,
      "éĺħ": 4725,
      "èĵ": 4726,
      "Ġæ·±åħ¥": 4727,
      "Ġå¦¨ç¢į": 4728,
      "Ġè¿Ī": 4729,
      "ĠéĢŁåº¦": 4730,
      "ĠçĦ": 4731,
      "Ġè°¢": 4732,
      "Ġè¦Ĩ": 4733,
      "Ġæł·": 4734,
      "Ľĭ": 4735,
      "Ġè¿ŀç»Ń": 4736,
      "ou": 4737,
      "Ġç®Ĺ": 4738,
      "ĠåıĸåĨ³äºİ": 4739,
      "Ġå·©åĽº": 4740,
      "Ġæ¯ĶåĪ©": 4741,
      "Ġè£ħç½®": 4742,
      "Ġä¸ĢæĹ¦": 4743,
      "Ġç¬¬åħ«": 4744,
      "Ġå¤ĸå±Ĥç©ºéĹ´": 4745,
      "æ°ĳåĽ½": 4746,
      "Ġæ¯«æĹł": 4747,
      "»åŃĲ": 4748,
      "Ġå¸¸å¸¸": 4749,
      "Ġé«ĺçŃī": 4750,
      "Ġst": 4751,
      "Ġåģ¿": 4752,
      "å±ĭ": 4753,
      "Ġæį·": 4754,
      "Ġå°ıå²Ľå±¿": 4755,
      "Ġå¯¹è±¡": 4756,
      "ĠçĻ¾åĪĨ": 4757,
      "Ġè®°èĢħ": 4758,
      "ĠåĪ«äºº": 4759,
      "ĠåĽŀåºĶ": 4760,
      "Ġæ¶µçĽĸ": 4761,
      "Ġçİ©": 4762,
      "Ġå¼Ĥ": 4763,
      "ĠçĿ¡": 4764,
      "åĽĽå±Ĭ": 4765,
      "Ġé»ĳå¡ŀåĵ¥ç»´": 4766,
      "Ġé»ĳå¡ŀåĵ¥ç»´éĤ£": 4767,
      "Ġé£ŀè¡Į": 4768,
      "Ġé±¼": 4769,
      "ĠæŃ¦è£ħéĥ¨éĺŁ": 4770,
      "Ġç´§å¼ł": 4771,
      "Ġä¹łæĥ¯": 4772,
      "½Ĳ": 4773,
      "ĠèįĴæ¼łåĮĸ": 4774,
      "ĠèĳĹ": 4775,
      "Ġä¾§": 4776,
      "ĠæķıæĦŁ": 4777,
      "Ħæ¸ħ": 4778,
      "Ġac": 4779,
      "Ġå®¡çĲĨ": 4780,
      "ĠæīĢåľ¨": 4781,
      "Ġèĸªéĩĳ": 4782,
      "ia": 4783,
      "ç¾¤å²Ľ": 4784,
      "Ġåĳ½ä»¤": 4785,
      "ĠæĹıè£Ķ": 4786,
      "Ġè¯¥é¡¹": 4787,
      "Ġå®Ī": 4788,
      "æĿ¾": 4789,
      "Ġä¸Ģä½ĵåĮĸ": 4790,
      "çŁ¿": 4791,
      "å½¹": 4792,
      "ĠåŃŁåĬłæĭī": 4793,
      "ĠåĽ½åĬ¡": 4794,
      "Ġå½¼": 4795,
      "ĠéĻĦè¿ĳ": 4796,
      "åŃ¦å®¶": 4797,
      "Ġä½įäºİ": 4798,
      "ĠåľºæīĢ": 4799,
      "Ġä½įç½®": 4800,
      "Ġå¤±åİ»": 4801,
      "ĠæĶ¿æ²»æĿĥåĪ©": 4802,
      "Ġæ°¸è¿ľ": 4803,
      "Ġä¸İåħ¶": 4804,
      "ĠçĽ´åĪ°": 4805,
      "ĠæŁ¬": 4806,
      "Ġæ²Ļçī¹": 4807,
      "è´¯": 4808,
      "å¾Ĵ": 4809,
      "éķĩ": 4810,
      "ĠåĴĮè§£": 4811,
      "åķ": 4812,
      "ĠèĬ¬åħ°": 4813,
      "Ġå¹´åºķ": 4814,
      "ĠæĽ¾ç»ı": 4815,
      "Ġèĭ±æĸĩ": 4816,
      "èĪŀ": 4817,
      "ĠçŃĸ": 4818,
      "äº®": 4819,
      "Ġæĥ¯": 4820,
      "Ġç¡®ç«ĭ": 4821,
      "Ġæµ·åħ³": 4822,
      "åŁĶ": 4823,
      "ĠéĢļè®¯": 4824,
      "Ġèŀįåħ¥": 4825,
      "Ġä¿¡æģ¯æĬĢæľ¯": 4826,
      "Ġæĥ³è¦ģ": 4827,
      "ĠåĬłæ²Ļ": 4828,
      "Ġæ¦Ĥè¿°": 4829,
      "©åºı": 4830,
      "ĠæŃ»åĪĳ": 4831,
      "Ġçº¦æĹ¦": 4832,
      "æ±ĩ": 4833,
      "ĠçĬ": 4834,
      "å¹¸": 4835,
      "ä¿Ħç½Ĺæĸ¯": 4836,
      "ĠçĻ½ä¿Ħç½Ĺæĸ¯": 4837,
      "Ġä¾ĭåŃĲ": 4838,
      "éĿĻ": 4839,
      "æľ¨": 4840,
      "Ġè±ģ": 4841,
      "ä¸ĥå±Ĭ": 4842,
      "Ġå¤§éŁ©": 4843,
      "Ġå¤§éŁ©æ°ĳåĽ½": 4844,
      "Ġå®¤": 4845,
      "Ġä¸įè®º": 4846,
      "ĠæįĲåĬ©èĢħ": 4847,
      "çĬ¶åĨµ": 4848,
      "ĠæĶ¾å¼ĥ": 4849,
      "ĠåĬłå¿«": 4850,
      "Ġæŀģç«¯": 4851,
      "Ġä¿®æŃ£æ¡Ī": 4852,
      "ĠæķĻç§ĳ": 4853,
      "Ġæī«": 4854,
      "è§ĦåĪĴ": 4855,
      "Ġæĺ¾èĳĹ": 4856,
      "Ġå®ŀåľ°": 4857,
      "ĠæĥĬ": 4858,
      "Ġè¿ĺè¦ģ": 4859,
      "Ġæį¢": 4860,
      "Ġè§ĦåĪĴç½²": 4861,
      "Ġå¸¸è§Ħ": 4862,
      "Ġå°½å¿«": 4863,
      "Ġæµģè¡Į": 4864,
      "åĪĨåŃĲ": 4865,
      "Ġè¿ĩå¢ĥ": 4866,
      "æ°ĳæĹı": 4867,
      "ĠäºĶå¹´": 4868,
      "ĠæĢ»çĲĨ": 4869,
      "Ġç§ĺé²ģ": 4870,
      "Ġè£ħå¤ĩ": 4871,
      "ä»ĭ": 4872,
      "ĠçĶ·äºº": 4873,
      "Ġè¡£": 4874,
      "ĠçīĪ": 4875,
      "ing": 4876,
      "Ġçº¦ç¿°": 4877,
      "Ġæ¸ħæ´ģ": 4878,
      "ĠèĩªçĦ¶èµĦæºĲ": 4879,
      "Ġè¡¡éĩı": 4880,
      "Ġè¯ģäºº": 4881,
      "Ġè¯¢": 4882,
      "ĠæŁĲç§į": 4883,
      "ĠåĦ¿åŃĲ": 4884,
      "Ġå¤§æ¥¼": 4885,
      "æ¯ķ": 4886,
      "ĠæĳĨ": 4887,
      "çĳ": 4888,
      "Ġé©¬éĩĮ": 4889,
      "ĠæĪĲç»©": 4890,
      "Ġæ³¨éĩį": 4891,
      "Ġå¾Ĺåĩº": 4892,
      "Ġå´": 4893,
      "Ġè±ģåħį": 4894,
      "Ġåĳ¨æľŁ": 4895,
      "ä¼Ĭæĸ¯åħ°": 4896,
      "Ġåı¯æĺ¯": 4897,
      "Ġä»»æĦı": 4898,
      "å¯¨": 4899,
      "ä¼Ĭæĸ¯åħ°åħ±åĴĮåĽ½": 4900,
      "ĠæĮĩæĮ¥": 4901,
      "Ġé¦ĸæ¬¡": 4902,
      "ĠåıĹå®³äºº": 4903,
      "Ġè¾ħ": 4904,
      "äºĶå±Ĭ": 4905,
      "Ġæ³¨åĨĮ": 4906,
      "ĠæĦıæĦ¿": 4907,
      "Ġèĳ¡èĲĦçīĻ": 4908,
      "Ġä¸įåĪ°": 4909,
      "åĢį": 4910,
      "å³": 4911,
      "Ġåıĳèµ·": 4912,
      "ĠèµŀæĪĲ": 4913,
      "ĠäºĴåĬ¨": 4914,
      "è°ĵ": 4915,
      "é»ĺ": 4916,
      "Ġå¡ŀå°Ķç»´äºļ": 4917,
      "Ġåħ·å¤ĩ": 4918,
      "Ġæ¯ĶåĪ©æĹ¶": 4919,
      "Ġä¿¡è´·": 4920,
      "Ġè¿Ĳè¡Į": 4921,
      "ĠæŃ»äº¡çİĩ": 4922,
      "æĬķ": 4923,
      "Ġéĥ¨éķ¿çº§": 4924,
      "ĠèģĮåĬ¡": 4925,
      "ĠèĴĻçī¹": 4926,
      "ĠæĹłæł¸æŃ¦åĻ¨": 4927,
      "ĠæīĭåĨĮ": 4928,
      "Ġç»ĪæŃ¢": 4929,
      "Ġè½¬åŀĭ": 4930,
      "ç«ĭçī¹": 4931,
      "Ġèµ¤": 4932,
      "ĠæĬķèµĦèĢħ": 4933,
      "ĠæĳĬ": 4934,
      "ĠåİĦç«ĭçī¹": 4935,
      "Ġè®¤çľŁ": 4936,
      "ĠåİĦç«ĭçī¹éĩĮäºļ": 4937,
      "Ġåı£å¤´": 4938,
      "éĢĢ": 4939,
      "Ġéĩįè¿Ķ": 4940,
      "Ġå¥³äºº": 4941,
      "èµ·æĿ¥": 4942,
      "Ġä¸Ģéģĵ": 4943,
      "ĠåıĹçĲĨ": 4944,
      "Ġè¯Ĭ": 4945,
      "Ġäºīè®®": 4946,
      "Ġæį·åħĭ": 4947,
      "Ġä¼ĬæľĹä¼Ĭæĸ¯åħ°åħ±åĴĮåĽ½": 4948,
      "Ġä¸§": 4949,
      "Ġå£°ç§°": 4950,
      "Ġä¸ľéģĵ": 4951,
      "ĠåĢĴ": 4952,
      "Ġè®¨è®ºä¼ļ": 4953,
      "æĽ²": 4954,
      "Ġäº§åĩº": 4955,
      "å®ģ": 4956,
      "ĠéŁ³ä¹Ĳ": 4957,
      "Ġcon": 4958,
      "Ġéĩİ": 4959,
      "Ġè°ĥè§£": 4960,
      "Ġä¸ŃæīĢ": 4961,
      "åĵ¥æĭī": 4962,
      "Ġæģ¶åĮĸ": 4963,
      "Ġå¤§å¤§": 4964,
      "Ġåį±åľ°": 4965,
      "Ġå¼ķæ¸¡": 4966,
      "ĠåĪº": 4967,
      "Ġè¨Ģè®º": 4968,
      "è´Ł": 4969,
      "Ġåį±åľ°é©¬æĭī": 4970,
      "Ġå®īåĵ¥æĭī": 4971,
      "èĤ¡": 4972,
      "Ġä¸İæŃ¤": 4973,
      "ĠåĬ³åĬ¨åĬĽ": 4974,
      "ĠæŁ¬åŁĶ": 4975,
      "Ġæł¡": 4976,
      "ĠæŁ¬åŁĶå¯¨": 4977,
      "ĠåŃŁåĬłæĭīåĽ½": 4978,
      "ĠçĽĳç¦ģ": 4979,
      "çŁŃ": 4980,
      "èĮĥåĽ´": 4981,
      "æĪı": 4982,
      "éľĩ": 4983,
      "Ġæ»¥çĶ¨": 4984,
      "Ġåħ¬åħ±éĥ¨éĹ¨": 4985,
      "Ġåħ±è®¡": 4986,
      "Ġç»ĨåĪĻ": 4987,
      "Ġæ¶Īè´¹èĢħ": 4988,
      "Ġçī©åĵģ": 4989,
      "Ġå¤ı": 4990,
      "Ġå¸ķ": 4991,
      "Ġè¦ĨçĽĸ": 4992,
      "Ġçªģå°¼æĸ¯": 4993,
      "å½±åĵį": 4994,
      "äººåı£": 4995,
      "åıĻåĪ©äºļ": 4996,
      "Ġå»ºéĢł": 4997,
      "Ġéĺ¿æĭīä¼¯åıĻåĪ©äºļ": 4998,
      "Ġéĺ¿æĭīä¼¯åıĻåĪ©äºļåħ±åĴĮåĽ½": 4999,
      "é¸": 5000,
      "ak": 5001,
      "Ġå®ļå±ħ": 5002,
      "Ġå¾ģèģĺ": 5003,
      "é¢ĳ": 5004,
      "ĠæľŁå¾ħ": 5005,
      "ĠåºĶæĢ¥": 5006,
      "ĠåĽ´": 5007,
      "é£ŀ": 5008,
      "Ġè¡¥åģ¿": 5009,
      "Ġæģ¤": 5010,
      "ĠæľŁæľĽ": 5011,
      "Ġå½ķ": 5012,
      "Ġå®ĹæĹ¨": 5013,
      "Ġäººå±ħ": 5014,
      "Ġç¬¬ä¸īæ¬¡": 5015,
      "ĠæĸĹäºī": 5016,
      "ĠèģĮæĿĥ": 5017,
      "Ġè´©åįĸ": 5018,
      "ç¯": 5019,
      "ĠæĴĴ": 5020,
      "Ġæ¯ķ": 5021,
      "Ġè¡Įé¢Ħ": 5022,
      "ĠåĽļ": 5023,
      "Ġç®¡çĲĨå±Ģ": 5024,
      "Ġå¿½": 5025,
      "å¤§åŃ¦": 5026,
      "çº¸": 5027,
      "Ġæııè¿°": 5028,
      "ĠåĤ": 5029,
      "Ġæ¾Ħæ¸ħ": 5030,
      "Ġä»ħä»ħ": 5031,
      "çļ®": 5032,
      "ĠæĬ±": 5033,
      "éĨī": 5034,
      "èªī": 5035,
      "Ġä¸Ģå¥Ĺ": 5036,
      "Ġå°¼æ³Ĭ": 5037,
      "è±": 5038,
      "ĠåĲ¬åıĸ": 5039,
      "ĠåºĶä»ĺ": 5040,
      "ĠæĬ½": 5041,
      "çĿ£": 5042,
      "ĠçķĮå®ļ": 5043,
      "Ġå£«": 5044,
      "ĠåĽ¾ä¹¦é¦Ĩ": 5045,
      "Ġæ°ĳäºĭ": 5046,
      "Ġç®Ģè¦ģ": 5047,
      "Ġåıĳå°Ħ": 5048,
      "Ġå°¼æ³Ĭå°Ķ": 5049,
      "ĠåŃ¦éĻ¢": 5050,
      "Ġä¸įå¾Ĺä¸į": 5051,
      "Ġä¸Ģæ®µ": 5052,
      "å¤ļå°Ķ": 5053,
      "ç¬ĳ": 5054,
      "æĦıè§ģ": 5055,
      "ç¼ĵ": 5056,
      "Ġå®ļäºİ": 5057,
      "ĠæĪĪ": 5058,
      "Ġä¿¡ä»°": 5059,
      "Ġéĩįå¤į": 5060,
      "ĠéĢĢä¼ĳ": 5061,
      "ĠåİĦçĵľ": 5062,
      "åŁ¹": 5063,
      "Ġæįķ": 5064,
      "ation": 5065,
      "ĠæĽ¼": 5066,
      "ĠçľŁçļĦ": 5067,
      "ĠæĹ¶ä»£": 5068,
      "ĠæĢĢçĸĳ": 5069,
      "um": 5070,
      "å®Į": 5071,
      "Ġæľ¬æ¬¡": 5072,
      "ĠåİĦçĵľå¤ļå°Ķ": 5073,
      "ĠæĢİæł·": 5074,
      "ĠæķĪçĽĬ": 5075,
      "Ġè§Ĥå¯ŁåĽ¢": 5076,
      "ĠçĹĽèĭ¦": 5077,
      "Ġçºł": 5078,
      "ĠæľĢåĪĿ": 5079,
      "Ġå°ĳæķ°æ°ĳæĹı": 5080,
      "è£ģåĨĽ": 5081,
      "Ġäººäºº": 5082,
      "ĠåĽ½éĺ²": 5083,
      "Ġéĺ»æŃ¢": 5084,
      "æķ°æį®": 5085,
      "ĠçŁŃæľŁ": 5086,
      "ĠéĽĩä¸»": 5087,
      "ĠæĬ¤çĲĨ": 5088,
      "Ġæ¯ģçģŃ": 5089,
      "è§Ħå®ļ": 5090,
      "Ġç¿»è¯ĳ": 5091,
      "ĠåŃ¤": 5092,
      "Ġå§ĶåĨħ": 5093,
      "åĮ»": 5094,
      "Ġå§ĶåĨħçĳŀ": 5095,
      "Ġå§ĶåĨħçĳŀæĭī": 5096,
      "Ġç©ºç¼º": 5097,
      "Ġæĸ°åĬł": 5098,
      "çĸ«": 5099,
      "Ġåĳĺå·¥": 5100,
      "Ġè¿ĲçĶ¨": 5101,
      "Ġæ¥": 5102,
      "Ġz": 5103,
      "æĸĩç»Ħç»ĩ": 5104,
      "Ġç¤¾ä¼ļä¿Ŀ": 5105,
      "Ġè®¾æĥ³": 5106,
      "±ä¹Ĳ": 5107,
      "Ġæĸ°åĬłåĿ¡": 5108,
      "èį£": 5109,
      "ĠæľīçĿĢ": 5110,
      "ĠäºĴèģĶ": 5111,
      "Ġä¸Ńæľī": 5112,
      "ĠåĪĹåĩº": 5113,
      "Ġåĩ¯": 5114,
      "èĥĢ": 5115,
      "è£Ĥ": 5116,
      "Ġè§Ħçº¦": 5117,
      "Ġäººæł¼": 5118,
      "ç®±": 5119,
      "Ġæł¸è£ģåĨĽ": 5120,
      "Ġæ®ĸ": 5121,
      "ĠçıŃ": 5122,
      "Ġäºļç¾İ": 5123,
      "Ġæŀģä¸º": 5124,
      "Ġæ¸Ķä¸ļ": 5125,
      "ĠæĮģæľī": 5126,
      "Ġåĩłå¹´": 5127,
      "æľºä¼ļ": 5128,
      "Ġsh": 5129,
      "å®£": 5130,
      "å¹´æĿ¥": 5131,
      "äººæĿĥ": 5132,
      "ä¿Ĺ": 5133,
      "Ġè´µ": 5134,
      "Ġæľºåľº": 5135,
      "Ġå¹´åº¦æĬ¥åĳĬ": 5136,
      "Ġäºļç¾İå°¼äºļ": 5137,
      "ĠçīĽ": 5138,
      "Ġç®¡è¾ĸæĿĥ": 5139,
      "Ġæİ¨è¿Ł": 5140,
      "Ġè¶ĬåįĹ": 5141,
      "ĠæŃ£æĺ¯": 5142,
      "Ġæ¯Ķå¦Ĥ": 5143,
      "Ġç»ĵå©ļ": 5144,
      "Ġåħ¬æ°ĳæĿĥåĪ©": 5145,
      "ĠæĶ¶çĽĬ": 5146,
      "ĠèĢģå¹´äºº": 5147,
      "Ġå¾Īå¿«": 5148,
      "æĶ¯æĮģ": 5149,
      "å¼Ł": 5150,
      "Ġéģ£": 5151,
      "Ġä½İäºİ": 5152,
      "ĠéĿł": 5153,
      "Ġæ®ĸæ°ĳ": 5154,
      "åī²": 5155,
      "Ġé¢ĳ": 5156,
      "é¤Ĳ": 5157,
      "Ġè®¸åı¯è¯ģ": 5158,
      "ĠæİĮæı¡": 5159,
      "Ġä¸¤ç§į": 5160,
      "ħè§£": 5161,
      "åħ°åį¡": 5162,
      "Ġå¨": 5163,
      "ĠåĪĿçº§": 5164,
      "éĽ¶": 5165,
      "ĠçĪ±å°Ķåħ°": 5166,
      "ĠåĽºå®ļ": 5167,
      "Ġ>": 5168,
      "ĠåĸĦ": 5169,
      "Ġè¯¢éĹ®": 5170,
      "Ġæĺ¨": 5171,
      "å¦Ī": 5172,
      "Ġè¯Ĩ": 5173,
      "Ġåīįå¾Ģ": 5174,
      "Ġåħĭæľį": 5175,
      "ĠéĶĢæ¯ģ": 5176,
      "Ġæ´ª": 5177,
      "ĠéŃ": 5178,
      "Ġç«¥": 5179,
      "Ġè®¾æ³ķ": 5180,
      "Ġå¾Īå°ĳ": 5181,
      "Ġçħ§é¡¾": 5182,
      "è¡£": 5183,
      "ä¼į": 5184,
      "Ġå¼±åĬ¿": 5185,
      "æ¸©": 5186,
      "Ġè®¾ç½®": 5187,
      "Ġç»ıå§Ķä¼ļ": 5188,
      "ĠåŃ¦æľ¯": 5189,
      "Ġå¥½å¤Ħ": 5190,
      "çĲ": 5191,
      "ĠéĩĳèŀįæľºæŀĦ": 5192,
      "·åħ¥": 5193,
      "ĠèĮĥ": 5194,
      "Ġåį¡å¡Ķ": 5195,
      "Ġçļ": 5196,
      "Ġæģ¤éĩĳ": 5197,
      "Ġæĸ¯éĩĮ": 5198,
      "Ġç§°ä¸º": 5199,
      "ĠéĻĦåĬł": 5200,
      "Ġæĭ¨æ¬¾": 5201,
      "ĠçĶµèĦĳ": 5202,
      "æĸ¹æ¡Ī": 5203,
      "åĲ¬": 5204,
      "Ġæ´Ľ": 5205,
      "Ġå¤ªéĺ³": 5206,
      "Ġå£°éŁ³": 5207,
      "Ġå¦»åŃĲ": 5208,
      "Ġåħ±æľī": 5209,
      "Ġåĩıè´«": 5210,
      "Ġæ°Ķä½ĵ": 5211,
      "Ġå·²æľī": 5212,
      "ĠæķĻæİĪ": 5213,
      "Ġè°ħè§£": 5214,
      "æĬ¥è¡¨": 5215,
      "Ġäºĭä¸ļ": 5216,
      "ĠæıĲåĲį": 5217,
      "ĠåĻ¨": 5218,
      "æĭīæĸ¯": 5219,
      "ĠçĶ²": 5220,
      "Ġæĥ³æ³ķ": 5221,
      "ĠæĤ£èĢħ": 5222,
      "è¯ļ": 5223,
      "Ġæģ°": 5224,
      "Ġæ½ľåĬĽ": 5225,
      "Ġå®ı": 5226,
      "ĠåĬłéĢŁ": 5227,
      "Ġçľĭè§ģ": 5228,
      "Ġæī¶": 5229,
      "ĠéĻĨ": 5230,
      "èĪį": 5231,
      "èµĦæĸĻ": 5232,
      "Ġæ¶ĪèĢĹ": 5233,
      "ĠåĲįä¹ī": 5234,
      "Ġæĸ¯éĩĮåħ°åį¡": 5235,
      "Ġçī¹æĢ§": 5236,
      "Ġæ¶Īæģ¯": 5237,
      "ĠåĲ¬åĪ°": 5238,
      "ĠéĴ»": 5239,
      "Ġè§Ĵèī²": 5240,
      "ĠæķĻç§ĳæĸĩç»Ħç»ĩ": 5241,
      "ĠåĪĽå»º": 5242,
      "Ġå¹¶æľª": 5243,
      "ĠèĲ¨å°Ķ": 5244,
      "Ġéº¦": 5245,
      "Ġå·¥ä¼ļ": 5246,
      "æ³ķåºŃ": 5247,
      "Ġæ¬£": 5248,
      "Ġåī©": 5249,
      "ĠçĬ¹": 5250,
      "ĠèĻļ": 5251,
      "èĥ½åĬĽ": 5252,
      "Ġå·´é»İ": 5253,
      "ĠåĨľæ°ĳ": 5254,
      "Ġå·¡": 5255,
      "ĠçĨŁ": 5256,
      "Ġåıĳè¨ĢèĢħ": 5257,
      "Ġcor": 5258,
      "Ġä¸»åĬ¨": 5259,
      "Ġä¸ľéģĵåĽ½": 5260,
      "ĠåıĳæĶ¾": 5261,
      "Ġå¼ł": 5262,
      "Ġç»ıæµİä½ĵ": 5263,
      "Ġå¹¿æĴŃ": 5264,
      "Ġå«": 5265,
      "Ġå¤§ä¸į": 5266,
      "åį¢": 5267,
      "ä¿ĿæĬ¤": 5268,
      "ĠæİĴéĻ¤": 5269,
      "çĽĽ": 5270,
      "Ġä¹ĺ": 5271,
      "é¢ł": 5272,
      "éĥ": 5273,
      "å·´å¸ĥ": 5274,
      "ĠæĤ²": 5275,
      "Ġåº·å¤į": 5276,
      "Ġä¸Ī": 5277,
      "Ġæ³ķå®ļ": 5278,
      "Ġab": 5279,
      "Ġæ¢¦": 5280,
      "Ġå¤§åŀĭ": 5281,
      "åĲĮæĹ¶": 5282,
      "Ġä¸İæŃ¤åĲĮæĹ¶": 5283,
      "é¡µ": 5284,
      "ĠäºĴèģĶç½ĳ": 5285,
      "Ġä»ĸäºº": 5286,
      "Ġåħ³å¿ĥ": 5287,
      "re": 5288,
      "åĬłå°Ķ": 5289,
      "Ġè¦ģç´ł": 5290,
      "Ġç§»åĬ¨": 5291,
      "ĠæĬĺ": 5292,
      "Ġè·³": 5293,
      "æ·«": 5294,
      "Ġåįģä¸Ģå±Ĭ": 5295,
      "Ġrev": 5296,
      "Ġä¸Ńåįİ": 5297,
      "ĠåĮĹçĪ±": 5298,
      "æĴĴåĨ·": 5299,
      "Ġåĩºäºİ": 5300,
      "è·¯æĴĴåĨ·": 5301,
      "è¯īè®¼": 5302,
      "æīĵ": 5303,
      "ĠåĮĹçĪ±å°Ķåħ°": 5304,
      "éģ£éĺŁ": 5305,
      "å¥¸": 5306,
      "ĠåĽ½éĻħè´¸æĺĵ": 5307,
      "and": 5308,
      "Ġæ£Ģæµĭ": 5309,
      "Ġè®²è¯Ŀ": 5310,
      "åĵĪæĭī": 5311,
      "Ġå¤±è´¥": 5312,
      "Ġåħ´è¶£": 5313,
      "ĠèĩªåĨ³": 5314,
      "Ġå¤ĩå¿ĺ": 5315,
      "Ġå¼ı": 5316,
      "Ġè½¬åıĺ": 5317,
      "åį°": 5318,
      "Ġä¸Īå¤«": 5319,
      "Ġ_": 5320,
      "ĠåĬłä¸Ĭ": 5321,
      "Ġä¸¤æ¬¡": 5322,
      "ĠäºĭåħĪ": 5323,
      "Ġä¼¦æķ¦": 5324,
      "Ġæ¡Īä¾ĭ": 5325,
      "Ġå»ºè®¾æĢ§": 5326,
      "op": 5327,
      "åĪĹé¢ł": 5328,
      "éĻ·": 5329,
      "Ġèī°": 5330,
      "ĠåĲįé¢Ŀ": 5331,
      "le": 5332,
      "ĠèĦļ": 5333,
      "ĠåĳĪ": 5334,
      "Ġæľīå®³": 5335,
      "ĠåĮĪ": 5336,
      "Ġç½Ĺé©¬å°¼äºļ": 5337,
      "Ġå¤ĸåĽ½äºº": 5338,
      "åĩĨåĪĻ": 5339,
      "Ġå¤ĩå¿ĺå½ķ": 5340,
      "ĠåıĺæĪĲ": 5341,
      "ĠæıĲä¾Ľæı´åĬ©": 5342,
      "ä¸ĭæĿ¥": 5343,
      "æ¶²": 5344,
      "Ġç©ºæ°Ķ": 5345,
      "Ġæī¿åĮħ": 5346,
      "Ġä¸Ńå°ı": 5347,
      "çĪ¾": 5348,
      "Ġç¬¬åħŃåįģ": 5349,
      "Ġä¾§éĩį": 5350,
      "Ġè´¢åĬ¡æĬ¥è¡¨": 5351,
      "ag": 5352,
      "Ġæĥ¯ä¾ĭ": 5353,
      "æĸĩä»¶": 5354,
      "ĠåīĬåĩı": 5355,
      "åĴ¨": 5356,
      "ot": 5357,
      "Ġæ¢ħ": 5358,
      "Ġå®īè£ħ": 5359,
      "Ġæµĵ": 5360,
      "äºĭåĬ¡": 5361,
      "ĠçİĽ": 5362,
      "Ġå®ĮåĸĦ": 5363,
      "ĠçĻ¾åĪĨæ¯Ķ": 5364,
      "ĠæıĲéĨĴ": 5365,
      "ĠæīĢè°ĵ": 5366,
      "Ġåıĸä»£": 5367,
      "Ġä¾ĽåºĶåķĨ": 5368,
      "ĠåĨħéĻĨ": 5369,
      "Ġè®¡åĪĴç½²": 5370,
      "Ġè·ĳ": 5371,
      "Ġéģµå¾ª": 5372,
      "éŁ¦": 5373,
      "çĥŁ": 5374,
      "å¡ŀå°Ķ": 5375,
      "Ġå¼Ģå¹ķ": 5376,
      "ç§ĺ": 5377,
      "è´¨éĩı": 5378,
      "ut": 5379,
      "Ġä¸Ģåľº": 5380,
      "æ±¡": 5381,
      "æŀª": 5382,
      "Ġä¿Ħ": 5383,
      "ĠåĮĪçīĻ": 5384,
      "ĠåĮĪçīĻåĪ©": 5385,
      "Ġå¤ĩéĢī": 5386,
      "è¯¸": 5387,
      "ĠéĢĲæ¸Ĳ": 5388,
      "ĠåĪł": 5389,
      "Ġæĭį": 5390,
      "Ġæ¯ıæľĪ": 5391,
      "æĸ¯è¾¾": 5392,
      "ĠæĪĸè®¸": 5393,
      "ĠæĹ©æľŁ": 5394,
      "ĠçĽ¸åıį": 5395,
      "Ġæµĭéĩı": 5396,
      "oc": 5397,
      "åıĤä¸İ": 5398,
      "ĠèģĮçŃī": 5399,
      "Ġæĥħå½¢": 5400,
      "ĠåŁ¹åħ»": 5401,
      "ĠåıĹä¼¤": 5402,
      "Ġç¢³": 5403,
      "Ġå§ĭç»": 5404,
      "Ġå§ĭç»Ī": 5405,
      "ĠåĿļå®ļ": 5406,
      "Ġä¸įç®¡": 5407,
      "Ġåħļ": 5408,
      "Ġå°ĨæĿ¥": 5409,
      "ĠæĦıæĢĿ": 5410,
      "ç¾": 5411,
      "Ġå°ıåŀĭ": 5412,
      "Ġä¸»åĬŀ": 5413,
      "ĠåĸĿ": 5414,
      "Ġåģ·": 5415,
      "ap": 5416,
      "Ġå¡ŀåĨħ": 5417,
      "åĨľç»Ħç»ĩ": 5418,
      "Ġä»¶": 5419,
      "Ġèµ¢": 5420,
      "Ġæľ¬å±Ĭ": 5421,
      "ĠåīįæĻ¯": 5422,
      "Ġè¡¥åĬ©": 5423,
      "Ġclass": 5424,
      "Ġåįĸæ·«": 5425,
      "ĠéĻĲåº¦": 5426,
      "Ġæĸ°éĹ»éĥ¨": 5427,
      "æĹĭ": 5428,
      "ĠæĪĸæĺ¯": 5429,
      "Ġè£ģåĨĽè°ĪåĪ¤": 5430,
      "ĠåĳĬçŁ¥": 5431,
      "Ġä¸Ĭå¸Ŀ": 5432,
      "Ġç¬¬åĽĽæ¬¡": 5433,
      "Ġè¯ģåĪ¸": 5434,
      "Ġä¸»å¼ł": 5435,
      "ub": 5436,
      "ĠçĶŁåŃĺ": 5437,
      "Ġç»Ŀå¯¹": 5438,
      "Ġå¡ŀåĨħåĬłå°Ķ": 5439,
      "Ġä¹į": 5440,
      "ĠéĢĴ": 5441,
      "Ġå©´": 5442,
      "äº§æĿĥ": 5443,
      "ĠæĮĩæķ°": 5444,
      "Ġéº»éĨī": 5445,
      "éģ¿": 5446,
      "ĠèĶ": 5447,
      "Ġä¼ĺåĬ¿": 5448,
      "éĺ¿æĭīä¼¯": 5449,
      "ĠçĶŁæĢģç³»ç»Ł": 5450,
      "Ġæ²Ļçī¹éĺ¿æĭīä¼¯": 5451,
      "å®£è¨Ģ": 5452,
      "Ġå½ĵéĢī": 5453,
      "ç»į": 5454,
      "ĠåĽŀåĪ°": 5455,
      "ĠåĪĨå¸ĥ": 5456,
      "Ġä¹ĮæĭīåľŃ": 5457,
      "Ġä¿ĿåŃĺ": 5458,
      "ĠæĳĬæ¬¾": 5459,
      "Ġè¿ģ": 5460,
      "é»İåĬł": 5461,
      "æłĳ": 5462,
      "ĠåĲĦåľ°": 5463,
      "Ġåĵ¥æĸ¯è¾¾": 5464,
      "Ġé¦ĸå¸Ń": 5465,
      "ĠåĵĪèĲ¨": 5466,
      "Ġåĵ¥æĸ¯è¾¾é»İåĬł": 5467,
      "åĴ¨è¯¢": 5468,
      "Ġè¯º": 5469,
      "Ġå§Ķåĳĺ": 5470,
      "ĠåĽļçĬ¯": 5471,
      "è®²": 5472,
      "Ġå®¶äºº": 5473,
      "Ġæľīæľº": 5474,
      "Ġç»§æī¿": 5475,
      "Ġæŀª": 5476,
      "ä¸Ŀ": 5477,
      "Ġç²®åĨľç»Ħç»ĩ": 5478,
      "ç²®": 5479,
      "iv": 5480,
      "Ġä½ľä¸ļ": 5481,
      "ĠæĢ»æķ°": 5482,
      "Ġä¼ļä¸Ĭ": 5483,
      "ĠèĦ¸": 5484,
      "ç¤¼": 5485,
      "èĥĮ": 5486,
      "ä¸ºæŃ¢": 5487,
      "Ġåį°åıĳ": 5488,
      "å²ģ": 5489,
      "Ġä¸°å¯Į": 5490,
      "Ġé«ĺæķĪ": 5491,
      "èĭ±": 5492,
      "Ġof": 5493,
      "Ġä¸Ĭæµ·": 5494,
      "Ġä¾Ŀæ³ķ": 5495,
      "ĠæĿľ": 5496,
      "Ġä¸ºæľŁ": 5497,
      "çģ¾å®³": 5498,
      "ĠåĲĦç±»": 5499,
      "Ġè®®åĳĺ": 5500,
      "Ġåħħæ»¡": 5501,
      "ĠèĮ": 5502,
      "ĠåĩºåĶ®": 5503,
      "åħ±ä½ĵ": 5504,
      "Ġå°Ĭä¸¥": 5505,
      "åį·": 5506,
      "Ġå¯ĨåĪĩåĲĪä½ľ": 5507,
      "Ġå°Ķ": 5508,
      "ĠéĿ©": 5509,
      "Ġæł¸å®ļ": 5510,
      "ĠéĻĪè¿°": 5511,
      "çĶ»": 5512,
      "ĠçĥŁ": 5513,
      "ĠåħŃä¸ª": 5514,
      "ĠéĻ¢": 5515,
      "åĲĦåľ°": 5516,
      "ĠåŃķ": 5517,
      "Ġç¡¬": 5518,
      "Ġä¸ĢåįĬ": 5519,
      "Ġä¸¤åĲį": 5520,
      "ĠæĪĳä¼ļ": 5521,
      "Ġå¯¹å¤ĸ": 5522,
      "ĠçľĭæĿ¥": 5523,
      "åĤ¨": 5524,
      "Ġåħ³èģĶ": 5525,
      "Ġä¸ĸçķĮåĲĦåľ°": 5526,
      "ĠæĬĵ": 5527,
      "Ġè¿ĳä¸ľ": 5528,
      "ĠåŁºåĩĨ": 5529,
      "Ġçĭ¬çī¹": 5530,
      "Ġå®īç½®": 5531,
      "ĠçĶ·åŃ©": 5532,
      "Ġæĸ¹éĴĪ": 5533,
      "éŃ": 5534,
      "Ġä¼ģ": 5535,
      "Ġæī£": 5536,
      "Ġäº¤ä»ĺ": 5537,
      "Ġî": 5538,
      "è¡ĮæĶ¿": 5539,
      "ĠåĨħç½Ĺ": 5540,
      "ĠåĲįåŃĹ": 5541,
      "ĠåĲ¦åĪĻ": 5542,
      "Ġè¿Ļä½į": 5543,
      "èĥľ": 5544,
      "äººéģĵ": 5545,
      "èĻ«": 5546,
      "æ¶¦": 5547,
      "Ġç¼ºå°ĳ": 5548,
      "Ġè¡¥è´´": 5549,
      "ĠåĿ¦æ¡ĳ": 5550,
      "çĲĨäºĭä¼ļ": 5551,
      "Ġè¿«åĪĩ": 5552,
      "æŁ±": 5553,
      "ĠåĮĹéĥ¨": 5554,
      "ĠåĨħç½Ĺæ¯ķ": 5555,
      "Ġåıįèħ": 5556,
      "Ġå£«åħµ": 5557,
      "Ġå¤§ä¸įåĪĹé¢ł": 5558,
      "ĠåįıåĲĮ": 5559,
      "ĠåĬłçº³": 5560,
      "Ġå¦Ī": 5561,
      "ĠåĿ¦æ¡ĳå°¼äºļ": 5562,
      "Ġä¸įå¤Ł": 5563,
      "Ġç¼Ķç»ĵ": 5564,
      "Ġæ°¯": 5565,
      "Ġè§£æĶ¾": 5566,
      "ĠåĵĪèĲ¨åħĭæĸ¯åĿ¦": 5567,
      "å°ģ": 5568,
      "Ġå¼ºåĮĸ": 5569,
      "Ġè¿ª": 5570,
      "łéģĵ": 5571,
      "ĠåĪĨåŃĲ": 5572,
      "ä¼Ĳåħĭ": 5573,
      "æĹħ": 5574,
      "åħŃå±Ĭ": 5575,
      "ĠæľīçĽĬ": 5576,
      "ĠåĬłå·¥": 5577,
      "Ġen": 5578,
      "ç£": 5579,
      "å¹³çŃī": 5580,
      "Ġå¥¥è¿Ĳ": 5581,
      "ĠèĵĿ": 5582,
      "ĠæĸŃ": 5583,
      "ĠèĩªçĦ¶çģ¾å®³": 5584,
      "Ġä»»èģĮ": 5585,
      "æ¡Į": 5586,
      "Ġæķħäºĭ": 5587,
      "ĠäºĶä¸ª": 5588,
      "æī§è¡Į": 5589,
      "Ġä¸įä¹ħ": 5590,
      "Ġä»¥æŃ¤": 5591,
      "è´¡çĮ®": 5592,
      "ĠæĸĩèģĮ": 5593,
      "ç¬¦": 5594,
      "Ġåĵį": 5595,
      "ĠæļĤåģľ": 5596,
      "Ġé©»åľ°": 5597,
      "Ġå¹´è½»äºº": 5598,
      "æ¶¨": 5599,
      "Ġç§»äº¤": 5600,
      "çĿĽ": 5601,
      "Ġå¹¿åĳĬ": 5602,
      "Ġçī¹éģ£éĺŁ": 5603,
      "æ¢°": 5604,
      "ĠåĽ½éĻħæ³ķåºŃ": 5605,
      "Ġæģ©": 5606,
      "Ġè¿ŀæİ¥": 5607,
      "åĽĽæĿ¡": 5608,
      "Ġä¼łæŁĵ": 5609,
      "Ġæ¡£": 5610,
      "ĠæľīçĶ¨": 5611,
      "ĠçªĹ": 5612,
      "Ġè´ŁåĢº": 5613,
      "Ġä½Ľ": 5614,
      "Ġèĥľ": 5615,
      "é¾Ļ": 5616,
      "åįģå¹´": 5617,
      "Ġè¾¹å¢ĥ": 5618,
      "ĠéŁ©": 5619,
      "Ġåĩ¡": 5620,
      "ĠæĮ¯": 5621,
      "Ġå¼ºå¥¸": 5622,
      "éĶģ": 5623,
      "Ġæ¬º": 5624,
      "Ġæį·åħĭåħ±åĴĮåĽ½": 5625,
      "Ġæ¦Ĥç®Ĺ": 5626,
      "¡ĳ": 5627,
      "ä¾µ": 5628,
      "Ġç¨İæĶ¶": 5629,
      "Ġè§Ĥå¿µ": 5630,
      "ĠéļıæĹ¶": 5631,
      "Ġht": 5632,
      "Ġçľĭçľĭ": 5633,
      "åħ´è¶£": 5634,
      "Ġé¥¥": 5635,
      "Ġæĸ¹ä¾¿": 5636,
      "Ġæ±ĩç¼ĸ": 5637,
      "Ġmar": 5638,
      "Ġå¿ĺ": 5639,
      "ĠåįĹåįĹ": 5640,
      "Ġæ°¸ä¹ħ": 5641,
      "ç»ŃæĢ§": 5642,
      "Ġä¹Ķ": 5643,
      "Ġå¯¼è¨Ģ": 5644,
      "ĠåĨĽå¤ĩ": 5645,
      "Ġå½ĵäºĭäºº": 5646,
      "Ġåħħè¶³": 5647,
      "èıĮ": 5648,
      "å¤ĦçĲĨ": 5649,
      "Ġå°½éĩı": 5650,
      "ĠåºŁéĻ¤": 5651,
      "ĠæĶ¿åħļ": 5652,
      "Ġä¸įäººéģĵ": 5653,
      "Ġæ¥¼": 5654,
      "ĠéĽĩçĶ¨": 5655,
      "Ġä¸ľåįĹ": 5656,
      "Ġè®¤å®ļ": 5657,
      "Ġå¤įåĳĺ": 5658,
      "Ġq": 5659,
      "Ġäº§ä¸ļ": 5660,
      "Ġè´Łè´£äºº": 5661,
      "Ġå¦¥": 5662,
      "Ġåı²": 5663,
      "ĠæīĢå¾Ĺ": 5664,
      "ĠæĹ¥å¸¸": 5665,
      "å¤ľ": 5666,
      "Ġåºķ": 5667,
      "ĠèŃ¦æĸ¹": 5668,
      "Ġæ¤įçī©": 5669,
      "Ġå¯¹å¾ħ": 5670,
      "Ġç½®": 5671,
      "å¾®": 5672,
      "Ġde": 5673,
      "ĠéĹ´æİ¥": 5674,
      "Ġè¾¹ç¼ĺ": 5675,
      "Ġæĸĩæľ¬": 5676,
      "Ġä¸Ģåıª": 5677,
      "çĵ¦å¤ļ": 5678,
      "ĠéĴ¢": 5679,
      "çĽ®æłĩ": 5680,
      "ri": 5681,
      "Ġé©¬å°Ķ": 5682,
      "Ġéĺµ": 5683,
      "Ġçº¦æĿŁåĬĽ": 5684,
      "ĠåĬłåī§": 5685,
      "ĠæĬ«": 5686,
      "Ġç¯": 5687,
      "Ġè£ģå®ļ": 5688,
      "Ġæ±¤": 5689,
      "Ġæİ¨è¡Į": 5690,
      "ĠæĹ§": 5691,
      "è¿¹": 5692,
      "çģµ": 5693,
      "Ġåı¯çĶ¨": 5694,
      "ĠæĺİçĻ½": 5695,
      "Ġèµ«": 5696,
      "Ġå¸Ń": 5697,
      "ä¾Ŀ": 5698,
      "Ġèİ·æĤī": 5699,
      "ĠéĤ»åĽ½": 5700,
      "Ġæµ·æ´ĭæ³ķ": 5701,
      "å½ĵå±Ģ": 5702,
      "ĠæĢ»ç»ĵ": 5703,
      "æĸ¹éĴĪ": 5704,
      "Ġæ±ī": 5705,
      "Ġå¥´": 5706,
      "Ġè¯ļ": 5707,
      "Ġåı¯æĮģ": 5708,
      "Ġç»ĦåĲĪ": 5709,
      "Ġå°ĳå¹´": 5710,
      "Ġäº¬": 5711,
      "ĠçŃ¾è®¢": 5712,
      "Ġå¯Ħ": 5713,
      "ĠåīįæıĲ": 5714,
      "åŀ": 5715,
      "ĠçĲĨæĥ³": 5716,
      "ĠåŃ£": 5717,
      "Ġç¬Ķ": 5718,
      "å¿Ĩ": 5719,
      "Ġåı¯æĮģç»ŃæĢ§": 5720,
      "Ġçİ»åĪ©ç»´äºļ": 5721,
      "èĥİ": 5722,
      "ĠçŁ¥è¯Ĩäº§æĿĥ": 5723,
      "Ġå¿ĹæĦ¿äººåĳĺ": 5724,
      "ĠæľĢé«ĺæ³ķéĻ¢": 5725,
      "éĽ¨": 5726,
      "Ġäºİæĺ¯": 5727,
      "Ġçº²è¦ģ": 5728,
      "Ġåį¡å¡Ķå°Ķ": 5729,
      "Ġéĩĳå±ŀ": 5730,
      "éģĹæĨ¾": 5731,
      "èģļ": 5732,
      "Ġåľ°éľĩ": 5733,
      "Ġè¿Ļä»½": 5734,
      "ĠæĿ¥çľĭ": 5735,
      "æĵ": 5736,
      "Ġæ¯ģçģŃæĢ§": 5737,
      "Ġç¬¬äºĮä¸ª": 5738,
      "Ġä¸ŃéĹ´": 5739,
      "Ġæħ¢": 5740,
      "Ġè·¯çº¿": 5741,
      "ĠåĮºåĪ«": 5742,
      "Ġsr": 5743,
      "Ġç§¯æŀģåıĤä¸İ": 5744,
      "æľ«": 5745,
      "ĠæĢ§æļ´åĬĽ": 5746,
      "Ġä»»ä½ķäºº": 5747,
      "å¸Į": 5748,
      "Ġè½¨": 5749,
      "ç¬¬": 5750,
      "Ġæĸ¯æ´Ľä¼Ĳåħĭ": 5751,
      "Ġå©´åĦ¿": 5752,
      "ĠæĶ¹ä¸º": 5753,
      "Ġæĸĩç«ł": 5754,
      "è°·": 5755,
      "æĸ¥": 5756,
      "av": 5757,
      "ĠèĲ¨å°Ķçĵ¦å¤ļ": 5758,
      "Ġéĺ¿å°Ķå·´": 5759,
      "Ġå¤ľ": 5760,
      "è¿ŀ": 5761,
      "Ġä¸įå¿ħ": 5762,
      "Ġä¾¦": 5763,
      "ĠçĿĢæīĭ": 5764,
      "ĠæŃĮ": 5765,
      "ĠåĬ¨æĢģ": 5766,
      "ĠéĹ®è´£åĪ¶": 5767,
      "Ġè¿ĳå¹´æĿ¥": 5768,
      "Ġæ¨": 5769,
      "çĹĽ": 5770,
      "åįł": 5771,
      "Ġä¹¡": 5772,
      "Ġçģ¾éļ¾": 5773,
      "Ġä¾ĭå¤ĸ": 5774,
      "ĠæļĹ": 5775,
      "ĠçģŃ": 5776,
      "ĠéĽħ": 5777,
      "Ġç»´ä¿®": 5778,
      "Ġè®¾åľ¨": 5779,
      "ĠåĽ½åĬ¡éĻ¢": 5780,
      "ĠèĦĳ": 5781,
      "ĠèµĽ": 5782,
      "Ġä¸ĵéĹ¨çŁ¥è¯Ĩ": 5783,
      "Ġä¼ļè®¡åĩĨåĪĻ": 5784,
      "ä¸įåĪ°": 5785,
      "ĠèµĦæºĲç®¡çĲĨ": 5786,
      "ĠçĶ»": 5787,
      "Ġäºĭæķħ": 5788,
      "Ġä¿ĿåĬł": 5789,
      "ç²¾": 5790,
      "éĺµ": 5791,
      "Ġä¿ĿåĬłåĪ©äºļ": 5792,
      "Ġæµ·å¤ĸ": 5793,
      "Ġæī©å±ķ": 5794,
      "çĶµè¯Ŀ": 5795,
      "ĠæĬķè¯ī": 5796,
      "ĠäºĭæĢģ": 5797,
      "ter": 5798,
      "Ġéķĩ": 5799,
      "Ġæ²Ł": 5800,
      "Ġå°¼åĬłæĭī": 5801,
      "Ġå°¼åĬłæĭīçĵľ": 5802,
      "ĠæĶ¯æı´": 5803,
      "ĠæıĲåįĩ": 5804,
      "è¯¾": 5805,
      "Ġéĺ¿å°Ķå·´å°¼äºļ": 5806,
      "Ġæį®ç§°": 5807,
      "Ġæł¼å¼ı": 5808,
      "Ġåħ³éĹŃ": 5809,
      "ĠèŀįåĲĪ": 5810,
      "Ġè§Ħç«ł": 5811,
      "ĠåıįèħĲè´¥": 5812,
      "Ġç»¿èī²": 5813,
      "Ġèµ¶": 5814,
      "ĠæŃ¤é¡¹": 5815,
      "Ġæľ¬äºº": 5816,
      "ĠæĪ¿éĹ´": 5817,
      "Ġå¤Ħå¢ĥ": 5818,
      "Ġçł´äº§": 5819,
      "åįľ": 5820,
      "åŁĥ": 5821,
      "ä»£è¡¨": 5822,
      "ĠæĹ¶éĹ´è¡¨": 5823,
      "æĽ¿": 5824,
      "Ġä¸Ģä»¶": 5825,
      "Ġå½±": 5826,
      "çĶ°": 5827,
      "ĠæŃ¦åĬĽ": 5828,
      "ĠåĲįç§°": 5829,
      "æĭ¨": 5830,
      "ĠçŃĸçķ¥": 5831,
      "ĠåĽ½å¤ĸ": 5832,
      "Ġéĺħ": 5833,
      "ĠçļĦç¡®": 5834,
      "Ġèº«ä¸Ĭ": 5835,
      "Ġå¤ĸäº¤éĥ¨éķ¿": 5836,
      "Ġæ±ĩæĬ¥": 5837,
      "æ°ĳä¸»ä¸»ä¹ī": 5838,
      "æŃĮ": 5839,
      "çĺ": 5840,
      "éĵģ": 5841,
      "ĠåĲİèĢħ": 5842,
      "Ġåºı": 5843,
      "é¥Ń": 5844,
      "Ġæ®ĭå¿į": 5845,
      "Ġæİ¢ç´¢": 5846,
      "Ġåı¬éĽĨ": 5847,
      "Ġå¹¼": 5848,
      "Ġè¯¯": 5849,
      "Ġå®ıè§Ĥ": 5850,
      "Ġå¤ļç±³": 5851,
      "ĠèĢĥè¯ķ": 5852,
      "Ġè§Ĩå¯Ł": 5853,
      "ĠæŃ£ä¹ī": 5854,
      "Ġä½ķç§į": 5855,
      "Ġé¦ĸéķ¿": 5856,
      "åįļ": 5857,
      "ĠåĬ¿": 5858,
      "Ġæ¯Ķçİĩ": 5859,
      "Ġè¿Ŀæ³ķ": 5860,
      "Ġè´Łæľī": 5861,
      "æĹ±": 5862,
      "äº§åĵģ": 5863,
      "Ġcr": 5864,
      "ĠæĢ§èĥ½": 5865,
      "Ġèį£": 5866,
      "Ġå®Ŀè´": 5867,
      "Ġèĳ£äºĭä¼ļ": 5868,
      "Ġä¹ŁéĹ¨": 5869,
      "Ġåı¦ä¸Ģæĸ¹éĿ¢": 5870,
      "Ġå°ıåŃ¦": 5871,
      "ĠåħĪåīį": 5872,
      "ĠçĶ¨åĵģ": 5873,
      "Ġè´¸æĺĵæ³ķ": 5874,
      "ĠçĹħäºº": 5875,
      "Ħå¼Ł": 5876,
      "Ġçīµ": 5877,
      "ĠæľĪä»½": 5878,
      "Ġä½ıå®": 5879,
      "è¾ŀ": 5880,
      "åĭŁ": 5881,
      "ĠçªģçĦ¶": 5882,
      "ĠæľĿé²ľæ°ĳä¸»ä¸»ä¹ī": 5883,
      "ĠæľĿé²ľæ°ĳä¸»ä¸»ä¹īäººæ°ĳåħ±åĴĮåĽ½": 5884,
      "æľīæķĪ": 5885,
      "Ġæīİ": 5886,
      "Ġä¿¡å¿ĥ": 5887,
      "ç»ª": 5888,
      "Ġç©ºä¸Ń": 5889,
      "Ġ=": 5890,
      "Ġä¸ĭéĿ¢": 5891,
      "Ġç¼ºéĻ·": 5892,
      "ĠæĪ´": 5893,
      "ĠæŃ£å½ĵ": 5894,
      "ĠèĴĻåı¤": 5895,
      "Ġåº§": 5896,
      "Ġæ¸łéģĵ": 5897,
      "ĠçĹħæ¯Ĵ": 5898,
      "Ġç½ļ": 5899,
      "ĠæĪ¿å±ĭ": 5900,
      "Ġéħįç½®": 5901,
      "èĤī": 5902,
      "Ġåģ¿è¿ĺ": 5903,
      "ĠåĬ¨åĬĽ": 5904,
      "ä¿Ŀåģ¥": 5905,
      "åĪĨä¹ĭä¸Ģ": 5906,
      "Ġæİ¥è¿ĳ": 5907,
      "ĠåĪĨåºŃ": 5908,
      "Ġå¤§åĬĽ": 5909,
      "Ġæĭĸå»¶": 5910,
      "Ġä¸ªåĪ«": 5911,
      "ĠæĿĢä¼¤": 5912,
      "å¿§": 5913,
      "Ġæĸ¯æ´Ľæĸĩ": 5914,
      "Ġåħ¬è·¯": 5915,
      "å¥ĸ": 5916,
      "Ġåįķæĸ¹éĿ¢": 5917,
      "çĬ¯ç½ª": 5918,
      "Ġéģ£è¿Ķ": 5919,
      "åı³": 5920,
      "ĠæĺŁæľŁä¸Ģ": 5921,
      "Ġå¤ĦåĨ³": 5922,
      "Ġç¤¾ä¼ļä¿Ŀéļľ": 5923,
      "Ġæŀģå¤§": 5924,
      "Ġæĸ¯æ´Ľæĸĩå°¼äºļ": 5925,
      "Ġçº³ç±³": 5926,
      "ĠçľŁå®ŀ": 5927,
      "ĠèĪŀ": 5928,
      "Ġç§©åºı": 5929,
      "Ġç§ĳåŃ¦å®¶": 5930,
      "ĠæİĴéĽ·": 5931,
      "ĠèĢ¶åĴĮ": 5932,
      "éĽĨåĽ¢": 5933,
      "Ġå¤ļç±³å°¼": 5934,
      "ĠåįĹåįĹåĲĪä½ľ": 5935,
      "Ġä¸ŃéĿŀåħ±åĴĮåĽ½": 5936,
      "Ġèĥ¡": 5937,
      "ĠèĢ¶åĴĮåįİ": 5938,
      "ĠçĽ®å½ķ": 5939,
      "ĠæĺŁæľŁäºĶ": 5940,
      "Ġçľ¼çĿĽ": 5941,
      "Ġä¾ĿéĿł": 5942,
      "ĠéļĶç¦»": 5943,
      "Ġå¹¸ç¦ı": 5944,
      "Ġç¬¬åįģä¸Ģ": 5945,
      "Ġç®¡çĲĨäººåĳĺ": 5946,
      "Ġç©·äºº": 5947,
      "Ġæĸ¼": 5948,
      "Ġåħ±äº«": 5949,
      "Ġå»": 5950,
      "ĠåĽ½éĻħæ³ķéĻ¢": 5951,
      "ĠéĻª": 5952,
      "Ġè·Łè¸ª": 5953,
      "çĽĳçĿ£": 5954,
      "Ġå¦Ĥä»Ĭ": 5955,
      "Ġè¥¿æĸ¹": 5956,
      "Ġæľīç½ª": 5957,
      "Ġæµª": 5958,
      "çĽĹ": 5959,
      "éº¦éļĨ": 5960,
      "ĠéģĹæĨ¾": 5961,
      "æ²¡": 5962,
      "å°Ķå¤ļ": 5963,
      "Ġu": 5964,
      "ĠæľªæĪĲ": 5965,
      "æĻº": 5966,
      "ĠåĸĢéº¦éļĨ": 5967,
      "ĠåĿļåĨ³": 5968,
      "Ġè¡¨éĿ¢": 5969,
      "ĠåºĨ": 5970,
      "Ġæı´": 5971,
      "Ġç»ıç¤¾": 5972,
      "Ġåįķä¸Ģ": 5973,
      "æ±Ĥæĸ¯": 5974,
      "Ġæ¯ĽéĩĮæ±Ĥæĸ¯": 5975,
      "Ġæŀľ": 5976,
      "Ġæłĩå¿Ĺ": 5977,
      "ĠçŃīå¾ħ": 5978,
      "Ġæı´åĬ©åĽ¢": 5979,
      "Ġåħ¶ä»ĸäºº": 5980,
      "Ġç§ĺå¯Ĩ": 5981,
      "ĠçĤ¸": 5982,
      "Ġä»ª": 5983,
      "è§£åĨ³": 5984,
      "Ġä½ľåĵģ": 5985,
      "ç´¯": 5986,
      "ĠåıĺéĿ©": 5987,
      "ĠèĨ": 5988,
      "ĠåıĳåĬ¨": 5989,
      "Ġå¦Īå¦Ī": 5990,
      "ĠçĽŁ": 5991,
      "ĠçĽĺ": 5992,
      "Ġåĳ¨åĽ´": 5993,
      "Ġèľ": 5994,
      "Ġæĩ": 5995,
      "Ġä¼ģåĽ¾": 5996,
      "ä¹°åĬł": 5997,
      "æī©": 5998,
      "Ġæ¡£æ¡Ī": 5999,
      "ĠçīĻä¹°åĬł": 6000,
      "å£¤": 6001,
      "ĠåįıåķĨä¸Ģèĩ´": 6002,
      "Ġå¾ª": 6003,
      "éĵ¾": 6004,
      "Ġä¸Ńåįİäººæ°ĳåħ±åĴĮåĽ½": 6005,
      "å½Ĵ": 6006,
      "Ġèĩªè¡Į": 6007,
      "ĭéķ¿": 6008,
      "Ġçİ°çĬ¶": 6009,
      "Ġæ±ŀ": 6010,
      "Ġä¿¡çĶ¨": 6011,
      "Ġä¸ĢåĽ½": 6012,
      "od": 6013,
      "ĠèģĶåĲĪåĽ½å¼Ģåıĳ": 6014,
      "ĠèģĶåĲĪåĽ½å¼Ģåıĳè®¡åĪĴç½²": 6015,
      "ĠèĩŃ": 6016,
      "Ġsp": 6017,
      "èĥ½æºĲ": 6018,
      "éĻ¶": 6019,
      "Ġè¡£æľį": 6020,
      "Ġäº¬éĥ½": 6021,
      "Ġä½Ļé¢Ŀ": 6022,
      "Ġä¸ŃåĽ½æĶ¿åºľ": 6023,
      "Ġéľį": 6024,
      "Ġç¼ĵè§£": 6025,
      "Ġå¤Ħç½®": 6026,
      "Ġåħµ": 6027,
      "Ġéĺ´": 6028,
      "ĠæľºåĻ¨": 6029,
      "Ġå®ĪåĪĻ": 6030,
      "æģ¶": 6031,
      "æİ¢": 6032,
      "Ġç½ªçĬ¯": 6033,
      "Ġè®¢ç«ĭ": 6034,
      "åĪĬ": 6035,
      "Ġç»ĳ": 6036,
      "è®¨è®º": 6037,
      "Ġç¬¬åįģäºĮ": 6038,
      "èĸª": 6039,
      "Ġä¸§å¤±": 6040,
      "Ġä»ĩå¤ĸ": 6041,
      "è½¯": 6042,
      "Ġå½¼æŃ¤": 6043,
      "å¦ĤæŃ¤": 6044,
      "æĹ§": 6045,
      "Ġå·¥èīº": 6046,
      "Ġæİ¨åĩº": 6047,
      "ĠåŃ¦ä¼ļ": 6048,
      "Ġæ±ĩçİĩ": 6049,
      "Ġæ¯ķä¸ļ": 6050,
      "Ġæ²¿æµ·": 6051,
      "è´µ": 6052,
      "ĠåºŃ": 6053,
      "Ġå®¢è§Ĥ": 6054,
      "ĠåħĦå¼Ł": 6055,
      "Ġç»©": 6056,
      "Ġè¾©æĬ¤": 6057,
      "åĺ": 6058,
      "å§Ĳ": 6059,
      "Ġèį¯åĵģ": 6060,
      "Ġæ©": 6061,
      "æ´Ĺ": 6062,
      "ĠçĶŁèĤ²": 6063,
      "Ġä¾µçķ¥": 6064,
      "Ġcorr": 6065,
      "Ġä¸Ģæĸ¹éĿ¢": 6066,
      "ĠèŃ¦åĳĬ": 6067,
      "Ġè½»æŃ¦åĻ¨": 6068,
      "ĠåĬłå¤§": 6069,
      "ĠåįģäºĶå±Ĭ": 6070,
      "ĠåĪłéĻ¤": 6071,
      "Ġåıĳè¨Ģäºº": 6072,
      "åĮ¹": 6073,
      "Ġç½ĳä¸Ĭ": 6074,
      "Ġä¹įå¾Ĺ": 6075,
      "Ġä¸ĭæĿ¥": 6076,
      "ĠåŁºçĿ£": 6077,
      "åŁ¹è®Ń": 6078,
      "åĢĴ": 6079,
      "è®¤è¯Ĩ": 6080,
      "Ġæ³ķè¯Ń": 6081,
      "ĠæļĤæĹ¶": 6082,
      "Ġä¸įå¦": 6083,
      "Ġæľīè¾±": 6084,
      "Ġé¤Ĳ": 6085,
      "çĨŁ": 6086,
      "Ġthe": 6087,
      "Ġè£Ĥ": 6088,
      "Ġè½¬éĢĴ": 6089,
      "é¥¿": 6090,
      "Ġæİ¥æĶ¶": 6091,
      "Ġå°Ŀ": 6092,
      "ĠåĲĦä½į": 6093,
      "Ġç¹ģèį£": 6094,
      "Ġåħ¶ä½Ļ": 6095,
      "Ġèĩªä¸»": 6096,
      "åįģåŃĹ": 6097,
      "æŃ¦è£ħ": 6098,
      "ĠåĨįçĶŁ": 6099,
      "Ġçº¯": 6100,
      "Ġå®¡è¯Ħ": 6101,
      "Ġä¹Įåħ¹": 6102,
      "è¢ĸ": 6103,
      "Ġä¸ĸè´¸": 6104,
      "Ġpr": 6105,
      "åįıå®ļ": 6106,
      "èĦı": 6107,
      "Ġç´¯": 6108,
      "Ġå¿ħè¦ģæĢ§": 6109,
      "Ġè¡ĮæĶ¿å½ĵå±Ģ": 6110,
      "Ġä¹Įåħ¹åĪ«": 6111,
      "Ġç»©æķĪ": 6112,
      "Ġçŀ": 6113,
      "å½©": 6114,
      "å¢Ļ": 6115,
      "é¼ł": 6116,
      "ĠéĵŃ": 6117,
      "æĦ": 6118,
      "ĠæĪ¿åŃĲ": 6119,
      "Ġæ¹ĸ": 6120,
      "Ġåħ¸": 6121,
      "Ġand": 6122,
      "ļæī°": 6123,
      "Ġå½ĵä¸Ń": 6124,
      "Ġç»Ĩèĥŀ": 6125,
      "Ġè¡¨æł¼": 6126,
      "Ġç»ĪäºĨ": 6127,
      "æļ´": 6128,
      "ĠåĪĨæķ£": 6129,
      "Ġä¸»ä¹ī": 6130,
      "å¦ĩå¥³": 6131,
      "Ġæľ¯": 6132,
      "éĢ»": 6133,
      "æħİ": 6134,
      "Ġè½½äºİ": 6135,
      "ĠåĲīå°Ķ": 6136,
      "ĠåĢºæĿĥ": 6137,
      "Ġå¤ļæ¬¡": 6138,
      "ĠåĽ½åĪ«": 6139,
      "Ġä¿¡åı·": 6140,
      "Ġç¬¬ä¸Ģå±Ĭ": 6141,
      "Ġå¾Īéļ¾": 6142,
      "Ġæµ·ä¸Ĭ": 6143,
      "Ġæī¹è¯Ħ": 6144,
      "Ġè¯´æ³ķ": 6145,
      "ĠåĪĳäºĭè¯īè®¼": 6146,
      "ĠåºĶæľī": 6147,
      "ĠæĭĨ": 6148,
      "ä¸¤": 6149,
      "Ġä¸ºæŃ¢": 6150,
      "Ġæ²ŁéĢļ": 6151,
      "ĠéĤ£ç§į": 6152,
      "Ġç«ŀäºīåĬĽ": 6153,
      "Ġè¢«è¿«": 6154,
      "Ġæŀģåħ¶": 6155,
      "å·§": 6156,
      "Ġçº¸": 6157,
      "Ġç¥ĸ": 6158,
      "é½Ĳ": 6159,
      "Ġé¦ĸè¦ģ": 6160,
      "æīİ": 6161,
      "Ġåľ°å¸¦": 6162,
      "Ġèĭ¦": 6163,
      "Ġçľĭèµ·æĿ¥": 6164,
      "Ġå±ĭ": 6165,
      "Ġæ¯ıä¸Ģ": 6166,
      "Ġé©¬æĭī": 6167,
      "ĠæĳĦ": 6168,
      "Ġä¼´": 6169,
      "af": 6170,
      "Ġæ¸¸æĪı": 6171,
      "ĠåĪºæ¿Ģ": 6172,
      "Ġè¯ĳ": 6173,
      "å¨ľ": 6174,
      "ĠæīĢå±ŀ": 6175,
      "Ġå¼Ģä¼ļ": 6176,
      "Ġé¢Ħç®Ĺå¤ĸ": 6177,
      "ĠçŃ¾åĲį": 6178,
      "Ġåıĳè¡Į": 6179,
      "ç¾¤ä½ĵ": 6180,
      "Ġçº§åĪ«": 6181,
      "Ġä¹ĭåĨħ": 6182,
      "Ġä¸Ĭç©º": 6183,
      "æĿ¯": 6184,
      "æ±ī": 6185,
      "ĠæľīåĬĽ": 6186,
      "Ġå¼ºè°ĥæĮĩåĩº": 6187,
      "ĠåģļåĪ°": 6188,
      "ĠæĹ¥èµ·": 6189,
      "Ġèµŀæ¯Ķäºļ": 6190,
      "Ġå¤©çĦ¶": 6191,
      "ĠåĻ": 6192,
      "Ġå¿«ä¹Ĳ": 6193,
      "ĠåıĤæķ°": 6194,
      "Ġç§įæ¤į": 6195,
      "æĥĬ": 6196,
      "æķĻè®Ń": 6197,
      "Ġç®ĢåĮĸ": 6198,
      "ĠæĢĢåŃķ": 6199,
      "Ġçİ°ä»£åĮĸ": 6200,
      "Ġå¼ºå¤§": 6201,
      "ĠåĽĽå¹´": 6202,
      "æ½": 6203,
      "Ġå¤©æ°Ķ": 6204,
      "Ġä¸¤åĽ½": 6205,
      "èıľ": 6206,
      "ĠæĻļä¸Ĭ": 6207,
      "ĠæĮĤ": 6208,
      "Ġéĺħè¯»": 6209,
      "Ġä¸ŃçŃī": 6210,
      "Ġåľ°åŁŁ": 6211,
      "Ġxx": 6212,
      "ĠåĩĢé¢Ŀ": 6213,
      "éļĶ": 6214,
      "ĠæŁĲä¸ª": 6215,
      "ĠæĬ«éľ²": 6216,
      "çłĶç©¶": 6217,
      "Ġåģĩè®¾": 6218,
      "ĠéĵŃè®°": 6219,
      "Ġå½¢åĬ¿": 6220,
      "Ġèĥ½åĲ¦": 6221,
      "Ġèĩ³äºİ": 6222,
      "ĠçĽĸ": 6223,
      "Ġåįıè°ĥä¸Ģèĩ´": 6224,
      "Ġæľ¬åľ°": 6225,
      "ĠåįĹæĸ¹": 6226,
      "Ġè¿Ļåľº": 6227,
      "ç»ķ": 6228,
      "Ġé»ĳå±±": 6229,
      "Ġè¥¿äºļ": 6230,
      "åı¶": 6231,
      "Ġä¸įæĥ³": 6232,
      "å®Ľ": 6233,
      "ĠæĹ¶éĻĲ": 6234,
      "Ġçº¢åįģåŃĹ": 6235,
      "Ġæ¶²": 6236,
      "Ġå¸ĥåŁº": 6237,
      "Ġä¸ĸè´¸ç»Ħç»ĩ": 6238,
      "Ġå®³": 6239,
      "Ġåįļå£«": 6240,
      "Ġæĸĩæĺİ": 6241,
      "ĠæĦŁåħ´è¶£": 6242,
      "Ġç«ĭéĻ¶": 6243,
      "Ġç«ĭéĻ¶å®Ľ": 6244,
      "ĠåĢ¡å¯¼": 6245,
      "Ġè¿Ł": 6246,
      "ĠæıĴ": 6247,
      "ĠéŁ©åĽ½": 6248,
      "æ³ķç´¢": 6249,
      "Ġåı°æ¹¾": 6250,
      "Ġæł¼æŀĹ": 6251,
      "ä¸įåı¯": 6252,
      "Ġä¼ĺæĥł": 6253,
      "çĽ²": 6254,
      "èį¡": 6255,
      "ĠæĿ¥åĪ°": 6256,
      "Ġèĩªä»İ": 6257,
      "Ġæ²¡æĶ¶": 6258,
      "ĠåĪĨåĪĹ": 6259,
      "Ġç¬ĳ": 6260,
      "ĠçĶµåĬĽ": 6261,
      "ĠåĽ½éĻħæłĩåĩĨ": 6262,
      "Ŀè´º": 6263,
      "ĠåıĺåĬ¨": 6264,
      "ik": 6265,
      "ç¥Ŀ": 6266,
      "Ġå¿ħéľĢ": 6267,
      "Ġè´¯": 6268,
      "ĠæľīçĤ¹": 6269,
      "ä½£": 6270,
      "ĠæĲ¬": 6271,
      "Ġè¥¿æĴĴ": 6272,
      "Ġæ¸©å®¤": 6273,
      "Ġéĥ": 6274,
      "åģ¶": 6275,
      "Ġè´¢å¯Į": 6276,
      "Ġä»·åĢ¼è§Ĥ": 6277,
      "ist": 6278,
      "ĠåºĵåŃĺ": 6279,
      "éĩĩ": 6280,
      "Ġåĩ½": 6281,
      "Ġåİ¿": 6282,
      "Ġéª¨": 6283,
      "Ġä¸įç»ĵ": 6284,
      "ĠæĬ¢": 6285,
      "Ġæł¸åı¯": 6286,
      "Ġåħ¥åŃ¦": 6287,
      "Ġä¸»å¯¼": 6288,
      "Ġä¸įç»ĵçĽŁ": 6289,
      "åĪ·": 6290,
      "ĠæĿİ": 6291,
      "Ġå·´åĭĴæĸ¯åĿ¦äºº": 6292,
      "ĠåĽŀæĿ¥": 6293,
      "Ġå°Ħ": 6294,
      "Ġä»İæĿ¥": 6295,
      "ĠçĬ¯ä¸ĭ": 6296,
      "Ġç»Łè®¡æķ°æį®": 6297,
      "Ġé¢Ĩç©º": 6298,
      "ĠåĲĪæł¼": 6299,
      "Ġä¸¤é¡¹": 6300,
      "ĠåĤ¨å¤ĩ": 6301,
      "Ġä¸įå¦¨": 6302,
      "Ġ+": 6303,
      "ĠåıĤçħ§": 6304,
      "ĠæĦ¿æľĽ": 6305,
      "æĪĲåĳĺ": 6306,
      "Ġæ³ķå¾ĭæı´åĬ©": 6307,
      "æģ¨": 6308,
      "é»ĳ": 6309,
      "Ġèº": 6310,
      "Ġè´¨çĸĳ": 6311,
      "ĠåĨ»": 6312,
      "Ġç²®é£Łå®īåħ¨": 6313,
      "Ġä¸ĬéĿ¢": 6314,
      "Ġä¹Įåħ¹åĪ«åħĭæĸ¯åĿ¦": 6315,
      "Ġhrc": 6316,
      "Ġè¯ĨåĪ«": 6317,
      "Ġå¤ļæł·åĮĸ": 6318,
      "Ġçħ§çīĩ": 6319,
      "éķľ": 6320,
      "ĠéĿĻ": 6321,
      "Ġçħ§æĸĻ": 6322,
      "åıĳå±ķ": 6323,
      "Ġä¸»ç®¡éĥ¨éĹ¨": 6324,
      "Ġä¼Ł": 6325,
      "Ġçºªå¾ĭ": 6326,
      "Ġé¢Ĩåıĸ": 6327,
      "Ġéĩĳé¢Ŀ": 6328,
      "ĠèĢĲ": 6329,
      "éģŃ": 6330,
      "ĠèģĮæĿĥèĮĥåĽ´": 6331,
      "Ġäººç¾¤": 6332,
      "Ġè½¨éģĵ": 6333,
      "ĠçĽĳå¯Łåĳĺ": 6334,
      "ĠèĢģå¸Ī": 6335,
      "Ġåħ¥ä¾µ": 6336,
      "Ġè¯ĬæĸŃ": 6337,
      "ĠæĶ¾å°Ħ": 6338,
      "Ġcp": 6339,
      "Ġä¸ŃåŃ¦": 6340,
      "Ġä¸ľéĥ¨": 6341,
      "éĽħ": 6342,
      "ĠéħįåĲĪ": 6343,
      "Ġçħ¤": 6344,
      "Ġåħ¨æĿĥ": 6345,
      "Ġä½©": 6346,
      "ob": 6347,
      "ĠèĤ¡ç¥¨": 6348,
      "ĠçĶ±æŃ¤": 6349,
      "Ġå¸ĥåŁºçº³": 6350,
      "Ġå¸¸ä¼ļ": 6351,
      "Ġè¿ĩåº¦": 6352,
      "æ®ĸæ°ĳ": 6353,
      "Ġé«ĺäºİ": 6354,
      "Ġå¡ĶåĲī": 6355,
      "Ġå¸ĥåŁºçº³æ³ķç´¢": 6356,
      "è¾©": 6357,
      "Ġé²": 6358,
      "Ġè¶³çĲĥ": 6359,
      "Ġè§¦": 6360,
      "çī¹ç½ĳ": 6361,
      "Ġä»İæľª": 6362,
      "oh": 6363,
      "Ġå¹²æĹ±": 6364,
      "Ġå¯Įæľī": 6365,
      "Ġäººèº«": 6366,
      "é¥°": 6367,
      "Ġåıĭå¥½": 6368,
      "ĠæĿĢå®³": 6369,
      "ĠéªĮ": 6370,
      "ĠæĻ®åıĬ": 6371,
      "Ġè¯´è¯Ŀ": 6372,
      "ĠåĿĲåľ¨": 6373,
      "åĨ²": 6374,
      "Ġé¡ºåĪ©": 6375,
      "Ġä¸įåºĶ": 6376,
      "Ġæ²ĥ": 6377,
      "Ġå·®åĪ«": 6378,
      "æĢª": 6379,
      "Ġå¼ķåıĳ": 6380,
      "Ġé©¬åħ¶": 6381,
      "Ġè§£åĨ³æĸ¹æ¡Ī": 6382,
      "Ġä¿ĥæĪĲ": 6383,
      "Ġæ´¥å·´å¸ĥ": 6384,
      "Ġæ´¥å·´å¸ĥéŁ¦": 6385,
      "Ġè¿Ļç±»": 6386,
      "Ġå±ķç¤º": 6387,
      "Ġé©¬åħ¶é¡¿": 6388,
      "ĠæīŃ": 6389,
      "ĠèĽĭ": 6390,
      "ĠåĪ©æ¶¦": 6391,
      "ĠåĹ": 6392,
      "Ġé¡¶": 6393,
      "è¢ĭ": 6394,
      "Ġå¼¥": 6395,
      "Ġç»ıçĲĨ": 6396,
      "ĠåĲĪéĢĤ": 6397,
      "Ġå§ĵ": 6398,
      "ĠçĶ·å¥³å¹³çŃī": 6399,
      "Ġé¢Ĩè¢ĸ": 6400,
      "Ġè¡Įäºĭ": 6401,
      "Ġå·´æĭ¿": 6402,
      "ĠåĮħå®¹æĢ§": 6403,
      "Ġè¾Ľ": 6404,
      "èĭ¯": 6405,
      "Ġå®īåħ¨éĥ¨éĺŁ": 6406,
      "Ġè¿·": 6407,
      "ç³Ĭ": 6408,
      "ĠéĿŀæ®ĸæ°ĳ": 6409,
      "ĠéĿŀæ®ĸæ°ĳåĮĸ": 6410,
      "çĶŁæ´»": 6411,
      "Ġå®ļç½ª": 6412,
      "ĠéĻ·åħ¥": 6413,
      "Ġç¼ĸè¾ĳ": 6414,
      "Ġè§£éĻ¤æŃ¦è£ħ": 6415,
      "Ġä»¥ä¸º": 6416,
      "ĠæŁ¥éĺħ": 6417,
      "Ġå®Ŀè´µ": 6418,
      "Ġåıĳå±ķæĿĥ": 6419,
      "Ġç»ıéªĮæķĻè®Ń": 6420,
      "Ġçī©èµĦ": 6421,
      "å¹²äºĭ": 6422,
      "Ġå³": 6423,
      "Ġç¬¬äºĮå±Ĭ": 6424,
      "Ġåįĩçº§": 6425,
      "ĠæľīéĻĲåħ¬åı¸": 6426,
      "Ġè§Ĥæµĭ": 6427,
      "ĠåĪ¤å¤Ħ": 6428,
      "æ¯Ķåħĭ": 6429,
      "ĠéĺĲæĺİ": 6430,
      "Ġå¤ĸäº¤éĥ¨": 6431,
      "è²": 6432,
      "åĲīæĸ¯": 6433,
      "Ġç©Ĩæĸ¯": 6434,
      "èı²": 6435,
      "ĠåĢ¾åĲĳ": 6436,
      "èļ": 6437,
      "Ġæİª": 6438,
      "åģ¥åº·": 6439,
      "art": 6440,
      "Ġèİ«æ¡ĳ": 6441,
      "Ġèİ«æ¡ĳæ¯Ķåħĭ": 6442,
      "æ°´å¹³": 6443,
      "åķ¡": 6444,
      "Ġar": 6445,
      "Ġé¥¥é¥¿": 6446,
      "Ġå·´æĭ¿é©¬": 6447,
      "ĠæķĪåºĶ": 6448,
      "è°Īä¼ļ": 6449,
      "Ġæĺİå¤©": 6450,
      "éī´": 6451,
      "ĠåĮºåŁŁåĲĪä½ľ": 6452,
      "ĠèģĶåĪļ": 6453,
      "ĠæĺŁæľŁåĽĽ": 6454,
      "Ġåľ°éĿ¢": 6455,
      "ĠåĽłçī¹ç½ĳ": 6456,
      "Ġé©¬èĢ³": 6457,
      "åĿª": 6458,
      "Ġæ»ĳ": 6459,
      "Ġé©¬èĢ³ä»ĸ": 6460,
      "æĩ": 6461,
      "æģĭ": 6462,
      "Ġåħ¨æ°ĳ": 6463,
      "Ġæ·»": 6464,
      "ĠèĪ¹èĪ": 6465,
      "Ġçī©ä½ĵ": 6466,
      "å½»": 6467,
      "Ġç¬¬äºĮæĿ¡": 6468,
      "ä¸įæĺ¯": 6469,
      "çĥ§": 6470,
      "ĠæĬĳ": 6471,
      "Ġè¸": 6472,
      "Ġè¿Ľåĩº": 6473,
      "ç§Ł": 6474,
      "Ġæĸ½åĬł": 6475,
      "Ġå¤ļåĵĪ": 6476,
      "ĠèĪĴ": 6477,
      "ĠåĴ¨è¯¢æľįåĬ¡": 6478,
      "æ°¯": 6479,
      "ç¯ĩ": 6480,
      "Ġæ¸ħéĻ¤": 6481,
      "Ġç´¢èµĶäºº": 6482,
      "Ġä¸´åºĬ": 6483,
      "å°Ķå¤ļçĵ¦": 6484,
      "Ġå°±ä¸ļæľºä¼ļ": 6485,
      "Ġæł¹æºĲ": 6486,
      "ĠçĨ": 6487,
      "Ġè´ŁéĿ¢": 6488,
      "Ġå¯¼å¼¹": 6489,
      "Ġå°Ŀè¯ķ": 6490,
      "ĠåĲīå°ĶåĲīæĸ¯": 6491,
      "Ġå§Ķæīĺ": 6492,
      "ĠåĪ°è¾¾": 6493,
      "ĠæľīæķĪæĢ§": 6494,
      "Ġè·Ŀ": 6495,
      "ĠåĬ¡": 6496,
      "Ġäºļå¤ªç»ı": 6497,
      "ĠåĲĮçŃī": 6498,
      "ĠèĸĦ": 6499,
      "Ġæ¯ıæ¬¡": 6500,
      "ĠâĹ": 6501,
      "ĠéĢīåĩº": 6502,
      "ä»·æł¼": 6503,
      "Ġä¸ĢæŃ¥": 6504,
      "ĠæĴ¤éĶĢ": 6505,
      "ĠæıĲèµ·": 6506,
      "Ġè¿½æ±Ĥ": 6507,
      "ĠåĲ«æľī": 6508,
      "¨èĥĢ": 6509,
      "æĪĲåĬŁ": 6510,
      "Ġåģľçģ«": 6511,
      "ĠæĹłçº¿": 6512,
      "Ġå¥³åĦ¿": 6513,
      "Ġåı¥": 6514,
      "ĠåĽŀæĶ¶": 6515,
      "Ġä¸įå¹¸": 6516,
      "Ġas": 6517,
      "ĠæĢ»å¹²äºĭ": 6518,
      "Ġåħ¶å®ŀ": 6519,
      "æĬĺ": 6520,
      "å®«": 6521,
      "Ġä¿¡éĢļ": 6522,
      "ĠåĨĴ": 6523,
      "Ġå·¥åİĤ": 6524,
      "ĠæĺŁæľŁäºĮ": 6525,
      "Ġè°ĪåĪ°": 6526,
      "ers": 6527,
      "Ġcom": 6528,
      "Ġis": 6529,
      "ĠçĦ¦": 6530,
      "å¿Ļ": 6531,
      "Ġè¿ĺåºĶ": 6532,
      "æĿĲæĸĻ": 6533,
      "Ġå¿ħè¦ģæİªæĸ½": 6534,
      "ĠçĸŁ": 6535,
      "å¥ĭ": 6536,
      "ĠçŃīçŃī": 6537,
      "Ġå·¡éĢ»": 6538,
      "Ġæ£ĢéªĮ": 6539,
      "Ġä»¿": 6540,
      "Ġè½¬äº¤": 6541,
      "æķ¢": 6542,
      "Ġä¿Ŀå®ī": 6543,
      "Ġèģĺ": 6544,
      "Ġå¥ī": 6545,
      "łæ¬¾": 6546,
      "è°ĭ": 6547,
      "Ġè¿ĻåĦ¿": 6548,
      "Ġä¸Ģå¼ł": 6549,
      "ĠçĪ±æ²Ļ": 6550,
      "è®®ä¼ļ": 6551,
      "ĠçĪ±æ²Ļå°¼äºļ": 6552,
      "Ġçİ¯å¢ĥä¿ĿæĬ¤": 6553,
      "ĠéĢīæ°ĳ": 6554,
      "ĠæŁ¥è¯¢": 6555,
      "Ġåĭĩ": 6556,
      "Ġéģ¥": 6557,
      "ĠæĲº": 6558,
      "Ġinf": 6559,
      "æĿľ": 6560,
      "ĠåĨħéĥ¨çĽĳçĿ£": 6561,
      "Ġè¾ħåĬ©": 6562,
      "Ġ$": 6563,
      "Ġæĳ©å°Ķå¤ļçĵ¦": 6564,
      "Ġå¥¥å·´": 6565,
      "ĠåĨħæĶ¿": 6566,
      "çĽ¾": 6567,
      "Ġç²Ĺ": 6568,
      "ĠåĵįåºĶ": 6569,
      "Ġå·¦åı³": 6570,
      "Ġæ¨ª": 6571,
      "æ»ĳ": 6572,
      "çŃ¾": 6573,
      "Ġäººäºĭ": 6574,
      "Ġåľ¨çº¿": 6575,
      "ĠçĽ¸å½ĵäºİ": 6576,
      "ĠæīĢæľīæĿĥ": 6577,
      "æ¯Ķç»į": 6578,
      "ĠåĩłåĨħäºļæ¯Ķç»į": 6579,
      "Ġçİ°åľº": 6580,
      "è°Ĳ": 6581,
      "èĨľ": 6582,
      "ĠåĬ¨åĳĺ": 6583,
      "Ġæĥł": 6584,
      "æŃ§": 6585,
      "èľ": 6586,
      "Ġä¼Ĺå¤ļ": 6587,
      "Ġåįģä¸īå±Ĭ": 6588,
      "Ġè®°å¾Ĺ": 6589,
      "æĸ¯çī¹": 6590,
      "ç»ĵæŀľ": 6591,
      "Ġèĩ³ä»Ĭ": 6592,
      "Ġå¯¹çŃĸ": 6593,
      "Ġè¯¥æ³ķ": 6594,
      "ĠçķĻä¸ĭ": 6595,
      "Ġè´Ŀå®ģ": 6596,
      "ĠèĪ¹èĪ¶": 6597,
      "ĠæĺŁæľŁä¸ī": 6598,
      "Ġæº´": 6599,
      "Ġä»ĭ": 6600,
      "ez": 6601,
      "Ġå¯¹ä»ĺ": 6602,
      "Ġæľºæ¢°": 6603,
      "ĠåĪĹä¸º": 6604,
      "Ġç©Ĩæĸ¯æŀĹ": 6605,
      "ĠåıĳäºĨ": 6606,
      "ĠæĭĽåĭŁ": 6607,
      "Ġå²Ľå±¿": 6608,
      "é©¶": 6609,
      "è·ĥ": 6610,
      "Ġæ¼Ĥ": 6611,
      "ĠåĲ¸æĶ¶": 6612,
      "Ġè°¢è°¢": 6613,
      "Ġå·¥åķĨ": 6614,
      "ĠçĸŁçĸ¾": 6615,
      "ç§ĳåŃ¦": 6616,
      "ĠæĹģ": 6617,
      "éļı": 6618,
      "ĠåĿı": 6619,
      "ĠèĤī": 6620,
      "ĠâĹĭ": 6621,
      "Ġè¿Ľåº¦": 6622,
      "åĪĽ": 6623,
      "Ġæľ¬æ³ķ": 6624,
      "Ġçĸ«": 6625,
      "ĠèĬĤçĽ®": 6626,
      "Ġç§įç§į": 6627,
      "ĠçºłæŃ£": 6628,
      "ĠåŁºåĽł": 6629,
      "Ġä»Ķ": 6630,
      "Ġæłĩé¢ĺ": 6631,
      "æıĲé«ĺ": 6632,
      "Ġç³»åĪĹ": 6633,
      "ĠåĮºåĪĨ": 6634,
      "Ġå°±è¦ģ": 6635,
      "Ġçļĩ": 6636,
      "ĸåķ¡": 6637,
      "ĠåĮ»åŃ¦": 6638,
      "ĠåĽ¢éĺŁ": 6639,
      "ĠæķĮå¯¹": 6640,
      "ĠéĢĢåĮĸ": 6641,
      "Ġä¸Ģè´¯": 6642,
      "Ġé©¾": 6643,
      "ĠåºĨç¥Ŀ": 6644,
      "ĠæĪ·": 6645,
      "Ġå¸¸è§ĦæŃ¦åĻ¨": 6646,
      "Ġéĵģè·¯": 6647,
      "Ĳå°Ħ": 6648,
      "ç¢³": 6649,
      "Ġç»ĳæŀ¶": 6650,
      "Ġä¸Ģå¤§": 6651,
      "Ġå®ŀéªĮå®¤": 6652,
      "æĽ´": 6653,
      "ĠæĭīèĦ±": 6654,
      "ĠèĩŃæ°§": 6655,
      "ĠåĪĨéĴŁ": 6656,
      "ĠæĭīèĦ±ç»´äºļ": 6657,
      "Ġåľ°ä¸ĭ": 6658,
      "Ġå¡«è¡¥": 6659,
      "Ġç¼ĸåĪĹ": 6660,
      "ĠçľŁæĺ¯": 6661,
      "Ġå¤ļç±³å°¼åĬł": 6662,
      "Ġæ¸¯åı£": 6663,
      "çı": 6664,
      "ĠåĪĨç¦»": 6665,
      "ĠåĨ°å²Ľ": 6666,
      "Ġæ°´èµĦæºĲ": 6667,
      "åĩĢ": 6668,
      "åĩłåĨħäºļ": 6669,
      "Ġæīĵå¼Ģ": 6670,
      "ä¹¡": 6671,
      "Ġé»ĺ": 6672,
      "Ġç®ĢæĬ¥": 6673,
      "ĠåĪ«çļĦ": 6674,
      "é¡¶": 6675,
      "ĠæĦıå¤ĸ": 6676,
      "Ġå¥½åĥı": 6677,
      "ĠåħĪè¿Ľ": 6678,
      "Ġä¼Łå¤§": 6679,
      "çº¢": 6680,
      "ĠæİĴæĶ¾éĩı": 6681,
      "ish": 6682,
      "Ġåľ°åĿĢ": 6683,
      "ĠæīĢè¯´": 6684,
      "Ġå¼ĥ": 6685,
      "Ġç´§æĢ¥æĥħåĨµ": 6686,
      "Ġèµ¢å¾Ĺ": 6687,
      "ĠçĶŁäº§æĢ»": 6688,
      "ĠçĶŁäº§æĢ»åĢ¼": 6689,
      "Ġå¥¥å·´é©¬": 6690,
      "èģĶåĲĪåħ±åĴĮåĽ½": 6691,
      "ĠåĿ¦æ¡ĳå°¼äºļèģĶåĲĪåħ±åĴĮåĽ½": 6692,
      "ĠåĿĩè¡¡": 6693,
      "Ġè¯Ĺ": 6694,
      "ĠåĽ¾åĥı": 6695,
      "ie": 6696,
      "Ġå®ļä¸º": 6697,
      "ĠçĶµä¿¡": 6698,
      "Ġç»ĵè®ºæĢ§": 6699,
      "Ġé¹": 6700,
      "ĠçĶ¨ä»¥": 6701,
      "åľĭ": 6702,
      "Ġè¿ĿèĥĮ": 6703,
      "Ġçıį": 6704,
      "ĠæĹ¶åĪ»": 6705,
      "ĠåľĨæ¡Į": 6706,
      "Ġçİ°å·²": 6707,
      "ĠäººåĿĩ": 6708,
      "çĥ¦": 6709,
      "ĠéĽĩä½£": 6710,
      "è°¨": 6711,
      "Ġåħ¬éĩĮ": 6712,
      "ĠåľŁå£¤": 6713,
      "ĠæĢĿèĢĥ": 6714,
      "ĠæĹ¶èĩ³": 6715,
      "Ġåī§": 6716,
      "Ġè¶ħåĩº": 6717,
      "ĠæıĲé«ĺè®¤è¯Ĩ": 6718,
      "æĻ¤": 6719,
      "æī©æķ£": 6720,
      "èĭĹ": 6721,
      "Ġä¸ĩäºº": 6722,
      "çĽĽé¡¿": 6723,
      "ĠæľĢä¸º": 6724,
      "æ¯Ľ": 6725,
      "Ġå®¶éĩĮ": 6726,
      "ang": 6727,
      "ĠæĶ¯æŁ±": 6728,
      "è´¢": 6729,
      "ĠåįİçĽĽé¡¿": 6730,
      "ĠèµĦè®¯": 6731,
      "Ġåħįçĸ«": 6732,
      "Ġå¥¥è¿Ĳä¼ļ": 6733,
      "Ġå¸ĲæĪ·": 6734,
      "Ġåħ¥å¢ĥ": 6735,
      "æľīåĬĽ": 6736,
      "å¾·éĩĮ": 6737,
      "Ġä¸Ģèĩ´æĢ§": 6738,
      "Ġå¡ĶåĲīåħĭæĸ¯åĿ¦": 6739,
      "Ġåĭĺ": 6740,
      "ĠéĿ©åĳ½": 6741,
      "Ġç³ĸ": 6742,
      "Ġæ´ĹéĴ±": 6743,
      "Ġäº¤ç»Ļ": 6744,
      "Ġç¢°": 6745,
      "æ±ł": 6746,
      "ĠåĪ©çİĩ": 6747,
      "Ġéĺ³": 6748,
      "Ġä¸ĸçķĮåį«çĶŁ": 6749,
      "Ġä»£è¡¨æĢ§": 6750,
      "tp": 6751,
      "Ġç»ĨèĬĤ": 6752,
      "ĠæİĴæĸ¥": 6753,
      "Ġè®¤è¯ģ": 6754,
      "ĠåįģäºĮå±Ĭ": 6755,
      "ĠéĿ¢åĲĳ": 6756,
      "Ġçĭ¬ç«ĭæĢ§": 6757,
      "Ġ@": 6758,
      "ĠåĪ¶çº¦": 6759,
      "Ġå¤§éĻĨ": 6760,
      "æĥ§": 6761,
      "Ġæ¯ıåĳ¨": 6762,
      "ĠåĪ¤ä¾ĭ": 6763,
      "ĠåıĻ": 6764,
      "ĠèĦĨå¼±æĢ§": 6765,
      "Ġå·´æŀĹ": 6766,
      "èİī": 6767,
      "åı«": 6768,
      "é¡¹çĽ®": 6769,
      "Ġäºļå¤ªç»ıç¤¾ä¼ļ": 6770,
      "ĠçĶµåŃĲéĤ®": 6771,
      "ĠåĮĸåŃ¦æŃ¦åĻ¨": 6772,
      "èĤ¤": 6773,
      "Ġç¦»èģĮ": 6774,
      "Ġåħ¬è®¤": 6775,
      "éľĢè¦ģ": 6776,
      "ĠåĲĮäºĭ": 6777,
      "Ġä¼¸": 6778,
      "ĠåĴĮè°Ĳ": 6779,
      "Ġæ¯ıæĹ¥": 6780,
      "Ġç¬¬åįģä¹Ŀ": 6781,
      "ĠåĬŀçĲĨ": 6782,
      "ĠåĪ¤æĸŃ": 6783,
      "ĠåıĳçĶµ": 6784,
      "è¯Ī": 6785,
      "Ġæĥħç»ª": 6786,
      "Ġå½ĵäºĭæĸ¹": 6787,
      "ce": 6788,
      "è·Į": 6789,
      "åįłé¢Ĩ": 6790,
      "Ġé©³": 6791,
      "Ġæ¶Īæŀģ": 6792,
      "Ġåħ°": 6793,
      "½åŃĲ": 6794,
      "Ġå¥ĳ": 6795,
      "Ġæ±¡æŁĵçī©": 6796,
      "ĠèįīåĿª": 6797,
      "ĠéĴ»çŁ³": 6798,
      "Ġçº³ç±³æ¯Ķäºļ": 6799,
      "Ġå°½æĹ©": 6800,
      "Ġç¦ģæ¯Ĵ": 6801,
      "ect": 6802,
      "ĠéĽ¨": 6803,
      "Ġèī²æĥħ": 6804,
      "Ġä¸ĢçĻ¾": 6805,
      "Ġå¿½è§Ĩ": 6806,
      "éĢĬ": 6807,
      "man": 6808,
      "ĠæĪĲæķĪ": 6809,
      "Ġè¿Ļä»¶": 6810,
      "æ£®åł¡": 6811,
      "ĠçĻ»è®°åĨĮ": 6812,
      "å®Ŀ": 6813,
      "Ġå®¶å±ŀ": 6814,
      "Ġç´§è¿«": 6815,
      "Ġéĩĳèŀįåį±æľº": 6816,
      "Ġå®ŀä¾ĭ": 6817,
      "ĠéĩĮéĿ¢": 6818,
      "Ġå¡ĳ": 6819,
      "Ġå¸Ńä½į": 6820,
      "Ġè¿ĳæľŁ": 6821,
      "ĠéĻĲäºİ": 6822,
      "Ġå·´æĭīåľŃ": 6823,
      "Ġä¸Ģæĸ¹": 6824,
      "ĠæįĲåĬ©åĽ½": 6825,
      "Ġè®¾å®ļ": 6826,
      "Ġæ¸©åº¦": 6827,
      "Ġæĺ¨å¤©": 6828,
      "è¡ĮæĺŁ": 6829,
      "ĠåĨ³çŃĸèĢħ": 6830,
      "Ġæ°Ł": 6831,
      "Ġä¿¡æģ¯ç³»ç»Ł": 6832,
      "Ġå°ģéĶģ": 6833,
      "Ġä¿Ŀå¯Ĩ": 6834,
      "èģĶç³»": 6835,
      "Ġé¢ĦèŃ¦": 6836,
      "Ġåıĳç»Ļ": 6837,
      "ĠçĶ¨ä½ľ": 6838,
      "è¡¨æĺİ": 6839,
      "Ġæĺ¯ä»İ": 6840,
      "ĠçĬ¹å¤ª": 6841,
      "Ġå¼ºæľīåĬĽ": 6842,
      "Ġåĸ·": 6843,
      "Ġåħ³æĬ¼": 6844,
      "Ġåģļå¥½": 6845,
      "ĠåŁ¹è®ŃçıŃ": 6846,
      "Ġä¾§éĩįäºİ": 6847,
      "å¢ŀåĬł": 6848,
      "Ġåįģå±Ĭ": 6849,
      "Ġè¢«åįłé¢Ĩ": 6850,
      "Ġè¢«åįłé¢ĨåľŁ": 6851,
      "Ġç¥Ŀè´º": 6852,
      "Ġè¿İ": 6853,
      "Ġç»ıåĲĪ": 6854,
      "æĪĪ": 6855,
      "ĠéĨ": 6856,
      "Ġåį¢æ£®åł¡": 6857,
      "çĤİ": 6858,
      "Ġç¦ģè¿Ĳ": 6859,
      "åºĦ": 6860,
      "ĠæĳĨèĦ±": 6861,
      "ĠåĴ¨åķĨ": 6862,
      "Ġæ¨¡æĭŁ": 6863,
      "ard": 6864,
      "æ¡£": 6865,
      "Ġé«ĺçŃīæķĻèĤ²": 6866,
      "Ġä»Ķç»Ĩ": 6867,
      "è¿Ĳè¾ĵ": 6868,
      "ĠèģĶåĲĪåĽ½å¤§ä¼ļ": 6869,
      "Ġç´ł": 6870,
      "Ġåħ¬æĬ¥": 6871,
      "æĹ¶æľŁ": 6872,
      "Ġæĥ³è±¡": 6873,
      "Ġæīĭæľ¯": 6874,
      "Ġå¥Ĺ": 6875,
      "Ġè®¡éĩı": 6876,
      "Ġä¸įçĶ¨": 6877,
      "ĠèĬĤçľģ": 6878,
      "Ġç½ļæ¬¾": 6879,
      "åĬłæĸ¯": 6880,
      "åĽ½éĻħ": 6881,
      "Ġä¹°åįĸ": 6882,
      "ĠåĨ»ç»ĵ": 6883,
      "ç²®é£Ł": 6884,
      "åĭĥ": 6885,
      "Ġåįķåħĥ": 6886,
      "Ġæĸ°åħ´": 6887,
      "ĠçĪĨåıĳ": 6888,
      "éº»": 6889,
      "æĦŁè°¢": 6890,
      "ĠçĭĹ": 6891,
      "Ġè¡°": 6892,
      "é¹": 6893,
      "Ġå°ıè¡ĮæĺŁ": 6894,
      "Ġæµģç¨ĭ": 6895,
      "Ġçī¢": 6896,
      "Ġä¸ºä½ķ": 6897,
      "ĠåİŁæĿ¥": 6898,
      "ĠåĴĸåķ¡": 6899,
      "åºŁ": 6900,
      "ĠæļĤè¡Į": 6901,
      "ĠåĽ½åĨħæ³ķ": 6902,
      "ä¹ĭéĹ´": 6903,
      "Ġé²ģ": 6904,
      "ĠæľªæĪĲå¹´äºº": 6905,
      "Ġä¼ļæĻ¤": 6906,
      "Ġç¾İä¸½": 6907,
      "ĠåĪĹè¡¨": 6908,
      "Ġéľĩ": 6909,
      "Ġåĩºåİ»": 6910,
      "Ġä¸ĢæīĢ": 6911,
      "Ġåħ»æĬ¤": 6912,
      "ill": 6913,
      "Ġè¨Ģè®ºèĩªçĶ±": 6914,
      "èĴĻ": 6915,
      "Ġå¾ªçİ¯": 6916,
      "åıįåºĶ": 6917,
      "Ġæģ°å½ĵ": 6918,
      "ĠåĽ½å®¶åħĥ": 6919,
      "ĠåĽ½å®¶åħĥé¦ĸ": 6920,
      "çŃ¹": 6921,
      "Ġçĺ": 6922,
      "Ġé¢ľ": 6923,
      "Ġä½ľèĢħ": 6924,
      "ĠâĢĺ": 6925,
      "Ġä¹¦è®°": 6926,
      "Ġå¤«äºº": 6927,
      "ĠåĬłç´§": 6928,
      "Ġæ¡Į": 6929,
      "ĠéĢīå®ļ": 6930,
      "ĠèĦ±ç¦»": 6931,
      "Ġæķ£åıĳ": 6932,
      "ĠäºĽ": 6933,
      "ĠæľīæĦı": 6934,
      "Ġèĸªéħ¬": 6935,
      "ç§ĺä¹¦": 6936,
      "è¯ķéªĮ": 6937,
      "Ġéħįåģ¶": 6938,
      "ĠæĶ¿æĿĥ": 6939,
      "ç®Ń": 6940,
      "Ġä»½é¢Ŀ": 6941,
      "ĠæģĲæĢĸåĪĨåŃĲ": 6942,
      "Ġåī©ä½Ļ": 6943,
      "Ġç®Ĺæ³ķ": 6944,
      "å·¥åħ·": 6945,
      "Ġè¯ķçĤ¹": 6946,
      "è¿Ľå±ķ": 6947,
      "ĠçĽ´èĩ³": 6948,
      "Ġå¼ºåĪ¶æĢ§": 6949,
      "ra": 6950,
      "éĥ½æĭīæĸ¯": 6951,
      "eb": 6952,
      "ĠçŁ¥æĥħ": 6953,
      "ĠåĲ¨": 6954,
      "ĠçĶ³è¯·äºº": 6955,
      "Ġç¢İ": 6956,
      "Ġå·´å¡ŀå°Ķ": 6957,
      "Ġæ·»åĬł": 6958,
      "ĠäºĴçĽ¸": 6959,
      "Ġå·¥ä½ľæĸĩä»¶": 6960,
      "ĭéķ¿åĽ½": 6961,
      "è¡Ĺ": 6962,
      "æģ¤": 6963,
      "Ġå¸¸è§ģ": 6964,
      "Ġ`": 6965,
      "çĻĮ": 6966,
      "ĠæĤ¬": 6967,
      "Ġæ´ªéĥ½æĭīæĸ¯": 6968,
      "Ġç¥ŀç»ı": 6969,
      "Ġé©¬åħ¶é¡¿åħ±åĴĮåĽ½": 6970,
      "æĦıä¹ī": 6971,
      "ĠæĴŃ": 6972,
      "éĺ¶": 6973,
      "ĠåĪĿæ¬¡": 6974,
      "Ġä¼ļè´¹": 6975,
      "Ġç¥Ŀ": 6976,
      "ĠæİĪäºĪ": 6977,
      "ĠéŁ¦": 6978,
      "Ġå¼ĢåĬŀ": 6979,
      "Ġäººä¸º": 6980,
      "ĠåĩŃ": 6981,
      "è²Į": 6982,
      "ĠèĲ¥åľ°": 6983,
      "ĠæŃ§è§ĨæĢ§": 6984,
      "é¦ĸèĦĳ": 6985,
      "åĬ³å·¥": 6986,
      "ĠåĢºæĿĥäºº": 6987,
      "Ġä¹Ļ": 6988,
      "Ġç»ıæµİå§Ķåĳĺä¼ļ": 6989,
      "çŀ": 6990,
      "ĠéĢļçĶ¨": 6991,
      "Ġconf": 6992,
      "Ġå®ıè§Ĥç»ıæµİ": 6993,
      "Ġè¡ĮæĶ¿éĥ¨éĹ¨": 6994,
      "æķ¬": 6995,
      "Ġè¯¦æĥħ": 6996,
      "Ġè¿ĲèĲ¥": 6997,
      "ĠåħįéģŃ": 6998,
      "ĠåıĳéĢģ": 6999,
      "ib": 7000,
      "Ġè¯±": 7001,
      "Ġç¬¬åħŃæĿ¡": 7002,
      "ĠäººçĶŁ": 7003,
      "Ġé¦ĸéĥ½": 7004,
      "çº·": 7005,
      "Ġåı£è¯ĳ": 7006,
      "åģļ": 7007,
      "ĠéĢļè´§": 7008,
      "ç³ķ": 7009,
      "ä»ª": 7010,
      "ĠçĲ": 7011,
      "ĠçĲĨäºĭ": 7012,
      "ĠæĶ¿åºľé¦ĸèĦĳ": 7013,
      "äºĭä»¶": 7014,
      "çģ¯": 7015,
      "ĠäººæĿĥæ³ķ": 7016,
      "ĠæĬ¥çº¸": 7017,
      "ĠåĽ½éĻħåĬ³å·¥": 7018,
      "Ġæ¸ħçĲĨ": 7019,
      "Ġæ°ĳåħµ": 7020,
      "ĠåĽŀå®¶": 7021,
      "å¸ķ": 7022,
      "ĠåĨįçĶŁèĥ½æºĲ": 7023,
      "ĠæħĪ": 7024,
      "Ġçĸĳ": 7025,
      "Ġä¸Ńäºļ": 7026,
      "Ġæ¿ĢåĬ±": 7027,
      "ĠåĪļåĪļ": 7028,
      "Ġä½ľåĩºè´¡çĮ®": 7029,
      "ç¨ĭåº¦": 7030,
      "Ġç½ĳé¡µ": 7031,
      "Ġä¸ĸçķĮåį«çĶŁç»Ħç»ĩ": 7032,
      "åħŃæĿ¡": 7033,
      "å¨ĺ": 7034,
      "Ġçģµæ´»æĢ§": 7035,
      "å®Ĺ": 7036,
      "Ġä¸ĭè¿°": 7037,
      "ĠæĹħæ¸¸ä¸ļ": 7038,
      "çĵ¦å°Ķ": 7039,
      "Ġåħ¨çĲĥæĢ§": 7040,
      "Ġè¿¹": 7041,
      "Ġè£ģè°Īä¼ļ": 7042,
      "åįıè®®": 7043,
      "ĠåīĬå¼±": 7044,
      "ĠçīĪæľ¬": 7045,
      "ĠåıĤä¸İèĢħ": 7046,
      "Ġæ°Ķè±¡": 7047,
      "ĠæĹ¥åŃĲ": 7048,
      "Ġä¹ĭæĹ¥": 7049,
      "ĠæĽ²": 7050,
      "Ġç¾İå¥½": 7051,
      "Ġåĩ»": 7052,
      "ĠåĲīå¸ĥ": 7053,
      "Ġåį°åĪ·": 7054,
      "Ġåį«çĶŁç»Ħç»ĩ": 7055,
      "Ġä¿±ä¹Ĳ": 7056,
      "è½¬è®©": 7057,
      "¿åĳ½": 7058,
      "ĠéĤ£åĦ¿": 7059,
      "ĠæĮĩç§°": 7060,
      "ĠæĶ¹éĢł": 7061,
      "Ġå¤įåİŁ": 7062,
      "ĠéĤ£æĹ¶": 7063,
      "Ġéĺ¿å¸ĥ": 7064,
      "Ġä¸ĭåİ»": 7065,
      "Ġä¼ĺåĮĸ": 7066,
      "éħĭéķ¿åĽ½": 7067,
      "èĢĥèĻĳ": 7068,
      "ĽçĽ¾": 7069,
      "æĢ»éĥ¨": 7070,
      "įåį«": 7071,
      "Ġä¿±ä¹Ĳéĥ¨": 7072,
      "Ġä¼łçľŁ": 7073,
      "Ġç«¥å·¥": 7074,
      "çļ": 7075,
      "Ġid": 7076,
      "Ġè¾ĥå¤§": 7077,
      "ĠæĪ¿åľ°": 7078,
      "Ġä¸ľæ¬§": 7079,
      "æĢĴ": 7080,
      "å³°": 7081,
      "Ġéĺ¿æĭīä¼¯èģĶåĲĪ": 7082,
      "Ġéĺ¿æĭīä¼¯èģĶåĲĪéħĭéķ¿åĽ½": 7083,
      "ĠåĴĮå¹³åĪ©çĶ¨": 7084,
      "Ġç§įç±»": 7085,
      "Ġç²ī": 7086,
      "Ġå½¢è±¡": 7087,
      "Ġåı¦æľī": 7088,
      "Ġäººæīį": 7089,
      "Ġä¸Ńéĥ¨": 7090,
      "çĳŁ": 7091,
      "Ġå«Į": 7092,
      "èĦī": 7093,
      "Ġå®īåħ¨éĥ¨éĹ¨": 7094,
      "åĬª": 7095,
      "Ġä»£ä»·": 7096,
      "ĠæĬĢæľ¯è½¬è®©": 7097,
      "Ġæĺ¥": 7098,
      "Ġçķ¥": 7099,
      "Ġè¿Ħä»Ĭä¸ºæŃ¢": 7100,
      "Ġè¿¹è±¡": 7101,
      "è¥¿æ´ĭ": 7102,
      "è®¾å¤ĩ": 7103,
      "Ġå¿ł": 7104,
      "Ġä¸Ģè¯į": 7105,
      "Ġçī§": 7106,
      "ĠæĦıåĽ¾": 7107,
      "Ġå¤§ä¼Ĺ": 7108,
      "åĪĨæŀĲ": 7109,
      "Ġå®¶åºŃæĪĲåĳĺ": 7110,
      "çĴ": 7111,
      "Ġä¸įèī¯": 7112,
      "ĠåĲīå°ĶåĲīæĸ¯æĸ¯åĿ¦": 7113,
      "Ġä¹³": 7114,
      "ĠåıĮéĩį": 7115,
      "æ»¡æĦı": 7116,
      "å¨ģèĥģ": 7117,
      "ĠâĶ": 7118,
      "ccc": 7119,
      "Ġè¾ĵåħ¥": 7120,
      "åĪ©çĽĬ": 7121,
      "ĠçĬ¯ç½ªè¡Įä¸º": 7122,
      "Ġpro": 7123,
      "Ġii": 7124,
      "Ġä¸¤èĢħ": 7125,
      "Ġå¤§æ°Ķ": 7126,
      "Ġè¾Ĳå°Ħ": 7127,
      "ĠåĪĹæĶ¯": 7128,
      "æ°§åĮĸ": 7129,
      "Ġç»Īäºİ": 7130,
      "ĠåºĶçĶ±": 7131,
      "èĵĦ": 7132,
      "ud": 7133,
      "ĠæĪĲéķ¿": 7134,
      "Ġå®¡æŁ¥ä¼ļè®®": 7135,
      "Ġé©¬è¾¾": 7136,
      "ç«Ł": 7137,
      "Ġunep": 7138,
      "Ġçī©çĲĨ": 7139,
      "ĠçŃĶæ¡Ī": 7140,
      "ĠçĶŁè®¡": 7141,
      "Ġä¼ļè°Ī": 7142,
      "ĠåĪĨä¸º": 7143,
      "Ġè¥¿èĹı": 7144,
      "az": 7145,
      "ç§Ģ": 7146,
      "ç®Ģ": 7147,
      "ĠæıŃ": 7148,
      "æ³½": 7149,
      "Ġç¨į": 7150,
      "ĠæĸĲ": 7151,
      "Ġè¯¥éĥ¨": 7152,
      "Ġhttp": 7153,
      "Ġçħ½": 7154,
      "Ġæ¶ĪçģŃ": 7155,
      "Ġå»ºçŃĳçī©": 7156,
      "Ġå®ļå±ħçĤ¹": 7157,
      "ĠéĽª": 7158,
      "Ġam": 7159,
      "ĠåĤ¬": 7160,
      "åħ«å±Ĭ": 7161,
      "å°ļ": 7162,
      "Ġå¢ŀå¤ļ": 7163,
      "ĠèŃ¦åĬ¡": 7164,
      "å¢ŀéķ¿": 7165,
      "Ġéĵ¾": 7166,
      "Ġåĩºåıĳ": 7167,
      "Ġæįįåį«": 7168,
      "Ġä¸ĭæ¬¡": 7169,
      "ĠèĪ¹åıª": 7170,
      "çĶŁèĤ²": 7171,
      "Ġç½Ĺå§Ĩ": 7172,
      "Ġåħĳ": 7173,
      "Ġå¤ļåĵ¥": 7174,
      "ĠåĽ½ä¼ļ": 7175,
      "ĠæŃ£è§Ħ": 7176,
      "ĠæĿĥå¨ģ": 7177,
      "ĠçĽ¸ä¼¼": 7178,
      "å¦¹": 7179,
      "Ġç¤¾ä¼ļä¸»ä¹ī": 7180,
      "èµł": 7181,
      "Ġçİ¯ä¿Ŀ": 7182,
      "ĠåĪĨæŃ§": 7183,
      "Ġced": 7184,
      "ĠåºĬ": 7185,
      "Ġå¾Ĺä¸įåĪ°": 7186,
      "ĠéĻ¤å¤ĸ": 7187,
      "Ġå¹¿å¤§": 7188,
      "ĠçģŃç»Ŀ": 7189,
      "Ġè®¡åĪĴçĶŁèĤ²": 7190,
      "Ġå¤§å°ı": 7191,
      "èĦļ": 7192,
      "ĠæĬĹè®®": 7193,
      "ĠåĲīå¸ĥæıĲ": 7194,
      "ĠæĿ¾": 7195,
      "ä½Ľ": 7196,
      "ĠæĿ¡æĸĩ": 7197,
      "ĠçĶ³æĺİ": 7198,
      "Ġä¸¢": 7199,
      "Ġè·Ŀç¦»": 7200,
      "Ġåģ¶": 7201,
      "Ġé©±åĬ¨": 7202,
      "ĠçĪ¸": 7203,
      "ĠæĹłå®³": 7204,
      "Ġä¸įç½ļ": 7205,
      "çĪ¸": 7206,
      "ĠèĢģé¾Ħ": 7207,
      "Ġè®°å¿Ĩ": 7208,
      "Ġæ¯Ľé¢Ŀ": 7209,
      "Ġæī¿åıĹ": 7210,
      "è¯ŀ": 7211,
      "Ġæł¸å®ŀ": 7212,
      "åĪĨéĴŁ": 7213,
      "ich": 7214,
      "Ġå½ĵä»Ĭ": 7215,
      "Ġå¤įèĭı": 7216,
      "ä¸įèµ·": 7217,
      "Ġå½ĵä»£": 7218,
      "éª¨": 7219,
      "ĠèģĶåĲĪåĽ½çİ¯å¢ĥ": 7220,
      "è§ĦåĪĴç½²": 7221,
      "ĠèģĶåĲĪåĽ½çİ¯å¢ĥè§ĦåĪĴç½²": 7222,
      "ĠæĿĥèĥ½": 7223,
      "Ġä¸ĸçķĮäººæĿĥ": 7224,
      "Ġä¸ĸçķĮäººæĿĥå®£è¨Ģ": 7225,
      "Ġè®ºè¿°": 7226,
      "Ġè¶³ä»¥": 7227,
      "Ġåı³": 7228,
      "æļĹ": 7229,
      "èį¯åĵģ": 7230,
      "ĠåĲĪæ³ķæĢ§": 7231,
      "æķ¦å£«": 7232,
      "ĠåĪĹæĶ¯æķ¦å£«": 7233,
      "ĠåĪĹæĶ¯æķ¦å£«çĻ»": 7234,
      "ĠåħįåıĹ": 7235,
      "ĠåĵªéĩĮ": 7236,
      "ĠåĽ½éĻħåĬ³å·¥ç»Ħç»ĩ": 7237,
      "èĽ": 7238,
      "ĠåĪ©æģ¯": 7239,
      "Ġcrp": 7240,
      "Ġå¼±åĬ¿ç¾¤ä½ĵ": 7241,
      "ĠèĴĻçī¹åĪ©": 7242,
      "ĠåĢį": 7243,
      "ç«ŀ": 7244,
      "ç¼ĸåĪ¶": 7245,
      "äºķ": 7246,
      "Ġäººçī©": 7247,
      "ĠçĸĹ": 7248,
      "åĬ£": 7249,
      "èĽĭ": 7250,
      "Ġç¬¬åįģåĽĽæĿ¡": 7251,
      "Ġæ¶Īå¤±": 7252,
      "ĠæŃ¤æ¬¡": 7253,
      "ĠçĶµåŃĲéĤ®ä»¶": 7254,
      "Ġæı´å¼ķ": 7255,
      "Ġå¸ĥé²ģ": 7256,
      "Ġæ°ĳçĶ¨": 7257,
      "Ġä¸įä»ħä»ħ": 7258,
      "Ġé¡¾å®¢": 7259,
      "ĠéĿ¢ç§¯": 7260,
      "Ġå¼Ħ": 7261,
      "ĠåĨ¬": 7262,
      "ĠèĴĻçī¹åĪ©å°Ķ": 7263,
      "ow": 7264,
      "Ġåħ³ç¨İ": 7265,
      "ĠæĽ´æĶ¹": 7266,
      "å¦Ļ": 7267,
      "Ġes": 7268,
      "èĨ¨èĥĢ": 7269,
      "Ġçħ½åĬ¨": 7270,
      "Ġå¤ļç±³å°¼åĬłåħ±åĴĮåĽ½": 7271,
      "åħĭæĸ¯": 7272,
      "Ġæ¯«ä¸į": 7273,
      "Ġæµ·çĽĹ": 7274,
      "ĠèĳĹåĲį": 7275,
      "æ¢ħ": 7276,
      "Ġæĸ°åŀĭ": 7277,
      "Ġå¯¹æĸ¹": 7278,
      "Ġé¾": 7279,
      "ä¿ĿéĻ©": 7280,
      "Ġfccc": 7281,
      "Ġç®¡çĲĨç³»ç»Ł": 7282,
      "Ġç¨İåĬ¡": 7283,
      "ĠåĨľæĿĳå¦ĩå¥³": 7284,
      "Ġéĺ¿åįľ": 7285,
      "Ġè°ĥæŁ¥ç»ĵæŀľ": 7286,
      "ĠåĶ±": 7287,
      "ĠåľŁåºĵ": 7288,
      "ĠåľŁåºĵæĽ¼": 7289,
      "Ġéĺ²èĮĥ": 7290,
      "Ġå¾Ĵ": 7291,
      "Ġå®ŀçī©": 7292,
      "Ġå®ŀçĶ¨": 7293,
      "Ġç¤ºå¨ģ": 7294,
      "ĠåĭĴ": 7295,
      "Ġåģ¥åħ¨": 7296,
      "ç¿¼": 7297,
      "æĹĹ": 7298,
      "Ġæµ·äºĭ": 7299,
      "ĠéĢļè´§èĨ¨èĥĢ": 7300,
      "ĠæĬļ": 7301,
      "Ġä¼ļè§ģ": 7302,
      "ĠåľĨæ¡Įä¼ļè®®": 7303,
      "Ġå¹²æ¶ī": 7304,
      "Ġæ¼«": 7305,
      "Ġåĥ": 7306,
      "Ġæľīå¾ħ": 7307,
      "Ġè¥¿å²¸": 7308,
      "Ġä¸įå½ĵ": 7309,
      "ĠçģĮ": 7310,
      "å°¾": 7311,
      "Ġä¸įéĶĻ": 7312,
      "Ġéļ¾æ°ĳèĲ¥": 7313,
      "å»ºè®¾": 7314,
      "æŃī": 7315,
      "Ġå¤ļåħĥ": 7316,
      "ĠæĿĤå¿Ĺ": 7317,
      "Ġåħ¶æ¬¡": 7318,
      "ĠèģĶå¡ŀ": 7319,
      "Ġæľºéģĩ": 7320,
      "Ġè¦ģæĺ¯": 7321,
      "ĠéĢĨ": 7322,
      "ĠåĨ²åĩ»": 7323,
      "Ġé¢ľèī²": 7324,
      "Ġè¿«ä½¿": 7325,
      "Ġç®¡çĲĨå±Ĥ": 7326,
      "Ġæľ¬æĿ¥": 7327,
      "ĠåĽ½çİĭ": 7328,
      "ĠæīĢåĪĹ": 7329,
      "Ġå¢ŀç¼ĸ": 7330,
      "ĠæĶ¯éħį": 7331,
      "è°ĥæŁ¥": 7332,
      "Ġçī¹ä½¿": 7333,
      "ĠéģĹä¼ł": 7334,
      "Ġäºĭå®ľ": 7335,
      "ĠåĪĳäºĭæ³ķåºŃ": 7336,
      "Ġå¢Ļ": 7337,
      "ä¸ĥæĿ¡": 7338,
      "ĠåıĽ": 7339,
      "Ġä¸ĭæĸĩ": 7340,
      "Ġè·¨çķĮ": 7341,
      "Ġé¢Ħå®ļ": 7342,
      "ĠèĹı": 7343,
      "åĳ¨å¹´": 7344,
      "ĠåĽ´ç»ķ": 7345,
      "Ġç¬¬ä¸īå±Ĭ": 7346,
      "çĶŁçī©": 7347,
      "ĠæĹłè®ºæĺ¯": 7348,
      "ĠæĸĲæµİ": 7349,
      "Ġç£ģ": 7350,
      "æł¼åħ°": 7351,
      "Ġç¼©å°ı": 7352,
      "Ġæł¼æŀĹçº³": 7353,
      "Ġè¿ľè¿ľ": 7354,
      "ç¼´": 7355,
      "Ġå¯¹æĬĹ": 7356,
      "ĠæĭĽèģĺ": 7357,
      "å¥¶": 7358,
      "Ġéĺ¶": 7359,
      "Ġé©¬ä¸Ĭ": 7360,
      "æ±½": 7361,
      "Ġå¾ģæ±Ĥ": 7362,
      "¬¼": 7363,
      "ä¸ĸçºª": 7364,
      "Ġç¼´çº³": 7365,
      "Ġå¢ŀéķ¿çİĩ": 7366,
      "éĢı": 7367,
      "ĠæģĲæĥ§": 7368,
      "Ġå±ĢéĿ¢": 7369,
      "Ġä¸Ĭæ¬¡": 7370,
      "Ġåı¸éķ¿": 7371,
      "Ġç»Ļåĩº": 7372,
      "Ġæİ¥çĿĢ": 7373,
      "ç¡": 7374,
      "Ġå·¥ä½ľèĢħ": 7375,
      "è®®éĻ¢": 7376,
      "Ġæİī": 7377,
      "ĠçĶŁéķ¿": 7378,
      "æļĸ": 7379,
      "Ġè§ģåĪ°": 7380,
      "é£ŀæľº": 7381,
      "ĠèĢĹ": 7382,
      "ĠæĪĲçĨŁ": 7383,
      "éĽĩ": 7384,
      "Ġåį·": 7385,
      "Ġåı¯ä¿¡": 7386,
      "Ġç¼ĵæħ¢": 7387,
      "ĠæıĲåīį": 7388,
      "Ġä»»çĶ¨": 7389,
      "ĠæĬ¥éħ¬": 7390,
      "ĠçĿĢéĩįæĮĩåĩº": 7391,
      "çĶ²": 7392,
      "ĠéĿĴå¹´äºº": 7393,
      "Ġæł¸è¯ķéªĮ": 7394,
      "ĠèĩªçĶ±åĮĸ": 7395,
      "ĠæĮĩå¯¼æĸ¹éĴĪ": 7396,
      "Ġå¹´åĪĿ": 7397,
      "Ġåı¸æ³ķéĥ¨": 7398,
      "Ġè®ºæĸĩ": 7399,
      "Ġéľ²": 7400,
      "Ġä¼ĳæģ¯": 7401,
      "æĮĿ": 7402,
      "ĠæĹħè´¹": 7403,
      "åŁºéĩĳä¼ļ": 7404,
      "ĠèĢģæĮĿ": 7405,
      "Ġè½¬æį¢": 7406,
      "Ġä¸ĸçķĮè´¸æĺĵ": 7407,
      "ĠæĲŀ": 7408,
      "éĩİ": 7409,
      "ĠæĢ»åĬ¡": 7410,
      "ĠåĪĨæ®µ": 7411,
      "ĠçľŁçĽ¸": 7412,
      "Ġç»Łæ²»": 7413,
      "Ġæ³¢åĬ¨": 7414,
      "èĳ": 7415,
      "Ġå·®æĹħ": 7416,
      "Ġçģ¯": 7417,
      "ĠæĻ¯": 7418,
      "Ġä¿®å»º": 7419,
      "å£ģ": 7420,
      "ĠçĽŁçº¦": 7421,
      "Ġç»³": 7422,
      "ĠçĶŁäº§åĬĽ": 7423,
      "Ġæ¼Ķè®²": 7424,
      "Ġä¹łä¿Ĺ": 7425,
      "ĠæĪĲäºº": 7426,
      "ĠåŁºæľ¬ä¸Ĭ": 7427,
      "Ġè¢«æįķ": 7428,
      "æ°ı": 7429,
      "Ġel": 7430,
      "æĿ¥è¯´": 7431,
      "Ġè¥¿éĥ¨": 7432,
      "Ġ<": 7433,
      "th": 7434,
      "ĠåīįéĿ¢": 7435,
      "ĠåĮħè£ħ": 7436,
      "ĠçĽĳæĬ¤": 7437,
      "ĠåħĭéĩĮ": 7438,
      "ĠæĮĩæĮ¥å®ĺ": 7439,
      "Ġç¬¬ä¸īæĸ¹": 7440,
      "Ġèįīç¨¿": 7441,
      "ĠèĢ³": 7442,
      "éļ¶": 7443,
      "ĠéĽĨä¼ļ": 7444,
      "Ġçīĩ": 7445,
      "ĠæĹĭ": 7446,
      "äº¿": 7447,
      "Ġä¸ĵåĪ©": 7448,
      "ĠæĿĥéĻĲ": 7449,
      "Ġå¤ļé¡¹": 7450,
      "ĠèµŀåĬ©": 7451,
      "ĠæĸĩåŃĹ": 7452,
      "éĩįè§Ĩ": 7453,
      "Ġç¬¬ä¸ĥæĿ¡": 7454,
      "Ġå¿ħçĦ¶": 7455,
      "Ġä¸ĢåĿĹ": 7456,
      "Ġå·´å·´": 7457,
      "Ġä¸ĢæĶ¯": 7458,
      "Ġåħ±åĲĮåĬªåĬĽ": 7459,
      "Ġéĵ¶": 7460,
      "ĠæŀĹä¸ļ": 7461,
      "ĠèĤ¥": 7462,
      "çĵ¦çº³": 7463,
      "ell": 7464,
      "æŀĹåĮ¹": 7465,
      "ĠåĲİéĿ¢": 7466,
      "ĠæłĩåĩĨåĮĸ": 7467,
      "Ġå¤ļä¹Ī": 7468,
      "ĠèĢģäºº": 7469,
      "Ġçĥ§": 7470,
      "æĹ¶åĢĻ": 7471,
      "Ġè¡¥åĬ©éĩĳ": 7472,
      "Ġä¸įç»ĵçĽŁè¿ĲåĬ¨": 7473,
      "Ġçī¹æĿĥ": 7474,
      "Ġå§ĵåĲį": 7475,
      "Ġç»ıåĲĪç»Ħç»ĩ": 7476,
      "åıł": 7477,
      "Ġæĺ¯ä¸įæĺ¯": 7478,
      "Ġæī¹æ¬¾": 7479,
      "all": 7480,
      "Ġè¿«åĪĩéľĢè¦ģ": 7481,
      "Ġå¼Ģéĩĩ": 7482,
      "Ġå¹´åīį": 7483,
      "Ġä½ľçī©": 7484,
      "Ġä½ıå®ħ": 7485,
      "Ġcedaw": 7486,
      "Ġé©¬è¾¾åĬłæĸ¯": 7487,
      "Ġå®¶éķ¿": 7488,
      "ĠçĪĨçĤ¸çī©": 7489,
      "Ġé©¬è¾¾åĬłæĸ¯åĬł": 7490,
      "Ġæ·±åĪ»": 7491,
      "å¡Ķå°¼äºļ": 7492,
      "ĠåĲ«éĩı": 7493,
      "ĠæīĢç¤º": 7494,
      "ĠæľŁåĨħ": 7495,
      "Ġéªĳ": 7496,
      "åŃ£åº¦": 7497,
      "Ġå¼Ģè®¾": 7498,
      "ĠæķĻè®Ń": 7499,
      "åĴĮå¹³": 7500,
      "Ġæĳĩ": 7501,
      "Ġè¿½ç©¶": 7502,
      "Ġå°¼æĹ¥å°Ķ": 7503,
      "æįĲ": 7504,
      "æ°Ľ": 7505,
      "ĠåĢºåĪ¸": 7506,
      "ĠåľŁåºĵæĽ¼æĸ¯åĿ¦": 7507,
      "Ġåı¯è¡ĮæĢ§": 7508,
      "ĠæĶ¶è´¹": 7509,
      "å¸ĥå°Ķ": 7510,
      "Ġæ²»å®ī": 7511,
      "Ġåľ°åĽ¾": 7512,
      "Ġå¸ĥä»Ģ": 7513,
      "ĠæĹłæķĪ": 7514,
      "Ġæ¹¿": 7515,
      "ä¸ĭæĸĩ": 7516,
      "Ġçģ°": 7517,
      "Ġéº»éĨīèį¯åĵģ": 7518,
      "ç¨³": 7519,
      "Ġç»ĵæŀľè¡¨æĺİ": 7520,
      "ĠéĹª": 7521,
      "ĠæĪªæŃ¢": 7522,
      "Ġä¸Ĭæ¶¨": 7523,
      "æĪĸ": 7524,
      "ĠçĪ±æĥħ": 7525,
      "if": 7526,
      "Ġèµ·åĪ°": 7527,
      "Ġä¸ĸçķĮè´¸æĺĵç»Ħç»ĩ": 7528,
      "Ġç¼ĸåı·": 7529,
      "Ġå¾·çıŃ": 7530,
      "Ġç½²éķ¿": 7531,
      "ĠèģĶåĲĪåĽ½åĦ¿ç«¥": 7532,
      "Ġæĭħå¿§": 7533,
      "ĠèģĶåĲĪåĽ½åĦ¿ç«¥åŁºéĩĳä¼ļ": 7534,
      "Ġå¤±æľĽ": 7535,
      "Ġæ®ĭçĸ¾åĦ¿ç«¥": 7536,
      "Ġæ¬ºè¯Ī": 7537,
      "Ġæ¬¡æķ°": 7538,
      "ĥåľ": 7539,
      "Ġç´§å¯Ĩ": 7540,
      "çĴĥ": 7541,
      "Ġä¸įå°ĳ": 7542,
      "ĠåŃ¦ç§ĳ": 7543,
      "eg": 7544,
      "Ġå¤§å¹ħåº¦": 7545,
      "Ġé¢Ħéĺ²æĢ§": 7546,
      "ĠèĹ": 7547,
      "Ġä¸ªæ¡Ī": 7548,
      "Ġè§Ĩé¢ĳ": 7549,
      "Ġè®¾æľī": 7550,
      "Ġè°·": 7551,
      "Ġæ¬§æ´²å§Ķåĳĺä¼ļ": 7552,
      "ĠåīĤ": 7553,
      "Ġå»ī": 7554,
      "ĥåľ¾": 7555,
      "ĠéĩĩçŁ¿": 7556,
      "Ġæķ´åĲĪ": 7557,
      "å¾¡": 7558,
      "Ġé©³åĽŀ": 7559,
      "è´¦": 7560,
      "Ġç¦ıç¥": 7561,
      "å¦»": 7562,
      "Ġå¥´éļ¶": 7563,
      "Ġè¯īè¯¸": 7564,
      "Ġè¿ĲéĢģ": 7565,
      "ĠæŃ¤äºĭ": 7566,
      "Ġæ¢¦æĥ³": 7567,
      "åŃĶ": 7568,
      "Ġå¤±ä¸ļçİĩ": 7569,
      "ç²ī": 7570,
      "Ġç¦ıç¥ī": 7571,
      "ĠæĬĽ": 7572,
      "ĠéªĮè¯ģ": 7573,
      "Ġæī¾åĩº": 7574,
      "ĠåľŁèĳĹäºº": 7575,
      "Ġåºıè¨Ģ": 7576,
      "ĠçĨŁæĤī": 7577,
      "Ġæ´»åĬĽ": 7578,
      "çĻ¾ä¸ĩ": 7579,
      "ĠæĹłäºº": 7580,
      "ĠåįļèĮ¨": 7581,
      "ĠçŁŃç¼º": 7582,
      "Ġåľ£è¯ŀ": 7583,
      "Ġåŀĥåľ¾": 7584,
      "ĠæĮ¯åħ´": 7585,
      "ĠèģĮç±»": 7586,
      "ĠçĹĩ": 7587,
      "çīĽ": 7588,
      "og": 7589,
      "æ¦": 7590,
      "å·Ŀ": 7591,
      "ĠæĲľç´¢": 7592,
      "ĠåįļèĮ¨çĵ¦çº³": 7593,
      "Ġå¼ĥæĿĥ": 7594,
      "åĬĽéĩı": 7595,
      "Ġè´Ńç½®": 7596,
      "ex": 7597,
      "ĠåĲĮæ¬¡": 7598,
      "Ġgen": 7599,
      "ĠåĪĨæĭħ": 7600,
      "ĠèĤº": 7601,
      "æĸ¯ç§ĳ": 7602,
      "Ġcop": 7603,
      "Ġä¸ľèĢ¶": 7604,
      "Ġä¸ľèĢ¶è·¯æĴĴåĨ·": 7605,
      "Ġä¸ľåįĹäºļ": 7606,
      "iy": 7607,
      "ĠçķĻåľ¨": 7608,
      "è¶ĭ": 7609,
      "Ġç»Ŀå¤§": 7610,
      "ĠçĽ´åįĩ": 7611,
      "åĲĵ": 7612,
      "Ġé£İéĻ©ç®¡çĲĨ": 7613,
      "éĥİ": 7614,
      "Ġæ¡¥": 7615,
      "ĠéĺŁä¼į": 7616,
      "Ġåħ¶åĲİ": 7617,
      "åĸĢ": 7618,
      "ĠèĴĤ": 7619,
      "Ġä»ĩæģ¨": 7620,
      "ĠæŃ¤åĲİ": 7621,
      "ĠæīĢçĶ¨": 7622,
      "æĶ»": 7623,
      "Ġå¹¼åĦ¿": 7624,
      "è°±": 7625,
      "Ġæīĭç»Ń": 7626,
      "Ġç³Ł": 7627,
      "ĠåĪĽä¸ļ": 7628,
      "ĠçŃ¾è¯ģ": 7629,
      "ĠåľŃ": 7630,
      "Ġæľ±": 7631,
      "Ġèµłæ¬¾": 7632,
      "Ġå°ıé¢Ŀ": 7633,
      "Ġæ®ĸæ°ĳåľ°": 7634,
      "æĳ©äºļ": 7635,
      "ç²Ĵ": 7636,
      "ĠéĿŀæŃ£è§Ħ": 7637,
      "å¤ļæĸ¯": 7638,
      "ĠçŃ¹éĽĨ": 7639,
      "é¦Ī": 7640,
      "ts": 7641,
      "Ġç»ŁçŃ¹": 7642,
      "Ġåħ¬åĽŃ": 7643,
      "Ġå¥ł": 7644,
      "å¯¸": 7645,
      "ĠåĪ¶åĵģ": 7646,
      "Ġæ°Ķæ°Ľ": 7647,
      "çĪ¶": 7648,
      "Ġç¼´æ¬¾": 7649,
      "Ġå·´å·´å¤ļæĸ¯": 7650,
      "æŀĹåĮ¹åħĭ": 7651,
      "Ġä¿®å¤į": 7652,
      "Ġå³°": 7653,
      "Ġsc": 7654,
      "åĲĪçī©": 7655,
      "Ġå®³æĢķ": 7656,
      "Ġå¥¶": 7657,
      "Ġå¥ĸåĬ±": 7658,
      "ĠèģĶé»İ": 7659,
      "ĠéŃĶ": 7660,
      "Ġæį®è¯´": 7661,
      "ĠæĢ§èĻ": 7662,
      "Ġéģı": 7663,
      "ĠåĽŀè¿Ķ": 7664,
      "½¿": 7665,
      "Ġæĸ°çĶŁ": 7666,
      "Ġä»ĺåĩº": 7667,
      "ĠæĹ¢å®ļ": 7668,
      "Ġè¦ģçĤ¹": 7669,
      "Ġç½®äºİ": 7670,
      "iz": 7671,
      "æľĿ": 7672,
      "è¯Ĭ": 7673,
      "æĪĲæľ¬": 7674,
      "æİĺ": 7675,
      "ĠæĽ´å¤ļ": 7676,
      "ĠæĢ§èĻĲå¾ħ": 7677,
      "ä¹³": 7678,
      "Ġmr": 7679,
      "ĠæĲŃ": 7680,
      "ĠåĽ½æľī": 7681,
      "æĸ¹æ³ķ": 7682,
      "ĠæĩĤ": 7683,
      "çĤ¼": 7684,
      "èİ«": 7685,
      "Ġåłķ": 7686,
      "ĠåıĳæĮ¥ä½ľçĶ¨": 7687,
      "Ġå®ĩ": 7688,
      "Ġæľ¬çĿĢ": 7689,
      "Ġæ¸´": 7690,
      "ä»£å¤«": 7691,
      "Ġé©¬å°Ķä»£å¤«": 7692,
      "ĠèĲ¨æĳ©äºļ": 7693,
      "çĦ": 7694,
      "ĠèģĶåĲĪåĽ½ç§ĺä¹¦": 7695,
      "Ġäººæ°ĳæĶ¿åºľ": 7696,
      "Ġç¬¬åįģå±Ĭ": 7697,
      "ĠèģĶåĲĪåĽ½ç§ĺä¹¦å¤Ħ": 7698,
      "ĠæĢ»åħ±": 7699,
      "Ġgc": 7700,
      "äºļéĤ£": 7701,
      "ĠåºĶæĶ¶": 7702,
      "Ġé©¬æĭīç»´": 7703,
      "åĬ«": 7704,
      "èµĦäº§": 7705,
      "Ġé«ĺè´¨éĩı": 7706,
      "æĮ¯": 7707,
      "Ġç§ĳæĬĢåĴ¨è¯¢": 7708,
      "ĠèĢ¶è·¯æĴĴåĨ·": 7709,
      "Ġä¸īåįģ": 7710,
      "Ġå±ķè§Ī": 7711,
      "Ġå¥ĳçº¦": 7712,
      "Ġå¼ķåħ¥": 7713,
      "Ġéģ¿åŃķ": 7714,
      "ĠçĪ¸çĪ¸": 7715,
      "èĢĮè¨Ģ": 7716,
      "ä¸īæĿ¡": 7717,
      "Ġç¦»å©ļ": 7718,
      "Ġæ°§": 7719,
      "Ġçĸ«èĭĹ": 7720,
      "ĠèĢģæĿ¿": 7721,
      "ĠåĩĿ": 7722,
      "ĠåºĶçĶ¨ç¨ĭåºı": 7723,
      "ĠèģĶåĪ©": 7724,
      "Ġå¦ĤåĲĮ": 7725,
      "Ġè½¬åĮĸ": 7726,
      "Ġæįķæį": 7727,
      "Ġèĥ½éĩı": 7728,
      "å®ĺåĳĺ": 7729,
      "Ġå¨±ä¹Ĳ": 7730,
      "ĠæĪĳè°¨": 7731,
      "Ġé¢ģåıĳ": 7732,
      "Ġéº½": 7733,
      "Ġæ¬ł": 7734,
      "ç¢İ": 7735,
      "ä»¥æĿ¥": 7736,
      "ĠæĸĩèģĮäººåĳĺ": 7737,
      "ä¸»æķĻ": 7738,
      "éĿĴ": 7739,
      "ĠèģĶéĤ¦æĶ¿åºľ": 7740,
      "ĠæĴĴåĵĪæĭī": 7741,
      "èµŀ": 7742,
      "Ġè´´": 7743,
      "åĽ½å®¶èģĶçĽŁ": 7744,
      "Ġäº²ç": 7745,
      "ä¹ĭä»¥": 7746,
      "Ġå¿ĺè®°": 7747,
      "ok": 7748,
      "ĠæŁĲä¸Ģ": 7749,
      "åĳ¼": 7750,
      "ĠâĶĢ": 7751,
      "æµª": 7752,
      "Ġå½±åĵįåĬĽ": 7753,
      "ĠåİĤ": 7754,
      "ĠæķĳåĬ©": 7755,
      "Ġè¿ĲåĬ¨åĳĺ": 7756,
      "å¯»": 7757,
      "èĵ¬": 7758,
      "Ġç»ıç¤¾çĲĨäºĭä¼ļ": 7759,
      "Ġæ°ĳèŃ¦": 7760,
      "ĠæĮĩä»¤": 7761,
      "Ġåı¶": 7762,
      "Ġè½¬åĲĳ": 7763,
      "ĠçĻĮ": 7764,
      "Ġä¸ľçĽŁ": 7765,
      "ĠåķĨåĬ¡": 7766,
      "çĪĨ": 7767,
      "ĠæĿĳåºĦ": 7768,
      "ĠæľĪåºķ": 7769,
      "Ġç«ŀéĢī": 7770,
      "Ġå¼ĢåĪĹ": 7771,
      "åİ¿": 7772,
      "Ġæĭľ": 7773,
      "Ġçļ®èĤ¤": 7774,
      "Ġäº§éĩı": 7775,
      "è¿·": 7776,
      "Ġéĩĩçº³": 7777,
      "Ġçĳ": 7778,
      "Ġæīĭæľº": 7779,
      "ĠåĬĽæ±Ĥ": 7780,
      "ĠåľŃäºļéĤ£": 7781,
      "Ġåĳ½è¿Ĳ": 7782,
      "Ġæľ¯è¯Ń": 7783,
      "ĠçľĭçĿĢ": 7784,
      "ĠæĬĢå·§": 7785,
      "Ġé¸Ł": 7786,
      "æ±¡æŁĵ": 7787,
      "æĻ¨": 7788,
      "Ġå¤ĸæ±ĩ": 7789,
      "ĠçŃ¹å¤ĩå·¥ä½ľ": 7790,
      "ĠæĬ¥è¡¨": 7791,
      "Ġä¾Ľæ°´": 7792,
      "Ġå¿ħä¸įåı¯": 7793,
      "ĠéĢģäº¤": 7794,
      "Ġå¿Ļ": 7795,
      "æĸĩä¹¦": 7796,
      "ĠåĪĴåĪĨ": 7797,
      "Ġè´¯å½»": 7798,
      "Ġæĳ©å°Ķå¤ļçĵ¦åħ±åĴĮåĽ½": 7799,
      "ĠæĶ¾å°ĦæĢ§": 7800,
      "æ´ŀ": 7801,
      "Ġå·¥ä¸ļåĮĸ": 7802,
      "ĠçĮľ": 7803,
      "Ġè¾ĥä¸º": 7804,
      "Ġä¸Ńç¾İæ´²": 7805,
      "Ġkh": 7806,
      "Ġäº§å¦ĩ": 7807,
      "ĠåĪĨå¼Ģ": 7808,
      "å°Ķæĳ©": 7809,
      "ĠåĬ¨æľº": 7810,
      "Ġæ¯Ķé¢Ŀ": 7811,
      "ek": 7812,
      "ĠéĤ®æĶ¿": 7813,
      "Ġé½Ĳ": 7814,
      "Ġç»Ŀä¸į": 7815,
      "èĥ¶": 7816,
      "ĠåºĶä¸º": 7817,
      "Ġåį³ä¾¿": 7818,
      "Ġä¸Ģåĳ¨": 7819,
      "Ġè¥¿æĴĴåĵĪæĭī": 7820,
      "Ġå·¥ä½ľéĩı": 7821,
      "Ġçİ»åĪ©çĵ¦å°Ķ": 7822,
      "Ġæ¯ĽéĩĮå¡Ķå°¼äºļ": 7823,
      "Ġç»ıæµİåį±æľº": 7824,
      "Ġä¹ĭæĹ¥èµ·": 7825,
      "Ġå°ıå¿ĥ": 7826,
      "çĩĥ": 7827,
      "Ġæĥ³åĪ°": 7828,
      "Ġæ³ķå¾ĭæĸĩä¹¦": 7829,
      "ĠæĮģä¹ħæĢ§": 7830,
      "Ġç¬¬åĽĽæĿ¡": 7831,
      "æĲ": 7832,
      "Ġèŀ": 7833,
      "çľł": 7834,
      "our": 7835,
      "Ġå§Ĩ": 7836,
      "ĠçĽĪ": 7837,
      "Ġçī©ç§į": 7838,
      "Ġå¿§": 7839,
      "Ġä½ĵéĿ¢": 7840,
      "Ġè£Ĥåıĺ": 7841,
      "åĬ²": 7842,
      "Ġæİ©": 7843,
      "Ġä¸ĭè·Į": 7844,
      "Ġç§ĳåŃ¦æĬĢæľ¯": 7845,
      "æĢ§æģĭ": 7846,
      "Ġæľ¬æĿ¡": 7847,
      "Ġç«łç¨ĭ": 7848,
      "Ġå»¶è¿Ł": 7849,
      "Ġé¥®çĶ¨": 7850,
      "æ¬ł": 7851,
      "ĠæĬķæłĩ": 7852,
      "Ġæł¸èĥ½": 7853,
      "Ġç¬¬ä¸īæĿ¡": 7854,
      "ĠèĪªå¤©": 7855,
      "Ġè°ĭæĿĢ": 7856,
      "Ġä¸Ģæŀ¶": 7857,
      "æ¦Ĥ": 7858,
      "ä¸įåĲĮ": 7859,
      "Ġæ·¡": 7860,
      "Ġé²ľ": 7861,
      "æ½®": 7862,
      "Ġå¸ĥéĽ·": 7863,
      "Ġåį«çĶŁéĥ¨": 7864,
      "ç¨£": 7865,
      "ip": 7866,
      "åŃ¦éĻ¢": 7867,
      "Ġå¸¦æľī": 7868,
      "Ġæµ·å²¸": 7869,
      "åİī": 7870,
      "Ġå·´åĵĪ": 7871,
      "éĽª": 7872,
      "ĠæĴ¤åĽŀ": 7873,
      "Ġæĳ§": 7874,
      "Ġèµ°åĲĳ": 7875,
      "Ġå¿ħä¸įåı¯å°ĳ": 7876,
      "¤ç»´": 7877,
      "Ġä»ĬæĹ¥": 7878,
      "gl": 7879,
      "ä¸įèī¯": 7880,
      "Ġéĺ¿æĽ¼": 7881,
      "Ġæŀ¶æŀĦ": 7882,
      "Ġæ·±ä¿¡": 7883,
      "çķ´": 7884,
      "Ġæ¬§å®ī": 7885,
      "Ġæ´»è·ĥ": 7886,
      "Ġç¬¬äºĶæ¬¡": 7887,
      "Ġæµªè´¹": 7888,
      "é¢ĨåŁŁ": 7889,
      "ç²¹": 7890,
      "ĠæĶ¶è´Ń": 7891,
      "ĠæĹłçĸĳ": 7892,
      "Ġè°¨æħİ": 7893,
      "Ġå¸Ĥæ°ĳ": 7894,
      "ĠåŁºæľ¬æĿĥåĪ©": 7895,
      "Ġäººå·¥": 7896,
      "Ġä¹ĭéĻħ": 7897,
      "é¡¾éĹ®": 7898,
      "Ġdp": 7899,
      "ĠåĿİ": 7900,
      "ĠéĹŃä¼ļ": 7901,
      "ĠåºĶäºĪ": 7902,
      "ĠçĽĽ": 7903,
      "ĠçŁĽçĽ¾": 7904,
      "ĠéģĹçķĻ": 7905,
      "Ġå¹²æī°": 7906,
      "ĠçŃ¾åŃĹ": 7907,
      "ĠæĴ°": 7908,
      "èļĢ": 7909,
      "Ġä½¿çĶ¨èĢħ": 7910,
      "Ġçĸ²": 7911,
      "Ġå²©": 7912,
      "ç³ĸ": 7913,
      "æĿĨ": 7914,
      "Ġä¸Ģåº§": 7915,
      "Ġç¾¤å²Ľ": 7916,
      "Ġåħ¨åĬĽ": 7917,
      "Ġä¼ĺè´¨": 7918,
      "Ġç½ĳåĿĢ": 7919,
      "io": 7920,
      "Ġè°ĭæ±Ĥ": 7921,
      "Ġæĸ¯å¾·": 7922,
      "Ġè®¤æįĲ": 7923,
      "Ġç½¢": 7924,
      "ĠåĨĽçģ«": 7925,
      "Ġæ³Ľ": 7926,
      "åĽłç´ł": 7927,
      "æ¡¥": 7928,
      "Ġåĳ¨å¹´": 7929,
      "åĢ¡": 7930,
      "Ġæĺ¾å¾Ĺ": 7931,
      "ĠæĺĤ": 7932,
      "è®¾è®¡": 7933,
      "Ġä¸įæĦ¿": 7934,
      "æĻ°": 7935,
      "ĠçĻ¾ä¸ĩ": 7936,
      "Ġä¸Ģåı¥": 7937,
      "Ġå®ģ": 7938,
      "èįĲ": 7939,
      "éŃĤ": 7940,
      "Ġæķ°åŃ¦": 7941,
      "Ġåī¯æľ¬": 7942,
      "Ġå®¶åĽŃ": 7943,
      "ĠéĴĪå¯¹æĢ§": 7944,
      "åŃĺåľ¨": 7945,
      "ĠéĢĢåĩº": 7946,
      "ĠåħŃä¸ªæľĪ": 7947,
      "Ġå¥łå®ļ": 7948,
      "Ġè¿Ļç¬Ķ": 7949,
      "åªĴ": 7950,
      "Ġä¸Ńæĸĩ": 7951,
      "Ġéĩįç»Ħ": 7952,
      "ĠåĲĦä¸ªæĸ¹éĿ¢": 7953,
      "ĠæĹłçº¿çĶµ": 7954,
      "Ġä½İæĶ¶åħ¥": 7955,
      "Ġæĸ¯å¾·åĵ¥": 7956,
      "æľŁéĹ´": 7957,
      "Ġæ¬£è§ģ": 7958,
      "Ġres": 7959,
      "Ġåľ°ä¸Ń": 7960,
      "ĠåıĻè¿°": 7961,
      "æħ§": 7962,
      "å®Įæķ´": 7963,
      "Ġé¡¾åıĬ": 7964,
      "Ġæ¡Īæĥħ": 7965,
      "ĠæĮĸ": 7966,
      "Ġåĵ¦": 7967,
      "Ġä¸įå¥½": 7968,
      "Ġä¸Ģäºĭ": 7969,
      "èĤ¯": 7970,
      "ĠèĮĥçķ´": 7971,
      "Ġä¸Ģéĥ¨": 7972,
      "Ġå®Ŀ": 7973,
      "ĠéĢ»": 7974,
      "ĠèĥľåĪ©": 7975,
      "Ġæµ®": 7976,
      "Ġç¬¬äºĶæĿ¡": 7977,
      "Ġé±¼ç±»": 7978,
      "Ġæĸ¯å¾·åĵ¥å°Ķæĳ©": 7979,
      "Ġç²¾ç¡®": 7980,
      "åİŁåŃĲèĥ½": 7981,
      "Ġåľ°ä¸Ńæµ·": 7982,
      "ba": 7983,
      "ĠåĮ»åĬ¡": 7984,
      "ĠæĴ¤åĩº": 7985,
      "ĠéĢ»è¾ĳ": 7986,
      "Ġä¸Ńå°ıä¼ģä¸ļ": 7987,
      "ĠèŃ¦å¯Łéĥ¨éĺŁ": 7988,
      "ĠæĿĥçĽĬ": 7989,
      "Ġé¥®é£Ł": 7990,
      "ç¢ĳ": 7991,
      "Ġå¤įåĪ¶": 7992,
      "ĠèĢģå¹´": 7993,
      "ĠèģĶæ£Ģ": 7994,
      "Ġé¥Ń": 7995,
      "Ġæ¼Ķåıĺ": 7996,
      "ĠæĭīåĬł": 7997,
      "Ġå¢ŀèĩ³": 7998,
      "Ġä½ľåĩºåĬªåĬĽ": 7999,
      "Ġè¡¥ç¼ĸ": 8000,
      "Ġè¾ŀ": 8001,
      "³½": 8002,
      "åĨľä¸ļ": 8003,
      "Ġåĩłå¤©": 8004,
      "Ġé¡µæ¬¡": 8005,
      "ĠåĩĨå¤ĩéĩĳ": 8006,
      "Ġcc": 8007,
      "ĠèŃ¦åį«": 8008,
      "ĠæĿ¿": 8009,
      "Ġå¤ĸèģĶ": 8010,
      "äºĶæĿ¡": 8011,
      "ĠæįĲèµł": 8012,
      "Ġå°º": 8013,
      "ĠæĹ©ä¸Ĭ": 8014,
      "å¥ı": 8015,
      "ĠçĭĤ": 8016,
      "ey": 8017,
      "ĠåŁŁ": 8018,
      "å°Ķå¾·": 8019,
      "ĠåĤ¨èĵĦ": 8020,
      "Ġcrc": 8021,
      "Ġé©¾é©¶": 8022,
      "ĠçľŁè¯ļ": 8023,
      "Ġèĩ´ä½¿": 8024,
      "æ¤": 8025,
      "äºŀ": 8026,
      "Ġæµģè¡ĮçĹħ": 8027,
      "é¦Ļ": 8028,
      "Ġè¶ħè¶Ĭ": 8029,
      "Ġç»ıæµİç¤¾ä¼ļ": 8030,
      "Ġè¿ĩäºİ": 8031,
      "å¦®": 8032,
      "Ġå¡ŀæĹı": 8033,
      "çĺ¤": 8034,
      "ĠéĢ¾": 8035,
      "Ġè¡ĮåĬ¨èĢħ": 8036,
      "Ġå¹´éĹ´": 8037,
      "Ġæķ¬": 8038,
      "ĠæķĮäºº": 8039,
      "è®®ç¨ĭ": 8040,
      "Ġä¼ļè®®è®®ç¨ĭ": 8041,
      "ĠåĩĨè®¸": 8042,
      "Ġä»£æĽ¿": 8043,
      "ĠåŁİéķĩ": 8044,
      "Ġç§Łèµ": 8045,
      "Ġæ°¯åĮĸ": 8046,
      "ĠèĤĮ": 8047,
      "Ġéķ¿æĹ¶éĹ´": 8048,
      "ĠèģĶç§ĳ": 8049,
      "ĠåĪĬ": 8050,
      "sp": 8051,
      "ĠæĬĵä½ı": 8052,
      "çĪµ": 8053,
      "Ġé©¬åħĭ": 8054,
      "Ġæ¡ĳ": 8055,
      "Ġå±ĢéĻĲ": 8056,
      "ĠåĽ¢éķ¿": 8057,
      "Ġåĺ´": 8058,
      "Ġè¿½è¸ª": 8059,
      "ĠçĤ®": 8060,
      "Ġç§Łèµģ": 8061,
      "Ġ&": 8062,
      "Ġé¢ĨåľŁå®Įæķ´": 8063,
      "Ġç³»ç»Łåľ°": 8064,
      "Ġéĵº": 8065,
      "ĠåĽ½éĻħåİŁåŃĲèĥ½": 8066,
      "Ġåħ¸åŀĭ": 8067,
      "ĠåĽ½éĻħåİŁåŃĲèĥ½æľºæŀĦ": 8068,
      "Ġæ¾³éĹ¨": 8069,
      "ĠèĲ¥ä¸ļ": 8070,
      "åĸľ": 8071,
      "Ġç¬¬äºĮç«ł": 8072,
      "ĠæĶ¶å®¹": 8073,
      "na": 8074,
      "Ġéħ¸": 8075,
      "ĠæħĪåĸĦ": 8076,
      "Ġéªļæī°": 8077,
      "Ġåĭĺæİ¢": 8078,
      "Ġå¤§è¥¿æ´ĭ": 8079,
      "Ġäºĳ": 8080,
      "ĠäºĭåĬ¡å¤Ħ": 8081,
      "ew": 8082,
      "Ġæ¶Ĥ": 8083,
      "Ġä¸Ŀ": 8084,
      "äººå£«": 8085,
      "ä¸Ĭåİ»": 8086,
      "ĠåĲĦéĥ¨": 8087,
      "Ġç¬¬åĽĽå±Ĭ": 8088,
      "Ġæ¼Ĥäº®": 8089,
      "ĠåĲ«ä¹ī": 8090,
      "łæĿĢ": 8091,
      "ĠæīĵçĶµè¯Ŀ": 8092,
      "ç¦ģæŃ¢": 8093,
      "Ġåģĩå¦Ĥ": 8094,
      "ç¹ģ": 8095,
      "Ġéĥ¨èĲ½": 8096,
      "Ġå¦¥åĸĦ": 8097,
      "Ġèģª": 8098,
      "å·¥èµĦ": 8099,
      "Ġå¼ķå¯¼": 8100,
      "Ġè¡¨æ¼Ķ": 8101,
      "Ġå´ĩ": 8102,
      "Ġä¸Ĭåĳ¨": 8103,
      "Ġè·¯çº¿åĽ¾": 8104,
      "ĠçĶ°": 8105,
      "ĠåįĪ": 8106,
      "up": 8107,
      "å°Ķæĸ¯": 8108,
      "Ġé«ĺéĢŁ": 8109,
      "å©": 8110,
      "Ġä¼ª": 8111,
      "Ġå¯¿åĳ½": 8112,
      "Ġæľīè¶£": 8113,
      "Ġçİ»çĴĥ": 8114,
      "ĠçĽ®çļĦåľ°": 8115,
      "ĠæıĲåĢ¡": 8116,
      "Ġä¸¤çº§": 8117,
      "æĬķèµĦ": 8118,
      "Ġé¸¡": 8119,
      "Ġæĺİå¹´": 8120,
      "ĠæĹłåĽ½": 8121,
      "Ġåıįé¦Ī": 8122,
      "Ġå¿ĥèĦı": 8123,
      "ĠçŃ¾åıĳ": 8124,
      "ĠåĵģçīĮ": 8125,
      "èĩ£": 8126,
      "ĠçĶŁæĪĲ": 8127,
      "ĠéģĹäº§": 8128,
      "Ġä½ıæīĢ": 8129,
      "ĠåĪĨè£Ĥ": 8130,
      "å¾ħéģĩ": 8131,
      "ĠèĵĦ": 8132,
      "ĠèĢ¶ç¨£": 8133,
      "Ġè·¨åĽ½åħ¬åı¸": 8134,
      "Ġä¹ĥ": 8135,
      "ĠæĬµè¾¾": 8136,
      "Ġä¸įè¶³ä»¥": 8137,
      "Ġå¹¶äºİ": 8138,
      "Ġç»Ħå»º": 8139,
      "Ġç¡«": 8140,
      "ian": 8141,
      "æĬĬ": 8142,
      "Ġæī¿åĮħåķĨ": 8143,
      "Ġå¿ĥéĩĮ": 8144,
      "ĠæĬĳåĪ¶": 8145,
      "è¿ģ": 8146,
      "ĠåĲĳåīį": 8147,
      "Ġèĳ£äºĭ": 8148,
      "æ¹ĸ": 8149,
      "Ġä¸ĢåĨį": 8150,
      "ĠæĦī": 8151,
      "ĠåĲ¦è®¤": 8152,
      "ĠæĦŁåıĹ": 8153,
      "æĬķç¥¨": 8154,
      "å±ħæ°ĳ": 8155,
      "Ġæ³ķäºº": 8156,
      "éªĹ": 8157,
      "Ġæ¸´æľĽ": 8158,
      "Ġä»Ģ": 8159,
      "Ġç»ıåħ±ä½ĵ": 8160,
      "ĠèĲ¥åħ»ä¸įèī¯": 8161,
      "Ġä»ĵ": 8162,
      "Ġç»ĵä½Ļ": 8163,
      "ĠéħĴåºĹ": 8164,
      "Ġå¦ĩåıĳ": 8165,
      "Ġç§¯ç´¯": 8166,
      "ĠåĳĨ": 8167,
      "Ġä¸ŃæīĢè½½": 8168,
      "ĠåİŁç±į": 8169,
      "Ġåħ»æģ¤": 8170,
      "ĠèģĶåĲĪåĽ½æĢ»éĥ¨": 8171,
      "ĠæķĻåłĤ": 8172,
      "Ġå°ĸ": 8173,
      "Ġä¸įä¸¹": 8174,
      "åłĨ": 8175,
      "Ġå°ıåŃ©": 8176,
      "Ġä¸īåĪĨä¹ĭä¸Ģ": 8177,
      "Ġå®Įç¾İ": 8178,
      "Ġä¸įå¤ª": 8179,
      "Ġè¿Ļå®¶": 8180,
      "Ġä¸Ģè¾Ĩ": 8181,
      "èİİ": 8182,
      "æĤ£": 8183,
      "ç»Ĩèĥŀ": 8184,
      "ĠèĮ¶": 8185,
      "Ġä¸Ģè¾¹": 8186,
      "Ġæĥ©æ²»": 8187,
      "ĠçĬ¯æľī": 8188,
      "ĠèĬ±è´¹": 8189,
      "ĠèĤ¡ä¸ľ": 8190,
      "Ġäººä½ĵ": 8191,
      "Ġä¾µæĿĥ": 8192,
      "åħ±åĲĮ": 8193,
      "Ġçºµ": 8194,
      "ĠåĲ¸æ¯Ĵ": 8195,
      "Ġåīįè¿Ľ": 8196,
      "Ġæĸ½è¡Į": 8197,
      "æĿ¥æºĲ": 8198,
      "åĩºæĿ¥": 8199,
      "Ġæĸ½å·¥": 8200,
      "Ġä¼ļæľŁ": 8201,
      "ĠæīĢæĮĩ": 8202,
      "Ġä¸¤ä½į": 8203,
      "Ġåĩıç¼ĵ": 8204,
      "Ġåĥµ": 8205,
      "Ġä¸įäºĪ": 8206,
      "Ġåĵ²": 8207,
      "ĠçĽĲ": 8208,
      "Ġåħ¬èģĮ": 8209,
      "å·¥ç¨ĭ": 8210,
      "åľ£": 8211,
      "çģŃç»Ŀ": 8212,
      "å·´åĵ¥": 8213,
      "æĢ¨": 8214,
      "Ġå°Ĩè¦ģ": 8215,
      "çī²": 8216,
      "Ġè¯´éģĵ": 8217,
      "Ġç¨Ģ": 8218,
      "Ġèĭıä¸¹æĶ¿åºľ": 8219,
      "ĠæŁĲäºº": 8220,
      "åİļ": 8221,
      "ran": 8222,
      "Ġè´¾": 8223,
      "Ġå¼¥è¡¥": 8224,
      "Ġè¿Ľåĩºåı£": 8225,
      "ĠèĢĥå¯Ł": 8226,
      "å£°æĺİ": 8227,
      "ĠçİĽä¸½": 8228,
      "ĠåŁºçĿ£æķĻ": 8229,
      "ĠæĻ®éģįæĢ§": 8230,
      "Ġå¤©ä¸»æķĻ": 8231,
      "çī©é¦Ĩ": 8232,
      "Ġæİ¨èįĲ": 8233,
      "éĺģ": 8234,
      "Ġèī°éļ¾": 8235,
      "è·ĳ": 8236,
      "ĠèĽ": 8237,
      "æ§": 8238,
      "Ġåĩıåħį": 8239,
      "ç£¨": 8240,
      "Ġæīĵçł´": 8241,
      "æĥĳ": 8242,
      "ĠéģıåĪ¶": 8243,
      "æ±Ł": 8244,
      "Ġæīĭä¸Ń": 8245,
      "Ġèµļ": 8246,
      "Ġåĳ¼åĲ¸": 8247,
      "Ġæ¤": 8248,
      "Ġä¸ĵçĶ¨": 8249,
      "Ġè®¢çº¦": 8250,
      "Ġçī¹ç«ĭ": 8251,
      "ĠæĽ´å¤ļåľ°": 8252,
      "Ġåı¯æĢķ": 8253,
      "ä¾§": 8254,
      "Ġå¥³åŃĲ": 8255,
      "ĠåįģåĽĽå±Ĭ": 8256,
      "åľĪ": 8257,
      "åĩıå°ĳ": 8258,
      "Ġç¾ģ": 8259,
      "Ġèļ": 8260,
      "ĠåĽŀæĬ¥": 8261,
      "Ġçģ«è½¦": 8262,
      "ĠçĶ³æĬ¥": 8263,
      "ĠæĪı": 8264,
      "ĠéĽĦ": 8265,
      "ĠéĢıè¿ĩ": 8266,
      "æĺ¥": 8267,
      "Ġä¸Ģæ®µæĹ¶éĹ´": 8268,
      "Ġè°Īè¯Ŀ": 8269,
      "ĠäºĮåįģä¸Ģ": 8270,
      "Ġåıĸå¾ĹæĪĲåĬŁ": 8271,
      "åħĪçĶŁ": 8272,
      "Ġè¿ŀè´¯": 8273,
      "ĠåıĤè§Ĥ": 8274,
      "Ġä½¿åĳ½": 8275,
      "eh": 8276,
      "æ¢¯": 8277,
      "ĠåĽ½éĻħè´§": 8278,
      "Ġç¬¬ä¸Ģç«ł": 8279,
      "æĥľ": 8280,
      "æķĪçİĩ": 8281,
      "ĠæĬµæĬĹ": 8282,
      "ĠçĥŃæĥħ": 8283,
      "éļľç¢į": 8284,
      "Ġæľ«": 8285,
      "Ġæµĵåº¦": 8286,
      "Ġå¿į": 8287,
      "ä½©": 8288,
      "ĠçŃīçº§": 8289,
      "ĠæĢİä¹Īæł·": 8290,
      "ç©¿": 8291,
      "è°Ĭ": 8292,
      "Ġè¯¥åı¸": 8293,
      "ĠåĬłèĵ¬": 8294,
      "Ġå¤©çĦ¶æ°Ķ": 8295,
      "Ġè¾¾æĪĲåįıè®®": 8296,
      "æĢĢ": 8297,
      "Ġç¬¬äºĶåįģä¹Ŀ": 8298,
      "ĠæľĽ": 8299,
      "Ġæĳ©çº³": 8300,
      "Ġè¿½åĬł": 8301,
      "Ġæ¸Ĺ": 8302,
      "Ġç»ĥ": 8303,
      "Ġå¤ļåĲį": 8304,
      "Ġå¡ĶåĪ©": 8305,
      "Ġæĳ©çº³åĵ¥": 8306,
      "Ġç»ĺ": 8307,
      "ĠåĪļæīį": 8308,
      "Ġèģªæĺİ": 8309,
      "Ġå°ıå§Ĳ": 8310,
      "ĠåĬ¨èį¡": 8311,
      "ç»ĵæŀĦ": 8312,
      "Ġåģıè§ģ": 8313,
      "ä»£è¡¨å¤§ä¼ļ": 8314,
      "Ġä¹¡æĿĳ": 8315,
      "Ġæĳ§æ¯ģ": 8316,
      "ĠåŁºæľ¬å»ºè®¾": 8317,
      "Ġæ¬¡åºı": 8318,
      "é¢Ĺ": 8319,
      "Ġç¤¼çī©": 8320,
      "æ³³": 8321,
      "Ġè¯ģä»¶": 8322,
      "ç¦ıåĪ©": 8323,
      "Ġå«Įçĸĳ": 8324,
      "Ġæİ¥çº³": 8325,
      "Ġæµģåħ¥": 8326,
      "å°¼è¾¾": 8327,
      "Ġç¡®åĪĩ": 8328,
      "Ġå°ĬéĩįäººæĿĥ": 8329,
      "Ġçĸ¯": 8330,
      "Ġèº«å¿ĥ": 8331,
      "å³»": 8332,
      "åĬ¨çī©": 8333,
      "Ġåı¯åĲ¦": 8334,
      "Ġsa": 8335,
      "ĠæľīæīĢå¢ŀåĬł": 8336,
      "Ġæķ²": 8337,
      "Ġå±Ĭä¼ļ": 8338,
      "Ġç¢İçīĩ": 8339,
      "ä½ĵç³»": 8340,
      "èĶ": 8341,
      "èħº": 8342,
      "Ġæ£ĢæŁ¥ç»Ħ": 8343,
      "åĪĨéħį": 8344,
      "ĠåŃ¦èĢħ": 8345,
      "Ġéº»çĥ¦": 8346,
      "è¡ĮæĶ¿åĮº": 8347,
      "Ġçī¹ç«ĭå°¼è¾¾": 8348,
      "ĠåĲĪä½ľç¤¾": 8349,
      "ĠèŃ¦å¯Łå±Ģ": 8350,
      "ĠåŃĺåĤ¨": 8351,
      "Ġä¹ĭä¸Ĭ": 8352,
      "Ġå·´å¸ĥ": 8353,
      "æ®ĭ": 8354,
      "Ġå¤ĸåĢº": 8355,
      "ĠæĽ´æį¢": 8356,
      "ĠæĹłéľĢ": 8357,
      "Ġæ´¾åĩº": 8358,
      "ç´¢æīĺ": 8359,
      "ĠåĨł": 8360,
      "Ġé¢ĦåħĪ": 8361,
      "Ġä¸Ģçīĩ": 8362,
      "Ġèıľ": 8363,
      "ĠæĹ¥åīį": 8364,
      "ĠåĳĢ": 8365,
      "Ġä¸ŃæŃ¢": 8366,
      "ĠæĪĳèĥ½": 8367,
      "èĭ¥": 8368,
      "ĠåĨľåľº": 8369,
      "Ġå±ķæľĽ": 8370,
      "Ġæĥ©å¤Ħ": 8371,
      "ĠæĪĺæĸĹäººåĳĺ": 8372,
      "Ġä¼łéĢĴ": 8373,
      "æľºåĪ¶": 8374,
      "Ġæµ·åºķ": 8375,
      "ĠåĪĳäºĭè´£ä»»": 8376,
      "ĠéģŃéģĩ": 8377,
      "ess": 8378,
      "Ġä¸Ģä¼ļ": 8379,
      "åıī": 8380,
      "çº¹": 8381,
      "ç½ķ": 8382,
      "Ġå¸Ī": 8383,
      "ĠåĨĪ": 8384,
      "Ġé¡¹ä¸ĭ": 8385,
      "ĠåĲĪæĪĲ": 8386,
      "Ġåķ¦": 8387,
      "Ġæľ¨æĿĲ": 8388,
      "Ġå®ŀåľ¨": 8389,
      "æŀļ": 8390,
      "ç§ĳæĬĢ": 8391,
      "Ġæĵįå®Ī": 8392,
      "Ġè´ŁéĿ¢å½±åĵį": 8393,
      "Ġä¼¤äº¡": 8394,
      "ĠåĪ°æĿ¥": 8395,
      "ĠçĽ´åįĩæľº": 8396,
      "Ġçģ«ç®Ń": 8397,
      "åŃ¦æł¡": 8398,
      "æ¬¢è¿İ": 8399,
      "ĠæľįåĬ¡åĻ¨": 8400,
      "è´¹çĶ¨": 8401,
      "Ġå¤ĸç©º": 8402,
      "Ġèº«ä»½è¯ģ": 8403,
      "Ġåħ»èĢģ": 8404,
      "Ġè®°ä½ı": 8405,
      "Ġä¸ĬåŃ¦": 8406,
      "Ġåłķèĥİ": 8407,
      "ĠçĶĺ": 8408,
      "ĠåĴĮå¹³è§£åĨ³": 8409,
      "Ġç§įæĹıçģŃç»Ŀ": 8410,
      "Ġå¹³æĸ¹": 8411,
      "ĠåĢŁæŃ¤": 8412,
      "Ġç¬¬ä¹ĿæĿ¡": 8413,
      "ĠçĲĨå¿µ": 8414,
      "ĠæĻºæħ§": 8415,
      "ºçī²": 8416,
      "Ġè¾¹ç¼ĺåĮĸ": 8417,
      "ĠçĮĽ": 8418,
      "Ġç³Łç³ķ": 8419,
      "Ġå°½åĬĽ": 8420,
      "è¾ħ": 8421,
      "åŃ¦éĩĳ": 8422,
      "Ġä¼ĺç§Ģ": 8423,
      "Ġåħ¨æĸĩ": 8424,
      "çĽ¸åħ³": 8425,
      "Ġè¿ģç§»": 8426,
      "Ġåį¡æĭī": 8427,
      "ĠåŃķäº§": 8428,
      "çİĽ": 8429,
      "Ġä¼¯åĪ©": 8430,
      "å°º": 8431,
      "åĴĮå¤ļ": 8432,
      "Ġfor": 8433,
      "Ġç²ĺ": 8434,
      "å¼Ĺ": 8435,
      "Ġç»´æĬ¤èĢħ": 8436,
      "Ġæ¸Ĳ": 8437,
      "Ġåı¸æ³ķåĪ¶åº¦": 8438,
      "ĠæĪĲåĪĨ": 8439,
      "Ġma": 8440,
      "ĠåĲ¹": 8441,
      "dp": 8442,
      "ä¹Ŀå±Ĭ": 8443,
      "Ġæº¶": 8444,
      "ĠåŁĭ": 8445,
      "Ġç¬¬äºĶåįģåħ«": 8446,
      "ĠæĶ¶åıĸ": 8447,
      "Ġå¡ĶåĪ©çıŃ": 8448,
      "åĲĮæĦı": 8449,
      "Ġä¾¿äºİ": 8450,
      "Ġç¾İåĽ½æĶ¿åºľ": 8451,
      "äºĽæĹ¶åĢĻ": 8452,
      "eral": 8453,
      "Ġå¡ŀäºº": 8454,
      "åįĬå¹´": 8455,
      "Ġwg": 8456,
      "Ġå¸¸ä»»": 8457,
      "Ġæķĳæı´": 8458,
      "Ġwp": 8459,
      "Ġçī¹ç«ĭå°¼è¾¾åĴĮå¤ļ": 8460,
      "Ġçī¹ç«ĭå°¼è¾¾åĴĮå¤ļå·´åĵ¥": 8461,
      "ĠæľĢå¤ļ": 8462,
      "Ġå½ĵä½ľ": 8463,
      "Ġç£¨": 8464,
      "Ġå¹¶ä¸į": 8465,
      "Ġå¤º": 8466,
      "Ġè¯¥æĿ¡": 8467,
      "åĨħæĸ¯": 8468,
      "ĠæĬµæĬ¼": 8469,
      "Ġé¡ºåºı": 8470,
      "Ġçĸı": 8471,
      "ĠåķĨåºĹ": 8472,
      "ĠæŀĦæĥ³": 8473,
      "qu": 8474,
      "Ġè°ĥèĬĤ": 8475,
      "Ġéĺ¿æĭī": 8476,
      "Ġä¹Ĳè§Ĥ": 8477,
      "ĠæŃ¤åīį": 8478,
      "æħ¨": 8479,
      "åįĢ": 8480,
      "Ġå®ŀåĬ¡": 8481,
      "Ġä¼łæŁĵçĹħ": 8482,
      "çĤ®": 8483,
      "Ġä»İä¸Ń": 8484,
      "ĠèŃ¦å®ĺ": 8485,
      "Ġidb": 8486,
      "ĠèĤ²": 8487,
      "ĠæŀĦå»º": 8488,
      "Ġèİ±ç´¢æīĺ": 8489,
      "åĤ": 8490,
      "å±ĢåĬ¿": 8491,
      "Ġè¿°": 8492,
      "åķĨåĬ¡": 8493,
      "Ġåħ³éĶ®ä½ľçĶ¨": 8494,
      "Ġåį±åıĬ": 8495,
      "Ġap": 8496,
      "ĠåĨĽäºĭè¡ĮåĬ¨": 8497,
      "Ġçīµå¤´": 8498,
      "ĠåħħåĪĨåĪ©çĶ¨": 8499,
      "ĠåİŁå§ĭ": 8500,
      "Ġæ¨¡ç³Ĭ": 8501,
      "èĦĤ": 8502,
      "èµ¦": 8503,
      "ĠèĶĵ": 8504,
      "Ġå®ļä½į": 8505,
      "Ġè®¨": 8506,
      "Ġäººæ°ĳå¸ģ": 8507,
      "Ġçľĭåĩº": 8508,
      "¹æŀľ": 8509,
      "ĠèĽĭçĻ½": 8510,
      "ĠéĩĳéĴ±": 8511,
      "Ġå®£ç§°": 8512,
      "ĠåĽ°å¢ĥ": 8513,
      "ç¿»": 8514,
      "Ġå¿Ĩ": 8515,
      "ĠæĮĳéĢī": 8516,
      "Ġéĩįåıł": 8517,
      "Ġåıįå¯¹æ´¾": 8518,
      "ĠèģĺçĶ¨": 8519,
      "èį·": 8520,
      "ä¾£": 8521,
      "ĠèĬĤçº¦": 8522,
      "mp": 8523,
      "ĠæĬ¥å¤į": 8524,
      "ĠæĹłåħ³": 8525,
      "ĠæĸĩåŃ¦": 8526,
      "éĽĦ": 8527,
      "å»ī": 8528,
      "Ġæµ·çīĻ": 8529,
      "Ġå°½ç®¡å¦ĤæŃ¤": 8530,
      "ĠéĽ¶åĶ®": 8531,
      "Ġå®¡è®¯": 8532,
      "Ĺä½į": 8533,
      "éĿŀæ´²": 8534,
      "Ġç»Ŀå¤§å¤ļæķ°": 8535,
      "Ġäºīè®º": 8536,
      "åĲĪåĲĮ": 8537,
      "Ġä¸įæ»¡": 8538,
      "Ġæ±¤å§Ĩ": 8539,
      "Ġç¾ģæĬ¼": 8540,
      "Ġè¿ĺä¼ļ": 8541,
      "ĠéĹŃéĹ¨": 8542,
      "Ġè´ª": 8543,
      "Ġä¸įåĲĪ": 8544,
      "æĩĪ": 8545,
      "Ġåħ¬åħ±åį«çĶŁ": 8546,
      "æ¢ģ": 8547,
      "Ġä¹Ī": 8548,
      "Ġæ·ĺ": 8549,
      "å°Ĭ": 8550,
      "ber": 8551,
      "Ġæľ¬ä¹¦": 8552,
      "ä¹īåĬ¡": 8553,
      "çĤī": 8554,
      "Ġå·´åĵĪé©¬": 8555,
      "Ġç¬¬ä¸īä¸ª": 8556,
      "Ġä¼ģä¸ļå®¶": 8557,
      "Ġå¹ħ": 8558,
      "Ġå·´å¸ĥäºļ": 8559,
      "ĠæĮĩæĺİ": 8560,
      "Ġè¿ĩæĿ¥": 8561,
      "Ġçľĭä¸Ĭåİ»": 8562,
      "Ġåħ¬åħ±è¡ĮæĶ¿": 8563,
      "ĠæĬ¤çħ§": 8564,
      "Ġç¯ĩ": 8565,
      "Ġä¸ŃæĸŃ": 8566,
      "æ³¥": 8567,
      "ĠéĩĩåıĸæľīæķĪ": 8568,
      "åĪĨä¹ĭäºĮ": 8569,
      "Ġæ¿ĢçĥĪ": 8570,
      "ĠåıĺæĽ´": 8571,
      "ĠåĪĳæ³ķåħ¸": 8572,
      "ç¾Ĭ": 8573,
      "Ġäºĭçī©": 8574,
      "Ġå¸Ŀ": 8575,
      "ĠèģĮä¸ļåŁ¹è®Ń": 8576,
      "Ġä»£çłģ": 8577,
      "Ġåħ¨éĿ¢ç¦ģæŃ¢": 8578,
      "Ġèĭ¹æŀľ": 8579,
      "Ġè´Ŀå°Ķ": 8580,
      "ĠæĽ¼è°·": 8581,
      "ĠåŃķå¦ĩ": 8582,
      "Ġéŀĭ": 8583,
      "Ġé¥®çĶ¨æ°´": 8584,
      "Ġä¸Ģå±Ĭ": 8585,
      "ĠæĽ´æŃ£": 8586,
      "Ġå¯¹åºĶ": 8587,
      "Ġæ¸ħæĻ°": 8588,
      "Ġå±Ĥæ¬¡": 8589,
      "Ġè±¡å¾ģ": 8590,
      "ina": 8591,
      "Ġä¸ªä½ĵ": 8592,
      "éĤ»": 8593,
      "Ġæįķæįŀ": 8594,
      "ĠéĿŀç´¢": 8595,
      "ä»»åĬ¡": 8596,
      "ĠåħĪåĨ³": 8597,
      "çħ§ä¼ļ": 8598,
      "Ġæµĭå®ļ": 8599,
      "æıı": 8600,
      "ĠæĲºå¸¦": 8601,
      "Ġå¯¼èĪª": 8602,
      "Ġä¸Ĭå¸Ĥ": 8603,
      "Ġä¸Ģç±»": 8604,
      "Ġä¸¥å³»": 8605,
      "ä½Ĩ": 8606,
      "Ġåħ´å¥ĭ": 8607,
      "ĠéĢĤè¶³": 8608,
      "Ġåħĥç´ł": 8609,
      "Ġåįıè°ĥä¼ļ": 8610,
      "ç§©åºı": 8611,
      "Ġç»Ńä¼ļ": 8612,
      "ĠæıĲåıĸ": 8613,
      "æĪĴ": 8614,
      "Ġabd": 8615,
      "å®ŀçİ°": 8616,
      "ĠèģĮå·¥": 8617,
      "ĠæĻ®éĢļçħ§ä¼ļ": 8618,
      "Ġçīºçī²": 8619,
      "Ġat": 8620,
      "Ġè¡¨ç¤ºæĦŁè°¢": 8621,
      "Ġæģ¶åĬ£": 8622,
      "ĠæĦ¤": 8623,
      "Ġéħįå¤ĩ": 8624,
      "ĠæĦŁæĥħ": 8625,
      "Ġæİªè¾ŀ": 8626,
      "ĠæĪ¿åľ°äº§": 8627,
      "åªĴä½ĵ": 8628,
      "Ġæ¦": 8629,
      "Ġä¸»äºº": 8630,
      "çº²": 8631,
      "åĶ±": 8632,
      "æłı": 8633,
      "åī¯": 8634,
      "éĺ»": 8635,
      "Ġåį´æĺ¯": 8636,
      "ĠçĶµåı°": 8637,
      "æħ°": 8638,
      "ĠåĲįåĨĮ": 8639,
      "ĠåĬ¨ä½ľ": 8640,
      "ä¸įè¶³": 8641,
      "Ġla": 8642,
      "åŀĴ": 8643,
      "é¸Ł": 8644,
      "ĠèĶĵå»¶": 8645,
      "Ġåįłæľī": 8646,
      "å½¢å¼ı": 8647,
      "ĠåıĳçĹħ": 8648,
      "Ġéĩĩè®¿": 8649,
      "Ġæ³¡": 8650,
      "åįıä¼ļ": 8651,
      "ĠçĽĬ": 8652,
      "ĠæĴ¤ç¦»": 8653,
      "Ġçī¹è®¸": 8654,
      "ĠçĶĦ": 8655,
      "ĠæĸĩçĮ®": 8656,
      "Ġç»ĵæł¸": 8657,
      "Ġå®¶åħ·": 8658,
      "uk": 8659,
      "ĠæķĻä¼ļ": 8660,
      "åħ«æĿ¡": 8661,
      "Ġèĥ¶": 8662,
      "Ġä¸ĢçĶŁ": 8663,
      "Ġç¤¾ä¼ļç¦ıåĪ©": 8664,
      "Ġæ³ķå¾ĭäºĭåĬ¡": 8665,
      "Ġåľ¨æŃ¤": 8666,
      "ĠåºĹ": 8667,
      "ĠèĢģæĮĿäººæ°ĳ": 8668,
      "ĠåħĪåĨ³æĿ¡ä»¶": 8669,
      "inal": 8670,
      "Ġé¢Ħè§ģ": 8671,
      "ĠåİŁçĲĨ": 8672,
      "ĠéĩİçĶŁ": 8673,
      "Ġxv": 8674,
      "Ġä¿¡åĩ½": 8675,
      "ust": 8676,
      "Ġæ½®": 8677,
      "ĠçĶµåŃĲåķĨåĬ¡": 8678,
      "ĠåĨħåľ¨": 8679,
      "ĠçŁ¥åĲį": 8680,
      "ĠçĶľ": 8681,
      "Ġç¦ģä»¤": 8682,
      "Ġç§ģæľī": 8683,
      "ĠæĿ°åħĭ": 8684,
      "æī£": 8685,
      "Ġæ¯«æĹłçĸĳ": 8686,
      "Ġç§Łéĩĳ": 8687,
      "ĠèĢģæĮĿäººæ°ĳæ°ĳä¸»åħ±åĴĮåĽ½": 8688,
      "Ġåħ±åĴĮ": 8689,
      "å§ĵ": 8690,
      "æ»¥": 8691,
      "ĠåĪ°åºķ": 8692,
      "Ġåĩºèī²": 8693,
      "Ġç©·åĽ½": 8694,
      "ĠåįĹéĥ¨éĿŀæ´²": 8695,
      "ĠçĽĳæİ§": 8696,
      "åĩ¡": 8697,
      "ç»ıéªĮ": 8698,
      "Ġä¸įçŁ¥": 8699,
      "Ġè¦ģä¹Ī": 8700,
      "Ġæ³ķæĸĩ": 8701,
      "Ġæ··ä¹±": 8702,
      "ĠåįĹäºļ": 8703,
      "Ġç²¾ç®Ģ": 8704,
      "éħ·": 8705,
      "Ġä¸Ģäºº": 8706,
      "Ġæī§æ³ķäººåĳĺ": 8707,
      "Ġä¹ħ": 8708,
      "Ġé«ĺçº§å®ĺåĳĺ": 8709,
      "çĽ¸åĲĮ": 8710,
      "Ġæĭ¯": 8711,
      "æīĢä»¥": 8712,
      "Ġç¬¬ä¹Ŀå±Ĭ": 8713,
      "ĠçĽ¸äºĴä¾Ŀ": 8714,
      "ĠæĹłåĽ½ç±į": 8715,
      "Ġç»ıæµİåŃ¦å®¶": 8716,
      "Ġèĥ¸": 8717,
      "Ġæĭ¯æķĳ": 8718,
      "ĠåĬ¨è®®": 8719,
      "ĠæĪĲå¹´äºº": 8720,
      "Ġä¸ľåĮĹ": 8721,
      "ç»ĵè®º": 8722,
      "æĿ°": 8723,
      "Ġå¸ĤæĶ¿": 8724,
      "ĠåĽ¢ä¼Ļ": 8725,
      "ĠæĹ©æĹ¥": 8726,
      "Ġè¿ĩåĪĨ": 8727,
      "ĠåĨ³ä¸į": 8728,
      "ç¡¬": 8729,
      "èīĩ": 8730,
      "åŁºä¼ļ": 8731,
      "Ġä¸Ģä¸ªæľĪ": 8732,
      "Ġèŀº": 8733,
      "Ġä¼°ç®Ĺ": 8734,
      "ĠçĽ¸åħ³æĢ§": 8735,
      "å¸ģåŁºéĩĳ": 8736,
      "ĠåĽ½éĻħè´§å¸ģåŁºéĩĳ": 8737,
      "ĠåĵŃ": 8738,
      "Ġé¾Ļ": 8739,
      "ĠæįŁåĿı": 8740,
      "è¹": 8741,
      "éĻĢ": 8742,
      "ĠèģĮåĳĺ": 8743,
      "ĠèĴĻçī¹éĽ·": 8744,
      "¦½": 8745,
      "Ġç¬¬äºĶåįģä¸ĥå±Ĭ": 8746,
      "ĠèĩªåĨ³æĿĥ": 8747,
      "Ġçľĭä½ľ": 8748,
      "çĲ´": 8749,
      "Ġä¸¥åİī": 8750,
      "Ġåįļçī©é¦Ĩ": 8751,
      "Ġæİ¥å¾ħ": 8752,
      "Ġå»¶è¯¯": 8753,
      "åĲ¨": 8754,
      "ĠæĪĴ": 8755,
      "Ġæį®æŃ¤": 8756,
      "Ġä¸ĭè½½": 8757,
      "Ġæ¯«æĹłçĸĳéĹ®": 8758,
      "ĠãĢĳ": 8759,
      "Ġåħ¬åħ±æĶ¿çŃĸ": 8760,
      "çī§": 8761,
      "å«Į": 8762,
      "ĠåĦ¿åŁºä¼ļ": 8763,
      "ma": 8764,
      "ĠåĮĹæĸ¹": 8765,
      "Ġæ¯«ç±³": 8766,
      "Ġå°¸": 8767,
      "æķ°åŃĹ": 8768,
      "Ġä¹ĭæīĢä»¥": 8769,
      "ĠäºĮæ°§åĮĸ": 8770,
      "Ġåħ·ä½ĵæİªæĸ½": 8771,
      "Ġç¾Ĭ": 8772,
      "Ġçī¹èī²": 8773,
      "ä¸ĭåİ»": 8774,
      "Ġå¤Ħä»¥": 8775,
      "Ġsb": 8776,
      "Ġè¿Ĳè½½": 8777,
      "Ġcd": 8778,
      "ĠæķħæĦı": 8779,
      "ĠåĮĹçº¦": 8780,
      "Ġinter": 8781,
      "æ²¡æľī": 8782,
      "ĠåĨħéĺģ": 8783,
      "æ¼ı": 8784,
      "Ġé¢ĳçİĩ": 8785,
      "Ġå±ħçķĻ": 8786,
      "å¹´åº¦": 8787,
      "ĠåĽ½æ°ĳè®®ä¼ļ": 8788,
      "ĠèĩªæĿĢ": 8789,
      "Ġæ³¨æĦıåĬĽ": 8790,
      "åĲĥ": 8791,
      "ine": 8792,
      "ä¸ĢæĿ¡": 8793,
      "Ġæľīæ²¡æľī": 8794,
      "ç¡®å®ļ": 8795,
      "éĺĶ": 8796,
      "Ġå¤´åıĳ": 8797,
      "ong": 8798,
      "Ġæİ¥åĪ°": 8799,
      "Ġå¥ĩæĢª": 8800,
      "Ġè¿ĩæ¸¡æĹ¶æľŁ": 8801,
      "ĠæŀªæĶ¯": 8802,
      "èĻİ": 8803,
      "åŁºç": 8804,
      "Ġæľįè£ħ": 8805,
      "ĠèĤ©": 8806,
      "æ¬²": 8807,
      "ĠèĤ¡ä»½": 8808,
      "å£«åħ°": 8809,
      "Ġæ£Ģå¯Łéķ¿": 8810,
      "ĠæĻ®æŁ¥": 8811,
      "Ġå·²äºİ": 8812,
      "æĸ°åĩłåĨħäºļ": 8813,
      "Ġå·´å¸ĥäºļæĸ°åĩłåĨħäºļ": 8814,
      "Ġåºŀ": 8815,
      "Ġç¡®ä¿¡": 8816,
      "Ġè§ģè§£": 8817,
      "Ġè½¬åŀĭæľŁ": 8818,
      "åĪ«è¡ĮæĶ¿åĮº": 8819,
      "çī¹åĪ«è¡ĮæĶ¿åĮº": 8820,
      "åŁºç¡Ģ": 8821,
      "Ġåľ°è¯´": 8822,
      "ĠçĶµéĤ®": 8823,
      "ĠåĪĿæľŁ": 8824,
      "Ġæľ¬æ¡Ī": 8825,
      "Ġä¸»ä½ĵ": 8826,
      "æľµ": 8827,
      "ĠçĻĮçĹĩ": 8828,
      "æľĥ": 8829,
      "ĠæĦīå¿«": 8830,
      "é¼ĵ": 8831,
      "ĠèĦĤ": 8832,
      "Ġåľ°ä¸Ĭ": 8833,
      "ĠåºĦ": 8834,
      "Ġåģĩå®ļ": 8835,
      "ug": 8836,
      "Ġè¡Ĺå¤´": 8837,
      "ĠæĶ¶åħ»": 8838,
      "è³½": 8839,
      "Ġæ¨¡åĿĹ": 8840,
      "ĠåĶ®": 8841,
      "åĭķ": 8842,
      "ĠçĶŁå¢ĥ": 8843,
      "åĥ": 8844,
      "ĠåĨħæĶ¿éĥ¨": 8845,
      "Ġå°ĳå¥³": 8846,
      "Ġåħ¬åħ±æľįåĬ¡": 8847,
      "ĠæľīæĹ¶åĢĻ": 8848,
      "ĠåĲ¸çĥŁ": 8849,
      "Ġè°Īè®º": 8850,
      "çĬ¶æĢģ": 8851,
      "Ġç«ĭåĪ»": 8852,
      "ĠåıĤåĬłèĢħ": 8853,
      "èĤ¥": 8854,
      "Ġäººæ°ĳæ³ķéĻ¢": 8855,
      "Ġspan": 8856,
      "ĠçĥŃå¸¦": 8857,
      "Ġæł¸è¯ģ": 8858,
      "ĠæķĻèĤ²éĥ¨": 8859,
      "Ġæł¹éĻ¤": 8860,
      "åĲ¯": 8861,
      "éĴ©": 8862,
      "Ġä»¥åįĹ": 8863,
      "Ġä¸įåıĺ": 8864,
      "Ġå·¥ç¨ĭå¸Ī": 8865,
      "Ġå³°ä¼ļ": 8866,
      "Ġéħįé¢Ŀ": 8867,
      "Ġåħ·ä½ĵæĥħåĨµ": 8868,
      "ĠèģļéĽĨ": 8869,
      "ĠåĬĽåº¦": 8870,
      "Ġæĸ½æĶ¿": 8871,
      "ĠæĪĪåħ°": 8872,
      "Ġä¸įæ³ķ": 8873,
      "ĠæµģéĢļ": 8874,
      "åħ±åĲĮä½ĵ": 8875,
      "Ġæ¬§æ´²äºº": 8876,
      "Ġè¥¿çıŃçīĻè¯Ń": 8877,
      "ĠèģĶæµ·": 8878,
      "Ġæ¦ĤåĨµ": 8879,
      "ĠåĨħåľ°": 8880,
      "Ġç»¼åĲĪæĢ§": 8881,
      "Ġåį°è±¡": 8882,
      "Ġç¾¤ä¼Ĺ": 8883,
      "Ġä¸įåıĹ": 8884,
      "Ġå»¶æľŁ": 8885,
      "Ġå¯¹æ¯Ķ": 8886,
      "Ġå¤Ħåľ¨": 8887,
      "ĠæĽ´åħ·": 8888,
      "Ġä¸Ģç¬Ķ": 8889,
      "Ġä»ĺè¯¸": 8890,
      "ĠæĬµæ¶Ī": 8891,
      "Ġå°ĨåĨĽ": 8892,
      "ĠçĪ¬": 8893,
      "Ġå¿ĨåıĬ": 8894,
      "ĠåĪĴçķĮ": 8895,
      "Ġä¸ĵé¢ĺè®¨è®º": 8896,
      "Ġç«Ł": 8897,
      "å£³": 8898,
      "èĥº": 8899,
      "Ġå½Ĵè¿ĺ": 8900,
      "è±ª": 8901,
      "ĠæĦŁåĪ°éģĹæĨ¾": 8902,
      "Ġè´©åįĸäººåı£": 8903,
      "Ġä¸īæ¬¡": 8904,
      "Ġçľĭå¾ħ": 8905,
      "Ġå¤§å¤ļ": 8906,
      "Ġåİ¨": 8907,
      "Ġè¥¿æ¬§": 8908,
      "ä¼¸": 8909,
      "Ġæķĳçģ¾": 8910,
      "Ġä»ªå¼ı": 8911,
      "ĠåĲ¦åĨ³": 8912,
      "ĠæĶ¶åĽŀ": 8913,
      "te": 8914,
      "éķĳ": 8915,
      "Ġåĥıæĺ¯": 8916,
      "ĠæĹ¢çĦ¶": 8917,
      "ĠçŁ¿çī©": 8918,
      "ĠèĬ±åĽŃ": 8919,
      "Ġèİ·çĽĬ": 8920,
      "åĪº": 8921,
      "ĠåĪĹä¸¾": 8922,
      "Ġæµı": 8923,
      "Ġè¯´æľį": 8924,
      "åĪĢ": 8925,
      "Ġç«Ń": 8926,
      "Ġæī©å¼ł": 8927,
      "amm": 8928,
      "Ġä¹°æĸ¹": 8929,
      "ĠèĻļæĭŁ": 8930,
      "Ġä¸īåĲį": 8931,
      "Ġæ¸¸å®¢": 8932,
      "Ġè¡Įå¾Ħ": 8933,
      "Ġæİ¢æµĭ": 8934,
      "ĠåĪĳäºĭè¯īè®¼æ³ķ": 8935,
      "Ġå´©": 8936,
      "Ġä¸¤äºº": 8937,
      "Ġæīĺåħĭ": 8938,
      "æ¨": 8939,
      "Ġä½ľæĪĺ": 8940,
      "Ġæ¦Ĥè¦ģ": 8941,
      "Ġæ¦Ĥè§Ī": 8942,
      "é«": 8943,
      "Ġçĩĥçĥ§": 8944,
      "éĽ¶éĽ¶": 8945,
      "ĠæŁĶ": 8946,
      "å®Ļ": 8947,
      "Ġéĵľ": 8948,
      "åĩĨåħ¥": 8949,
      "Ġå¸ĤåľºåĩĨåħ¥": 8950,
      "Ġæµıè§Ī": 8951,
      "ç§įæĹı": 8952,
      "ĠçģŃç»Ŀç§įæĹı": 8953,
      "Ġæĺİç¡®è§Ħå®ļ": 8954,
      "å¸Ĳ": 8955,
      "Ġå¤§èĦĳ": 8956,
      "ĠæĮĩè´£": 8957,
      "ĠæĹħé¦Ĩ": 8958,
      "ĠåĪĨåĮº": 8959,
      "Ġip": 8960,
      "ĠéĢĴäº¤": 8961,
      "Ġå¤ıåŃ£": 8962,
      "Ġèµ¤éģĵ": 8963,
      "Ġé»ĳæļĹ": 8964,
      "éĻĲåĪ¶": 8965,
      "Ġè¿ľç¨ĭ": 8966,
      "Ġéĺ³åħī": 8967,
      "æį·": 8968,
      "ĠéĻĦå½ķ": 8969,
      "ĠæīĢåľ¨åľ°": 8970,
      "Ġé¼ĵèĪŀ": 8971,
      "æİ§åĪ¶": 8972,
      "Ġç«¯": 8973,
      "Ġç»ĥä¹ł": 8974,
      "ĠæĹłéĻĲ": 8975,
      "ĠçĶ²åŁº": 8976,
      "Ġä½Ľå¾Ĺ": 8977,
      "æĽ¾": 8978,
      "ä½ł": 8979,
      "Ġåıªä¼ļ": 8980,
      "æľĭåıĭ": 8981,
      "Ġä½Ľå¾Ĺè§Ĵ": 8982,
      "ĠæĶ¾æĿ¾": 8983,
      "Ġåıĳæĺİ": 8984,
      "Ġè¿Ŀæ³ķè¡Įä¸º": 8985,
      "çĥ·": 8986,
      "Ġå§ĳ": 8987,
      "Ġå¼Ĥå¸¸": 8988,
      "Ġå¾Ĺåĩºç»ĵè®º": 8989,
      "Ġåı¸æľº": 8990,
      "Ġæłĩè®°": 8991,
      "ĠæłĩçŃ¾": 8992,
      "Ī±": 8993,
      "Ġè§ģä¸ĭæĸĩ": 8994,
      "ĠåŃĶ": 8995,
      "Ġé¹¿": 8996,
      "Ġå¤§èµ¦": 8997,
      "Ġè®ºçĤ¹": 8998,
      "Ġå°Ĩè¿ĳ": 8999,
      "ĠåĻª": 9000,
      "ĠåĲ¬è¯´": 9001,
      "Ġä¸ľäº¬": 9002,
      "Ġä¸¤ä»½": 9003,
      "ĠåĨĽçĶ¨": 9004,
      "Ġec": 9005,
      "Ġå¢ĥå¤ĸ": 9006,
      "ĠåĶĲ": 9007,
      "ĠæľįåĬ¡ä¸Ńå¿ĥ": 9008,
      "ĠåĲ¸åıĸ": 9009,
      "Ġå¥¥æĸ¯": 9010,
      "Ġé«ĺå±Ĥ": 9011,
      "ĠæĴŀ": 9012,
      "Ġäº²çĪ±": 9013,
      "Ġä¸Ģç»Ħ": 9014,
      "ĠåĮĸåĲĪçī©": 9015,
      "ĠæĮĩæ´¾": 9016,
      "Ġè¯ģè¯į": 9017,
      "ĠçĽĳè§Ĩ": 9018,
      "Ġæł·åŃĲ": 9019,
      "ĠåĮºåĨħ": 9020,
      "ĠåĨĽå®ĺ": 9021,
      "Ġè´¢åĬ¡æĬ¥åĳĬ": 9022,
      "Ġè©": 9023,
      "Ġç»Łè®¡æķ°åŃĹ": 9024,
      "å²©": 9025,
      "éģĹäº§": 9026,
      "ĠèĪ¬": 9027,
      "äºĳ": 9028,
      "ĠäºĶåįģ": 9029,
      "Ġæµ·æ´ĭçİ¯å¢ĥ": 9030,
      "Ġç»ĵç¤¾": 9031,
      "Ġåľ£é©¬": 9032,
      "Ġå·§": 9033,
      "ĠåĽ½éĻħè´§å¸ģåŁºéĩĳç»Ħç»ĩ": 9034,
      "Ġçº¤ç»´": 9035,
      "Ġè§£éĽĩ": 9036,
      "Ġpc": 9037,
      "Ġç©¿çĿĢ": 9038,
      "è±Ĩ": 9039,
      "ational": 9040,
      "Ġå¤įåħ´": 9041,
      "Ġå½©": 9042,
      "ĠæĬ¢åĬ«": 9043,
      "Ġæħ·": 9044,
      "Ġåİļ": 9045,
      "æ±½è½¦": 9046,
      "Ġä»ĬæĻļ": 9047,
      "è¢Ń": 9048,
      "ĠåĪĨæĶ¯": 9049,
      "Ġåį«çĶŁä¿Ŀåģ¥": 9050,
      "Ġä¸Ģæľ¬": 9051,
      "Ġåīįä»»": 9052,
      "ĠåĬ¿å¤´": 9053,
      "çºĤ": 9054,
      "ĠåŁºå±Ĥ": 9055,
      "ĠçĭŃ": 9056,
      "ĠåĪ¶éĢłåķĨ": 9057,
      "çĵ¶": 9058,
      "ĠæģĲåĲĵ": 9059,
      "ĠæĬļåħ»": 9060,
      "ĠéĽĨæĿŁ": 9061,
      "æ¡Īä»¶": 9062,
      "Ġä¾¦å¯Ł": 9063,
      "Ġåĺī": 9064,
      "ĠåįģåħŃå±Ĭ": 9065,
      "Ġç½Ĺå§Ĩäºº": 9066,
      "est": 9067,
      "æįŁå¤±": 9068,
      "Ġè¿ĻæĹ¶": 9069,
      "å°ıç»Ħ": 9070,
      "ç½ĹéĹ¨": 9071,
      "Ġæħ·æħ¨": 9072,
      "Ġå®ĩå®Ļ": 9073,
      "Ġç¬¬ä¸ĥå±Ĭ": 9074,
      "Ġç¼ĸçºĤ": 9075,
      "ĠçłĶåĪ¶": 9076,
      "äºĮå±Ĭ": 9077,
      "åºŁçī©": 9078,
      "Ġä½ķæĹ¶": 9079,
      "Ġæ³¥": 9080,
      "Ġengl": 9081,
      "ĠèĪªè¡Į": 9082,
      "iginal": 9083,
      "ĠåĬª": 9084,
      "Ġåĩºç§Ł": 9085,
      "ĠåĪĨèĩ³": 9086,
      "ĠçĮ«": 9087,
      "Ġæ±ĩæ¬¾": 9088,
      "Ġè§£éĩĬæĢ§": 9089,
      "ĠèģĶåĲĪåĽ½æĹ¥": 9090,
      "åĬŀäºĭå¤Ħ": 9091,
      "åĨħçĵ¦åĬŀäºĭå¤Ħ": 9092,
      "ĠèģĶåĲĪåĽ½æĹ¥åĨħçĵ¦åĬŀäºĭå¤Ħ": 9093,
      "Ġéģµçħ§": 9094,
      "Ġä¼¯åĪ©åħ¹": 9095,
      "ĠéĻĦä¸Ĭ": 9096,
      "Ġä¸ģ": 9097,
      "Ġå°¤ä¸º": 9098,
      "Ġå¥ĸåŃ¦éĩĳ": 9099,
      "ĠåĪĢ": 9100,
      "Ġåĩºåħ¥": 9101,
      "ĠåĨĪæ¯Ķäºļ": 9102,
      "Ġä¸īåĪĨä¹ĭäºĮ": 9103,
      "Ġåĩłæ¬¡": 9104,
      "Ġçºº": 9105,
      "ĠæĬ±æĢ¨": 9106,
      "Ġè¯¦å°½": 9107,
      "Ġæ¼ı": 9108,
      "ĠçīĮ": 9109,
      "ash": 9110,
      "Ġç©¶": 9111,
      "Ġç¼©çŁŃ": 9112,
      "Ġè¿ĽæĿ¥": 9113,
      "åĲĦæł·": 9114,
      "Ġè¯¸å¤ļ": 9115,
      "å®½": 9116,
      "Ġå¹¸åŃĺ": 9117,
      "ĠæĶ¿åºľéĥ¨éĹ¨": 9118,
      "Ġä»£çĲĨäºº": 9119,
      "Ġit": 9120,
      "ĠåĬ©éķ¿": 9121,
      "ĠåĿļä¿¡": 9122,
      "ä¸¥éĩį": 9123,
      "Ġåħ¹": 9124,
      "çħ": 9125,
      "å·¥ä½ľèĢħ": 9126,
      "é½¿": 9127,
      "Ġç©ºè¿Ĳ": 9128,
      "æ³°": 9129,
      "Ġå§Ĳ": 9130,
      "Ġç¬¬åįģä¸Ģå±Ĭ": 9131,
      "Ġèº«è¾¹": 9132,
      "ĠåĬ³åĬ¨èĢħ": 9133,
      "Ġæĭĵ": 9134,
      "Ġå¼ķçĶ¨": 9135,
      "Ġæ³¨å°Ħ": 9136,
      "ĠèĤĿ": 9137,
      "Ġoriginal": 9138,
      "ĠæĶ¹ç»Ħ": 9139,
      "ĠåİŁåĪĻä¸Ĭ": 9140,
      "Ġçº¢èī²": 9141,
      "ĠæĢª": 9142,
      "ĠæĸĩçĽ²": 9143,
      "çĭĤ": 9144,
      "Ġä¸Ģæı": 9145,
      "Ġenglish": 9146,
      "Ġè®¤åĲĮ": 9147,
      "Ġåı¸æ³ķéĥ¨éĹ¨": 9148,
      "Ġèĩªæ²»åĮº": 9149,
      "ä¸ªæľĪ": 9150,
      "çİ©": 9151,
      "èĿ": 9152,
      "Ġè¯Ħæ³¨": 9153,
[...]
