{
  "version": "1.0",
  "truncation": null,
  "padding": null,
  "added_tokens": [
    {
      "id": 0,
      "content": "[PAD]",
      "single_word": false,
      "lstrip": false,
      "rstrip": false,
      "normalized": false,
      "special": true
    },
    {
      "id": 1,
      "content": "[UNK]",
      "single_word": false,
      "lstrip": false,
      "rstrip": false,
      "normalized": false,
      "special": true
    },
    {
      "id": 2,
      "content": "[BOS]",
      "single_word": false,
      "lstrip": false,
      "rstrip": false,
      "normalized": false,
      "special": true
    },
    {
      "id": 3,
      "content": "[EOS]",
      "single_word": false,
      "lstrip": false,
      "rstrip": false,
      "normalized": false,
      "special": true
    }
  ],
  "normalizer": {
    "type": "Sequence",
    "normalizers": [
      {
        "type": "NFKC"
      },
      {
        "type": "StripAccents"
      },
      {
        "type": "NFD"
      },
      {
        "type": "Lowercase"
      }
    ]
  },
  "pre_tokenizer": {
    "type": "Sequence",
    "pretokenizers": [
      {
        "type": "Whitespace"
      },
      {
        "type": "Punctuation",
        "behavior": "Isolated"
      },
      {
        "type": "Digits",
        "individual_digits": true
      },
      {
        "type": "ByteLevel",
        "add_prefix_space": true,
        "trim_offsets": true,
        "use_regex": true
      }
    ]
  },
  "post_processor": {
    "type": "TemplateProcessing",
    "single": [
      {
        "SpecialToken": {
          "id": "[BOS]",
          "type_id": 0
        }
      },
      {
        "Sequence": {
          "id": "A",
          "type_id": 0
        }
      },
      {
        "SpecialToken": {
          "id": "[EOS]",
          "type_id": 0
        }
      }
    ],
    "pair": [
      {
        "SpecialToken": {
          "id": "[BOS]",
          "type_id": 0
        }
      },
      {
        "Sequence": {
          "id": "A",
          "type_id": 0
        }
      },
      {
        "SpecialToken": {
          "id": "[EOS]",
          "type_id": 0
        }
      },
      {
        "SpecialToken": {
          "id": "[BOS]",
          "type_id": 0
        }
      },
      {
        "Sequence": {
          "id": "B",
          "type_id": 0
        }
      },
      {
        "SpecialToken": {
          "id": "[EOS]",
          "type_id": 0
        }
      }
    ],
    "special_tokens": {
      "[BOS]": {
        "id": "[BOS]",
        "ids": [
          2
        ],
        "tokens": [
          "[BOS]"
        ]
      },
      "[EOS]": {
        "id": "[EOS]",
        "ids": [
          3
        ],
        "tokens": [
          "[EOS]"
        ]
      }
    }
  },
  "decoder": {
    "type": "ByteLevel",
    "add_prefix_space": true,
    "trim_offsets": true,
    "use_regex": true
  },
  "model": {
    "type": "BPE",
    "dropout": null,
    "unk_token": "[UNK]",
    "continuing_subword_prefix": null,
    "end_of_word_suffix": null,
    "fuse_unk": false,
    "byte_fallback": false,
    "vocab": {
      "[PAD]": 0,
      "[UNK]": 1,
      "[BOS]": 2,
      "[EOS]": 3,
      "!": 4,
      "\"": 5,
      "#": 6,
      "$": 7,
      "%": 8,
      "&": 9,
      "'": 10,
      "(": 11,
      ")": 12,
      "*": 13,
      "+": 14,
      ",": 15,
      "-": 16,
      ".": 17,
      "/": 18,
      "0": 19,
      "1": 20,
      "2": 21,
      "3": 22,
      "4": 23,
      "5": 24,
      "6": 25,
      "7": 26,
      "8": 27,
      "9": 28,
      ":": 29,
      ";": 30,
      "<": 31,
      "=": 32,
      ">": 33,
      "?": 34,
      "@": 35,
      "[": 36,
      "\\": 37,
      "]": 38,
      "^": 39,
      "_": 40,
      "`": 41,
      "a": 42,
      "b": 43,
      "c": 44,
      "d": 45,
      "e": 46,
      "f": 47,
      "g": 48,
      "h": 49,
      "i": 50,
      "j": 51,
      "k": 52,
      "l": 53,
      "m": 54,
      "n": 55,
      "o": 56,
      "p": 57,
      "q": 58,
      "r": 59,
      "s": 60,
      "t": 61,
      "u": 62,
      "v": 63,
      "w": 64,
      "x": 65,
      "y": 66,
      "z": 67,
      "{": 68,
      "|": 69,
      "}": 70,
      "~": 71,
      "¢": 72,
      "£": 73,
      "§": 74,
      "©": 75,
      "¬": 76,
      "®": 77,
      "°": 78,
      "±": 79,
      "²": 80,
      "·": 81,
      "Â": 82,
      "Ã": 83,
      "Ì": 84,
      "â": 85,
      "Ġ": 86,
      "ġ": 87,
      "Ģ": 88,
      "ģ": 89,
      "Ĥ": 90,
      "ĥ": 91,
      "Ħ": 92,
      "Ī": 93,
      "Į": 94,
      "Ĳ": 95,
      "ĵ": 96,
      "Ķ": 97,
      "ķ": 98,
      "Ĺ": 99,
      "ľ": 100,
      "Ŀ": 101,
      "Ġt": 102,
      "Ġ.": 103,
      "Ġa": 104,
      "he": 105,
      "Ġi": 106,
      "Ġs": 107,
      "Ġw": 108,
      "ou": 109,
      "re": 110,
      "in": 111,
      "Ġthe": 112,
      "on": 113,
      "Ġ,": 114,
      "Ġm": 115,
      "Ġc": 116,
      "Ġb": 117,
      "Ġ'": 118,
      "at": 119,
      "Ġy": 120,
      "er": 121,
      "Ġd": 122,
      "Ġo": 123,
      "Ġyou": 124,
      "an": 125,
      "Ġf": 126,
      "ing": 127,
      "Ġh": 128,
      "Ġto": 129,
      "Ġl": 130,
      "en": 131,
      "Ġp": 132,
      "Ġth": 133,
      "Ġg": 134,
      "or": 135,
      "es": 136,
      "Ġan": 137,
      "ll": 138,
      "ed": 139,
      "Ġn": 140,
      "Ġin": 141,
      "it": 142,
      "is": 143,
      "ar": 144,
      "Ġof": 145,
      "om": 146,
      "Ġhe": 147,
      "Ġ?": 148,
      "as": 149,
      "Ġand": 150,
      "ve": 151,
      "Ġre": 152,
      "et": 153,
      "Ġit": 154,
      "al": 155,
      "ot": 156,
      "ow": 157,
      "ic": 158,
      "us": 159,
      "Ġe": 160,
      "Ġbe": 161,
      "Ġwe": 162,
      "le": 163,
      "Ġwh": 164,
      "ay": 165,
      "Ġthat": 166,
      "ion": 167,
      "Ġon": 168,
      "id": 169,
      "gh": 170,
      "Ġis": 171,
      "ut": 172,
      "Ġha": 173,
      "ent": 174,
      "Ġr": 175,
      "ld": 176,
      "Ġk": 177,
      "Ġst": 178,
      "ac": 179,
      "Ġ-": 180,
      "Ġfor": 181,
      "ver": 182,
      "Ġme": 183,
      "im": 184,
      "Ġu": 185,
      "out": 186,
      "Ġgo": 187,
      "ke": 188,
      "ly": 189,
      "ght": 190,
      "Ġdo": 191,
      "Ġj": 192,
      "ad": 193,
      "st": 194,
      "se": 195,
      "ro": 196,
      "ir": 197,
      "Ġli": 198,
      "ith": 199,
      "am": 200,
      "Ġwas": 201,
      "Ġwith": 202,
      "ct": 203,
      "all": 204,
      "Ġnot": 205,
      "Ġthis": 206,
      "Ġ!": 207,
      "Ġwhat": 208,
      "Ġhave": 209,
      "ust": 210,
      "Ġne": 211,
      "ill": 212,
      "Ġse": 213,
      "ight": 214,
      "ome": 215,
      "Ġyour": 216,
      "ur": 217,
      "ch": 218,
      "Ġare": 219,
      "Ġas": 220,
      "Ġmy": 221,
      "Ġbut": 222,
      "ould": 223,
      "ce": 224,
      "oo": 225,
      "ant": 226,
      "Ġsh": 227,
      "Ġcan": 228,
      "her": 229,
      "ter": 230,
      "Ġso": 231,
      "Ġkn": 232,
      "ation": 233,
      "Ġch": 234,
      "Ġdon": 235,
      "Ġde": 236,
      "ri": 237,
      "Ġall": 238,
      "Ġknow": 239,
      "op": 240,
      "Ġat": 241,
      "il": 242,
      "ore": 243,
      "Ġsu": 244,
      "Ġshe": 245,
      "our": 246,
      "Ġjust": 247,
      "Ġcon": 248,
      "od": 249,
      "nd": 250,
      "Ġab": 251,
      "ain": 252,
      "Ġthey": 253,
      "and": 254,
      "ge": 255,
      "Ġfr": 256,
      "Ġget": 257,
      "Ġno": 258,
      "pp": 259,
      "est": 260,
      "ess": 261,
      "ul": 262,
      "Ġwhe": 263,
      "Ġout": 264,
      "ea": 265,
      "ers": 266,
      "Ġtr": 267,
      "Ġcom": 268,
      "Ġwor": 269,
      "ate": 270,
      "Ġex": 271,
      "Ġlike": 272,
      "ol": 273,
      "Ġup": 274,
      "ist": 275,
      "Ġal": 276,
      "king": 277,
      "ake": 278,
      "th": 279,
      "un": 280,
      "Ġpro": 281,
      "ab": 282,
      "Ġthere": 283,
      "ig": 284,
      "Ġ0": 285,
      "Ġor": 286,
      "Ġher": 287,
      "ive": 288,
      "fe": 289,
      "Ġv": 290,
      "Ġdid": 291,
      "ment": 292,
      "Ġif": 293,
      "art": 294,
      "ack": 295,
      "ally": 296,
      "Ġhim": 297,
      "one": 298,
      "Ġfrom": 299,
      "Ġte": 300,
      "Ġabout": 301,
      "Ġus": 302,
      "end": 303,
      "Ġwant": 304,
      "qu": 305,
      "os": 306,
      "ink": 307,
      "Ġhis": 308,
      "Ġsp": 309,
      "Ġright": 310,
      "res": 311,
      "ap": 312,
      "very": 313,
      "Ġone": 314,
      "ast": 315,
      "ie": 316,
      "Ġhere": 317,
      "Ġsome": 318,
      "Ġll": 319,
      "Ġpl": 320,
      "Ġwill": 321,
      "nt": 322,
      "Ġgot": 323,
      "um": 324,
      "Ġman": 325,
      "ard": 326,
      "ind": 327,
      "ity": 328,
      "Ġby": 329,
      "el": 330,
      "ry": 331,
      "Ġhow": 332,
      "ong": 333,
      "ort": 334,
      "Ġsa": 335,
      "ies": 336,
      "ck": 337,
      "red": 338,
      "Ġwho": 339,
      "Ġany": 340,
      "Ġlo": 341,
      "Ġthink": 342,
      "Ġsee": 343,
      "Ġle": 344,
      "ook": 345,
      "use": 346,
      "if": 347,
      "ound": 348,
      "Ġar": 349,
      "Ġwould": 350,
      "Ġve": 351,
      "Ġfe": 352,
      "Ġwhen": 353,
      "Ġwell": 354,
      "hing": 355,
      "Ġ\"": 356,
      "Ġnow": 357,
      "ime": 358,
      "Ġhas": 359,
      "Ġbec": 360,
      "Ġint": 361,
      "Ġam": 362,
      "ine": 363,
      "ven": 364,
      "Ġpr": 365,
      "ous": 366,
      "Ġwere": 367,
      "ice": 368,
      "Ġoff": 369,
      "ud": 370,
      "ause": 371,
      "Ġbr": 372,
      "na": 373,
      "Ġmore": 374,
      "Ġ1": 375,
      "Ġhad": 376,
      "Ġthem": 377,
      "ect": 378,
      "Ġag": 379,
      "mp": 380,
      "eah": 381,
      "Ġgood": 382,
      "Ġyeah": 383,
      "ci": 384,
      "Ġun": 385,
      "Ġen": 386,
      "ame": 387,
      "ag": 388,
      "ure": 389,
      "Ġcl": 390,
      "ep": 391,
      "Ġmo": 392,
      "Ġneed": 393,
      "Ġgu": 394,
      "Ġcould": 395,
      "Ġback": 396,
      "ear": 397,
      "Ġwhy": 398,
      "Ġco": 399,
      "Ġok": 400,
      "Ġgr": 401,
      "Ġtime": 402,
      "are": 403,
      "Ġcomp": 404,
      "Ġbeen": 405,
      "ough": 406,
      "Ġpe": 407,
      "Ġsay": 408,
      "Ġthan": 409,
      "act": 410,
      "ak": 411,
      "Ġour": 412,
      "Ġlet": 413,
      "own": 414,
      "Ġlook": 415,
      "Ġcome": 416,
      "ther": 417,
      "ide": 418,
      "Ġevery": 419,
      "Ġtheir": 420,
      "Ġbecause": 421,
      "way": 422,
      "Ġaf": 423,
      "Ġover": 424,
      "itt": 425,
      "ace": 426,
      "Ġgoing": 427,
      "age": 428,
      "reat": 429,
      "Ġoh": 430,
      "Ġro": 431,
      "iv": 432,
      "ble": 433,
      "Ġtoo": 434,
      "Ġokay": 435,
      "Ġtake": 436,
      "Ġnew": 437,
      "Ġqu": 438,
      "ase": 439,
      "Ġ2": 440,
      "Ġtw": 441,
      "Ġyear": 442,
      "Ġgon": 443,
      "Ġgonna": 444,
      "omet": 445,
      "ans": 446,
      "ick": 447,
      "Ġexp": 448,
      "Ġac": 449,
      "Ġpeop": 450,
      "Ġad": 451,
      "Ġpeople": 452,
      "ang": 453,
      "ree": 454,
      "Ġbl": 455,
      "ich": 456,
      "Ġsomet": 457,
      "Ġshould": 458,
      "ance": 459,
      "Ġwork": 460,
      "Ġmake": 461,
      "Ġtell": 462,
      "Ġother": 463,
      "ip": 464,
      "Ġthing": 465,
      "Ġwhere": 466,
      "other": 467,
      "ra": 468,
      "iz": 469,
      "em": 470,
      "Ġdis": 471,
      "ose": 472,
      "Ġdidn": 473,
      "Ġway": 474,
      "ions": 475,
      "Ġsc": 476,
      "Ġdown": 477,
      "lf": 478,
      "Ġmar": 479,
      "Ġpart": 480,
      "Ġcont": 481,
      "Ġcou": 482,
      "Ġsaid": 483,
      "Ġmay": 484,
      "Ġtwo": 485,
      "Ġpre": 486,
      "Ġtal": 487,
      "ass": 488,
      "Ġday": 489,
      "ber": 490,
      "Ġcall": 491,
      "Ġinto": 492,
      "Ġbet": 493,
      "Ġres": 494,
      "ite": 495,
      "Ġreally": 496,
      "able": 497,
      "og": 498,
      "thing": 499,
      "Ġonly": 500,
      "Ġbo": 501,
      "ond": 502,
      "Ġeven": 503,
      "ving": 504,
      "Ġbu": 505,
      "ue": 506,
      "Ġper": 507,
      "ought": 508,
      "ress": 509,
      "ys": 510,
      "Ġsomething": 511,
      "Ġfu": 512,
      "Ġdoes": 513,
      "ated": 514,
      "ire": 515,
      "Ġfir": 516,
      "ning": 517,
      "Ġnever": 518,
      "Ġund": 519,
      "Ġpo": 520,
      "ical": 521,
      "ting": 522,
      "Ġfl": 523,
      "Ġhel": 524,
      "ittle": 525,
      "Ġwhich": 526,
      "Ġjo": 527,
      "Ġthen": 528,
      "Ġimp": 529,
      "Ġlittle": 530,
      "ary": 531,
      "ade": 532,
      "ence": 533,
      "ign": 534,
      "pt": 535,
      "ood": 536,
      "ia": 537,
      "ult": 538,
      "Ġmu": 539,
      "ish": 540,
      "Ġunder": 541,
      "Ġcar": 542,
      "ff": 543,
      "Ġcr": 544,
      "Ġapp": 545,
      "ach": 546,
      "wn": 547,
      "Ġhelp": 548,
      "Ġke": 549,
      "Ġchin": 550,
      "Ġafter": 551,
      "ile": 552,
      "Ġhapp": 553,
      "Ġ:": 554,
      "Ġagain": 555,
      "ild": 556,
      "Ġhey": 557,
      "ks": 558,
      "Ġyes": 559,
      "Ġact": 560,
      "orm": 561,
      "Ġvery": 562,
      "iss": 563,
      "Ġits": 564,
      "ations": 565,
      "Ġmean": 566,
      "so": 567,
      "ren": 568,
      "Ġfirst": 569,
      "Ġthese": 570,
      "ord": 571,
      "fore": 572,
      "Ġsm": 573,
      "Ġmuch": 574,
      "Ġdr": 575,
      "Ġthr": 576,
      "ody": 577,
      "Ġinc": 578,
      "ater": 579,
      "ail": 580,
      "vel": 581,
      "self": 582,
      "per": 583,
      "Ġsec": 584,
      "ial": 585,
      "Ġind": 586,
      "ors": 587,
      "ub": 588,
      "urn": 589,
      "ady": 590,
      "ool": 591,
      "Ġfind": 592,
      "Ġlong": 593,
      "Ġgive": 594,
      "Ġput": 595,
      "we": 596,
      "Ġmr": 597,
      "ved": 598,
      "ft": 599,
      "Ġhi": 600,
      "Ġrec": 601,
      "Ġstill": 602,
      "Ġwa": 603,
      "Ġbefore": 604,
      "day": 605,
      "uct": 606,
      "ise": 607,
      "ious": 608,
      "Ġacc": 609,
      "Ġche": 610,
      "ens": 611,
      "Ġrep": 612,
      "hed": 613,
      "ory": 614,
      "Ġlife": 615,
      "Ġwr": 616,
      "ty": 617,
      "Ġlove": 618,
      "get": 619,
      "riend": 620,
      "Ġcomm": 621,
      "Ġlast": 622,
      "Ġgreat": 623,
      "ves": 624,
      "Ġla": 625,
      "Ġrem": 626,
      "Ġser": 627,
      "Ġfeel": 628,
      "Ġbel": 629,
      "ying": 630,
      "Ġstr": 631,
      "Ġph": 632,
      "Ġinv": 633,
      "Ġpol": 634,
      "ict": 635,
      "Ġalso": 636,
      "ather": 637,
      "Ġmin": 638,
      "Ġ5": 639,
      "Ġkill": 640,
      "Ġhand": 641,
      "Ġyears": 642,
      "Ġworld": 643,
      "Ġho": 644,
      "Ġlea": 645,
      "ition": 646,
      "Ġhome": 647,
      "Ġinter": 648,
      "Ġma": 649,
      "Ġmost": 650,
      "int": 651,
      "Ġdes": 652,
      "Ġcour": 653,
      "Ġthought": 654,
      "Ġmany": 655,
      "Ġcount": 656,
      "be": 657,
      "Ġbus": 658,
      "Ġstop": 659,
      "Ġthose": 660,
      "Ġsure": 661,
      "ian": 662,
      "Ġkeep": 663,
      "Ġbig": 664,
      "Ġrel": 665,
      "ily": 666,
      "Ġple": 667,
      "fect": 668,
      "oney": 669,
      "Ġthrough": 670,
      "Ġ3": 671,
      "Ġ9": 672,
      "ms": 673,
      "Ġfo": 674,
      "Ġatt": 675,
      "Ġgod": 676,
      "cial": 677,
      "Ġdoing": 678,
      "Ġsy": 679,
      "Ġmon": 680,
      "Ġstart": 681,
      "Ġfin": 682,
      "lic": 683,
      "Ġtalk": 684,
      "Ġown": 685,
      "av": 686,
      "ath": 687,
      "les": 688,
      "Ġnight": 689,
      "Ġwait": 690,
      "Ġshow": 691,
      "Ġta": 692,
      "Ġid": 693,
      "Ġmade": 694,
      "Ġass": 695,
      "Ġfriend": 696,
      "oss": 697,
      "Ġold": 698,
      "ating": 699,
      "ons": 700,
      "Ġspe": 701,
      "ouse": 702,
      "Ġplay": 703,
      "ents": 704,
      "uc": 705,
      "Ġmust": 706,
      "Ġear": 707,
      "ful": 708,
      "Ġaway": 709,
      "Ġdec": 710,
      "lo": 711,
      "Ġcons": 712,
      "Ġsor": 713,
      "form": 714,
      "Ġsur": 715,
      "Ġanything": 716,
      "Ġpers": 717,
      "Ġsupp": 718,
      "Ġgir": 719,
      "Ġob": 720,
      "Ġbeing": 721,
      "Ġfam": 722,
      "ates": 723,
      "ways": 724,
      "Ġsuch": 725,
      "Ġdif": 726,
      "Ġem": 727,
      "Ġreal": 728,
      "Ġmom": 729,
      "Ġkid": 730,
      "Ġaround": 731,
      "atch": 732,
      "Ġins": 733,
      "Ġroom": 734,
      "ied": 735,
      "ert": 736,
      "ange": 737,
      "Ġsorry": 738,
      "con": 739,
      "Ġbot": 740,
      "body": 741,
      "Ġbetter": 742,
      "Ġreg": 743,
      "Ġbelie": 744,
      "Ġthree": 745,
      "xt": 746,
      "Ġthings": 747,
      "Ġstud": 748,
      "ces": 749,
      "ually": 750,
      "iness": 751,
      "Ġlot": 752,
      "Ġmoney": 753,
      "amp": 754,
      "Ġ4": 755,
      "Ġalways": 756,
      "Ġhu": 757,
      "Ġhigh": 758,
      "Ġchina": 759,
      "Ġplease": 760,
      "Ġlist": 761,
      "Ġpres": 762,
      "Ġcare": 763,
      "Ġbre": 764,
      "pe": 765,
      "cess": 766,
      "Ġsl": 767,
      "Ġsch": 768,
      "ese": 769,
      "Ġhappen": 770,
      "Ġkind": 771,
      "Ġwom": 772,
      "Ġrun": 773,
      "Ġend": 774,
      "Ġel": 775,
      "olog": 776,
      "ell": 777,
      "Ġfound": 778,
      "Ġwar": 779,
      "Ġhead": 780,
      "Ġmight": 781,
      "Ġask": 782,
      "Ġev": 783,
      "vers": 784,
      "vern": 785,
      "Ġtri": 786,
      "Ġtold": 787,
      "Ġ;": 788,
      "Ġcle": 789,
      "Ġent": 790,
      "Ġstay": 791,
      "Ġwee": 792,
      "gg": 793,
      "Ġhouse": 794,
      "air": 795,
      "Ġuh": 796,
      "Ġgovern": 797,
      "rent": 798,
      "imes": 799,
      "ince": 800,
      "Ġgirl": 801,
      "ib": 802,
      "ities": 803,
      "ower": 804,
      "mm": 805,
      "ual": 806,
      "eric": 807,
      "Ġop": 808,
      "ket": 809,
      "Ġplace": 810,
      "Ġeverything": 811,
      "Ġchild": 812,
      "Ġuse": 813,
      "Ġperson": 814,
      "Ġgen": 815,
      "Ġbest": 816,
      "Ġnothing": 817,
      "ible": 818,
      "Ġjob": 819,
      "Ġdoesn": 820,
      "Ġever": 821,
      "hes": 822,
      "Ġcompan": 823,
      "ational": 824,
      "Ġwon": 825,
      "Ġcourse": 826,
      "Ġhard": 827,
      "Ġguy": 828,
      "Ġturn": 829,
      "Ġmet": 830,
      "ments": 831,
      "oc": 832,
      "Ġameric": 833,
      "conom": 834,
      "ute": 835,
      "Ġanother": 836,
      "Ġpar": 837,
      "Ġmiss": 838,
      "akes": 839,
      "Ġbad": 840,
      "Ġtoday": 841,
      "uck": 842,
      "Ġloo": 843,
      "Ġplan": 844,
      "rest": 845,
      "Ġbusiness": 846,
      "Ġeconom": 847,
      "Ġguys": 848,
      "Ġsw": 849,
      "Ġter": 850,
      "Ġleft": 851,
      "Ġwhile": 852,
      "Ġset": 853,
      "Ġ8": 854,
      "Ġhot": 855,
      "ix": 856,
      "Ġchar": 857,
      "Ġcent": 858,
      "Ġban": 859,
      "ner": 860,
      "ings": 861,
      "Ġschool": 862,
      "ject": 863,
      "lect": 864,
      "als": 865,
      "man": 866,
      "Ġcap": 867,
      "ave": 868,
      "Ġmor": 869,
      "Ġhear": 870,
      "ever": 871,
      "row": 872,
      "ics": 873,
      "Ġsame": 874,
      "stem": 875,
      "its": 876,
      "Ġfew": 877,
      "Ġnext": 878,
      "Ġbelieve": 879,
      "Ġmeet": 880,
      "up": 881,
      "Ġboth": 882,
      "Ġdiffe": 883,
      "Ġsomeone": 884,
      "ger": 885,
      "Ġfun": 886,
      "Ġcor": 887,
      "Ġinst": 888,
      "ward": 889,
      "ident": 890,
      "gr": 891,
      "Ġsystem": 892,
      "Ġproble": 893,
      "ock": 894,
      "cy": 895,
      "ness": 896,
      "Ġleave": 897,
      "Ġdep": 898,
      "ount": 899,
      "stand": 900,
      "Ġname": 901,
      "Ġdone": 902,
      "Ġused": 903,
      "Ġ6": 904,
      "ew": 905,
      "Ġfar": 906,
      "Ġlaw": 907,
      "Ġhell": 908,
      "velop": 909,
      "atter": 910,
      "Ġsub": 911,
      "ures": 912,
      "Ġ7": 913,
      "Ġprod": 914,
      "Ġmaybe": 915,
      "led": 916,
      "Ġfamily": 917,
      "Ġcame": 918,
      "Ġpay": 919,
      "au": 920,
      "Ġenough": 921,
      "ility": 922,
      "ative": 923,
      "Ġlooking": 924,
      "ull": 925,
      "Ġhop": 926,
      "Ġmed": 927,
      "li": 928,
      "Ġgetting": 929,
      "Ġstand": 930,
      "Ġmother": 931,
      "Ġrest": 932,
      "Ġgovernment": 933,
      "Ġsince": 934,
      "pect": 935,
      "Ġwanted": 936,
      "Ġfather": 937,
      "Ġret": 938,
      "Ġinvest": 939,
      "Ġmarket": 940,
      "ready": 941,
      "Ġfore": 942,
      "Ġdevelop": 943,
      "Ġalready": 944,
      "Ġdef": 945,
      "der": 946,
      "Ġtrans": 947,
      "Ġbab": 948,
      "Ġart": 949,
      "Ġhold": 950,
      "Ġbit": 951,
      "ific": 952,
      "ital": 953,
      "Ġcoll": 954,
      "Ġopen": 955,
      "ular": 956,
      "Ġtrying": 957,
      "Ġeas": 958,
      "Ġmove": 959,
      "Ġbas": 960,
      "Ġdri": 961,
      "ween": 962,
      "ced": 963,
      "Ġlead": 964,
      "Ġlisten": 965,
      "hip": 966,
      "Ġbetween": 967,
      "ited": 968,
      "Ġfine": 969,
      "ple": 970,
      "Ġmonth": 971,
      "Ġsign": 972,
      "ret": 973,
      "Ġunderstand": 974,
      "ros": 975,
      "Ġmind": 976,
      "Ġwithout": 977,
      "Ġhour": 978,
      "Ġeach": 979,
      "Ġhum": 980,
      "Ġwent": 981,
      "Ġimport": 982,
      "Ġpret": 983,
      "Ġsk": 984,
      "Ġdet": 985,
      "Ġinte": 986,
      "cept": 987,
      "Ġchinese": 988,
      "Ġcoming": 989,
      "osed": 990,
      "Ġ)": 991,
      "Ġ(": 992,
      "Ġgl": 993,
      "Ġwal": 994,
      "Ġsir": 995,
      "Ġsecond": 996,
      "Ġeng": 997,
      "let": 998,
      "ize": 999,
      "Ġweek": 1000,
      "lud": 1001,
      "ash": 1002,
      "Ġmod": 1003,
      "Ġsaw": 1004,
      "Ġz": 1005,
      "less": 1006,
      "ism": 1007,
      "Ġelse": 1008,
      "Ġconf": 1009,
      "Ġtoget": 1010,
      "Ġboy": 1011,
      "uth": 1012,
      "Ġtogether": 1013,
      "Ġprot": 1014,
      "Ġnum": 1015,
      "Ġcur": 1016,
      "Ġey": 1017,
      "Ġtry": 1018,
      "Ġdead": 1019,
      "ost": 1020,
      "Ġair": 1021,
      "Ġbreak": 1022,
      "Ġloc": 1023,
      "Ġpub": 1024,
      "Ġstate": 1025,
      "Ġdem": 1026,
      "ably": 1027,
      "ta": 1028,
      "Ġmen": 1029,
      "Ġsim": 1030,
      "Ġsays": 1031,
      "Ġson": 1032,
      "Ġtook": 1033,
      "Ġbar": 1034,
      "ird": 1035,
      "Ġdisc": 1036,
      "Ġext": 1037,
      "uring": 1038,
      "Ġwrong": 1039,
      "Ġwater": 1040,
      "ling": 1041,
      "llow": 1042,
      "Ġintern": 1043,
      "land": 1044,
      "Ġdad": 1045,
      "Ġed": 1046,
      "Ġprom": 1047,
      "ember": 1048,
      "Ġnice": 1049,
      "Ġpass": 1050,
      "gin": 1051,
      "Ġisn": 1052,
      "Ġcountry": 1053,
      "Ġpower": 1054,
      "ne": 1055,
      "ten": 1056,
      "Ġyet": 1057,
      "Ġtalking": 1058,
      "Ġheart": 1059,
      "Ġtom": 1060,
      "Ġform": 1061,
      "Ġdifferent": 1062,
      "ug": 1063,
      "Ġbring": 1064,
      "Ġprov": 1065,
      "ices": 1066,
      "Ġbeh": 1067,
      "Ġtech": 1068,
      "Ġread": 1069,
      "Ġfree": 1070,
      "Ġunt": 1071,
      "ern": 1072,
      "Ġbro": 1073,
      "Ġgrow": 1074,
      "ution": 1075,
      "ists": 1076,
      "Ġdays": 1077,
      "ense": 1078,
      "Ġword": 1079,
      "Ġwasn": 1080,
      "Ġwhole": 1081,
      "ream": 1082,
      "Ġadd": 1083,
      "Ġfact": 1084,
      "az": 1085,
      "Ġhur": 1086,
      "Ġbook": 1087,
      "ric": 1088,
      "Ġmil": 1089,
      "Ġpri": 1090,
      "Ġgener": 1091,
      "here": 1092,
      "Ġpoint": 1093,
      "Ġheard": 1094,
      "Ġcity": 1095,
      "Ġquest": 1096,
      "rop": 1097,
      "uss": 1098,
      "gan": 1099,
      "Ġconc": 1100,
      "Ġbed": 1101,
      "ister": 1102,
      "ars": 1103,
      "Ġseen": 1104,
      "Ġface": 1105,
      "ife": 1106,
      "ention": 1107,
      "Ġcalled": 1108,
      "Ġref": 1109,
      "ried": 1110,
      "erg": 1111,
      "Ġred": 1112,
      "Ġinclud": 1113,
      "ract": 1114,
      "ered": 1115,
      "Ġeu": 1116,
      "Ġdeal": 1117,
      "Ġsle": 1118,
      "Ġdist": 1119,
      "Ġlar": 1120,
      "Ġcut": 1121,
      "Ġcontro": 1122,
      "ason": 1123,
      "Ġthank": 1124,
      "Ġton": 1125,
      "ries": 1126,
      "ng": 1127,
      "Ġcase": 1128,
      "Ġsit": 1129,
      "Ġactually": 1130,
      "Ġinterest": 1131,
      "Ġbaby": 1132,
      "Ġmorning": 1133,
      "Ġinf": 1134,
      "Ġcause": 1135,
      "Ġemp": 1136,
      "Ġremember": 1137,
      "arch": 1138,
      "inking": 1139,
      "cking": 1140,
      "Ġless": 1141,
      "ering": 1142,
      "Ġexc": 1143,
      "Ġchange": 1144,
      "Ġagainst": 1145,
      "Ġleg": 1146,
      "Ġwatch": 1147,
      "Ġago": 1148,
      "Ġvis": 1149,
      "ets": 1150,
      "ross": 1151,
      "Ġadv": 1152,
      "uff": 1153,
      "Ġparty": 1154,
      "Ġcheck": 1155,
      "outh": 1156,
      "iew": 1157,
      "Ġknew": 1158,
      "Ġbuild": 1159,
      "Ġfour": 1160,
      "anna": 1161,
      "ants": 1162,
      "orrow": 1163,
      "Ġshall": 1164,
      "Ġlive": 1165,
      "Ġmem": 1166,
      "Ġsound": 1167,
      "Ġcompany": 1168,
      "aught": 1169,
      "Ġonce": 1170,
      "Ġimportant": 1171,
      "Ġtechn": 1172,
      "pr": 1173,
      "ised": 1174,
      "Ġwin": 1175,
      "Ġste": 1176,
      "Ġsmall": 1177,
      "ared": 1178,
      "Ġyourself": 1179,
      "ump": 1180,
      "ale": 1181,
      "Ġlight": 1182,
      "ffect": 1183,
      "Ġsho": 1184,
      "Ġready": 1185,
      "Ġfriends": 1186,
      "Ġpretty": 1187,
      "Ġprof": 1188,
      "Ġfull": 1189,
      "Ġwouldn": 1190,
      "Ġexpl": 1191,
      "Ġserv": 1192,
      "Ġris": 1193,
      "Ġhappened": 1194,
      "Ġelect": 1195,
      "ark": 1196,
      "Ġoffic": 1197,
      "Ġeffect": 1198,
      "ont": 1199,
      "Ġtra": 1200,
      "tern": 1201,
      "min": 1202,
      "Ġmaking": 1203,
      "Ġposs": 1204,
      "Ġlear": 1205,
      "ctor": 1206,
      "Ġes": 1207,
      "Ġprob": 1208,
      "ired": 1209,
      "Ġap": 1210,
      "Ġwanna": 1211,
      "alth": 1212,
      "Ġpat": 1213,
      "Ġca": 1214,
      "Ġsing": 1215,
      "ork": 1216,
      "Ġidea": 1217,
      "Ġworking": 1218,
      "ues": 1219,
      "Ġfight": 1220,
      "Ġuntil": 1221,
      "Ġhal": 1222,
      "arent": 1223,
      "Ġnor": 1224,
      "Ġproblem": 1225,
      "ized": 1226,
      "Ġwoman": 1227,
      "Ġfollow": 1228,
      "ural": 1229,
      "Ġreport": 1230,
      "Ġchildren": 1231,
      "ier": 1232,
      "Ġdam": 1233,
      "ives": 1234,
      "Ġeuro": 1235,
      "oup": 1236,
      "pl": 1237,
      "Ġuni": 1238,
      "Ġpolit": 1239,
      "ains": 1240,
      "Ġpublic": 1241,
      "Ġgotta": 1242,
      "Ġhaving": 1243,
      "pped": 1244,
      "Ġwife": 1245,
      "aut": 1246,
      "Ġclass": 1247,
      "iet": 1248,
      "Ġtest": 1249,
      "Ġmatter": 1250,
      "ology": 1251,
      "Ġsleep": 1252,
      "uction": 1253,
      "Ġmain": 1254,
      "ene": 1255,
      "Ġchang": 1256,
      "ither": 1257,
      "io": 1258,
      "Ġfood": 1259,
      "Ġbrother": 1260,
      "Ġhope": 1261,
      "Ġval": 1262,
      "Ġtimes": 1263,
      "ny": 1264,
      "Ġnews": 1265,
      "Ġfive": 1266,
      "Ġrese": 1267,
      "Ġcal": 1268,
      "Ġpast": 1269,
      "Ġland": 1270,
      "att": 1271,
      "str": 1272,
      "Ġtonight": 1273,
      "Ġblood": 1274,
      "most": 1275,
      "ient": 1276,
      "Ġlost": 1277,
      "Ġdire": 1278,
      "ertain": 1279,
      "Ġpop": 1280,
      "Ġra": 1281,
      "Ġcol": 1282,
      "Ġlater": 1283,
      "ically": 1284,
      "ts": 1285,
      "utes": 1286,
      "oy": 1287,
      "Ġthough": 1288,
      "ters": 1289,
      "ield": 1290,
      "ages": 1291,
      "Ġswe": 1292,
      "Ġsoon": 1293,
      "Ġclear": 1294,
      "br": 1295,
      "Ġwomen": 1296,
      "Ġbecome": 1297,
      "Ġcop": 1298,
      "Ġcond": 1299,
      "ned": 1300,
      "Ġnear": 1301,
      "Ġim": 1302,
      "Ġteam": 1303,
      "Ġprobably": 1304,
      "Ġtaking": 1305,
      "sel": 1306,
      "Ġresp": 1307,
      "Ġcontrol": 1308,
      "Ġnumber": 1309,
      "Ġnat": 1310,
      "Ġcouldn": 1311,
      "Ġmus": 1312,
      "rew": 1313,
      "Ġyoung": 1314,
      "Ġbody": 1315,
      "ision": 1316,
      "Ġmyself": 1317,
      "Ġpain": 1318,
      "ph": 1319,
      "Ġinform": 1320,
      "Ġkids": 1321,
      "Ġhit": 1322,
      "Ġeat": 1323,
      "Ġbeaut": 1324,
      "Ġmid": 1325,
      "illion": 1326,
      "Ġmakes": 1327,
      "Ġalmost": 1328,
      "Ġfucking": 1329,
      "ked": 1330,
      "Ġclose": 1331,
      "Ġguess": 1332,
      "ouble": 1333,
      "Ġhuman": 1334,
      "Ġhalf": 1335,
      "Ġlate": 1336,
      "Ġspea": 1337,
      "Ġexpect": 1338,
      "Ġfire": 1339,
      "Ġfall": 1340,
      "Ġhuh": 1341,
      "side": 1342,
      "ines": 1343,
      "Ġexper": 1344,
      "where": 1345,
      "Ġkilled": 1346,
      "rap": 1347,
      "Ġsex": 1348,
      "ished": 1349,
      "Ġworry": 1350,
      "Ġaw": 1351,
      "Ġhands": 1352,
      "Ġtop": 1353,
      "orn": 1354,
      "Ġpap": 1355,
      "Ġtomorrow": 1356,
      "Ġalone": 1357,
      "Ġwants": 1358,
      "Ġhar": 1359,
      "Ġhappy": 1360,
      "Ġlooks": 1361,
      "Ġgroup": 1362,
      "Ġarm": 1363,
      "ator": 1364,
      "zy": 1365,
      "Ġpur": 1366,
      "Ġduring": 1367,
      "Ġeveryone": 1368,
      "Ġpick": 1369,
      "Ġsal": 1370,
      "Ġseem": 1371,
      "Ġside": 1372,
      "Ġir": 1373,
      "Ġprotect": 1374,
      "Ġdeath": 1375,
      "Ġpresident": 1376,
      "Ġmess": 1377,
      "Ġphone": 1378,
      "Ġ$": 1379,
      "Ġhaven": 1380,
      "Ġtreat": 1381,
      "Ġsn": 1382,
      "Ġoper": 1383,
      "Ġsci": 1384,
      "Ġcra": 1385,
      "Ġgun": 1386,
      "rib": 1387,
      "cc": 1388,
      "unch": 1389,
      "Ġanal": 1390,
      "Ġanyone": 1391,
      "Ġcost": 1392,
      "ote": 1393,
      "Ġcontin": 1394,
      "ction": 1395,
      "Ġty": 1396,
      "Ġstre": 1397,
      "te": 1398,
      "ending": 1399,
      "Ġthinking": 1400,
      "Ġgave": 1401,
      "Ġbuy": 1402,
      "ah": 1403,
      "Ġindust": 1404,
      "Ġrequ": 1405,
      "Ġhotel": 1406,
      "oice": 1407,
      "Ġbank": 1408,
      "Ġfig": 1409,
      "Ġstuff": 1410,
      "Ġsol": 1411,
      "ison": 1412,
      "Ġans": 1413,
      "Ġhist": 1414,
      "Ġav": 1415,
      "Ġpolice": 1416,
      "Ġhours": 1417,
      "Ġfuck": 1418,
      "Ġopp": 1419,
      "Ġsaying": 1420,
      "Ġce": 1421,
      "Ġoffice": 1422,
      "ats": 1423,
      "ted": 1424,
      "ung": 1425,
      "ury": 1426,
      "Ġshot": 1427,
      "Ġoften": 1428,
      "ided": 1429,
      "Ġgone": 1430,
      "Ġtrust": 1431,
      "Ġmeans": 1432,
      "Ġamerican": 1433,
      "ency": 1434,
      "Ġmonths": 1435,
      "Ġdoor": 1436,
      "Ġfre": 1437,
      "Ġminutes": 1438,
      "Ġorder": 1439,
      "Ġchr": 1440,
      "Ġgi": 1441,
      "Ġline": 1442,
      "ured": 1443,
      "Ġstudy": 1444,
      "ched": 1445,
      "osp": 1446,
      "ffe": 1447,
      "aring": 1448,
      "Ġincre": 1449,
      "Ġshort": 1450,
      "iting": 1451,
      "ides": 1452,
      "by": 1453,
      "Ġpull": 1454,
      "Ġtown": 1455,
      "Ġfil": 1456,
      "hen": 1457,
      "Ġleast": 1458,
      "ude": 1459,
      "Ġthanks": 1460,
      "Ġequ": 1461,
      "Ġreason": 1462,
      "Ġeasy": 1463,
      "Ġdie": 1464,
      "Ġeurope": 1465,
      "Ġwind": 1466,
      "Ġcann": 1467,
      "dy": 1468,
      "Ġsix": 1469,
      "ush": 1470,
      "Ġjap": 1471,
      "Ġcommun": 1472,
      "Ġtrain": 1473,
      "Ġhealth": 1474,
      "Ġspecial": 1475,
      "ral": 1476,
      "Ġdi": 1477,
      "ai": 1478,
      "Ġsometimes": 1479,
      "Ġgame": 1480,
      "Ġpress": 1481,
      "sh": 1482,
      "Ġdrink": 1483,
      "Ġtrad": 1484,
      "Ġcomplet": 1485,
      "ove": 1486,
      "ee": 1487,
      "Ġimm": 1488,
      "Ġshit": 1489,
      "Ġest": 1490,
      "ank": 1491,
      "anc": 1492,
      "bers": 1493,
      "Ġwond": 1494,
      "Ġpos": 1495,
      "Ġexact": 1496,
      "Ġdesign": 1497,
      "used": 1498,
      "Ġsent": 1499,
      "ior": 1500,
      "ama": 1501,
      "Ġjapan": 1502,
      "Ġstrong": 1503,
      "Ġgre": 1504,
      "Ġsecur": 1505,
      "Ġasked": 1506,
      "Ġpriv": 1507,
      "Ġable": 1508,
      "Ġhon": 1509,
      "aster": 1510,
      "Ġdin": 1511,
      "Ġansw": 1512,
      "Ġinformation": 1513,
      "Ġeyes": 1514,
      "Ġnational": 1515,
      "aken": 1516,
      "Ġtre": 1517,
      "Ġsecret": 1518,
      "Ġsmo": 1519,
      "Ġnon": 1520,
      "ton": 1521,
      "Ġ%": 1522,
      "Ġallow": 1523,
      "ately": 1524,
      "Ġcult": 1525,
      "Ġfac": 1526,
      "Ġparent": 1527,
      "Ġserious": 1528,
      "Ġpa": 1529,
      "Ġdevelopment": 1530,
      "Ġbehind": 1531,
      "Ġeconomic": 1532,
      "Ġglo": 1533,
      "Ġpartic": 1534,
      "ience": 1535,
      "Ġmur": 1536,
      "Ġbur": 1537,
      "ality": 1538,
      "Ġquick": 1539,
      "Ġsell": 1540,
      "Ġking": 1541,
      "Ġamerica": 1542,
      "Ġsuc": 1543,
      "Ġlevel": 1544,
      "Ġfront": 1545,
      "Ġcomes": 1546,
      "Ġcertain": 1547,
      "Ġblack": 1548,
      "Ġquestion": 1549,
      "den": 1550,
      "loy": 1551,
      "iful": 1552,
      "Ġah": 1553,
      "Ġsouth": 1554,
      "Ġtax": 1555,
      "ape": 1556,
      "aps": 1557,
      "Ġcouple": 1558,
      "Ġsocial": 1559,
      "Ġlarge": 1560,
      "idence": 1561,
      "Ġiss": 1562,
      "Ġperfect": 1563,
      "ards": 1564,
      "Ġstarted": 1565,
      "Ġdog": 1566,
      "Ġsuper": 1567,
      "rence": 1568,
      "Ġdream": 1569,
      "me": 1570,
      "lish": 1571,
      "Ġenj": 1572,
      "Ġstory": 1573,
      "ins": 1574,
      "Ġtrue": 1575,
      "Ġstep": 1576,
      "Ġshoot": 1577,
      "Ġlab": 1578,
      "ru": 1579,
      "Ġfinan": 1580,
      "Ġann": 1581,
      "fort": 1582,
      "Ġreturn": 1583,
      "Ġclean": 1584,
      "Ġteac": 1585,
      "ding": 1586,
      "Ġcreat": 1587,
      "Ġpract": 1588,
      "ane": 1589,
      "Ġgrand": 1590,
      "Ġneeds": 1591,
      "Ġtou": 1592,
      "ined": 1593,
      "Ġnorth": 1594,
      "Ġant": 1595,
      "Ġinside": 1596,
      "Ġforget": 1597,
      "fic": 1598,
      "Ġliving": 1599,
      "bal": 1600,
      "Ġorgan": 1601,
      "ames": 1602,
      "Ġproduct": 1603,
      "Ġpolic": 1604,
      "atic": 1605,
      "Ġothers": 1606,
      "Ġsomebody": 1607,
      "Ġten": 1608,
      "Ġrelations": 1609,
      "erv": 1610,
      "Ġmag": 1611,
      "Ġhowever": 1612,
      "Ġwalk": 1613,
      "ional": 1614,
      "Ġlow": 1615,
      "Ġfut": 1616,
      "Ġchance": 1617,
      "Ġbud": 1618,
      "band": 1619,
      "ster": 1620,
      "Ġalong": 1621,
      "Ġbeautiful": 1622,
      "Ġrecord": 1623,
      "Ġsupposed": 1624,
      "vious": 1625,
      "head": 1626,
      "dle": 1627,
      "Ġsupport": 1628,
      "room": 1629,
      "Ġspec": 1630,
      "Ġoutside": 1631,
      "ety": 1632,
      "Ġdeb": 1633,
      "Ġeither": 1634,
      "Ġunivers": 1635,
      "Ġaccord": 1636,
      "Ġprocess": 1637,
      "ians": 1638,
      "Ġvict": 1639,
      "Ġsafe": 1640,
      "Ġhus": 1641,
      "Ġearth": 1642,
      "Ġtemp": 1643,
      "Ġwhatever": 1644,
      "Ġlocal": 1645,
      "Ġrecent": 1646,
      "Ġfail": 1647,
      "Ġknows": 1648,
      "Ġarea": 1649,
      "ho": 1650,
      "selves": 1651,
      "Ġsecurity": 1652,
      "Ġtot": 1653,
      "Ġfa": 1654,
      "Ġcountries": 1655,
      "Ġfav": 1656,
      "Ġtried": 1657,
      "Ġexactly": 1658,
      "Ġmaj": 1659,
      "Ġfund": 1660,
      "Ġjud": 1661,
      "Ġcoun": 1662,
      "Ġearly": 1663,
      "Ġcannot": 1664,
      "Ġresearch": 1665,
      "Ġproper": 1666,
      "app": 1667,
      "Ġrev": 1668,
      "Ġrather": 1669,
      "Ġdiv": 1670,
      "Ġcompet": 1671,
      "port": 1672,
      "Ġforeign": 1673,
      "ization": 1674,
      "estern": 1675,
      "ged": 1676,
      "oud": 1677,
      "co": 1678,
      "Ġluck": 1679,
      "artment": 1680,
      "Ġcell": 1681,
      "icle": 1682,
      "Ġinfl": 1683,
      "Ġdoctor": 1684,
      "Ġcomplete": 1685,
      "ases": 1686,
      "Ġcompanies": 1687,
      "aughter": 1688,
      "Ġhusband": 1689,
      "Ġresult": 1690,
      "Ġappro": 1691,
      "tain": 1692,
      "Ġhurt": 1693,
      "Ġauth": 1694,
      "Ġhy": 1695,
      "uce": 1696,
      "Ġsus": 1697,
      "gress": 1698,
      "Ġwhite": 1699,
      "Ġpot": 1700,
      "Ġeff": 1701,
      "more": 1702,
      "Ġspeak": 1703,
      "Ġwall": 1704,
      "Ġstreet": 1705,
      "Ġseems": 1706,
      "Ġum": 1707,
      "Ġshut": 1708,
      "Ġpaper": 1709,
      "Ġroad": 1710,
      "Ġeduc": 1711,
      "Ġquite": 1712,
      "Ġill": 1713,
      "Ġfinancial": 1714,
      "sy": 1715,
      "anger": 1716,
      "cially": 1717,
      "Ġabs": 1718,
      "Ġcamp": 1719,
      "Ġmanage": 1720,
      "Ġwestern": 1721,
      "Ġdest": 1722,
      "Ġchrist": 1723,
      "Ġofficial": 1724,
      "Ġsweet": 1725,
      "cle": 1726,
      "ider": 1727,
      "Ġhosp": 1728,
      "Ġsun": 1729,
      "Ġrisk": 1730,
      "Ġfuture": 1731,
      "no": 1732,
      "Ġeconomy": 1733,
      "Ġparents": 1734,
      "Ġri": 1735,
      "ium": 1736,
      "ising": 1737,
      "Ġlim": 1738,
      "Ġself": 1739,
      "Ġcoffe": 1740,
      "Ġaut": 1741,
      "iving": 1742,
      "Ġpie": 1743,
      "Ġknown": 1744,
      "Ġbuilding": 1745,
      "Ġservice": 1746,
      "itting": 1747,
      "Ġdev": 1748,
      "Ġcre": 1749,
      "Ġball": 1750,
      "Ġdeep": 1751,
      "Ġbrought": 1752,
      "Ġhello": 1753,
      "itive": 1754,
      "Ġsuccess": 1755,
      "emp": 1756,
      "Ġaren": 1757,
      "Ġsend": 1758,
      "Ġge": 1759,
      "Ġattack": 1760,
      "Ġcust": 1761,
      "Ġcool": 1762,
      "kes": 1763,
      "lev": 1764,
      "Ġenjoy": 1765,
      "gn": 1766,
      "Ġpict": 1767,
      "Ġview": 1768,
      "ming": 1769,
      "ggest": 1770,
      "uation": 1771,
      "Ġdrug": 1772,
      "Ġfast": 1773,
      "Ġsuggest": 1774,
      "Ġpost": 1775,
      "Ġusing": 1776,
      "Ġmoment": 1777,
      "Ġrad": 1778,
      "Ġenv": 1779,
      "Ġcoffee": 1780,
      "line": 1781,
      "Ġgets": 1782,
      "Ġbegin": 1783,
      "Ġfoot": 1784,
      "Ġger": 1785,
      "Ġtruth": 1786,
      "Ġinternational": 1787,
      "Ġsister": 1788,
      "Ġpossible": 1789,
      "ption": 1790,
      "oun": 1791,
      "els": 1792,
      "Ġocc": 1793,
      "Ġhair": 1794,
      "ges": 1795,
      "ief": 1796,
      "Ġincluding": 1797,
      "Ġdaughter": 1798,
      "Ġeverybody": 1799,
      "orts": 1800,
      "Ġauthor": 1801,
      "Ġminute": 1802,
      "Ġforg": 1803,
      "Ġstra": 1804,
      "Ġwhether": 1805,
      "acy": 1806,
      "Ġaccount": 1807,
      "Ġbased": 1808,
      "Ġcapital": 1809,
      "iter": 1810,
      "Ġperform": 1811,
      "Ġsat": 1812,
      "Ġsever": 1813,
      "Ġer": 1814,
      "Ġmot": 1815,
      "Ġpolitical": 1816,
      "ones": 1817,
      "Ġbull": 1818,
      "Ġdra": 1819,
      "Ġcrazy": 1820,
      "Ġsqu": 1821,
      "Ġdirect": 1822,
      "Ġanymore": 1823,
      "Ġmajor": 1824,
      "Ġprep": 1825,
      "Ġpresent": 1826,
      "Ġtaken": 1827,
      "Ġrunning": 1828,
      "aged": 1829,
      "gram": 1830,
      "Ġdied": 1831,
      "ature": 1832,
      "raid": 1833,
      "Ġmeeting": 1834,
      "Ġbrit": 1835,
      "Ġhor": 1836,
      "ories": 1837,
      "igh": 1838,
      "fer": 1839,
      "Ġanswer": 1840,
      "Ġbill": 1841,
      "unk": 1842,
      "Ġgiven": 1843,
      "Ġaccording": 1844,
      "hy": 1845,
      "Ġru": 1846,
      "Ġafraid": 1847,
      "ulation": 1848,
      "Ġmic": 1849,
      "Ġamong": 1850,
      "ler": 1851,
      "Ġdel": 1852,
      "Ġproblems": 1853,
      "Ġaff": 1854,
      "Ġproject": 1855,
      "gu": 1856,
      "Ġwithin": 1857,
      "Ġprop": 1858,
      "ration": 1859,
      "Ġgirls": 1860,
      "Ġdrive": 1861,
      "Ġdinner": 1862,
      "Ġhimself": 1863,
      "Ġain": 1864,
      "Ġrul": 1865,
      "Ġfel": 1866,
      "Ġcred": 1867,
      "Ġsave": 1868,
      "ax": 1869,
      "ased": 1870,
      "acter": 1871,
      "imin": 1872,
      "Ġcir": 1873,
      "Ġhig": 1874,
      "Ġexcuse": 1875,
      "Ġmeth": 1876,
      "Ġhang": 1877,
      "Ġadm": 1878,
      "ances": 1879,
      "Ġhistory": 1880,
      "Ġvi": 1881,
      "eth": 1882,
      "Ġmilit": 1883,
      "Ġstates": 1884,
      "Ġhospital": 1885,
      "Ġseveral": 1886,
      "gest": 1887,
      "Ġpen": 1888,
      "Ġtur": 1889,
      "Ġgeneral": 1890,
      "Ġcam": 1891,
      "oub": 1892,
      "Ġrich": 1893,
      "Ġkey": 1894,
      "Ġlose": 1895,
      "Ġespe": 1896,
      "Ġlonger": 1897,
      "Ġwords": 1898,
      "Ġgoes": 1899,
      "Ġcourt": 1900,
      "Ġmad": 1901,
      "Ġprogram": 1902,
      "Ġmarried": 1903,
      "Ġgrowth": 1904,
      "Ġaccess": 1905,
      "Ġweeks": 1906,
      "Ġmine": 1907,
      "Ġespecially": 1908,
      "Ġsurpr": 1909,
      "Ġwonder": 1910,
      "Ġbi": 1911,
      "Ġshop": 1912,
      "Ġacross": 1913,
      "Ġwaiting": 1914,
      "Ġdress": 1915,
      "Ġtrouble": 1916,
      "Ġprivate": 1917,
      "Ġmillion": 1918,
      "Ġglobal": 1919,
      "airs": 1920,
      "Ġsense": 1921,
      "tle": 1922,
      "ze": 1923,
      "Ġspace": 1924,
      "Ġfur": 1925,
      "Ġstar": 1926,
      "Ġpoor": 1927,
      "Ġlearn": 1928,
      "ises": 1929,
      "Ġprofess": 1930,
      "Ġcla": 1931,
      "Ġfield": 1932,
      "Ġimpro": 1933,
      "Ġdoll": 1934,
      "Ġsumm": 1935,
      "Ġlives": 1936,
      "Ġground": 1937,
      "Ġagree": 1938,
      "Ġrespons": 1939,
      "Ġmist": 1940,
      "Ġenerg": 1941,
      "Ġlooked": 1942,
      "Ġprin": 1943,
      "ows": 1944,
      "ma": 1945,
      "ified": 1946,
      "Ġmiddle": 1947,
      "Ġwish": 1948,
      "Ġsold": 1949,
      "Ġdat": 1950,
      "Ġfeeling": 1951,
      "Ġpolicy": 1952,
      "ained": 1953,
      "iment": 1954,
      "Ġur": 1955,
      "Ġinvol": 1956,
      "Ġvar": 1957,
      "Ġactiv": 1958,
      "Ġemploy": 1959,
      "itions": 1960,
      "Ġphot": 1961,
      "Ġpet": 1962,
      "Ġhate": 1963,
      "umb": 1964,
      "Ġflo": 1965,
      "Ġord": 1966,
      "que": 1967,
      "Ġrelationship": 1968,
      "Ġworth": 1969,
      "oid": 1970,
      "iron": 1971,
      "Ġnet": 1972,
      "ney": 1973,
      "rod": 1974,
      "Ġori": 1975,
      "Ġconn": 1976,
      "Ġtelling": 1977,
      "Ġtechnology": 1978,
      "Ġdiffic": 1979,
      "work": 1980,
      "Ġcold": 1981,
      "Ġdifficult": 1982,
      "Ġoffer": 1983,
      "ec": 1984,
      "Ġlie": 1985,
      "Ġcomput": 1986,
      "Ġenviron": 1987,
      "Ġbene": 1988,
      "Ġuniversity": 1989,
      "Ġneeded": 1990,
      "Ġsil": 1991,
      "Ġrece": 1992,
      "Ġindustry": 1993,
      "Ġsounds": 1994,
      "Ġthird": 1995,
      "Ġprice": 1996,
      "Ġdom": 1997,
      "Ġtravel": 1998,
      "Ġanim": 1999,
      "Ġshare": 2000,
      "Ġslow": 2001,
      "Ġcustom": 2002,
      "Ġtouch": 2003,
      "Ġoil": 2004,
      "Ġage": 2005,
      "Ġenergy": 2006,
      "men": 2007,
      "bo": 2008,
      "Ġmusic": 2009,
      "Ġguest": 2010,
      "ands": 2011,
      "Ġtrade": 2012,
      "Ġconsum": 2013,
      "Ġmer": 2014,
      "ocr": 2015,
      "Ġstri": 2016,
      "Ġdiscuss": 2017,
      "Ġcover": 2018,
      "Ġmeas": 2019,
      "Ġentire": 2020,
      "Ġrid": 2021,
      "Ġconv": 2022,
      "Ġmethod": 2023,
      "Ġdanger": 2024,
      "ateg": 2025,
      "Ġnorm": 2026,
      "ully": 2027,
      "Ġfelt": 2028,
      "Ġfix": 2029,
      "Ġturned": 2030,
      "ij": 2031,
      "ination": 2032,
      "aces": 2033,
      "ograp": 2034,
      "ped": 2035,
      "Ġimag": 2036,
      "Ġwed": 2037,
      "Ġdark": 2038,
      "asing": 2039,
      "Ġtar": 2040,
      "Ġcross": 2041,
      "Ġsick": 2042,
      "eal": 2043,
      "ead": 2044,
      "hers": 2045,
      "Ġcurrent": 2046,
      "istic": 2047,
      "ony": 2048,
      "Ġunited": 2049,
      "Ġstup": 2050,
      "Ġeye": 2051,
      "cu": 2052,
      "pping": 2053,
      "Ġenvironment": 2054,
      "Ġbir": 2055,
      "Ġdamn": 2056,
      "Ġrock": 2057,
      "Ġworks": 2058,
      "Ġvir": 2059,
      "Ġjack": 2060,
      "Ġboss": 2061,
      "Ġcommon": 2062,
      "Ġvisit": 2063,
      "Ġmov": 2064,
      "ored": 2065,
      "Ġmis": 2066,
      "Ġgold": 2067,
      "ring": 2068,
      "Ġruss": 2069,
      "Ġlord": 2070,
      "erve": 2071,
      "ches": 2072,
      "wards": 2073,
      "to": 2074,
      "ift": 2075,
      "Ġsingle": 2076,
      "Ġstupid": 2077,
      "Ġconcern": 2078,
      "Ġlock": 2079,
      "Ġmanagement": 2080,
      "Ġsort": 2081,
      "Ġthreat": 2082,
      "Ġtv": 2083,
      "Ġneg": 2084,
      "Ġstudents": 2085,
      "lex": 2086,
      "Ġcompl": 2087,
      "Ġfoc": 2088,
      "Ġbal": 2089,
      "Ġdate": 2090,
      "Ġcard": 2091,
      "Ġfair": 2092,
      "ots": 2093,
      "Ġwest": 2094,
      "Ġappear": 2095,
      "bs": 2096,
      "Ġpack": 2097,
      "Ġmilitary": 2098,
      "aw": 2099,
      "Ġinvestig": 2100,
      "oint": 2101,
      "Ġfavor": 2102,
      "Ġahead": 2103,
      "Ġplaying": 2104,
      "Ġarticle": 2105,
      "Ġpal": 2106,
      "ball": 2107,
      "Ġboys": 2108,
      "read": 2109,
      "ample": 2110,
      "fast": 2111,
      "Ġcatch": 2112,
      "Ġmount": 2113,
      "ators": 2114,
      "Ġlikely": 2115,
      "ability": 2116,
      "Ġinstead": 2117,
      "Ġbag": 2118,
      "Ġenglish": 2119,
      "Ġspo": 2120,
      "Ġlos": 2121,
      "Ġterm": 2122,
      "Ġbox": 2123,
      "Ġcat": 2124,
      "Ġclot": 2125,
      "urs": 2126,
      "Ġconstr": 2127,
      "ential": 2128,
      "Ġpersonal": 2129,
      "ilt": 2130,
      "Ġran": 2131,
      "ging": 2132,
      "Ġleaving": 2133,
      "und": 2134,
      "Ġrespect": 2135,
      "Ġones": 2136,
      "ended": 2137,
      "Ġobs": 2138,
      "Ġsud": 2139,
      "Ġobject": 2140,
      "Ġbanks": 2141,
      "ror": 2142,
      "ept": 2143,
      "itional": 2144,
      "Ġang": 2145,
      "Ġfly": 2146,
      "Ġcry": 2147,
      "Ġaccept": 2148,
      "Ġcentral": 2149,
      "Ġpark": 2150,
      "Ġinternet": 2151,
      "Ġlang": 2152,
      "fully": 2153,
      "Ġdrop": 2154,
      "Ġbreakfast": 2155,
      "Ġconnect": 2156,
      "Ġparticular": 2157,
      "Ġeducation": 2158,
      "Ġgreen": 2159,
      "Ġrob": 2160,
      "Ġforce": 2161,
      "ken": 2162,
      "Ġfinally": 2163,
      "Ġship": 2164,
      "haps": 2165,
      "Ġexperience": 2166,
      "Ġevent": 2167,
      "Ġenter": 2168,
      "een": 2169,
      "ims": 2170,
      "Ġperhaps": 2171,
      "Ġjoh": 2172,
      "Ġfed": 2173,
      "Ġeast": 2174,
      "ugg": 2175,
      "Ġbirth": 2176,
      "Ġquestions": 2177,
      "ients": 2178,
      "Ġworked": 2179,
      "Ġfigure": 2180,
      "Ġmass": 2181,
      "Ġround": 2182,
      "Ġcharacter": 2183,
      "Ġgerman": 2184,
      "Ġthrow": 2185,
      "Ġsoci": 2186,
      "com": 2187,
      "Ġcomfort": 2188,
      "Ġcolle": 2189,
      "Ġvalue": 2190,
      "Ġbrain": 2191,
      "Ġemerg": 2192,
      "Ġstraight": 2193,
      "ibility": 2194,
      "ills": 2195,
      "Ġobvious": 2196,
      "Ġsea": 2197,
      "Ġevidence": 2198,
      "Ġwrite": 2199,
      "Ġphys": 2200,
      "Ġmater": 2201,
      "Ġscient": 2202,
      "Ġclos": 2203,
      "ery": 2204,
      "Ġcollect": 2205,
      "Ġcredit": 2206,
      "Ġtakes": 2207,
      "Ġda": 2208,
      "Ġsong": 2209,
      "Ġmodern": 2210,
      "Ġvol": 2211,
      "Ġanalys": 2212,
      "Ġexist": 2213,
      "Ġyork": 2214,
      "Ġanyway": 2215,
      "Ġnobody": 2216,
      "Ġsen": 2217,
      "itch": 2218,
      "Ġspir": 2219,
      "Ġyours": 2220,
      "Ġchoice": 2221,
      "Ġcris": 2222,
      "Ġshouldn": 2223,
      "Ġfurther": 2224,
      "Ġisland": 2225,
      "Ġden": 2226,
      "Ġviol": 2227,
      "Ġciv": 2228,
      "Ġstore": 2229,
      "Ġeight": 2230,
      "Ġalive": 2231,
      "Ġtour": 2232,
      "Ġju": 2233,
      "Ġadmin": 2234,
      "Ġjohn": 2235,
      "Ġsuit": 2236,
      "Ġfres": 2237,
      "ify": 2238,
      "Ġport": 2239,
      "Ġmach": 2240,
      "Ġdisapp": 2241,
      "Ġx": 2242,
      "Ġlad": 2243,
      "come": 2244,
      "Ġspeed": 2245,
      "Ġmoving": 2246,
      "Ġbath": 2247,
      "ps": 2248,
      "Ġspend": 2249,
      "Ġcontract": 2250,
      "ological": 2251,
      "Ġdata": 2252,
      "Ġenc": 2253,
      "Ġpsy": 2254,
      "Ġthous": 2255,
      "Ġcarry": 2256,
      "Ġtable": 2257,
      "ping": 2258,
      "ode": 2259,
      "my": 2260,
      "Ġgiving": 2261,
      "Ġpromise": 2262,
      "Ġfell": 2263,
      "Ġattention": 2264,
      "Ġhigher": 2265,
      "Ġcenter": 2266,
      "Ġlady": 2267,
      "Ġprison": 2268,
      "Ġlangu": 2269,
      "Ġboard": 2270,
      "une": 2271,
      "Ġbase": 2272,
      "Ġweap": 2273,
      "Ġcrit": 2274,
      "ili": 2275,
      "par": 2276,
      "edi": 2277,
      "Ġdesc": 2278,
      "ission": 2279,
      "Ġalth": 2280,
      "Ġmult": 2281,
      "Ġhoney": 2282,
      "Ġpeace": 2283,
      "Ġalthough": 2284,
      "Ġdig": 2285,
      "unt": 2286,
      "Ġcomb": 2287,
      "Ġforward": 2288,
      "Ġdro": 2289,
      "Ġbeat": 2290,
      "Ġemb": 2291,
      "uit": 2292,
      "Ġident": 2293,
      "ien": 2294,
      "Ġflow": 2295,
      "Ġsudden": 2296,
      "Ġanybody": 2297,
      "Ġdeter": 2298,
      "oul": 2299,
      "Ġfunny": 2300,
      "ef": 2301,
      "ners": 2302,
      "Ġfear": 2303,
      "imate": 2304,
      "Ġgent": 2305,
      "Ġgas": 2306,
      "Ġasking": 2307,
      "yle": 2308,
      "Ġthemselves": 2309,
      "Ġcivil": 2310,
      "Ġprices": 2311,
      "ishing": 2312,
      "Ġchanged": 2313,
      "Ġlay": 2314,
      "Ġconst": 2315,
      "mb": 2316,
      "uced": 2317,
      "Ġneigh": 2318,
      "Ġcrisis": 2319,
      "Ġvill": 2320,
      "Ġdefin": 2321,
      "Ġmaterial": 2322,
      "Ġglad": 2323,
      "Ġneighb": 2324,
      "vent": 2325,
      "Ġpsych": 2326,
      "Ġdemand": 2327,
      "Ġadminist": 2328,
      "eral": 2329,
      "Ġarri": 2330,
      "ijing": 2331,
      "Ġhund": 2332,
      "Ġfresh": 2333,
      "amed": 2334,
      "Ġkore": 2335,
      "over": 2336,
      "Ġhundred": 2337,
      "Ġbreat": 2338,
      "Ġperi": 2339,
      "Ġstrateg": 2340,
      "Ġdraw": 2341,
      "Ġrate": 2342,
      "Ġesc": 2343,
      "Ġstock": 2344,
      "Ġcy": 2345,
      "Ġbeijing": 2346,
      "Ġcollege": 2347,
      "Ġdemocr": 2348,
      "Ġfill": 2349,
      "Ġsituation": 2350,
      "het": 2351,
      "Ġfat": 2352,
      "oring": 2353,
      "ived": 2354,
      "cent": 2355,
      "Ġchief": 2356,
      "Ġmurder": 2357,
      "son": 2358,
      "Ġnecess": 2359,
      "ensive": 2360,
      "Ġusually": 2361,
      "Ġroll": 2362,
      "Ġdecided": 2363,
      "Ġnatural": 2364,
      "Ġexcept": 2365,
      "Ġleaders": 2366,
      "Ġsurv": 2367,
      "Ġstat": 2368,
      "Ġperiod": 2369,
      "Ġcash": 2370,
      "Ġposition": 2371,
      "Ġorigin": 2372,
      "Ġexample": 2373,
      "cer": 2374,
      "Ġmeant": 2375,
      "Ġextra": 2376,
      "Ġcirc": 2377,
      "omb": 2378,
      "Ġyester": 2379,
      "Ġbye": 2380,
      "Ġkiss": 2381,
      "Ġexec": 2382,
      "ament": 2383,
      "Ġsuff": 2384,
      "olution": 2385,
      "Ġapplic": 2386,
      "Ġyesterday": 2387,
      "Ġquiet": 2388,
      "Ġriver": 2389,
      "Ġmanag": 2390,
      "Ġconsider": 2391,
      "ogn": 2392,
      "aff": 2393,
      "iding": 2394,
      "Ġinn": 2395,
      "Ġsour": 2396,
      "Ġbecame": 2397,
      "Ġexplain": 2398,
      "med": 2399,
      "Ġele": 2400,
      "Ġmedic": 2401,
      "Ġrom": 2402,
      "ivid": 2403,
      "rench": 2404,
      "Ġways": 2405,
      "Ġquality": 2406,
      "Ġmembers": 2407,
      "Ġstation": 2408,
      "Ġvoice": 2409,
      "Ġminister": 2410,
      "avy": 2411,
      "Ġinstit": 2412,
      "Ġmodel": 2413,
      "Ġdepartment": 2414,
      "Ġkept": 2415,
      "Ġdoub": 2416,
      "bit": 2417,
      "Ġpaid": 2418,
      "Ġinvestment": 2419,
      "Ġrules": 2420,
      "Ġhappens": 2421,
      "olute": 2422,
      "Ġcorp": 2423,
      "Ġgrad": 2424,
      "Ġcomputer": 2425,
      "Ġseven": 2426,
      "Ġpicture": 2427,
      "Ġaud": 2428,
      "Ġmarkets": 2429,
      "Ġtick": 2430,
      "ilar": 2431,
      "Ġworse": 2432,
      "Ġengine": 2433,
      "Ġwel": 2434,
      "Ġsens": 2435,
      "Ġjump": 2436,
      "ival": 2437,
      "Ġdance": 2438,
      "Ġpiece": 2439,
      "Ġcamer": 2440,
      "Ġplant": 2441,
      "Ġsubject": 2442,
      "ron": 2443,
      "allen": 2444,
      "Ġpan": 2445,
      "Ġbenef": 2446,
      "Ġanalysis": 2447,
      "Ġrelax": 2448,
      "Ġanaly": 2449,
      "Ġfloor": 2450,
      "Ġfeet": 2451,
      "Ġtarget": 2452,
      "iday": 2453,
      "ference": 2454,
      "Ġdeli": 2455,
      "Ġestab": 2456,
      "Ġdouble": 2457,
      "Ġice": 2458,
      "Ġsimple": 2459,
      "Ġterri": 2460,
      "Ġmouth": 2461,
      "itted": 2462,
      "Ġcompletely": 2463,
      "gue": 2464,
      "Ġbitch": 2465,
      "Ġsoft": 2466,
      "Ġsearch": 2467,
      "Ġrecogn": 2468,
      "Ġide": 2469,
      "uses": 2470,
      "Ġtor": 2471,
      "ume": 2472,
      "aking": 2473,
      "Ġreform": 2474,
      "Ġclub": 2475,
      "Ġscience": 2476,
      "omes": 2477,
      "Ġarmy": 2478,
      "Ġinflu": 2479,
      "oth": 2480,
      "go": 2481,
      "Ġarrest": 2482,
      "Ġchallen": 2483,
      "Ġrele": 2484,
      "Ġtheory": 2485,
      "Ġpressure": 2486,
      "Ġresour": 2487,
      "ails": 2488,
      "Ġdude": 2489,
      "Ġstruct": 2490,
      "Ġ&": 2491,
      "Ġupon": 2492,
      "Ġcalling": 2493,
      "Ġhol": 2494,
      "Ġopt": 2495,
      "ilities": 2496,
      "lier": 2497,
      "Ġquickly": 2498,
      "Ġstick": 2499,
      "Ġabsolute": 2500,
      "Ġculture": 2501,
      "fact": 2502,
      "Ġjour": 2503,
      "Ġlawy": 2504,
      "Ġdisp": 2505,
      "Ġobama": 2506,
      "Ġdecision": 2507,
      "Ġofficials": 2508,
      "Ġseeing": 2509,
      "iff": 2510,
      "ires": 2511,
      "Ġabove": 2512,
      "Ġweren": 2513,
      "ply": 2514,
      "of": 2515,
      "Ġamaz": 2516,
      "Ġopport": 2517,
      "Ġrooms": 2518,
      "Ġproperty": 2519,
      "Ġintrod": 2520,
      "Ġmissing": 2521,
      "Ġsociety": 2522,
      "set": 2523,
      "ii": 2524,
      "Ġblock": 2525,
      "Ġdise": 2526,
      "Ġscared": 2527,
      "Ġfish": 2528,
      "ucle": 2529,
      "Ġhuge": 2530,
      "Ġopportun": 2531,
      "key": 2532,
      "Ġinde": 2533,
      "aur": 2534,
      "Ġdetect": 2535,
      "Ġattract": 2536,
      "Ġtill": 2537,
      "ey": 2538,
      "Ġindivid": 2539,
      "Ġsad": 2540,
      "Ġloved": 2541,
      "tom": 2542,
      "Ġloss": 2543,
      "Ġrepres": 2544,
      "Ġtast": 2545,
      "Ġburn": 2546,
      "Ġjes": 2547,
      "Ġaction": 2548,
      "Ġexpress": 2549,
      "Ġtype": 2550,
      "Ġitself": 2551,
      "Ġsmart": 2552,
      "Ġaffect": 2553,
      "Ġtea": 2554,
      "Ġwear": 2555,
      "Ġcertainly": 2556,
      "ued": 2557,
      "Ġinterv": 2558,
      "Ġhost": 2559,
      "Ġsomewhere": 2560,
      "Ġsmoking": 2561,
      "enty": 2562,
      "Ġprovide": 2563,
      "ened": 2564,
      "ulations": 2565,
      "Ġthinks": 2566,
      "Ġstren": 2567,
      "lly": 2568,
      "Ġcalm": 2569,
      "bed": 2570,
      "Ġnucle": 2571,
      "Ġgentle": 2572,
      "Ġdebt": 2573,
      "Ġcaught": 2574,
      "Ġver": 2575,
      "Ġtotally": 2576,
      "Ġcrime": 2577,
      "Ġlegal": 2578,
      "attle": 2579,
      "Ġsepar": 2580,
      "Ġeuropean": 2581,
      "Ġexam": 2582,
      "Ġq": 2583,
      "Ġwood": 2584,
      "Ġpred": 2585,
      "Ġtrack": 2586,
      "Ġbegan": 2587,
      "Ġtrip": 2588,
      "itness": 2589,
      "Ġlanguage": 2590,
      "Ġspent": 2591,
      "Ġgrowing": 2592,
      "Ġplans": 2593,
      "Ġblow": 2594,
      "Ġmedical": 2595,
      "Ġbooks": 2596,
      "Ġsuspect": 2597,
      "Ġfing": 2598,
      "Ġlunch": 2599,
      "Ġchoo": 2600,
      "Ġfrench": 2601,
      "hood": 2602,
      "Ġworried": 2603,
      "Ġwatching": 2604,
      "Ġcontact": 2605,
      "Ġmovie": 2606,
      "Ġpractice": 2607,
      "Ġproducts": 2608,
      "aker": 2609,
      "Ġmention": 2610,
      "ina": 2611,
      "Ġdestro": 2612,
      "ees": 2613,
      "Ġbillion": 2614,
      "Ġsmell": 2615,
      "Ġstreng": 2616,
      "ially": 2617,
      "Ġaccident": 2618,
      "Ġcoo": 2619,
      "Ġborn": 2620,
      "Ġsan": 2621,
      "Ġinvestors": 2622,
      "Ġbird": 2623,
      "che": 2624,
      "Ġje": 2625,
      "Ġnature": 2626,
      "Ġlond": 2627,
      "Ġbri": 2628,
      "Ġlucky": 2629,
      "astic": 2630,
      "lt": 2631,
      "Ġfool": 2632,
      "Ġsimilar": 2633,
      "idge": 2634,
      "cious": 2635,
      "Ġimmedi": 2636,
      "Ġweird": 2637,
      "Ġheld": 2638,
      "hern": 2639,
      "acking": 2640,
      "Ġhung": 2641,
      "Ġavail": 2642,
      "Ġgrab": 2643,
      "Ġafric": 2644,
      "Ġindividual": 2645,
      "Ġintell": 2646,
      "Ġqueen": 2647,
      "Ġlondon": 2648,
      "Ġservices": 2649,
      "reci": 2650,
      "right": 2651,
      "Ġnormal": 2652,
      "Ġlat": 2653,
      "Ġtend": 2654,
      "val": 2655,
      "Ġaddress": 2656,
      "Ġfarm": 2657,
      "Ġrain": 2658,
      "reme": 2659,
      "Ġnone": 2660,
      "Ġchanges": 2661,
      "Ġfocus": 2662,
      "Ġclothes": 2663,
      "Ġcharge": 2664,
      "Ġbusy": 2665,
      "Ġfollowing": 2666,
      "Ġmill": 2667,
      "Ġmaster": 2668,
      "Ġpun": 2669,
      "Ġjapanese": 2670,
      "Ġkick": 2671,
      "cip": 2672,
      "Ġdesp": 2673,
      "Ġmoved": 2674,
      "Ġspirit": 2675,
      "Ġgeor": 2676,
      "Ġcreate": 2677,
      "Ġinsur": 2678,
      "Ġquar": 2679,
      "mas": 2680,
      "Ġspot": 2681,
      "Ġmrs": 2682,
      "Ġsummer": 2683,
      "soci": 2684,
      "Ġlower": 2685,
      "Ġstarting": 2686,
      "Ġbroke": 2687,
      "hold": 2688,
      "eng": 2689,
      "ledge": 2690,
      "Ġboo": 2691,
      "Ġmiles": 2692,
      "Ġrout": 2693,
      "ession": 2694,
      "Ġjesus": 2695,
      "for": 2696,
      "Ġrole": 2697,
      "Ġhandle": 2698,
      "Ġmessage": 2699,
      "riage": 2700,
      "rict": 2701,
      "Ġrights": 2702,
      "Ġdue": 2703,
      "Ġgar": 2704,
      "Ġworkers": 2705,
      "Ġblue": 2706,
      "Ġavoid": 2707,
      "Ġbroad": 2708,
      "Ġach": 2709,
      "Ġchur": 2710,
      "aced": 2711,
      "istan": 2712,
      "Ġpopular": 2713,
      "Ġbond": 2714,
      "ites": 2715,
      "arc": 2716,
      "Ġanti": 2717,
      "Ġmob": 2718,
      "Ġnuclear": 2719,
      "Ġsales": 2720,
      "Ġwedding": 2721,
      "ole": 2722,
      "Ġglass": 2723,
      "cks": 2724,
      "itely": 2725,
      "ike": 2726,
      "Ġassoci": 2727,
      "Ġcontinue": 2728,
      "Ġrestaur": 2729,
      "ached": 2730,
      "verse": 2731,
      "Ġjoin": 2732,
      "Ġindia": 2733,
      "Ġwearing": 2734,
      "izing": 2735,
      "xic": 2736,
      "Ġremain": 2737,
      "Ġexch": 2738,
      "Ġtraining": 2739,
      "Ġsitting": 2740,
      "Ġtyp": 2741,
      "Ġdut": 2742,
      "Ġring": 2743,
      "Ġcook": 2744,
      "ively": 2745,
      "Ġimprove": 2746,
      "Ġswear": 2747,
      "Ġformer": 2748,
      "Ġjobs": 2749,
      "Ġtired": 2750,
      "Ġrap": 2751,
      "icking": 2752,
      "Ġcalls": 2753,
      "Ġjer": 2754,
      "Ġaccom": 2755,
      "Ġreact": 2756,
      "Ġcab": 2757,
      "ky": 2758,
      "Ġareas": 2759,
      "Ġbought": 2760,
      "ha": 2761,
      "yn": 2762,
      "Ġmal": 2763,
      "Ġappreci": 2764,
      "Ġinvolved": 2765,
      "Ġlu": 2766,
      "Ġwindow": 2767,
      "Ġcorpor": 2768,
      "Ġmedia": 2769,
      "Ġsimply": 2770,
      "Ġsaf": 2771,
      "Ġskin": 2772,
      "Ġbehav": 2773,
      "Ġwild": 2774,
      "iny": 2775,
      "Ġble": 2776,
      "nel": 2777,
      "Ġlau": 2778,
      "Ġstopped": 2779,
      "Ġearlier": 2780,
      "Ġled": 2781,
      "Ġcorre": 2782,
      "lus": 2783,
      "Ġride": 2784,
      "Ġamount": 2785,
      "Ġcommand": 2786,
      "Ġletter": 2787,
      "irt": 2788,
      "Ġstaff": 2789,
      "Ġvide": 2790,
      "Ġbuilt": 2791,
      "ley": 2792,
      "Ġwat": 2793,
      "rael": 2794,
      "lin": 2795,
      "sc": 2796,
      "Ġdangerous": 2797,
      "Ġhonest": 2798,
      "Ġange": 2799,
      "Ġlying": 2800,
      "Ġscrew": 2801,
      "Ġassist": 2802,
      "Ġissue": 2803,
      "Ġfeed": 2804,
      "Ġcele": 2805,
      "Ġcentury": 2806,
      "Ġexpert": 2807,
      "Ġhun": 2808,
      "ification": 2809,
      "ask": 2810,
      "Ġfort": 2811,
      "ences": 2812,
      "Ġbiggest": 2813,
      "Ġexecut": 2814,
      "light": 2815,
      "ublic": 2816,
      "Ġweak": 2817,
      "reen": 2818,
      "Ġwriting": 2819,
      "Ġisrael": 2820,
      "Ġegg": 2821,
      "Ġcelebr": 2822,
      "Ġrecently": 2823,
      "Ġvot": 2824,
      "Ġwhose": 2825,
      "Ġfirm": 2826,
      "Ġben": 2827,
      "Ġchick": 2828,
      "ceed": 2829,
      "Ġabsolutely": 2830,
      "Ġconstruction": 2831,
      "Ġbritish": 2832,
      "Ġavailable": 2833,
      "Ġhurry": 2834,
      "Ġwashing": 2835,
      "Ġcommer": 2836,
      "Ġproduction": 2837,
      "Ġdan": 2838,
      "Ġwide": 2839,
      "Ġhall": 2840,
      "Ġrepublic": 2841,
      "Ġforgot": 2842,
      "Ġsize": 2843,
      "ruct": 2844,
      "Ġtight": 2845,
      "Ġstanding": 2846,
      "Ġsignific": 2847,
      "Ġrequire": 2848,
      "Ġchair": 2849,
      "Ġaust": 2850,
      "Ġseemed": 2851,
      "Ġsand": 2852,
      "Ġcaptain": 2853,
      "Ġenterpr": 2854,
      "Ġfinal": 2855,
      "Ġhous": 2856,
      "Ġhong": 2857,
      "ently": 2858,
      "Ġcounter": 2859,
      "Ġnearly": 2860,
      "Ġchem": 2861,
      "ope": 2862,
      "Ġtruck": 2863,
      "Ġcommunic": 2864,
      "Ġwelcome": 2865,
      "Ġfilm": 2866,
      "ented": 2867,
      "oming": 2868,
      "Ġpush": 2869,
      "Ġeffects": 2870,
      "Ġachie": 2871,
      "Ġdestroy": 2872,
      "Ġstyle": 2873,
      "cil": 2874,
      "Ġamb": 2875,
      "Ġtraditional": 2876,
      "Ġregion": 2877,
      "Ġrepl": 2878,
      "Ġshows": 2879,
      "Ġdrugs": 2880,
      "Ġfinish": 2881,
      "Ġmatch": 2882,
      "ades": 2883,
      "Ġharm": 2884,
      "Ġdrag": 2885,
      "atory": 2886,
      "Ġargu": 2887,
      "Ġimpress": 2888,
      "Ġmir": 2889,
      "Ġhmm": 2890,
      "Ġliter": 2891,
      "vert": 2892,
      "Ġ/": 2893,
      "Ġcast": 2894,
      "Ġfan": 2895,
      "Ġtree": 2896,
      "uan": 2897,
      "Ġresults": 2898,
      "Ġtreatment": 2899,
      "Ġtough": 2900,
      "arr": 2901,
      "Ġevening": 2902,
      "Ġcases": 2903,
      "itor": 2904,
      "Ġreach": 2905,
      "Ġcup": 2906,
      "Ġut": 2907,
      "Ġimagine": 2908,
      "Ġinj": 2909,
      "Ġspread": 2910,
      "itten": 2911,
      "ik": 2912,
      "Ġmat": 2913,
      "Ġinteresting": 2914,
      "cell": 2915,
      "Ġperformance": 2916,
      "Ġarr": 2917,
      "Ġreading": 2918,
      "Ġemot": 2919,
      "ental": 2920,
      "Ġfault": 2921,
      "Ġplaces": 2922,
      "Ġenem": 2923,
      "rog": 2924,
      "Ġwine": 2925,
      "Ġtotal": 2926,
      "Ġfeat": 2927,
      "Ġpool": 2928,
      "Ġscr": 2929,
      "Ġeating": 2930,
      "Ġtext": 2931,
      "Ġmanu": 2932,
      "Ġwarm": 2933,
      "eg": 2934,
      "Ġflight": 2935,
      "Ġvac": 2936,
      "Ġchurch": 2937,
      "Ġsteal": 2938,
      "Ġcondition": 2939,
      "Ġbes": 2940,
      "Ġknowledge": 2941,
      "Ġbeginning": 2942,
      "Ġmarriage": 2943,
      "Ġexpected": 2944,
      "Ġtalked": 2945,
      "Ġfighting": 2946,
      "amb": 2947,
      "Ġincreasing": 2948,
      "Ġinclude": 2949,
      "Ġdriving": 2950,
      "friend": 2951,
      "Ġnut": 2952,
      "eared": 2953,
      "Ġspending": 2954,
      "zz": 2955,
      "Ġpath": 2956,
      "Ġstage": 2957,
      "Ġpoll": 2958,
      "Ġsoul": 2959,
      "isions": 2960,
      "ancing": 2961,
      "Ġkiller": 2962,
      "ban": 2963,
      "Ġsafety": 2964,
      "Ġdefinitely": 2965,
      "Ġhero": 2966,
      "cing": 2967,
      "Ġliber": 2968,
      "Ġamazing": 2969,
      "ays": 2970,
      "cl": 2971,
      "Ġinterested": 2972,
      "cise": 2973,
      "lished": 2974,
      "Ġinsurance": 2975,
      "Ġspecific": 2976,
      "Ġrelated": 2977,
      "Ġattemp": 2978,
      "Ġpartner": 2979,
      "Ġsurf": 2980,
      "Ġmistake": 2981,
      "ob": 2982,
      "Ġcere": 2983,
      "Ġallowed": 2984,
      "Ġphil": 2985,
      "Ġkit": 2986,
      "Ġpleas": 2987,
      "Ġoppos": 2988,
      "Ġmurd": 2989,
      "Ġwitness": 2990,
      "Ġign": 2991,
      "pper": 2992,
      "Ġnecessary": 2993,
      "Ġobviously": 2994,
      "lfriend": 2995,
      "Ġplane": 2996,
      "Ġpercent": 2997,
      "rupt": 2998,
      "Ġdeg": 2999,
      "ware": 3000,
      "Ġteacher": 3001,
      "Ġital": 3002,
      "Ġguests": 3003,
      "Ġfrank": 3004,
      "vere": 3005,
      "Ġtowards": 3006,
      "Ġmachine": 3007,
      "Ġgirlfriend": 3008,
      "Ġvictim": 3009,
      "Ġkilling": 3010,
      "Ġannoun": 3011,
      "Ġcrimin": 3012,
      "Ġbomb": 3013,
      "Ġarch": 3014,
      "Ġiron": 3015,
      "ibly": 3016,
      "Ġincrease": 3017,
      "Ġdocu": 3018,
      "Ġmanufact": 3019,
      "ground": 3020,
      "Ġclaim": 3021,
      "Ġsuddenly": 3022,
      "Ġhelped": 3023,
      "Ġsite": 3024,
      "ends": 3025,
      "iot": 3026,
      "Ġfruit": 3027,
      "Ġputting": 3028,
      "like": 3029,
      "Ġgames": 3030,
      "ipped": 3031,
      "Ġholding": 3032,
      "Ġspl": 3033,
      "Ġdifference": 3034,
      "Ġinit": 3035,
      "istics": 3036,
      "Ġet": 3037,
      "Ġproud": 3038,
      "Ġfamous": 3039,
      "Ġanywhere": 3040,
      "Ġkong": 3041,
      "Ġability": 3042,
      "wan": 3043,
      "ls": 3044,
      "Ġissues": 3045,
      "Ġyell": 3046,
      "utions": 3047,
      "Ġess": 3048,
      "verage": 3049,
      "Ġfunction": 3050,
      "ening": 3051,
      "Ġteaching": 3052,
      "Ġtai": 3053,
      "Ġstandard": 3054,
      "Ġhasn": 3055,
      "iction": 3056,
      "Ġstress": 3057,
      "Ġpurp": 3058,
      "Ġlaugh": 3059,
      "Ġtrick": 3060,
      "Ġrise": 3061,
      "Ġpow": 3062,
      "Ġunless": 3063,
      "Ġprogress": 3064,
      "Ġheavy": 3065,
      "Ġbroken": 3066,
      "Ġtelev": 3067,
      "Ġrates": 3068,
      "rial": 3069,
      "Ġseason": 3070,
      "Ġguard": 3071,
      "Ġneither": 3072,
      "Ġscene": 3073,
      "Ġshar": 3074,
      "Ġchoose": 3075,
      "Ġparts": 3076,
      "Ġhorse": 3077,
      "Ġselect": 3078,
      "Ġdisease": 3079,
      "cient": 3080,
      "Ġcars": 3081,
      "inary": 3082,
      "Ġlink": 3083,
      "chan": 3084,
      "nov": 3085,
      "Ġhonor": 3086,
      "Ġwalking": 3087,
      "Ġbey": 3088,
      "Ġvan": 3089,
      "arm": 3090,
      "Ġjudge": 3091,
      "Ġdav": 3092,
      "Ġchristmas": 3093,
      "Ġboat": 3094,
      "Ġscreen": 3095,
      "Ġflat": 3096,
      "gy": 3097,
      "Ġpatient": 3098,
      "Ġweight": 3099,
      "Ġep": 3100,
      "Ġcolor": 3101,
      "Ġoperation": 3102,
      "Ġnumbers": 3103,
      "wh": 3104,
      "Ġboyfriend": 3105,
      "Ġhide": 3106,
      "Ġnation": 3107,
      "Ġbear": 3108,
      "Ġcampa": 3109,
      "Ġbelong": 3110,
      "Ġsupply": 3111,
      "Ġdry": 3112,
      "dom": 3113,
      "Ġrealize": 3114,
      "Ġshowed": 3115,
      "Ġgard": 3116,
      "Ġwilling": 3117,
      "Ġpotential": 3118,
      "Ġplanning": 3119,
      "epend": 3120,
      "ker": 3121,
      "Ġcancer": 3122,
      "Ġprim": 3123,
      "etic": 3124,
      "Ġsystems": 3125,
      "Ġbeyond": 3126,
      "Ġinterview": 3127,
      "Ġdesk": 3128,
      "ension": 3129,
      "Ġresources": 3130,
      "Ġbuddy": 3131,
      "Ġdear": 3132,
      "Ġladies": 3133,
      "hic": 3134,
      "Ġbigger": 3135,
      "Ġgives": 3136,
      "Ġradio": 3137,
      "iers": 3138,
      "Ġapartment": 3139,
      "nal": 3140,
      "Ġforces": 3141,
      "Ġwake": 3142,
      "Ġextreme": 3143,
      "aked": 3144,
      "Ġcompetition": 3145,
      "itude": 3146,
      "Ġuncle": 3147,
      "wise": 3148,
      "Ġlawyer": 3149,
      "yal": 3150,
      "Ġonline": 3151,
      "Ġod": 3152,
      "Ġfeels": 3153,
      "Ġrelig": 3154,
      "order": 3155,
      "Ġcosts": 3156,
      "Ġforever": 3157,
      "ffic": 3158,
      "Ġsha": 3159,
      "Ġcaused": 3160,
      "Ġangry": 3161,
      "Ġraise": 3162,
      "atives": 3163,
      "Ġknock": 3164,
      "Ġkeeping": 3165,
      "estic": 3166,
      "Ġrule": 3167,
      "ops": 3168,
      "Ġmissed": 3169,
      "Ġrepresent": 3170,
      "Ġseriously": 3171,
      "Ġeth": 3172,
      "ids": 3173,
      "Ġstudent": 3174,
      "Ġideas": 3175,
      "Ġdecl": 3176,
      "Ġlived": 3177,
      "irty": 3178,
      "aper": 3179,
      "Ġpassed": 3180,
      "Ġexchange": 3181,
      "arely": 3182,
      "Ġpatients": 3183,
      "Ġfem": 3184,
      "Ġdetermin": 3185,
      "Ġconvers": 3186,
      "Ġadvant": 3187,
      "Ġexer": 3188,
      "nes": 3189,
      "Ġspring": 3190,
      "Ġterror": 3191,
      "Ġdamage": 3192,
      "Ġcampaign": 3193,
      "Ġfit": 3194,
      "Ġafterno": 3195,
      "Ġcas": 3196,
      "Ġmechan": 3197,
      "Ġpros": 3198,
      "Ġgree": 3199,
      "gar": 3200,
      "Ġlearning": 3201,
      "Ġcontr": 3202,
      "iling": 3203,
      "Ġnine": 3204,
      "Ġindepend": 3205,
      "Ġvideo": 3206,
      "lement": 3207,
      "Ġplus": 3208,
      "Ġstrange": 3209,
      "Ġlearned": 3210,
      "Ġgroups": 3211,
      "Ġshan": 3212,
      "Ġdoubt": 3213,
      "iation": 3214,
      "Ġmail": 3215,
      "Ġnote": 3216,
      "Ġprove": 3217,
      "ech": 3218,
      "Ġbritain": 3219,
      "Ġpus": 3220,
      "Ġcit": 3221,
      "Ġhistor": 3222,
      "Ġsurve": 3223,
      "Ġpoints": 3224,
      "antly": 3225,
      "Ġregular": 3226,
      "Ġwashington": 3227,
      "aint": 3228,
      "Ġens": 3229,
      "Ġlaws": 3230,
      "Ġcommunity": 3231,
      "Ġperm": 3232,
      "Ġcru": 3233,
      "ounds": 3234,
      "Ġtemper": 3235,
      "Ġbirthday": 3236,
      "Ġwonderful": 3237,
      "chen": 3238,
      "Ġmarry": 3239,
      "Ġcareer": 3240,
      "Ġprotection": 3241,
      "Ġprevent": 3242,
      "Ġhappening": 3243,
      "Ġrussia": 3244,
      "Ġworst": 3245,
      "Ġchamp": 3246,
      "ips": 3247,
      "Ġelectric": 3248,
      "ino": 3249,
      "stairs": 3250,
      "Ġstrugg": 3251,
      "Ġgoods": 3252,
      "Ġdollars": 3253,
      "ulate": 3254,
      "Ġlack": 3255,
      "Ġafternoon": 3256,
      "Ġdar": 3257,
      "Ġsky": 3258,
      "Ġreported": 3259,
      "isc": 3260,
      "Ġpray": 3261,
      "Ġcrow": 3262,
      "Ġfinished": 3263,
      "Ġtro": 3264,
      "Ġwrote": 3265,
      "Ġancient": 3266,
      "Ġimmediately": 3267,
      "iced": 3268,
      "Ġdrunk": 3269,
      "Ġmix": 3270,
      "Ġtelevision": 3271,
      "Ġtele": 3272,
      "Ġresponsible": 3273,
      "Ġpu": 3274,
      "Ġthousands": 3275,
      "Ġconditions": 3276,
      "Ġcareful": 3277,
      "wor": 3278,
      "Ġtow": 3279,
      "Ġimpact": 3280,
      "Ġcomfortable": 3281,
      "Ġopportunity": 3282,
      "Ġfirms": 3283,
      "Ġult": 3284,
      "Ġdespite": 3285,
      "Ġeffic": 3286,
      "Ġofficer": 3287,
      "Ġkorea": 3288,
      "Ġtim": 3289,
      "aries": 3290,
      "Ġsaved": 3291,
      "Ġplayed": 3292,
      "Ġmeaning": 3293,
      "Ġdaddy": 3294,
      "Ġterrible": 3295,
      "hel": 3296,
      "ns": 3297,
      "Ġpowerful": 3298,
      "Ġsight": 3299,
      "Ġpregn": 3300,
      "ulous": 3301,
      "Ġreflect": 3302,
      "onstr": 3303,
      "Ġbrand": 3304,
      "Ġcongress": 3305,
      "Ġregard": 3306,
      "Ġtwice": 3307,
      "Ġindic": 3308,
      "hem": 3309,
      "Ġlevels": 3310,
      "Ġteach": 3311,
      "Ġwhoa": 3312,
      "asons": 3313,
      "Ġrace": 3314,
      "Ġstudies": 3315,
      "Ġagent": 3316,
      "Ġbasic": 3317,
      "Ġlog": 3318,
      "Ġfaith": 3319,
      "Ġhelping": 3320,
      "Ġsaving": 3321,
      "Ġterms": 3322,
      "Ġjew": 3323,
      "Ġborrow": 3324,
      "ev": 3325,
      "antic": 3326,
      "Ġbathroom": 3327,
      "Ġcurren": 3328,
      "Ġbattle": 3329,
      "Ġms": 3330,
      "rit": 3331,
      "Ġmoon": 3332,
      "Ġband": 3333,
      "Ġairport": 3334,
      "Ġelection": 3335,
      "Ġswim": 3336,
      "Ġapplication": 3337,
      "Ġforest": 3338,
      "Ġya": 3339,
      "Ġwritten": 3340,
      "Ġfreed": 3341,
      "Ġresist": 3342,
      "Ġadj": 3343,
      "Ġcode": 3344,
      "Ġagre": 3345,
      "mar": 3346,
      "Ġjail": 3347,
      "Ġtransport": 3348,
      "Ġkidding": 3349,
      "Ġcand": 3350,
      "Ġmission": 3351,
      "Ġleader": 3352,
      "Ġsusp": 3353,
      "Ġsout": 3354,
      "Ġquit": 3355,
      "Ġprefer": 3356,
      "Ġgermany": 3357,
      "Ġanimals": 3358,
      "Ġrestaurant": 3359,
      "Ġseat": 3360,
      "Ġadult": 3361,
      "asc": 3362,
      "ault": 3363,
      "Ġsac": 3364,
      "Ġvillage": 3365,
      "Ġleaves": 3366,
      "Ġsource": 3367,
      "Ġunc": 3368,
      "Ġreb": 3369,
      "Ġremains": 3370,
      "Ġasia": 3371,
      "Ġlikes": 3372,
      "Ġherself": 3373,
      "Ġanimal": 3374,
      "Ġcorrect": 3375,
      "Ġnotice": 3376,
      "Ġnames": 3377,
      "uary": 3378,
      "Ġsam": 3379,
      "Ġsymp": 3380,
      "Ġfile": 3381,
      "Ġprevious": 3382,
      "Ġgeorge": 3383,
      "Ġbow": 3384,
      "Ġopin": 3385,
      "gery": 3386,
      "Ġtool": 3387,
      "Ġselling": 3388,
      "Ġindeed": 3389,
      "bon": 3390,
      "Ġunion": 3391,
      "Ġvote": 3392,
      "Ġrent": 3393,
      "overed": 3394,
      "Ġprime": 3395,
      "Ġapart": 3396,
      "Ġclosed": 3397,
      "Ġinfluence": 3398,
      "Ġmemory": 3399,
      "Ġcities": 3400,
      "Ġblind": 3401,
      "Ġplanet": 3402,
      "ables": 3403,
      "Ġuns": 3404,
      "Ġbod": 3405,
      "Ġliked": 3406,
      "Ġmm": 3407,
      "Ġmicro": 3408,
      "Ġwaste": 3409,
      "Ġamericans": 3410,
      "Ġencour": 3411,
      "Ġparticularly": 3412,
      "bing": 3413,
      "Ġevil": 3414,
      "anced": 3415,
      "Ġclearly": 3416,
      "Ġadministration": 3417,
      "ray": 3418,
      "Ġincome": 3419,
      "Ġfrance": 3420,
      "Ġdump": 3421,
      "Ġapparent": 3422,
      "Ġdeveloped": 3423,
      "aven": 3424,
      "Ġsurprise": 3425,
      "Ġmort": 3426,
      "aded": 3427,
      "lled": 3428,
      "Ġbright": 3429,
      "Ġmark": 3430,
      "using": 3431,
      "Ġprint": 3432,
      "Ġgift": 3433,
      "Ġprem": 3434,
      "Ġbeer": 3435,
      "Ġfailed": 3436,
      "Ġfederal": 3437,
      "Ġtaiwan": 3438,
      "Ġpatter": 3439,
      "Ġcomplex": 3440,
      "Ġbeach": 3441,
      "back": 3442,
      "wood": 3443,
      "Ġlabor": 3444,
      "Ġapproach": 3445,
      "Ġreve": 3446,
      "Ġindustrial": 3447,
      "Ġcoast": 3448,
      "Ġdyn": 3449,
      "ctors": 3450,
      "Ġplenty": 3451,
      "akers": 3452,
      "aging": 3453,
      "Ġtransfer": 3454,
      "Ġcreated": 3455,
      "Ġstuck": 3456,
      "Ġupset": 3457,
      "Ġfif": 3458,
      "Ġfash": 3459,
      "iang": 3460,
      "the": 3461,
      "Ġhat": 3462,
      "Ġneck": 3463,
      "Ġcamera": 3464,
      "sec": 3465,
      "cies": 3466,
      "Ġspeech": 3467,
      "Ġmanager": 3468,
      "Ġmember": 3469,
      "Ġsleeping": 3470,
      "Ġappoint": 3471,
      "inct": 3472,
      "Ġmeasures": 3473,
      "ston": 3474,
      "Ġlocated": 3475,
      "Ġappreciate": 3476,
      "Ġwealth": 3477,
      "Ġpositive": 3478,
      "Ġgovernments": 3479,
      "Ġfired": 3480,
      "Ġmedicine": 3481,
      "hib": 3482,
      "Ġprofessional": 3483,
      "Ġresearc": 3484,
      "Ġtherefore": 3485,
      "Ġmountain": 3486,
      "Ġcouncil": 3487,
      "Ġkitchen": 3488,
      "Ġnerv": 3489,
      "Ġrelative": 3490,
      "af": 3491,
      "Ġvers": 3492,
      "Ġdomestic": 3493,
      "Ġrequest": 3494,
      "Ġeasily": 3495,
      "ius": 3496,
      "Ġphysical": 3497,
      "Ġfant": 3498,
      "Ġlots": 3499,
      "Ġeasier": 3500,
      "Ġarms": 3501,
      "lling": 3502,
      "Ġleading": 3503,
      "Ġcontent": 3504,
      "Ġpopulation": 3505,
      "Ġdivor": 3506,
      "Ġlake": 3507,
      "Ġreview": 3508,
      "Ġsnow": 3509,
      "rant": 3510,
      "Ġfamil": 3511,
      "Ġconfir": 3512,
      "Ġlosing": 3513,
      "Ġpicked": 3514,
      "Ġequip": 3515,
      "Ġmut": 3516,
      "Ġsettle": 3517,
      "Ġafford": 3518,
      "Ġconcept": 3519,
      "Ġcapt": 3520,
      "Ġexcell": 3521,
      "Ġreven": 3522,
      "Ġgh": 3523,
      "Ġfashion": 3524,
      "idents": 3525,
      "Ġnetwork": 3526,
      "Ġshoes": 3527,
      "Ġstrength": 3528,
      "Ġrepe": 3529,
      "Ġstructure": 3530,
      "Ġnort": 3531,
      "Ġnervous": 3532,
      "itation": 3533,
      "Ġintellig": 3534,
      "Ġcopy": 3535,
      "Ġvarious": 3536,
      "Ġinfect": 3537,
      "Ġcommercial": 3538,
      "mber": 3539,
      "Ġturns": 3540,
      "Ġbottom": 3541,
      "Ġapolog": 3542,
      "Ġeventually": 3543,
      "Ġfol": 3544,
      "Ġpig": 3545,
      "ss": 3546,
      "Ġparties": 3547,
      "Ġlargest": 3548,
      "adem": 3549,
      "iled": 3550,
      "Ġfeelings": 3551,
      "Ġoffers": 3552,
      "Ġadop": 3553,
      "house": 3554,
      "Ġclient": 3555,
      "Ġnewsp": 3556,
      "Ġdavid": 3557,
      "ivity": 3558,
      "Ġdistrib": 3559,
      "Ġgentlemen": 3560,
      "Ġempty": 3561,
      "Ġcultural": 3562,
      "Ġfavorite": 3563,
      "Ġsund": 3564,
      "Ġweapons": 3565,
      "ining": 3566,
      "Ġschools": 3567,
      "Ġrat": 3568,
      "Ġsurgery": 3569,
      "Ġweather": 3570,
      "Ġremind": 3571,
      "ulated": 3572,
      "Ġfamilies": 3573,
      "Ġflu": 3574,
      "Ġfinding": 3575,
      "Ġconduct": 3576,
      "arily": 3577,
      "Ġheat": 3578,
      "omm": 3579,
      "Ġfunds": 3580,
      "pir": 3581,
      "Ġproduc": 3582,
      "Ġcommitt": 3583,
      "Ġpromot": 3584,
      "Ġdrinking": 3585,
      "Ġcops": 3586,
      "Ġfeatures": 3587,
      "Ġcrack": 3588,
      "Ġinvestigation": 3589,
      "Ġcells": 3590,
      "Ġsched": 3591,
      "hol": 3592,
      "Ġonto": 3593,
      "Ġdaily": 3594,
      "aining": 3595,
      "Ġadmit": 3596,
      "hu": 3597,
      "Ġtaste": 3598,
      "icide": 3599,
      "Ġcute": 3600,
      "Ġlines": 3601,
      "sequ": 3602,
      "Ġacadem": 3603,
      "Ġactivity": 3604,
      "Ġfle": 3605,
      "Ġserve": 3606,
      "Ġrevolution": 3607,
      "vered": 3608,
      "Ġaverage": 3609,
      "Ġadvice": 3610,
      "Ġarab": 3611,
      "Ġacqu": 3612,
      "Ġmexic": 3613,
      "Ġimage": 3614,
      "Ġweapon": 3615,
      "agn": 3616,
      "Ġren": 3617,
      "Ġfreedom": 3618,
      "ex": 3619,
      "Ġalright": 3620,
      "Ġchan": 3621,
      "Ġblame": 3622,
      "riger": 3623,
      "Ġotherwise": 3624,
      "Ġsubst": 3625,
      "Ġrefriger": 3626,
      "istry": 3627,
      "rs": 3628,
      "Ġdip": 3629,
      "Ġbehavior": 3630,
      "Ġdying": 3631,
      "Ġoce": 3632,
      "Ġinnov": 3633,
      "Ġgreater": 3634,
      "Ġdecide": 3635,
      "Ġow": 3636,
      "ores": 3637,
      "Ġcorner": 3638,
      "Ġgri": 3639,
      "ov": 3640,
      "Ġmeat": 3641,
      "Ġintegr": 3642,
      "Ġflowers": 3643,
      "Ġtraffic": 3644,
      "Ġstrategy": 3645,
      "Ġrub": 3646,
      "Ġox": 3647,
      "Ġmart": 3648,
      "Ġcriminal": 3649,
      "Ġevents": 3650,
      "Ġimposs": 3651,
      "Ġmilk": 3652,
      "Ġfemale": 3653,
      "Ġafrica": 3654,
      "Ġpurpose": 3655,
      "Ġwow": 3656,
      "Ġoriginal": 3657,
      "dam": 3658,
      "Ġscientists": 3659,
      "ule": 3660,
      "oned": 3661,
      "osis": 3662,
      "Ġpulled": 3663,
      "Ġjournal": 3664,
      "Ġwalked": 3665,
      "Ġbudget": 3666,
      "Ġprior": 3667,
      "Ġlocation": 3668,
      "Ġemergency": 3669,
      "Ġcooper": 3670,
      "Ġtrial": 3671,
      "Ġcustomers": 3672,
      "Ġcow": 3673,
      "Ġclock": 3674,
      "Ġnan": 3675,
      "Ġpaying": 3676,
      "Ġparticip": 3677,
      "Ġcrowd": 3678,
      "Ġcounty": 3679,
      "Ġweekend": 3680,
      "Ġspeaking": 3681,
      "Ġreasons": 3682,
      "Ġlimited": 3683,
      "Ġreceived": 3684,
      "oke": 3685,
      "Ġfinger": 3686,
      "Ġec": 3687,
      "Ġneighbor": 3688,
      "overy": 3689,
      "Ġroo": 3690,
      "Ġpictures": 3691,
      "Ġinnoc": 3692,
      "Ġpage": 3693,
      "Ġequipment": 3694,
      "Ġexperiment": 3695,
      "Ġlic": 3696,
      "Ġrange": 3697,
      "Ġliqu": 3698,
      "Ġmel": 3699,
      "Ġbuying": 3700,
      "Ġjoint": 3701,
      "Ġpurs": 3702,
      "Ġmagic": 3703,
      "aled": 3704,
      "cket": 3705,
      "Ġpromised": 3706,
      "Ġagreement": 3707,
      "Ġnegot": 3708,
      "Ġphotograp": 3709,
      "Ġeffective": 3710,
      "Ġshr": 3711,
      "Ġtit": 3712,
      "Ġstaying": 3713,
      "Ġiran": 3714,
      "Ġconcerned": 3715,
      "Ġmaintain": 3716,
      "Ġbullet": 3717,
      "lies": 3718,
      "Ġunlike": 3719,
      "Ġfigured": 3720,
      "Ġconference": 3721,
      "Ġbother": 3722,
      "Ġdirector": 3723,
      "Ġhearing": 3724,
      "Ġthus": 3725,
      "Ġagreed": 3726,
      "Ġnations": 3727,
      "Ġtub": 3728,
      "Ġfollowed": 3729,
      "Ġheaven": 3730,
      "Ġreports": 3731,
      "Ġmac": 3732,
      "ghai": 3733,
      "Ġmethods": 3734,
      "Ġbridge": 3735,
      "old": 3736,
      "mon": 3737,
      "Ġachieve": 3738,
      "idered": 3739,
      "lation": 3740,
      "uted": 3741,
      "Ġclim": 3742,
      "asion": 3743,
      "Ġira": 3744,
      "Ġjan": 3745,
      "Ġhoping": 3746,
      "Ġhealthy": 3747,
      "Ġresearchers": 3748,
      "Ġbast": 3749,
      "Ġpolitics": 3750,
      "Ġclin": 3751,
      "Ġcrap": 3752,
      "Ġautom": 3753,
      "Ġhole": 3754,
      "Ġguar": 3755,
      "Ġpainting": 3756,
      "hou": 3757,
      "Ġimpossible": 3758,
      "Ġshower": 3759,
      "Ġfaster": 3760,
      "eak": 3761,
      "Ġparis": 3762,
      "Ġchallenge": 3763,
      "ica": 3764,
      "ously": 3765,
      "Ġconstit": 3766,
      "Ġrac": 3767,
      "Ġgay": 3768,
      "Ġhen": 3769,
      "Ġsuppose": 3770,
      "Ġdispl": 3771,
      "Ġhook": 3772,
      "Ġolder": 3773,
      "aches": 3774,
      "Ġdollar": 3775,
      "Ġshanghai": 3776,
      "Ġwinter": 3777,
      "Ġcitiz": 3778,
      "Ġforced": 3779,
      "Ġfrequ": 3780,
      "Ġindian": 3781,
      "Ġaware": 3782,
      "Ġresponsibility": 3783,
      "Ġcomplic": 3784,
      "Ġprovince": 3785,
      "Ġdeveloping": 3786,
      "Ġoccur": 3787,
      "Ġguarant": 3788,
      "do": 3789,
      "Ġzone": 3790,
      "Ġfuel": 3791,
      "Ġskills": 3792,
      "Ġunit": 3793,
      "Ġadvantage": 3794,
      "Ġitem": 3795,
      "Ġfriendly": 3796,
      "Ġdepress": 3797,
      "Ġweb": 3798,
      "Ġsports": 3799,
      "Ġmagn": 3800,
      "Ġbelow": 3801,
      "Ġlistening": 3802,
      "Ġtechni": 3803,
      "Ġchecked": 3804,
      "Ġbeauty": 3805,
      "Ġcontrib": 3806,
      "Ġtherap": 3807,
      "oon": 3808,
      "Ġourselves": 3809,
      "iety": 3810,
      "Ġhungry": 3811,
      "Ġpin": 3812,
      "Ġlift": 3813,
      "Ġmarch": 3814,
      "Ġdirectly": 3815,
      "Ġcompliment": 3816,
      "ocol": 3817,
      "cast": 3818,
      "Ġexperien": 3819,
      "Ġhom": 3820,
      "Ġpartners": 3821,
      "Ġhighly": 3822,
      "Ġdreams": 3823,
      "Ġscale": 3824,
      "Ġactivities": 3825,
      "Ġraised": 3826,
      "Ġsurprised": 3827,
      "Ġquarter": 3828,
      "Ġsuccessful": 3829,
      "Ġopened": 3830,
      "Ġrespond": 3831,
      "Ġdow": 3832,
      "Ġseconds": 3833,
      "Ġdropped": 3834,
      "Ġgang": 3835,
      "ham": 3836,
      "Ġconsidered": 3837,
      "Ġduty": 3838,
      "Ġdesigned": 3839,
      "ao": 3840,
      "Ġaim": 3841,
      "Ġagency": 3842,
      "Ġdriver": 3843,
      "Ġcommittee": 3844,
      "Ġgarden": 3845,
      "Ġcurrency": 3846,
      "Ġauthorities": 3847,
      "Ġprofessor": 3848,
      "raft": 3849,
      "Ġstories": 3850,
      "Ġilleg": 3851,
      "Ġpurch": 3852,
      "Ġiraq": 3853,
      "Ġsin": 3854,
      "Ġkeeps": 3855,
      "Ġsmoke": 3856,
      "oses": 3857,
      "Ġbrown": 3858,
      "Ġrecomm": 3859,
      "Ġcheap": 3860,
      "Ġtreas": 3861,
      "Ġorders": 3862,
      "ipe": 3863,
      "Ġstorm": 3864,
      "Ġodd": 3865,
      "iles": 3866,
      "Ġbecoming": 3867,
      "Ġmuse": 3868,
      "Ġber": 3869,
      "Ġbust": 3870,
      "Ġchanging": 3871,
      "Ġeffort": 3872,
      "Ġholiday": 3873,
      "Ġ`": 3874,
      "Ġacting": 3875,
      "Ġjustice": 3876,
      "Ġprincip": 3877,
      "Ġprofit": 3878,
      "Ġrussian": 3879,
      "Ġprepared": 3880,
      "ties": 3881,
      "Ġenvironmental": 3882,
      "Ġbesides": 3883,
      "zen": 3884,
      "Ġstars": 3885,
      "Ġgoal": 3886,
      "Ġtun": 3887,
      "Ġefforts": 3888,
      "Ġcos": 3889,
      "Ġrail": 3890,
      "Ġestablish": 3891,
      "Ġtoward": 3892,
      "iam": 3893,
      "Ġbalance": 3894,
      "Ġsurface": 3895,
      "Ġvent": 3896,
      "Ġsector": 3897,
      "Ġrough": 3898,
      "Ġrapid": 3899,
      "Ġaustral": 3900,
      "Ġseries": 3901,
      "Ġexcellent": 3902,
      "Ġdefense": 3903,
      "Ġtrees": 3904,
      "Ġhyd": 3905,
      "Ġrefrigerator": 3906,
      "Ġforgive": 3907,
      "ada": 3908,
      "Ġcongr": 3909,
      "erves": 3910,
      "Ġpiss": 3911,
      "Ġthousand": 3912,
      "Ġopinion": 3913,
      "Ġhill": 3914,
      "ashed": 3915,
      "Ġproced": 3916,
      "Ġescape": 3917,
      "Ġopening": 3918,
      "isation": 3919,
      "Ġcritic": 3920,
      "Ġloves": 3921,
      "Ġshock": 3922,
      "Ġunf": 3923,
      "Ġeggs": 3924,
      "Ġdistrict": 3925,
      "Ġcorporate": 3926,
      "Ġbrief": 3927,
      "Ġapply": 3928,
      "Ġqual": 3929,
      "la": 3930,
      "Ġemployees": 3931,
      "Ġlif": 3932,
      "Ġmeasure": 3933,
      "Ġeverywhere": 3934,
      "Ġbedroom": 3935,
      "Ġexpensive": 3936,
      "Ġstone": 3937,
      "Ġscen": 3938,
      "Ġdomin": 3939,
      "eding": 3940,
      "Ġcommission": 3941,
      "Ġsenior": 3942,
      "Ġwis": 3943,
      "Ġmale": 3944,
      "Ġenemy": 3945,
      "Ġconven": 3946,
      "lict": 3947,
      "Ġturning": 3948,
      "rom": 3949,
      "Ġmama": 3950,
      "Ġended": 3951,
      "Ġpolitic": 3952,
      "Ġbodies": 3953,
      "anch": 3954,
      "Ġpoison": 3955,
      "Ġdece": 3956,
      "Ġcircum": 3957,
      "Ġlatest": 3958,
      "Ġdogs": 3959,
      "Ġsmile": 3960,
      "Ġsatis": 3961,
      "Ġfriday": 3962,
      "Ġwire": 3963,
      "Ġslight": 3964,
      "Ġdetail": 3965,
      "hetic": 3966,
      "Ġproduce": 3967,
      "Ġdelic": 3968,
      "Ġrecords": 3969,
      "Ġdetails": 3970,
      "Ġguil": 3971,
      "Ġapple": 3972,
      "fered": 3973,
      "Ġcandid": 3974,
      "Ġhardly": 3975,
      "Ġplants": 3976,
      "Ġincludes": 3977,
      "Ġdetective": 3978,
      "Ġsuck": 3979,
      "Ġinspect": 3980,
      "lom": 3981,
      "ught": 3982,
      "Ġrising": 3983,
      "Ġlovely": 3984,
      "Ġdirection": 3985,
      "Ġborder": 3986,
      "iliar": 3987,
      "Ġfi": 3988,
      "ounded": 3989,
      "onse": 3990,
      "apt": 3991,
      "Ġbeg": 3992,
      "Ġauthority": 3993,
      "eless": 3994,
      "hest": 3995,
      "Ġcovered": 3996,
      "Ġvirt": 3997,
      "Ġreality": 3998,
      "Ġocean": 3999,
      "Ġcoal": 4000,
      "Ġsetting": 4001,
      "Ġmax": 4002,
      "ropri": 4003,
      "Ġarrived": 4004,
      "Ġdemonstr": 4005,
      "Ġowe": 4006,
      "Ġfailure": 4007,
      "Ġcalif": 4008,
      "Ġpleasure": 4009,
      "Ġconversation": 4010,
      "Ġassum": 4011,
      "Ġidiot": 4012,
      "Ġbelieved": 4013,
      "Ġconcent": 4014,
      "Ġhid": 4015,
      "Ġcloser": 4016,
      "Ġchemical": 4017,
      "Ġmuseum": 4018,
      "book": 4019,
      "Ġurban": 4020,
      "ok": 4021,
      "Ġder": 4022,
      "Ġreduce": 4023,
      "Ġmovement": 4024,
      "Ġmyster": 4025,
      "Ġvictims": 4026,
      "Ġstatus": 4027,
      "arrass": 4028,
      "Ġbecomes": 4029,
      "Ġengland": 4030,
      "road": 4031,
      "Ġconserv": 4032,
      "Ġprotest": 4033,
      "Ġspoke": 4034,
      "Ġhundreds": 4035,
      "gues": 4036,
      "mer": 4037,
      "asty": 4038,
      "Ġapparently": 4039,
      "Ġembarrass": 4040,
      "Ġafgh": 4041,
      "Ġtrend": 4042,
      "Ġsquare": 4043,
      "Ġnegoti": 4044,
      "Ġfalling": 4045,
      "Ġresponse": 4046,
      "Ġdoctors": 4047,
      "Ġgrown": 4048,
      "Ġticket": 4049,
      "Ġbasis": 4050,
      "ship": 4051,
      "Ġbringing": 4052,
      "Ġguilty": 4053,
      "Ġscientific": 4054,
      "Ġfootball": 4055,
      "Ġinch": 4056,
      "Ġsurr": 4057,
      "Ġpregnant": 4058,
      "uly": 4059,
      "Ġcloud": 4060,
      "Ġbreath": 4061,
      "while": 4062,
      "Ġtalks": 4063,
      "Ġexpand": 4064,
      "Ġheads": 4065,
      "za": 4066,
      "Ġdeliver": 4067,
      "ctions": 4068,
      "Ġpill": 4069,
      "Ġunique": 4070,
      "Ġdepos": 4071,
      "Ġfactors": 4072,
      "Ġshooting": 4073,
      "Ġdescrib": 4074,
      "Ġmatters": 4075,
      "Ġba": 4076,
      "ript": 4077,
      "Ġeval": 4078,
      "ading": 4079,
      "Ġbure": 4080,
      "Ġjoke": 4081,
      "arian": 4082,
      "Ġfully": 4083,
      "Ġexercise": 4084,
      "Ġcongrat": 4085,
      "ox": 4086,
      "Ġsexual": 4087,
      "Ġelectron": 4088,
      "lymp": 4089,
      "Ġshopping": 4090,
      "iven": 4091,
      "Ġtask": 4092,
      "Ġhyp": 4093,
      "Ġbell": 4094,
      "ram": 4095,
      "Ġcaliforn": 4096,
      "Ġcho": 4097,
      "rate": 4098,
      "Ġbenefit": 4099,
      "Ġfal": 4100,
      "Ġmultip": 4101,
      "Ġdirty": 4102,
      "Ġnose": 4103,
      "Ġcommit": 4104,
      "Ġprovided": 4105,
      "Ġlies": 4106,
      "Ġolymp": 4107,
      "iant": 4108,
      "Ġunp": 4109,
      "Ġplat": 4110,
      "Ġsunday": 4111,
      "Ġlegs": 4112,
      "illy": 4113,
      "Ġsouthern": 4114,
      "Ġaltern": 4115,
      "Ġsigns": 4116,
      "Ġunderstanding": 4117,
      "Ġghost": 4118,
      "night": 4119,
      "Ġpossibly": 4120,
      "ender": 4121,
      "Ġlibr": 4122,
      "Ġoffered": 4123,
      "illed": 4124,
      "Ġnovel": 4125,
      "rences": 4126,
      "uate": 4127,
      "urt": 4128,
      "Ġbunch": 4129,
      "Ġshift": 4130,
      "Ġsoldiers": 4131,
      "Ġmond": 4132,
      "Ġsecretary": 4133,
      "Ġafghan": 4134,
      "Ġinflation": 4135,
      "Ġnegative": 4136,
      "board": 4137,
      "Ġrelease": 4138,
      "inal": 4139,
      "ulf": 4140,
      "Ġpil": 4141,
      "Ġseparate": 4142,
      "Ġpaul": 4143,
      "Ġbound": 4144,
      "Ġmostly": 4145,
      "Ġrequired": 4146,
      "Ġflying": 4147,
      "Ġassets": 4148,
      "Ġbread": 4149,
      "Ġclimate": 4150,
      "inc": 4151,
      "essed": 4152,
      "Ġguns": 4153,
      "Ġlocked": 4154,
      "Ġjun": 4155,
      "usion": 4156,
      "Ġscar": 4157,
      "bby": 4158,
      "Ġbang": 4159,
      "lig": 4160,
      "Ġmich": 4161,
      "aped": 4162,
      "Ġgeneration": 4163,
      "Ġstole": 4164,
      "Ġtape": 4165,
      "Ġwhom": 4166,
      "Ġpropos": 4167,
      "Ġbenefits": 4168,
      "Ġbusinesses": 4169,
      "Ġfactory": 4170,
      "Ġagric": 4171,
      "Ġpak": 4172,
      "down": 4173,
      "Ġaid": 4174,
      "esome": 4175,
      "Ġnamed": 4176,
      "Ġshowing": 4177,
      "ott": 4178,
      "Ġharder": 4179,
      "craft": 4180,
      "Ġgy": 4181,
      "Ġgoddam": 4182,
      "Ġagricult": 4183,
      "Ġregul": 4184,
      "Ġprepare": 4185,
      "Ġinnocent": 4186,
      "Ġrare": 4187,
      "Ġfamiliar": 4188,
      "Ġcarbon": 4189,
      "erved": 4190,
      "rol": 4191,
      "Ġsatur": 4192,
      "Ġremo": 4193,
      "Ġbeds": 4194,
      "Ġregist": 4195,
      "mes": 4196,
      "Ġstatement": 4197,
      "Ġadjust": 4198,
      "gen": 4199,
      "time": 4200,
      "Ġmood": 4201,
      "Ġcalifornia": 4202,
      "Ġconflict": 4203,
      "Ġcart": 4204,
      "Ġspecies": 4205,
      "iest": 4206,
      "Ġadvert": 4207,
      "Ġadded": 4208,
      "Ġdeserve": 4209,
      "Ġorganization": 4210,
      "Ġchicken": 4211,
      "reg": 4212,
      "Ġmaterials": 4213,
      "Ġgotten": 4214,
      "Ġscream": 4215,
      "Ġtall": 4216,
      "Ġowned": 4217,
      "osop": 4218,
      "Ġparking": 4219,
      "Ġappears": 4220,
      "Ġâ": 4221,
      "Ġlights": 4222,
      "Ġaddition": 4223,
      "orary": 4224,
      "Ġimplement": 4225,
      "Ġfro": 4226,
      "Ġcards": 4227,
      "Ġbarely": 4228,
      "Ġconfidence": 4229,
      "Ġveget": 4230,
      "ana": 4231,
      "Ġexit": 4232,
      "Ġcentre": 4233,
      "Ġegy": 4234,
      "Ġegypt": 4235,
      "Ġadministr": 4236,
      "Ġpredict": 4237,
      "ĠâĢ": 4238,
      "Ġlone": 4239,
      "Ġsigned": 4240,
      "Ġstreets": 4241,
      "Ġrot": 4242,
      "Ġpants": 4243,
      "Ġseed": 4244,
      "Ġextremely": 4245,
      "Ġdistance": 4246,
      "Ġbon": 4247,
      "Ġsignificant": 4248,
      "Ġexcited": 4249,
      "Ġphilosop": 4250,
      "sts": 4251,
      "Ġconclus": 4252,
      "levant": 4253,
      "ils": 4254,
      "Ġmillions": 4255,
      "Ġfilled": 4256,
      "Ġmicrow": 4257,
      "Ġrose": 4258,
      "Ġwaff": 4259,
      "Ġseek": 4260,
      "Ġtiny": 4261,
      "Ġtaught": 4262,
      "Ġfixed": 4263,
      "aching": 4264,
      "how": 4265,
      "Ġholy": 4266,
      "Ġensure": 4267,
      "Ġstrike": 4268,
      "lam": 4269,
      "Ġknowing": 4270,
      "Ġcoup": 4271,
      "uts": 4272,
      "Ġpakistan": 4273,
      "Ġstab": 4274,
      "Ġpolicies": 4275,
      "Ġdownt": 4276,
      "Ġmommy": 4277,
      "Ġmobile": 4278,
      "Ġmonday": 4279,
      "Ġfinance": 4280,
      "orter": 4281,
      "Ġprojects": 4282,
      "Ġash": 4283,
      "Ġven": 4284,
      "Ġtrading": 4285,
      "Ġgreatest": 4286,
      "Ġthoughts": 4287,
      "Ġdegree": 4288,
      "Ġbrothers": 4289,
      "Ġsust": 4290,
      "Ġaband": 4291,
      "Ġmaker": 4292,
      "Ġtransform": 4293,
      "Ġdial": 4294,
      "Ġgrew": 4295,
      "Ġenterprise": 4296,
      "Ġfest": 4297,
      "Ġmere": 4298,
      "Ġgal": 4299,
      "Ġshape": 4300,
      "Ġcrew": 4301,
      "Ġgrant": 4302,
      "Ġinterests": 4303,
      "Ġtruly": 4304,
      "aph": 4305,
      "Ġrecognize": 4306,
      "Ġreturned": 4307,
      "Ġdiscovered": 4308,
      "Ġstom": 4309,
      "Ġfellow": 4310,
      "Ġdiplom": 4311,
      "cue": 4312,
      "Ġminim": 4313,
      "Ġsmaller": 4314,
      "Ġsteps": 4315,
      "Ġhiding": 4316,
      "Ġflood": 4317,
      "bb": 4318,
      "Ġoffering": 4319,
      "Ġasian": 4320,
      "ara": 4321,
      "Ġreached": 4322,
      "Ġbottle": 4323,
      "oles": 4324,
      "Ġdu": 4325,
      "Ġjoy": 4326,
      "Ġcoach": 4327,
      "Ġjim": 4328,
      "Ġcontain": 4329,
      "Ġsoftware": 4330,
      "Ġhelps": 4331,
      "Ġphoto": 4332,
      "Ġloud": 4333,
      "Ġmotor": 4334,
      "Ġincreased": 4335,
      "hole": 4336,
      "Ġspect": 4337,
      "Ġincred": 4338,
      "Ġdepend": 4339,
      "Ġlimit": 4340,
      "Ġmum": 4341,
      "Ġcompar": 4342,
      "Ġwarning": 4343,
      "Ġdressed": 4344,
      "Ġcomplimentary": 4345,
      "Ġbraz": 4346,
      "nam": 4347,
      "Ġstim": 4348,
      "Ġawesome": 4349,
      "Ġpure": 4350,
      "Ġupstairs": 4351,
      "atell": 4352,
      "Ġarrange": 4353,
      "Ġplayer": 4354,
      "place": 4355,
      "Ġincreasingly": 4356,
      "Ġbush": 4357,
      "rep": 4358,
      "Ġstandards": 4359,
      "Ġgiant": 4360,
      "ses": 4361,
      "Ġlux": 4362,
      "Ġmeanwhile": 4363,
      "Ġpapers": 4364,
      "Ġmap": 4365,
      "Ġconsequ": 4366,
      "Ġhadn": 4367,
      "Ġcarried": 4368,
      "Ġlou": 4369,
      "umn": 4370,
      "Ġbat": 4371,
      "Ġsuperv": 4372,
      "Ġquant": 4373,
      "Ġsubs": 4374,
      "Ġaug": 4375,
      "Ġsymb": 4376,
      "Ġrum": 4377,
      "Ġbreaking": 4378,
      "Ġgall": 4379,
      "rer": 4380,
      "Ġmagaz": 4381,
      "Ġyellow": 4382,
      "acious": 4383,
      "Ġexperts": 4384,
      "Ġtests": 4385,
      "izes": 4386,
      "Ġnick": 4387,
      "Ġteeth": 4388,
      "fortun": 4389,
      "force": 4390,
      "Ġgoddamn": 4391,
      "Ġviolence": 4392,
      "Ġdesert": 4393,
      "Ġmicrowave": 4394,
      "oh": 4395,
      "Ġoccup": 4396,
      "Ġnorthern": 4397,
      "Ġmeal": 4398,
      "Ġsurvive": 4399,
      "Ġdancing": 4400,
      "Ġdescri": 4401,
      "Ġspan": 4402,
      "leep": 4403,
      "Ġinstall": 4404,
      "Ġbuff": 4405,
      "Ġinsist": 4406,
      "Ġcharges": 4407,
      "Ġcutting": 4408,
      "lied": 4409,
      "Ġyield": 4410,
      "ager": 4411,
      "rated": 4412,
      "Ġexplos": 4413,
      "Ġfaces": 4414,
      "ipping": 4415,
      "Ġproof": 4416,
      "Ġsignal": 4417,
      "Ġug": 4418,
      "Ġcomment": 4419,
      "Ġdick": 4420,
      "Ġowners": 4421,
      "Ġcrying": 4422,
      "Ġcream": 4423,
      "Ġwet": 4424,
      "Ġfreak": 4425,
      "Ġdocument": 4426,
      "Ġroute": 4427,
      "Ġsharp": 4428,
      "Ġarrested": 4429,
      "Ġchap": 4430,
      "Ġillegal": 4431,
      "Ġdust": 4432,
      "otic": 4433,
      "Ġnoticed": 4434,
      "Ġwhoever": 4435,
      "Ġcig": 4436,
      "Ġwheel": 4437,
      "Ġgenerally": 4438,
      "Ġincluded": 4439,
      "Ġwondering": 4440,
      "Ġstood": 4441,
      "ero": 4442,
      "Ġsale": 4443,
      "Ġthroughout": 4444,
      "ein": 4445,
      "Ġyog": 4446,
      "Ġcustomer": 4447,
      "Ġcore": 4448,
      "ago": 4449,
      "Ġcircumst": 4450,
      "Ġsugar": 4451,
      "Ġdiss": 4452,
      "Ġdim": 4453,
      "Ġknife": 4454,
      "iveness": 4455,
      "Ġsides": 4456,
      "Ġsolid": 4457,
      "Ġhanging": 4458,
      "Ġvision": 4459,
      "Ġalt": 4460,
      "Ġtechnical": 4461,
      "Ġcock": 4462,
      "hens": 4463,
      "Ġtoil": 4464,
      "Ġshirt": 4465,
      "Ġminor": 4466,
      "Ġdefic": 4467,
      "bert": 4468,
      "Ġbudd": 4469,
      "Ġfake": 4470,
      "uous": 4471,
      "Ġuniverse": 4472,
      "ula": 4473,
      "Ġdivorce": 4474,
      "Ġliquid": 4475,
      "iring": 4476,
      "Ġunfortun": 4477,
      "Ġtab": 4478,
      "uries": 4479,
      "Ġcompared": 4480,
      "Ġcharacteristics": 4481,
      "acity": 4482,
      "Ġexecutive": 4483,
      "ios": 4484,
      "Ġasleep": 4485,
      "Ġdemocratic": 4486,
      "Ġtong": 4487,
      "Ġbone": 4488,
      "Ġmos": 4489,
      "Ġthin": 4490,
      "Ġsolution": 4491,
      "ato": 4492,
      "Ġinternal": 4493,
      "Ġedge": 4494,
      "encies": 4495,
      "Ġstarts": 4496,
      "Ġbid": 4497,
      "Ġjoe": 4498,
      "Ġsaturday": 4499,
      "Ġken": 4500,
      "Ġsees": 4501,
      "Ġalco": 4502,
      "Ġfisc": 4503,
      "Ġsatell": 4504,
      "nic": 4505,
      "Ġordered": 4506,
      "Ġobjective": 4507,
      "Ġhouses": 4508,
      "pan": 4509,
      "Ġruns": 4510,
      "Ġwaffles": 4511,
      "Ġnic": 4512,
      "Ġregret": 4513,
      "Ġsept": 4514,
      "heart": 4515,
      "Ġsending": 4516,
      "Ġfab": 4517,
      "cher": 4518,
      "Ġactual": 4519,
      "Ġbail": 4520,
      "bi": 4521,
      "hicle": 4522,
      "Ġrice": 4523,
      "Ġmexico": 4524,
      "Ġbrazil": 4525,
      "ques": 4526,
      "Ġtells": 4527,
      "Ġreleased": 4528,
      "Ġoct": 4529,
      "Ġvehicle": 4530,
      "Ġdumb": 4531,
      "Ġheaded": 4532,
      "ancy": 4533,
      "Ġplanned": 4534,
      "rif": 4535,
      "Ġcollea": 4536,
      "Ġconsumers": 4537,
      "Ġuk": 4538,
      "Ġconscious": 4539,
      "Ġmate": 4540,
      "Ġbirds": 4541,
      "Ġgate": 4542,
      "Ġreplace": 4543,
      "Ġcub": 4544,
      "Ġdisappoint": 4545,
      "Ġconsumer": 4546,
      "ael": 4547,
      "Ġintelligence": 4548,
      "Ġought": 4549,
      "Ġserved": 4550,
      "Ġalcohol": 4551,
      "Ġsection": 4552,
      "aret": 4553,
      "Ġfurn": 4554,
      "Ġdecisions": 4555,
      "zed": 4556,
      "Ġyo": 4557,
      "gas": 4558,
      "Ġcalc": 4559,
      "Ġconnection": 4560,
      "Ġentertain": 4561,
      "Ġsymbol": 4562,
      "Ġestate": 4563,
      "Ġkinds": 4564,
      "Ġtie": 4565,
      "itect": 4566,
      "eter": 4567,
      "Ġswitch": 4568,
      "Ġpac": 4569,
      "Ġstret": 4570,
      "omed": 4571,
      "Ġcert": 4572,
      "anda": 4573,
      "Ġexport": 4574,
      "Ġdefend": 4575,
      "Ġspr": 4576,
      "Ġarchitect": 4577,
      "Ġdepart": 4578,
      "Ġatm": 4579,
      "Ġuseful": 4580,
      "Ġfavour": 4581,
      "Ġbanking": 4582,
      "ciple": 4583,
      "Ġtroops": 4584,
      "Ġpump": 4585,
      "omy": 4586,
      "Ġactive": 4587,
      "Ġlaunch": 4588,
      "phone": 4589,
      "Ġdealing": 4590,
      "field": 4591,
      "iculous": 4592,
      "Ġeconomies": 4593,
      "action": 4594,
      "Ġchain": 4595,
      "Ġlabour": 4596,
      "Ġplayers": 4597,
      "Ġends": 4598,
      "Ġclients": 4599,
      "Ġpublished": 4600,
      "Ġdisappear": 4601,
      "gent": 4602,
      "Ġsevere": 4603,
      "Ġsplit": 4604,
      "Ġindependent": 4605,
      "Ġsuggests": 4606,
      "Ġletters": 4607,
      "Ġcommunication": 4608,
      "Ġreceive": 4609,
      "Ġbackground": 4610,
      "Ġarmed": 4611,
      "Ġnewspaper": 4612,
      "orters": 4613,
      "ille": 4614,
      "Ġoptim": 4615,
      "Ġnar": 4616,
      "Ġjune": 4617,
      "Ġlied": 4618,
      "uing": 4619,
      "Ġhomes": 4620,
      "Ġrealized": 4621,
      "Ġvirgin": 4622,
      "Ġyouth": 4623,
      "Ġcongratulations": 4624,
      "zing": 4625,
      "ealous": 4626,
      "Ġbastard": 4627,
      "Ġchest": 4628,
      "Ġpretend": 4629,
      "ropriate": 4630,
      "Ġmovies": 4631,
      "Ġhousing": 4632,
      "Ġnotes": 4633,
      "Ġdiagn": 4634,
      "onic": 4635,
      "Ġwash": 4636,
      "Ġbutt": 4637,
      "Ġoverse": 4638,
      "Ġemerging": 4639,
      "Ġrisks": 4640,
      "ford": 4641,
      "Ġletting": 4642,
      "Ġmoral": 4643,
      "Ġbay": 4644,
      "Ġreject": 4645,
      "Ġpieces": 4646,
      "Ġbrings": 4647,
      "bur": 4648,
      "ipp": 4649,
      "Ġpoly": 4650,
      "Ġreligious": 4651,
      "iform": 4652,
      "Ġpowers": 4653,
      "Ġshown": 4654,
      "Ġteen": 4655,
      "Ġthrew": 4656,
      "Ġconsult": 4657,
      "Ġlarger": 4658,
      "Ġinstitutions": 4659,
      "Ġroof": 4660,
      "Ġshad": 4661,
      "aine": 4662,
      "Ġassign": 4663,
      "Ġgather": 4664,
      "Ġstomach": 4665,
      "Ġflag": 4666,
      "Ġtickets": 4667,
      "Ġdesper": 4668,
      "Ġyoun": 4669,
      "Ġlit": 4670,
      "Ġeh": 4671,
      "Ġtalent": 4672,
      "Ġcuts": 4673,
      "Ġwinning": 4674,
      "Ġtreated": 4675,
      "under": 4676,
      "ruption": 4677,
      "Ġgrass": 4678,
      "Ġdiet": 4679,
      "Ġgrade": 4680,
      "Ġcarrying": 4681,
      "Ġsuicide": 4682,
      "Ġlegis": 4683,
      "Ġsof": 4684,
      "iency": 4685,
      "Ġtroub": 4686,
      "Ġsake": 4687,
      "Ġsher": 4688,
      "well": 4689,
      "Ġfiscal": 4690,
      "Ġvall": 4691,
      "Ġteachers": 4692,
      "Ġpoliticians": 4693,
      "inated": 4694,
      "Ġregional": 4695,
      "Ġbuildings": 4696,
      "acle": 4697,
      "Ġjealous": 4698,
      "Ġkorean": 4699,
      "Ġelev": 4700,
      "hered": 4701,
      "Ġunderst": 4702,
      "Ġannounced": 4703,
      "put": 4704,
      "Ġwatched": 4705,
      "Ġbasket": 4706,
      "Ġpeter": 4707,
      "Ġkeys": 4708,
      "Ġcauses": 4709,
      "Ġappeal": 4710,
      "ril": 4711,
      "pet": 4712,
      "imately": 4713,
      "Ġattempt": 4714,
      "Ġoperations": 4715,
      "uten": 4716,
      "Ġcake": 4717,
      "Ġded": 4718,
      "Ġfacilities": 4719,
      "Ġcontemp": 4720,
      "Ġapologize": 4721,
      "Ġdare": 4722,
      "uesday": 4723,
      "Ġjuly": 4724,
      "Ġpair": 4725,
      "Ġpocket": 4726,
      "Ġtuesday": 4727,
      "Ġmanaged": 4728,
      "Ġtaxes": 4729,
      "Ġtex": 4730,
      "Ġrelevant": 4731,
      "Ġdrinks": 4732,
      "Ġconsist": 4733,
      "Ġprinciple": 4734,
      "Ġrecovery": 4735,
      "Ġfourth": 4736,
      "Ġfer": 4737,
      "han": 4738,
      "Ġcitizens": 4739,
      "Ġfranc": 4740,
      "Ġconfident": 4741,
      "resp": 4742,
      "ald": 4743,
      "Ġchocol": 4744,
      "Ġsilver": 4745,
      "Ġinvited": 4746,
      "Ġoptions": 4747,
      "Ġyounger": 4748,
      "lor": 4749,
      "Ġdism": 4750,
      "Ġbrill": 4751,
      "Ġperfectly": 4752,
      "Ġstro": 4753,
      "Ġitaly": 4754,
      "Ġdisplay": 4755,
      "mit": 4756,
      "Ġrefer": 4757,
      "Ġtan": 4758,
      "Ġheading": 4759,
      "Ġlas": 4760,
      "Ġgoodby": 4761,
      "Ġmary": 4762,
      "Ġboost": 4763,
      "gment": 4764,
      "Ġusual": 4765,
      "Ġlibrary": 4766,
      "Ġattend": 4767,
      "Ġestablished": 4768,
      "zhou": 4769,
      "Ġbloody": 4770,
      "Ġmountains": 4771,
      "Ġrestrict": 4772,
      "Ġmig": 4773,
      "Ġsoil": 4774,
      "Ġstayed": 4775,
      "Ġenterprises": 4776,
      "ervation": 4777,
      "Ġprospect": 4778,
      "Ġhumans": 4779,
      "Ġchic": 4780,
      "Ġcreating": 4781,
      "uls": 4782,
      "Ġhighway": 4783,
      "Ġsinging": 4784,
      "Ġcomplicated": 4785,
      "Ġmental": 4786,
      "Ġneighborhood": 4787,
      "Ġliver": 4788,
      "Ġcrash": 4789,
      "iance": 4790,
      "Ġdefe": 4791,
      "Ġsecure": 4792,
      "Ġslowly": 4793,
      "Ġsuffer": 4794,
      "Ġyep": 4795,
      "Ġlaid": 4796,
      "Ġgain": 4797,
      "Ġdating": 4798,
      "ka": 4799,
      "Ġuses": 4800,
      "Ġmc": 4801,
      "Ġforms": 4802,
      "Ġremove": 4803,
      "Ġconvin": 4804,
      "Ġrescue": 4805,
      "Ġassume": 4806,
      "Ġacid": 4807,
      "employ": 4808,
      "Ġbonds": 4809,
      "off": 4810,
      "Ġcro": 4811,
      "ception": 4812,
      "Ġclaims": 4813,
      "Ġannual": 4814,
      "iy": 4815,
      "Ġcharl": 4816,
      "bor": 4817,
      "rel": 4818,
      "Ġstol": 4819,
      "Ġfiles": 4820,
      "ae": 4821,
      "Ġpunish": 4822,
      "Ġentirely": 4823,
      "Ġsport": 4824,
      "Ġeastern": 4825,
      "Ġattacks": 4826,
      "Ġpackage": 4827,
      "Ġsant": 4828,
      "Ġhopes": 4829,
      "Ġcheer": 4830,
      "Ġdecades": 4831,
      "Ġsteel": 4832,
      "Ġdemocracy": 4833,
      "Ġnoise": 4834,
      "Ġaspect": 4835,
      "Ġrab": 4836,
      "Ġmini": 4837,
      "Ġloose": 4838,
      "Ġtail": 4839,
      "Ġentr": 4840,
      "Ġunemploy": 4841,
      "Ġatmosp": 4842,
      "rene": 4843,
      "Ġrand": 4844,
      "Ġwang": 4845,
      "Ġboom": 4846,
      "Ġasse": 4847,
      "Ġadvanced": 4848,
      "Ġmainly": 4849,
      "mine": 4850,
      "Ġofficers": 4851,
      "Ġwave": 4852,
      "Ġfigures": 4853,
      "Ġgor": 4854,
      "Ġconcerns": 4855,
      "ront": 4856,
      "Ġtap": 4857,
      "Ġusers": 4858,
      "Ġsomehow": 4859,
      "Ġmentioned": 4860,
      "Ġkim": 4861,
      "Ġdigital": 4862,
      "Ġfishing": 4863,
      "Ġattor": 4864,
      "Ġmand": 4865,
      "Ġkar": 4866,
      "Ġopposition": 4867,
      "Ġsurvey": 4868,
      "Ġprovides": 4869,
      "Ġtypes": 4870,
      "Ġpattern": 4871,
      "oration": 4872,
      "has": 4873,
      "Ġcurrently": 4874,
      "ache": 4875,
      "Ġgoog": 4876,
      "Ġmoves": 4877,
      "Ġanswers": 4878,
      "Ġgoodbye": 4879,
      "cel": 4880,
      "Ġcommod": 4881,
      "Ġtradition": 4882,
      "Ġroyal": 4883,
      "Ġgolf": 4884,
      "Ġsuite": 4885,
      "Ġprimary": 4886,
      "Ġrelatively": 4887,
      "oted": 4888,
      "ours": 4889,
      "Ġwol": 4890,
      "Ġislam": 4891,
      "Ġdarling": 4892,
      "Ġhabit": 4893,
      "Ġprosec": 4894,
      "iger": 4895,
      "Ġregulations": 4896,
      "Ġjourney": 4897,
      "gger": 4898,
      "Ġvalu": 4899,
      "Ġpit": 4900,
      "Ġreput": 4901,
      "Ġjuice": 4902,
      "Ġridiculous": 4903,
      "Ġbelieves": 4904,
      "Ġpaint": 4905,
      "Ġrow": 4906,
      "Ġdestroyed": 4907,
      "Ġabroad": 4908,
      "Ġstolen": 4909,
      "Ġbite": 4910,
      "Ġanx": 4911,
      "Ġthurs": 4912,
      "Ġdisaster": 4913,
      "Ġtort": 4914,
      "Ġafghanistan": 4915,
      "aly": 4916,
      "Ġtemperature": 4917,
      "Ġwise": 4918,
      "icious": 4919,
      "Ġawful": 4920,
      "Ġprince": 4921,
      "Ġleadership": 4922,
      "Ġadministrative": 4923,
      "Ġtip": 4924,
      "Ġthursday": 4925,
      "ography": 4926,
      "Ġshame": 4927,
      "Ġrein": 4928,
      "Ġloyal": 4929,
      "Ġromantic": 4930,
      "Ġphen": 4931,
      "Ġgro": 4932,
      "Ġadvance": 4933,
      "Ġsolar": 4934,
      "Ġphotos": 4935,
      "Ġconvention": 4936,
      "Ġaugust": 4937,
      "bel": 4938,
      "Ġate": 4939,
      "Ġunus": 4940,
      "oying": 4941,
      "Ġfalse": 4942,
      "Ġnaked": 4943,
      "omen": 4944,
      "Ġinterp": 4945,
      "Ġimper": 4946,
      "Ġsolve": 4947,
      "yl": 4948,
      "Ġuniform": 4949,
      "Ġsett": 4950,
      "Ġcritical": 4951,
      "Ġmichael": 4952,
      "mod": 4953,
      "Ġbutter": 4954,
      "illing": 4955,
      "Ġtrail": 4956,
      "Ġvast": 4957,
      "Ġload": 4958,
      "Ġhidden": 4959,
      "Ġhappiness": 4960,
      "aming": 4961,
      "Ġproduced": 4962,
      "ocking": 4963,
      "Ġoccasion": 4964,
      "Ġprev": 4965,
      "Ġacce": 4966,
      "Ġdesire": 4967,
      "Ġmetal": 4968,
      "Ġplays": 4969,
      "Ġkil": 4970,
      "Ġenh": 4971,
      "Ġric": 4972,
      "Ġcapable": 4973,
      "Ġdebate": 4974,
      "Ġdivision": 4975,
      "Ġnowhere": 4976,
      "Ġsurely": 4977,
      "Ġschedule": 4978,
      "Ġloans": 4979,
      "Ġsed": 4980,
      "Ġcapacity": 4981,
      "Ġsalt": 4982,
      "Ġiniti": 4983,
      "Ġleague": 4984,
      "Ġhighest": 4985,
      "Ġengineering": 4986,
      "Ġshares": 4987,
      "Ġtoilet": 4988,
      "Ġargue": 4989,
      "Ġdiam": 4990,
      "Ġcontinued": 4991,
      "Ġbatter": 4992,
      "ushed": 4993,
      "amm": 4994,
      "Ġmile": 4995,
      "Ġloan": 4996,
      "Ġvul": 4997,
      "Ġleads": 4998,
      "Ġmanufacturing": 4999,
      "Ġouts": 5000,
      "Ġinstru": 5001,
      "iable": 5002,
      "Ġreaction": 5003,
      "Ġcheese": 5004,
      "ett": 5005,
      "Ġdocuments": 5006,
      "Ġfantastic": 5007,
      "Ġvictory": 5008,
      "itz": 5009,
      "Ġaffairs": 5010,
      "Ġstronger": 5011,
      "Ġpassion": 5012,
      "Ġwhenever": 5013,
      "Ġaggress": 5014,
      "Ġvacation": 5015,
      "lder": 5016,
      "Ġmanufacture": 5017,
      "gged": 5018,
      "Ġoption": 5019,
      "Ġmodels": 5020,
      "Ġrural": 5021,
      "Ġattitude": 5022,
      "Ġcabin": 5023,
      "Ġbranch": 5024,
      "Ġparli": 5025,
      "Ġproceed": 5026,
      "can": 5027,
      "Ġimmig": 5028,
      "Ġanger": 5029,
      "Ġideal": 5030,
      "Ġwebs": 5031,
      "Ġdynam": 5032,
      "Ġfolks": 5033,
      "Ġcircumstances": 5034,
      "cipl": 5035,
      "hab": 5036,
      "Ġguide": 5037,
      "Ġsweetheart": 5038,
      "Ġtools": 5039,
      "Ġfoundation": 5040,
      "Ġrig": 5041,
      "Ġprec": 5042,
      "Ġengage": 5043,
      "Ġrecommend": 5044,
      "icip": 5045,
      "Ġitalian": 5046,
      "Ġnav": 5047,
      "Ġtwenty": 5048,
      "Ġcommitted": 5049,
      "outs": 5050,
      "Ġaustralia": 5051,
      "Ġmultiple": 5052,
      "Ġpresence": 5053,
      "Ġdevice": 5054,
      "Ġemotional": 5055,
      "Ġharv": 5056,
      "Ġmas": 5057,
      "Ġassess": 5058,
      "Ġsilly": 5059,
      "Ġcous": 5060,
      "Ġped": 5061,
      "Ġlieuten": 5062,
      "bre": 5063,
      "Ġelimin": 5064,
      "Ġaccompl": 5065,
      "Ġplate": 5066,
      "Ġapril": 5067,
      "Ġactions": 5068,
      "Ġkinda": 5069,
      "ifying": 5070,
      "Ġfingers": 5071,
      "Ġears": 5072,
      "Ġdram": 5073,
      "amples": 5074,
      "Ġexisting": 5075,
      "Ġaudience": 5076,
      "itors": 5077,
      "Ġhistorical": 5078,
      "Ġappeared": 5079,
      "Ġframe": 5080,
      "Ġcollection": 5081,
      "Ġministry": 5082,
      "Ġsword": 5083,
      "Ġfacing": 5084,
      "Ġmortg": 5085,
      "Ġvalley": 5086,
      "Ġlung": 5087,
      "Ġaccounts": 5088,
      "Ġintroduced": 5089,
      "Ġnurs": 5090,
      "rier": 5091,
      "Ġconsid": 5092,
      "bered": 5093,
      "Ġdistribution": 5094,
      "Ġfrag": 5095,
      "Ġwhis": 5096,
      "oph": 5097,
      "Ġinnovation": 5098,
      "Ġugly": 5099,
      "Ġthro": 5100,
      "Ġflor": 5101,
      "Ġstrict": 5102,
      "Ġchocolate": 5103,
      "Ġbless": 5104,
      "Ġcommunist": 5105,
      "atically": 5106,
      "Ġves": 5107,
      "Ġinstitution": 5108,
      "unte": 5109,
      "Ġassociation": 5110,
      "Ġgoogle": 5111,
      "Ġfeature": 5112,
      "Ġtears": 5113,
      "Ġschol": 5114,
      "Ġparliament": 5115,
      "igning": 5116,
      "Ġaircraft": 5117,
      "entially": 5118,
      "Ġdoors": 5119,
      "Ġbullsh": 5120,
      "Ġexplan": 5121,
      "Ġconstitution": 5122,
      "Ġseptember": 5123,
      "Ġnarrow": 5124,
      "Ġunits": 5125,
      "Ġoverall": 5126,
      "Ġsatisf": 5127,
      "kin": 5128,
      "issions": 5129,
      "anged": 5130,
      "Ġmayor": 5131,
      "Ġbadly": 5132,
      "Ġbabies": 5133,
      "Ġitems": 5134,
      "Ġwound": 5135,
      "Ġray": 5136,
      "Ġupper": 5137,
      "Ġbug": 5138,
      "lock": 5139,
      "Ġlt": 5140,
      "Ġstream": 5141,
      "Ġlesson": 5142,
      "Ġcomplain": 5143,
      "Ġthick": 5144,
      "Ġburied": 5145,
      "Ġbul": 5146,
      "Ġyuan": 5147,
      "Ġexhib": 5148,
      "ias": 5149,
      "Ġwalls": 5150,
      "Ġvolunte": 5151,
      "father": 5152,
      "Ġputs": 5153,
      "Ġteams": 5154,
      "Ġbelief": 5155,
      "Ġefficient": 5156,
      "Ġye": 5157,
      "Ġnearby": 5158,
      "Ġspain": 5159,
      "vin": 5160,
      "Ġadditional": 5161,
      "Ġsuffering": 5162,
      "Ġperman": 5163,
      "Ġguarantee": 5164,
      "Ġvalues": 5165,
      "Ġmechanism": 5166,
      "ye": 5167,
      "Ġdetermined": 5168,
      "erson": 5169,
      "Ġmassive": 5170,
      "Ġtum": 5171,
      "Ġbucks": 5172,
      "Ġhorri": 5173,
      "Ġspin": 5174,
      "Ġlieutenant": 5175,
      "osure": 5176,
      "Ġjanuary": 5177,
      "esh": 5178,
      "Ġoblig": 5179,
      "gging": 5180,
      "Ġversion": 5181,
      "Ġsatellite": 5182,
      "Ġflash": 5183,
      "ifts": 5184,
      "Ġburning": 5185,
      "lim": 5186,
      "Ġpractical": 5187,
      "Ġsensitive": 5188,
      "Ġagents": 5189,
      "works": 5190,
      "Ġstruggle": 5191,
      "Ġpad": 5192,
      "Ġswimming": 5193,
      "Ġsymptom": 5194,
      "Ġnuts": 5195,
      "Ġslept": 5196,
      "Ġanalysts": 5197,
      "Ġcarefully": 5198,
      "Ġintellect": 5199,
      "Ġdistract": 5200,
      "Ġordinary": 5201,
      "Ġooh": 5202,
      "Ġcha": 5203,
      "Ġsuffe": 5204,
      "Ġhors": 5205,
      "icing": 5206,
      "Ġsecrets": 5207,
      "Ġmarketing": 5208,
      "Ġmurdered": 5209,
      "Ġasshole": 5210,
      "Ġmatt": 5211,
      "Ġamen": 5212,
      "Ġvariety": 5213,
      "Ġraising": 5214,
      "Ġtherapy": 5215,
      "Ġopposite": 5216,
      "Ġstudied": 5217,
      "Ġrequires": 5218,
      "Ġsucceed": 5219,
      "Ġfields": 5220,
      "Ġrelationships": 5221,
      "Ġbrilliant": 5222,
      "Ġunderw": 5223,
      "Ġfundament": 5224,
      "Ġcontest": 5225,
      "Ġestim": 5226,
      "Ġconsumption": 5227,
      "Ġdelicious": 5228,
      "Ġflower": 5229,
      "ength": 5230,
      "Ġassociated": 5231,
      "Ġwing": 5232,
      "Ġartist": 5233,
      "Ġpicking": 5234,
      "ida": 5235,
      "Ġgrace": 5236,
      "hs": 5237,
      "Ġvice": 5238,
      "enses": 5239,
      "Ġinstruct": 5240,
      "Ġunfortunately": 5241,
      "Ġtermin": 5242,
      "Ġmistakes": 5243,
      "Ġdelight": 5244,
      "Ġted": 5245,
      "Ġhired": 5246,
      "now": 5247,
      "Ġremem": 5248,
      "Ġjam": 5249,
      "Ġorganiz": 5250,
      "aling": 5251,
      "nis": 5252,
      "Ġconnected": 5253,
      "Ġsubsid": 5254,
      "Ġplastic": 5255,
      "Ġsurge": 5256,
      "Ġobtain": 5257,
      "nesday": 5258,
      "Ġattorney": 5259,
      "Ġhousehold": 5260,
      "Ġwednesday": 5261,
      "Ġrush": 5262,
      "Ġfortune": 5263,
      "Ġaunt": 5264,
      "asts": 5265,
      "Ġafrican": 5266,
      "Ġcompens": 5267,
      "Ġrecession": 5268,
      "Ġgreece": 5269,
      "Ġdelay": 5270,
      "Ġsweetie": 5271,
      "Ġpushed": 5272,
      "Ġreputation": 5273,
      "itable": 5274,
      "Ġfinds": 5275,
      "Ġholly": 5276,
      "Ġsna": 5277,
      "imp": 5278,
      "Ġpoo": 5279,
      "Ġdies": 5280,
      "Ġargument": 5281,
      "Ġdriven": 5282,
      "Ġfifth": 5283,
      "Ġcigaret": 5284,
      "Ġballs": 5285,
      "Ġbullshit": 5286,
      "Ġdistur": 5287,
      "Ġfocused": 5288,
      "Ġaccur": 5289,
      "Ġretail": 5290,
      "fl": 5291,
      "hi": 5292,
      "Ġlicense": 5293,
      "Ġmajority": 5294,
      "uated": 5295,
      "Ġearn": 5296,
      "Ġly": 5297,
      "Ġcrop": 5298,
      "Ġchecking": 5299,
      "ucing": 5300,
      "Ġessential": 5301,
      "Ġfallen": 5302,
      "Ġlonely": 5303,
      "Ġheight": 5304,
      "Ġstudying": 5305,
      "Ġluc": 5306,
      "Ġunw": 5307,
      "Ġassemb": 5308,
      "ek": 5309,
      "Ġdiscipl": 5310,
      "Ġrome": 5311,
      "Ġscore": 5312,
      "Ġthor": 5313,
      "Ġreward": 5314,
      "char": 5315,
      "Ġexcess": 5316,
      "standing": 5317,
      "ette": 5318,
      "Ġpy": 5319,
      "Ġcorn": 5320,
      "mo": 5321,
      "Ġii": 5322,
      "Ġunderstood": 5323,
      "Ġthy": 5324,
      "raw": 5325,
      "Ġalarm": 5326,
      "Ġcorruption": 5327,
      "Ġinstance": 5328,
      "Ġadvent": 5329,
      "Ġmemor": 5330,
      "Ġliterature": 5331,
      "Ġaward": 5332,
      "Ġfalls": 5333,
      "ux": 5334,
      "Ġpriest": 5335,
      "Ġoperating": 5336,
      "Ġisol": 5337,
      "Ġbol": 5338,
      "Ġheav": 5339,
      "Ġreserve": 5340,
      "rees": 5341,
      "Ġaside": 5342,
      "Ġintroduce": 5343,
      "Ġatl": 5344,
      "Ġconstruct": 5345,
      "rast": 5346,
      "Ġcompon": 5347,
      "Ġconclusion": 5348,
      "Ġspare": 5349,
      "Ġmole": 5350,
      "Ġwindows": 5351,
      "Ġsmooth": 5352,
      "Ġpoet": 5353,
      "Ġvehic": 5354,
      "Ġslightly": 5355,
      "Ġmagazine": 5356,
      "Ġremote": 5357,
      "Ġpersonally": 5358,
      "Ġtesting": 5359,
      "Ġwithd": 5360,
      "Ġowner": 5361,
      "Ġkidna": 5362,
      "Ġpiz": 5363,
      "Ġshel": 5364,
      "Ġphenomen": 5365,
      "Ġterrit": 5366,
      "Ġchart": 5367,
      "Ġjames": 5368,
      "Ġlargely": 5369,
      "Ġforth": 5370,
      "sey": 5371,
      "Ġchop": 5372,
      "Ġpul": 5373,
      "Ġhanded": 5374,
      "Ġviews": 5375,
      "Ġliberal": 5376,
      "Ġdrove": 5377,
      "Ġsources": 5378,
      "Ġchances": 5379,
      "Ġroutine": 5380,
      "Ġburned": 5381,
      "Ġexplore": 5382,
      "Ġbleeding": 5383,
      "Ġbreathe": 5384,
      "Ġannounce": 5385,
      "Ġchicago": 5386,
      "agon": 5387,
      "urally": 5388,
      "Ġfestival": 5389,
      "etary": 5390,
      "Ġwriter": 5391,
      "Ġvisual": 5392,
      "Ġwaters": 5393,
      "Ġassistant": 5394,
      "Ġdoc": 5395,
      "Ġfactor": 5396,
      "Ġcompre": 5397,
      "Ġpresc": 5398,
      "Ġsar": 5399,
      "Ġexpecting": 5400,
      "Ġseeking": 5401,
      "Ġdowntown": 5402,
      "Ġresol": 5403,
      "Ġsites": 5404,
      "Ġearthqu": 5405,
      "Ġfuneral": 5406,
      "Ġexciting": 5407,
      "ober": 5408,
      "Ġatmosphere": 5409,
      "asy": 5410,
      "Ġvo": 5411,
      "Ġpromote": 5412,
      "Ġchristian": 5413,
      "Ġalex": 5414,
      "eration": 5415,
      "Ġsuggested": 5416,
      "Ġelectricity": 5417,
      "Ġmemories": 5418,
      "Ġsuffered": 5419,
      "Ġprofits": 5420,
      "Ġgym": 5421,
      "Ġcanada": 5422,
      "Ġdescribed": 5423,
      "Ġencourage": 5424,
      "Ġmanagers": 5425,
      "Ġtang": 5426,
      "rend": 5427,
      "Ġreck": 5428,
      "apse": 5429,
      "Ġattacked": 5430,
      "Ġremark": 5431,
      "Ġlandsc": 5432,
      "Ġfriendship": 5433,
      "Ġchat": 5434,
      "Ġnights": 5435,
      "Ġresidents": 5436,
      "Ġhunting": 5437,
      "Ġgreek": 5438,
      "Ġastr": 5439,
      "Ġviolent": 5440,
      "Ġvehicles": 5441,
      "Ġabst": 5442,
      "Ġexpression": 5443,
      "Ġfet": 5444,
      "berg": 5445,
      "Ġclasses": 5446,
      "Ġextract": 5447,
      "Ġmun": 5448,
      "ria": 5449,
      "Ġsav": 5450,
      "Ġelement": 5451,
      "Ġhorrible": 5452,
      "Ġcable": 5453,
      "ingu": 5454,
      "Ġlee": 5455,
      "Ġmargin": 5456,
      "Ġindex": 5457,
      "Ġchannel": 5458,
      "Ġoctober": 5459,
      "Ġidentity": 5460,
      "Ġstan": 5461,
      "Ġsem": 5462,
      "Ġuncom": 5463,
      "Ġequity": 5464,
      "Ġangel": 5465,
      "Ġdelivery": 5466,
      "acing": 5467,
      "Ġgrave": 5468,
      "Ġaccepted": 5469,
      "Ġtact": 5470,
      "Ġprincess": 5471,
      "Ġnur": 5472,
      "Ġpayment": 5473,
      "Ġwarrant": 5474,
      "Ġimportance": 5475,
      "Ġtemple": 5476,
      "Ġtransl": 5477,
      "aves": 5478,
      "Ġfee": 5479,
      "Ġappropriate": 5480,
      "Ġinvent": 5481,
      "Ġscrewed": 5482,
      "Ġchairman": 5483,
      "Ġfert": 5484,
      "Ġwid": 5485,
      "athy": 5486,
      "Ġperspect": 5487,
      "Ġapproval": 5488,
      "Ġvessel": 5489,
      "Ġna": 5490,
      "Ġbutton": 5491,
      "Ġincident": 5492,
      "Ġsoldier": 5493,
      "Ġmixed": 5494,
      "Ġdecember": 5495,
      "ounding": 5496,
      "Ġtexas": 5497,
      "Ġnom": 5498,
      "Ġstrang": 5499,
      "Ġtongue": 5500,
      "ruction": 5501,
      "Ġera": 5502,
      "Ġaccused": 5503,
      "Ġbike": 5504,
      "Ġyang": 5505,
      "osen": 5506,
      "Ġfate": 5507,
      "Ġvoc": 5508,
      "lines": 5509,
      "Ġkingdom": 5510,
      "Ġwoods": 5511,
      "Ġhaw": 5512,
      "Ġlin": 5513,
      "Ġnap": 5514,
      "Ġsup": 5515,
      "ulting": 5516,
      "Ġwarned": 5517,
      "Ġconfirm": 5518,
      "Ġpra": 5519,
      "Ġbrave": 5520,
      "Ġcreep": 5521,
      "Ġsov": 5522,
      "Ġpushing": 5523,
      "Ġnove": 5524,
      "Ġfarmers": 5525,
      "Ġvoters": 5526,
      "Ġbones": 5527,
      "Ġmessages": 5528,
      "Ġsexy": 5529,
      "Ġvamp": 5530,
      "Ġetc": 5531,
      "Ġtiss": 5532,
      "Ġplain": 5533,
      "Ġrecall": 5534,
      "Ġvirus": 5535,
      "Ġinstitute": 5536,
      "Ġboring": 5537,
      "iture": 5538,
      "Ġlosses": 5539,
      "ivers": 5540,
      "Ġtrop": 5541,
      "Ġtechnique": 5542,
      "Ġcompetitive": 5543,
      "oe": 5544,
      "Ġshake": 5545,
      "tery": 5546,
      "Ġgolden": 5547,
      "Ġproposed": 5548,
      "Ġpassing": 5549,
      "Ġjoined": 5550,
      "Ġopportunities": 5551,
      "Ġcolleagues": 5552,
      "Ġvaluable": 5553,
      "Ġdish": 5554,
      "Ġfright": 5555,
      "Ġstimul": 5556,
      "Ġdeeply": 5557,
      "Ġunh": 5558,
      "Ġshots": 5559,
      "tical": 5560,
      "Ġrefused": 5561,
      "Ġpacific": 5562,
      "Ġoverseas": 5563,
      "Ġrequirements": 5564,
      "Ġentrep": 5565,
      "Ġjane": 5566,
      "Ġdivers": 5567,
      "Ġdisappeared": 5568,
      "Ġtrained": 5569,
      "Ġmath": 5570,
      "Ġentered": 5571,
      "Ġalternative": 5572,
      "Ġtank": 5573,
      "Ġpossibility": 5574,
      "Ġplaced": 5575,
      "Ġcoat": 5576,
      "Ġdiscover": 5577,
      "Ġhire": 5578,
      "Ġlength": 5579,
      "Ġguid": 5580,
      "Ġwidely": 5581,
      "Ġbac": 5582,
      "Ġinject": 5583,
      "load": 5584,
      "Ġequal": 5585,
      "Ġdiamond": 5586,
      "oured": 5587,
      "Ġzero": 5588,
      "Ġresource": 5589,
      "Ġcontrast": 5590,
      "Ġmall": 5591,
      "Ġcreative": 5592,
      "Ġpunch": 5593,
      "Ġjacket": 5594,
      "Ġprinciples": 5595,
      "Ġimages": 5596,
      "Ġzh": 5597,
      "Ġcontrolled": 5598,
      "Ġsacrif": 5599,
      "Ġentreprene": 5600,
      "Ġnovember": 5601,
      "Ġdevil": 5602,
      "Ġstable": 5603,
      "Ġfucked": 5604,
      "Ġfred": 5605,
      "Ġfought": 5606,
      "Ġapplied": 5607,
      "Ġmonster": 5608,
      "Ġsandw": 5609,
      "Ġmerely": 5610,
      "Ġrely": 5611,
      "Ġshoulder": 5612,
      "Ġchose": 5613,
      "Ġbehavi": 5614,
      "Ġscare": 5615,
      "Ġcombination": 5616,
      "ares": 5617,
      "Ġangeles": 5618,
      "Ġdeals": 5619,
      "Ġgrandma": 5620,
      "Ġregime": 5621,
      "Ġluxury": 5622,
      "Ġjudgment": 5623,
      "Ġlaun": 5624,
      "ded": 5625,
      "Ġcleaning": 5626,
      "Ġpounds": 5627,
      "ander": 5628,
      "Ġidentify": 5629,
      "hus": 5630,
      "Ġphones": 5631,
      "Ġprocedure": 5632,
      "Ġstake": 5633,
      "Ġstrategic": 5634,
      "Ġmotion": 5635,
      "Ġaffected": 5636,
      "Ġtent": 5637,
      "Ġadopt": 5638,
      "rid": 5639,
      "Ġbetray": 5640,
      "Ġbatt": 5641,
      "Ġbags": 5642,
      "Ġnurse": 5643,
      "Ġroman": 5644,
      "bble": 5645,
      "olic": 5646,
      "Ġlawyers": 5647,
      "Ġfacts": 5648,
      "Ġhollywood": 5649,
      "Ġbureau": 5650,
      "Ġhem": 5651,
      "Ġpulling": 5652,
      "Ġfans": 5653,
      "Ġdifferences": 5654,
      "Ġstealing": 5655,
      "Ġpink": 5656,
      "Ġliby": 5657,
      "Ġmirror": 5658,
      "icked": 5659,
      "Ġhurts": 5660,
      "Ġruin": 5661,
      "Ġvisitors": 5662,
      "Ġhorses": 5663,
      "Ġtoy": 5664,
      "Ġmulti": 5665,
      "ructure": 5666,
      "icted": 5667,
      "Ġdiscussion": 5668,
      "Ġconfused": 5669,
      "Ġelements": 5670,
      "Ġsustain": 5671,
      "mother": 5672,
      "Ġgovernor": 5673,
      "Ġprograms": 5674,
      "Ġsongs": 5675,
      "Ġasset": 5676,
      "Ġassault": 5677,
      "hlet": 5678,
      "Ġcourage": 5679,
      "Ġrecru": 5680,
      "Ġgenius": 5681,
      "Ġspacious": 5682,
      "Ġindustries": 5683,
      "rem": 5684,
      "bery": 5685,
      "ga": 5686,
      "owed": 5687,
      "Ġformal": 5688,
      "Ġaccommod": 5689,
      "Ġbasically": 5690,
      "Ġinner": 5691,
      "Ġevolution": 5692,
      "omp": 5693,
      "Ġyogurt": 5694,
      "Ġconsequences": 5695,
      "wide": 5696,
      "sect": 5697,
      "Ġprize": 5698,
      "itis": 5699,
      "oma": 5700,
      "Ġvisiting": 5701,
      "Ġturkey": 5702,
      "Ġemployment": 5703,
      "sters": 5704,
      "Ġsche": 5705,
      "Ġsuites": 5706,
      "Ġelectronic": 5707,
      "Ġupd": 5708,
      "Ġemphas": 5709,
      "Ġtower": 5710,
      "ville": 5711,
      "Ġattractive": 5712,
      "Ġunable": 5713,
      "Ġclinical": 5714,
      "fall": 5715,
      "Ġbreathing": 5716,
      "Ġtied": 5717,
      "Ġcelebrate": 5718,
      "Ġignore": 5719,
      "Ġgods": 5720,
      "Ġpersu": 5721,
      "Ġsoph": 5722,
      "onel": 5723,
      "Ġelsewhere": 5724,
      "Ġsurprising": 5725,
      "Ġserge": 5726,
      "Ġlaund": 5727,
      "Ġfancy": 5728,
      "Ġfears": 5729,
      "Ġcomprom": 5730,
      "Ġindividuals": 5731,
      "aud": 5732,
      "Ġts": 5733,
      "ules": 5734,
      "osition": 5735,
      "Ġprecise": 5736,
      "Ġretire": 5737,
      "Ġabsor": 5738,
      "odes": 5739,
      "Ġblog": 5740,
      "acks": 5741,
      "Ġgaz": 5742,
      "makers": 5743,
      "Ġreligion": 5744,
      "Ġresistance": 5745,
      "ching": 5746,
      "Ġcooking": 5747,
      "Ġpermission": 5748,
      "Ġours": 5749,
      "Ġdragon": 5750,
      "Ġconsidering": 5751,
      "Ġspell": 5752,
      "Ġplatform": 5753,
      "Ġfasc": 5754,
      "Ġstem": 5755,
      "Ġengaged": 5756,
      "Ġvag": 5757,
      "Ġpersonnel": 5758,
      "Ġcausing": 5759,
      "haust": 5760,
      "Ġroot": 5761,
      "Ġprofile": 5762,
      "Ġpizza": 5763,
      "Ġacademic": 5764,
      "Ġhan": 5765,
      "Ġmarsh": 5766,
      "Ġallows": 5767,
      "iments": 5768,
      "Ġaffair": 5769,
      "Ġunlikely": 5770,
      "Ġintellectual": 5771,
      "Ġcolonel": 5772,
      "ologies": 5773,
      "Ġunusual": 5774,
      "Ġpersonality": 5775,
      "Ġfaced": 5776,
      "Ġlip": 5777,
      "Ġleaf": 5778,
      "Ġdecor": 5779,
      "Ġspanish": 5780,
      "Ġflex": 5781,
      "Ġmaxim": 5782,
      "ales": 5783,
      "Ġcreation": 5784,
      "Ġthroat": 5785,
      "Ġthom": 5786,
      "ucker": 5787,
      "Ġmud": 5788,
      "Ġremoved": 5789,
      "Ġinev": 5790,
      "Ġwaited": 5791,
      "Ġhyper": 5792,
      "uits": 5793,
      "Ġshell": 5794,
      "Ġpresidential": 5795,
      "Ġreasonable": 5796,
      "Ġcircle": 5797,
      "Ġing": 5798,
      "Ġcounsel": 5799,
      "Ġcameras": 5800,
      "Ġforgotten": 5801,
      "isher": 5802,
      "Ġoxy": 5803,
      "Ġincredible": 5804,
      "Ġislands": 5805,
      "Ġswing": 5806,
      "Ġtrib": 5807,
      "Ġcateg": 5808,
      "Ġconvenient": 5809,
      "Ġshadow": 5810,
      "bits": 5811,
      "icy": 5812,
      "ensions": 5813,
      "Ġinvolve": 5814,
      "Ġunemployment": 5815,
      "Ġholds": 5816,
      "aration": 5817,
      "cture": 5818,
      "Ġloving": 5819,
      "Ġblew": 5820,
      "Ġenemies": 5821,
      "oms": 5822,
      "Ġconcert": 5823,
      "Ġissued": 5824,
      "Ġbilly": 5825,
      "Ġentry": 5826,
      "Ġsod": 5827,
      "inate": 5828,
      "Ġbom": 5829,
      "Ġstal": 5830,
      "Ġbacter": 5831,
      "Ġcurious": 5832,
      "Ġthreatened": 5833,
      "rie": 5834,
      "Ġselection": 5835,
      "Ġvegas": 5836,
      "Ġbuck": 5837,
      "Ġexamination": 5838,
      "Ġexecutives": 5839,
      "Ġglasses": 5840,
      "Ġmarks": 5841,
      "Ġpalace": 5842,
      "rogen": 5843,
      "bid": 5844,
      "Ġinsp": 5845,
      "Ġblocks": 5846,
      "Ġpir": 5847,
      "Ġbob": 5848,
      "Ġhed": 5849,
      "Ġsenator": 5850,
      "Ġefficiency": 5851,
      "Ġmonetary": 5852,
      "Ġwisdom": 5853,
      "gers": 5854,
      "Ġshared": 5855,
      "Ġinfrast": 5856,
      "Ġtooth": 5857,
      "Ġsupplies": 5858,
      "Ġlately": 5859,
      "Ġproperly": 5860,
      "Ġque": 5861,
      "Ġsentence": 5862,
      "Ġduck": 5863,
      "eds": 5864,
      "Ġunex": 5865,
      "Ġphilosophy": 5866,
      "Ġinjury": 5867,
      "Ġhunt": 5868,
      "lets": 5869,
      "Ġment": 5870,
      "inting": 5871,
      "Ġgoals": 5872,
      "Ġboston": 5873,
      "Ġbills": 5874,
      "Ġack": 5875,
      "Ġspoken": 5876,
      "Ġexplanation": 5877,
      "Ġtoast": 5878,
      "Ġdiscussed": 5879,
      "Ġstands": 5880,
      "Ġclosely": 5881,
      "Ġappointment": 5882,
      "Ġcousin": 5883,
      "Ġram": 5884,
      "Ġcharged": 5885,
      "Ġmanner": 5886,
      "Ġrepublican": 5887,
      "Ġexistence": 5888,
      "Ġcooperation": 5889,
      "Ġnewly": 5890,
      "Ġinvite": 5891,
      "rical": 5892,
      "Ġtone": 5893,
      "Ġtoler": 5894,
      "icles": 5895,
      "Ġham": 5896,
      "Ġarts": 5897,
      "Ġproved": 5898,
      "Ġmotiv": 5899,
      "Ġdesperate": 5900,
      "Ġnin": 5901,
      "Ġconce": 5902,
      "Ġexhaust": 5903,
      "Ġviet": 5904,
      "Ġharry": 5905,
      "Ġelections": 5906,
      "ums": 5907,
      "state": 5908,
      "icks": 5909,
      "ona": 5910,
      "Ġax": 5911,
      "Ġsharing": 5912,
      "Ġtitle": 5913,
      "Ġterritory": 5914,
      "Ġcure": 5915,
      "Ġstruck": 5916,
      "Ġpip": 5917,
      "Ġcham": 5918,
      "Ġwu": 5919,
      "Ġcoord": 5920,
      "Ġregulation": 5921,
      "Ġgee": 5922,
      "Ġhandsome": 5923,
      "Ġvulner": 5924,
      "Ġships": 5925,
      "mony": 5926,
      "Ġsons": 5927,
      "Ġcher": 5928,
      "itals": 5929,
      "Ġups": 5930,
      "Ġamenities": 5931,
      "Ġevaluation": 5932,
      "Ġemotion": 5933,
      "Ġrational": 5934,
      "Ġsilence": 5935,
      "Ġrepeated": 5936,
      "Ġmeetings": 5937,
      "print": 5938,
      "Ġkicked": 5939,
      "Ġtrigger": 5940,
      "Ġprotecting": 5941,
      "Ġrepeat": 5942,
      "Ġreturns": 5943,
      "Ġthrowing": 5944,
      "Ġward": 5945,
      "Ġol": 5946,
      "apers": 5947,
      "Ġmedium": 5948,
      "Ġlips": 5949,
      "ogen": 5950,
      "Ġregions": 5951,
      "Ġprofession": 5952,
      "Ġsoviet": 5953,
      "Ġell": 5954,
      "uled": 5955,
      "Ġinitial": 5956,
      "cles": 5957,
      "ateral": 5958,
      "Ġsweat": 5959,
      "Ġsooner": 5960,
      "Ġnaturally": 5961,
      "Ġtouched": 5962,
      "Ġmotherf": 5963,
      "icient": 5964,
      "inent": 5965,
      "Ġseats": 5966,
      "Ġtransm": 5967,
      "Ġspy": 5968,
      "Ġdozen": 5969,
      "Ġvital": 5970,
      "Ġcontinental": 5971,
      "Ġaccessible": 5972,
      "Ġcontinues": 5973,
      "tes": 5974,
      "Ġolympic": 5975,
      "equ": 5976,
      "Ġintention": 5977,
      "Ġbeating": 5978,
      "Ġdetermine": 5979,
      "case": 5980,
      "ya": 5981,
      "Ġbelt": 5982,
      "Ġcertific": 5983,
      "Ġlaughing": 5984,
      "Ġclark": 5985,
      "Ġles": 5986,
      "ador": 5987,
      "Ġstor": 5988,
      "acters": 5989,
      "Ġtear": 5990,
      "Ġtypical": 5991,
      "keep": 5992,
      "Ġtraum": 5993,
      "Ġinfrastructure": 5994,
      "Ġappearance": 5995,
      "Ġperspective": 5996,
      "pa": 5997,
      "point": 5998,
      "onom": 5999,
      "erous": 6000,
      "mate": 6001,
      "Ġmystery": 6002,
      "Ġoutdo": 6003,
      "Ġrelief": 6004,
      "Ġtemporary": 6005,
      "Ġpollution": 6006,
      "rants": 6007,
      "isms": 6008,
      "Ġchosen": 6009,
      "Ġcharacters": 6010,
      "Ġfacility": 6011,
      "Ġreduced": 6012,
      "Ġyan": 6013,
      "ura": 6014,
      "iel": 6015,
      "Ġguang": 6016,
      "Ġcarol": 6017,
      "Ġrenew": 6018,
      "Ġmike": 6019,
      "Ġdecline": 6020,
      "Ġrandom": 6021,
      "Ġalien": 6022,
      "Ġhaird": 6023,
      "Ġexposed": 6024,
      "Ġexports": 6025,
      "Ġcomprehens": 6026,
      "Ġwilliam": 6027,
      "Ġdecent": 6028,
      "Ġdemands": 6029,
      "Ġnormally": 6030,
      "Ġsanta": 6031,
      "Ġthou": 6032,
      "Ġenthus": 6033,
      "enced": 6034,
      "leg": 6035,
      "Ġtrace": 6036,
      "Ġjunior": 6037,
      "met": 6038,
      "Ġsmith": 6039,
      "Ġdrawing": 6040,
      "mans": 6041,
      "Ġscot": 6042,
      "Ġcomputers": 6043,
      "Ġjet": 6044,
      "Ġcommander": 6045,
      "Ġexpans": 6046,
      "Ġchoices": 6047,
      "Ġstocks": 6048,
      "Ġclever": 6049,
      "Ġvietnam": 6050,
      "ivered": 6051,
      "Ġcryst": 6052,
      "Ġchallenges": 6053,
      "west": 6054,
      "Ġworker": 6055,
      "Ġdrown": 6056,
      "Ġlap": 6057,
      "Ġserving": 6058,
      "Ġcolon": 6059,
      "Ġsheet": 6060,
      "oral": 6061,
      "Ġvictor": 6062,
      "pool": 6063,
      "Ġathlet": 6064,
      "Ġconvinced": 6065,
      "iac": 6066,
      "word": 6067,
      "Ġmode": 6068,
      "Ġraw": 6069,
      "ki": 6070,
      "Ġbump": 6071,
      "Ġenforce": 6072,
      "Ġoutl": 6073,
      "Ġhug": 6074,
      "Ġyard": 6075,
      "Ġriding": 6076,
      "Ġdepends": 6077,
      "Ġrepair": 6078,
      "Ġremained": 6079,
      "erable": 6080,
      "Ġembr": 6081,
      "Ġmi": 6082,
      "Ġnerve": 6083,
      "Ġtelephone": 6084,
      "Ġhearts": 6085,
      "Ġexperienced": 6086,
      "Ġhoo": 6087,
      "Ġimmediate": 6088,
      "born": 6089,
      "Ġsoup": 6090,
      "Ġos": 6091,
      "Ġdownstairs": 6092,
      "Ġtraveling": 6093,
      "Ġinsane": 6094,
      "Ġsets": 6095,
      "Ġdescribe": 6096,
      "Ġcrimes": 6097,
      "Ġrevenue": 6098,
      "Ġhated": 6099,
      "kyo": 6100,
      "Ġunk": 6101,
      "ota": 6102,
      "Ġscan": 6103,
      "Ġtu": 6104,
      "Ġjumped": 6105,
      "mic": 6106,
      "Ġcarl": 6107,
      "Ġenjoyed": 6108,
      "ams": 6109,
      "cop": 6110,
      "Ġcandy": 6111,
      "Ġske": 6112,
      "itty": 6113,
      "Ġscand": 6114,
      "Ġentrance": 6115,
      "Ġhotels": 6116,
      "Ġcultiv": 6117,
      "Ġapplications": 6118,
      "Ġpermanent": 6119,
      "ibilities": 6120,
      "Ġminds": 6121,
      "ashing": 6122,
      "Ġabstract": 6123,
      "Ġgear": 6124,
      "Ġflesh": 6125,
      "Ġsuperior": 6126,
      "Ġcustody": 6127,
      "Ġsquee": 6128,
      "Ġconfirmed": 6129,
      "Ġlimits": 6130,
      "coming": 6131,
      "Ġjury": 6132,
      "Ġfrust": 6133,
      "Ġstores": 6134,
      "Ġskill": 6135,
      "Ġdevices": 6136,
      "enger": 6137,
      "bage": 6138,
      "Ġrecover": 6139,
      "Ġcollapse": 6140,
      "Ġbor": 6141,
      "Ġpride": 6142,
      "Ġinfection": 6143,
      "Ġrod": 6144,
      "ologist": 6145,
      "Ġtechniques": 6146,
      "Ġminimum": 6147,
      "Ġsharehold": 6148,
      "Ġease": 6149,
      "Ġspark": 6150,
      "Ġtony": 6151,
      "rain": 6152,
      "Ġast": 6153,
      "Ġacknow": 6154,
      "Ġdepression": 6155,
      "Ġadvertising": 6156,
      "Ġfrancis": 6157,
      "Ġeconomics": 6158,
      "ado": 6159,
      "esty": 6160,
      "Ġassistance": 6161,
      "Ġlend": 6162,
      "ppy": 6163,
      "Ġpissed": 6164,
      "Ġregistered": 6165,
      "Ġtokyo": 6166,
      "Ġagricultural": 6167,
      "Ġcad": 6168,
      "orous": 6169,
      "Ġproviding": 6170,
      "ingly": 6171,
      "Ġunre": 6172,
      "nie": 6173,
      "Ġtag": 6174,
      "Ġneu": 6175,
      "ateful": 6176,
      "Ġmuscle": 6177,
      "Ġprocessing": 6178,
      "Ġceremony": 6179,
      "Ġacceler": 6180,
      "Ġtwist": 6181,
      "Ġearning": 6182,
      "Ġlessons": 6183,
      "iders": 6184,
      "Ġextern": 6185,
      "Ġalert": 6186,
      "Ġlun": 6187,
      "you": 6188,
      "Ġoutta": 6189,
      "Ġsymptoms": 6190,
      "Ġcath": 6191,
      "Ġprecious": 6192,
      "Ġreference": 6193,
      "Ġearthquake": 6194,
      "Ġblo": 6195,
      "Ġextraord": 6196,
      "Ġweakness": 6197,
      "edy": 6198,
      "Ġinjured": 6199,
      "Ġcharlie": 6200,
      "Ġsi": 6201,
      "Ġguards": 6202,
      "Ġexplo": 6203,
      "Ġlinked": 6204,
      "Ġpoem": 6205,
      "Ġsergeant": 6206,
      "Ġsquad": 6207,
      "Ġgrav": 6208,
      "Ġscary": 6209,
      "gl": 6210,
      "Ġlisted": 6211,
      "Ġtissue": 6212,
      "Ġtib": 6213,
      "Ġstability": 6214,
      "Ġphase": 6215,
      "Ġdefence": 6216,
      "Ġdegrees": 6217,
      "Ġtrash": 6218,
      "Ġcombined": 6219,
      "Ġrapidly": 6220,
      "Ġpills": 6221,
      "Ġstamp": 6222,
      "Ġuser": 6223,
      "Ġchen": 6224,
      "Ġswall": 6225,
      "Ġcares": 6226,
      "Ġdisg": 6227,
      "Ġpleased": 6228,
      "oning": 6229,
      "Ġmachines": 6230,
      "Ġgarage": 6231,
      "Ġsavings": 6232,
      "agger": 6233,
      "Ġwra": 6234,
      "Ġcot": 6235,
      "Ġinher": 6236,
      "Ġdatab": 6237,
      "Ġgrandfather": 6238,
      "nels": 6239,
      "Ġalle": 6240,
      "Ġfewer": 6241,
      "Ġdelivered": 6242,
      "mark": 6243,
      "Ġinqu": 6244,
      "Ġbrains": 6245,
      "aren": 6246,
      "Ġoperate": 6247,
      "Ġcandidate": 6248,
      "usal": 6249,
      "Ġintense": 6250,
      "verty": 6251,
      "Ġconservative": 6252,
      "Ġemper": 6253,
      "Ġapproved": 6254,
      "Ġpanic": 6255,
      "Ġhitting": 6256,
      "Ġgig": 6257,
      "Ġconstant": 6258,
      "Ġcasual": 6259,
      "Ġiike": 6260,
      "Ġlean": 6261,
      "Ġtransp": 6262,
      "Ġformed": 6263,
      "Ġtas": 6264,
      "Ġresign": 6265,
      "Ġpoverty": 6266,
      "Ġhelic": 6267,
      "Ġabandoned": 6268,
      "Ġscript": 6269,
      "Ġjudges": 6270,
      "quar": 6271,
      "Ġradiation": 6272,
      "Ġreforms": 6273,
      "itate": 6274,
      "Ġgrandmother": 6275,
      "Ġcereal": 6276,
      "Ġpilot": 6277,
      "Ġnail": 6278,
      "Ġpriority": 6279,
      "Ġprovin": 6280,
      "Ġmidnight": 6281,
      "Ġsovere": 6282,
      "Ġlegit": 6283,
      "Ġpenal": 6284,
      "Ġrepublicans": 6285,
      "Ġmurde": 6286,
      "Ġbegun": 6287,
      "Ġslip": 6288,
      "apes": 6289,
      "Ġbars": 6290,
      "Ġdedic": 6291,
      "Ġroads": 6292,
      "Ġimpression": 6293,
      "Ġmortgage": 6294,
      "Ġchildhood": 6295,
      "Ġpalest": 6296,
      "Ġlandscape": 6297,
      "bell": 6298,
      "Ġrefuse": 6299,
      "Ġexclus": 6300,
      "Ġsurveill": 6301,
      "Ġfundamental": 6302,
      "Ġdeput": 6303,
      "Ġaccounting": 6304,
      "Ġrefe": 6305,
      "Ġgorge": 6306,
      "Ġacts": 6307,
      "rete": 6308,
      "Ġstrip": 6309,
      "stit": 6310,
      "Ġclosing": 6311,
      "Ġcontrols": 6312,
      "Ġprosper": 6313,
      "Ġproperties": 6314,
      "Ġsurveillance": 6315,
      "Ġlaunched": 6316,
      "Ġstorage": 6317,
      "sen": 6318,
      "Ġdeposit": 6319,
      "Ġagencies": 6320,
      "Ġbaseball": 6321,
      "Ġdisgust": 6322,
      "Ġadvis": 6323,
      "Ġuniversities": 6324,
      "Ġfortun": 6325,
      "Ġinstinct": 6326,
      "Ġpled": 6327,
      "Ġblast": 6328,
      "Ġunto": 6329,
      "och": 6330,
      "Ġeve": 6331,
      "Ġstaring": 6332,
      "Ġpositions": 6333,
      "Ġdanc": 6334,
      "Ġprogramme": 6335,
      "Ġcycle": 6336,
      "Ġuncertain": 6337,
      "Ġparad": 6338,
      "Ġbabe": 6339,
      "Ġallowing": 6340,
      "Ġsilent": 6341,
      "orate": 6342,
      "Ġuna": 6343,
      "Ġflav": 6344,
      "Ġbitter": 6345,
      "azz": 6346,
      "Ġrestaurants": 6347,
      "iat": 6348,
      "ris": 6349,
      "tering": 6350,
      "Ġrecon": 6351,
      "Ġware": 6352,
      "etime": 6353,
      "jiang": 6354,
      "Ġinterpret": 6355,
      "Ġscholars": 6356,
      "wr": 6357,
      "heast": 6358,
      "Ġpee": 6359,
      "Ġsheriff": 6360,
      "Ġjul": 6361,
      "Ġintended": 6362,
      "Ġmoments": 6363,
      "Ġaccompan": 6364,
      "bar": 6365,
      "die": 6366,
      "inating": 6367,
      "Ġbra": 6368,
      "Ġfulf": 6369,
      "Ġdecade": 6370,
      "Ġaven": 6371,
      "Ġdun": 6372,
      "oty": 6373,
      "Ġrarely": 6374,
      "Ġaer": 6375,
      "Ġpastries": 6376,
      "Ġdetermination": 6377,
      "Ġclassic": 6378,
      "Ġterrorist": 6379,
      "Ġenorm": 6380,
      "Ġimplic": 6381,
      "Ġcorresp": 6382,
      "Ġoccurred": 6383,
      "Ġasc": 6384,
      "Ġmanip": 6385,
      "Ġmarine": 6386,
      "ogue": 6387,
      "Ġappointed": 6388,
      "Ġarrive": 6389,
      "Ġcouch": 6390,
      "Ġcharity": 6391,
      "ita": 6392,
      "Ġadopted": 6393,
      "Ġcriticism": 6394,
      "Ġwre": 6395,
      "ini": 6396,
      "Ġtrapped": 6397,
      "Ġwireless": 6398,
      "Ġwebsite": 6399,
      "Ġpartly": 6400,
      "Ġtested": 6401,
      "Ġfract": 6402,
      "Ġpubl": 6403,
      "Ġconclud": 6404,
      "ounce": 6405,
      "Ġdiseases": 6406,
      "Ġhelicop": 6407,
      "Ġcorrespond": 6408,
      "Ġbreast": 6409,
      "Ġwars": 6410,
      "Ġgenetic": 6411,
      "Ġwolf": 6412,
      "Ġvig": 6413,
      "apore": 6414,
      "ishes": 6415,
      "Ġdistinct": 6416,
      "Ġsweep": 6417,
      "Ġabd": 6418,
      "Ġbacked": 6419,
      "Ġlegend": 6420,
      "Ġbored": 6421,
      "Ġpurchase": 6422,
      "Ġpatterns": 6423,
      "Ġvia": 6424,
      "Ġcastle": 6425,
      "Ġoverl": 6426,
      "Ġcombat": 6427,
      "Ġbegins": 6428,
      "Ġemployee": 6429,
      "Ġnavy": 6430,
      "Ġshh": 6431,
      "Ġunderground": 6432,
      "Ġneut": 6433,
      "Ġbubble": 6434,
      "Ġhopefully": 6435,
      "Ġerr": 6436,
      "Ġdynasty": 6437,
      "Ġfier": 6438,
      "rian": 6439,
      "ulating": 6440,
      "Ġempire": 6441,
      "Ġorganic": 6442,
      "Ġpages": 6443,
      "Ġgut": 6444,
      "Ġintr": 6445,
      "Ġtechnologies": 6446,
      "Ġheavily": 6447,
      "Ġsingapore": 6448,
      "Ġfold": 6449,
      "Ġcraft": 6450,
      "Ġultimately": 6451,
      "lers": 6452,
      "Ġfraud": 6453,
      "Ġending": 6454,
      "Ġincreases": 6455,
      "Ġtreasure": 6456,
      "Ġther": 6457,
      "Ġsubm": 6458,
      "Ġou": 6459,
      "Ġsole": 6460,
      "Ġmonkey": 6461,
      "Ġgosh": 6462,
      "acked": 6463,
      "boy": 6464,
      "uge": 6465,
      "Ġmcc": 6466,
      "Ġgross": 6467,
      "Ġoutf": 6468,
      "Ġshout": 6469,
      "Ġpanel": 6470,
      "Ġcraw": 6471,
      "udes": 6472,
      "Ġscheme": 6473,
      "Ġoxygen": 6474,
      "Ġwithdraw": 6475,
      "roll": 6476,
      "Ġlatin": 6477,
      "Ġdict": 6478,
      "Ġjunk": 6479,
      "Ġhelpful": 6480,
      "Ġsequ": 6481,
      "Ġmainland": 6482,
      "Ġali": 6483,
      "Ġpersons": 6484,
      "attered": 6485,
      "Ġauto": 6486,
      "Ġconstantly": 6487,
      "Ġindependence": 6488,
      "osing": 6489,
      "Ġdisappointed": 6490,
      "uine": 6491,
      "Ġdisag": 6492,
      "Ġwaves": 6493,
      "Ġtoss": 6494,
      "Ġdefault": 6495,
      "Ġpace": 6496,
      "Ġimpressive": 6497,
      "eness": 6498,
      "Ġsecurities": 6499,
      "Ġimproved": 6500,
      "Ġruined": 6501,
      "Ġtargets": 6502,
      "Ġchapter": 6503,
      "Ġsettled": 6504,
      "oll": 6505,
      "Ġpitch": 6506,
      "Ġcoinc": 6507,
      "Ġmonit": 6508,
      "Ġflorida": 6509,
      "Ġobjects": 6510,
      "Ġbern": 6511,
      "ext": 6512,
      "Ġburden": 6513,
      "Ġfurniture": 6514,
      "Ġexternal": 6515,
      "Ġinvestigate": 6516,
      "Ġpeaceful": 6517,
      "Ġadults": 6518,
      "Ġcommitment": 6519,
      "Ġgamb": 6520,
      "Ġpear": 6521,
      "Ġsail": 6522,
      "Ġhamm": 6523,
      "Ġsacrifice": 6524,
      "Ġnest": 6525,
      "Ġtypically": 6526,
      "Ġchampions": 6527,
      "Ġcrown": 6528,
      "Ġcompleted": 6529,
      "Ġorganizations": 6530,
      "Ġties": 6531,
      "Ġeconomists": 6532,
      "pected": 6533,
      "Ġmobility": 6534,
      "hew": 6535,
      "Ġgeorg": 6536,
      "Ġentertainment": 6537,
      "Ġcritics": 6538,
      "Ġmarked": 6539,
      "inton": 6540,
      "Ġadmitted": 6541,
      "Ġfrozen": 6542,
      "Ġeaten": 6543,
      "Ġdismiss": 6544,
      "Ġliar": 6545,
      "Ġhomework": 6546,
      "Ġrang": 6547,
      "thy": 6548,
      "Ġages": 6549,
      "Ġremembered": 6550,
      "Ġclar": 6551,
      "Ġaspects": 6552,
      "Ġliterally": 6553,
      "Ġprivacy": 6554,
      "Ġsevent": 6555,
      "Ġfoods": 6556,
      "Ġgradually": 6557,
      "Ġimproving": 6558,
      "auc": 6559,
      "Ġjon": 6560,
      "Ġforecast": 6561,
      "Ġgap": 6562,
      "Ġsyn": 6563,
      "Ġsteady": 6564,
      "Ġrobert": 6565,
      "Ġdrawn": 6566,
      "uations": 6567,
      "ortion": 6568,
      "tic": 6569,
      "Ġhack": 6570,
      "Ġ*": 6571,
      "Ġresident": 6572,
      "asp": 6573,
      "Ġstations": 6574,
      "Ġfilms": 6575,
      "Ġfunding": 6576,
      "Ġpresented": 6577,
      "Ġwoke": 6578,
      "Ġdirt": 6579,
      "Ġconfront": 6580,
      "Ġillness": 6581,
      "Ġknocked": 6582,
      "Ġexpansion": 6583,
      "away": 6584,
      "pass": 6585,
      "Ġelder": 6586,
      "Ġqing": 6587,
      "hal": 6588,
      "Ġresort": 6589,
      "wered": 6590,
      "Ġevol": 6591,
      "ensity": 6592,
      "Ġaccordance": 6593,
      "Ġhenry": 6594,
      "Ġthir": 6595,
      "Ġcloset": 6596,
      "Ġtack": 6597,
      "Ġanc": 6598,
      "Ġfox": 6599,
      "Ġinvestments": 6600,
      "Ġstring": 6601,
      "Ġtheore": 6602,
      "Ġtaxi": 6603,
      "Ġagriculture": 6604,
      "Ġprotected": 6605,
      "Ġpreviously": 6606,
      "Ġsty": 6607,
      "Ġallerg": 6608,
      "Ġinspir": 6609,
      "Ġvalid": 6610,
      "Ġspiritual": 6611,
      "Ġnative": 6612,
      "Ġwinner": 6613,
      "Ġdeeper": 6614,
      "Ġsteve": 6615,
      "zes": 6616,
      "Ġming": 6617,
      "Ġfunctions": 6618,
      "uel": 6619,
      "Ġrevenge": 6620,
      "Ġdeficit": 6621,
      "Ġtrap": 6622,
      "Ġadvoc": 6623,
      "Ġproposal": 6624,
      "Ġvulnerable": 6625,
      "Ġmissile": 6626,
      "Ġdamaged": 6627,
      "Ġcharming": 6628,
      "Ġneighbors": 6629,
      "Ġbun": 6630,
      "Ġcontains": 6631,
      "Ġvolume": 6632,
      "utor": 6633,
      "wing": 6634,
      "Ġworries": 6635,
      "uces": 6636,
      "urning": 6637,
      "Ġpharm": 6638,
      "Ġconfess": 6639,
      "Ġjerk": 6640,
      "Ġbin": 6641,
      "Ġfib": 6642,
      "Ġthrown": 6643,
      "Ġtreating": 6644,
      "Ġfebr": 6645,
      "ige": 6646,
      "Ġrevealed": 6647,
      "Ġsink": 6648,
      "Ġeducational": 6649,
      "Ġfebruary": 6650,
      "Ġimmun": 6651,
      "hua": 6652,
      "Ġprol": 6653,
      "Ġsounded": 6654,
      "Ġelected": 6655,
      "Ġsenate": 6656,
      "Ġcontracts": 6657,
      "Ġsample": 6658,
      "Ġjin": 6659,
      "illa": 6660,
      "ca": 6661,
      "Ġbride": 6662,
      "Ġgenerous": 6663,
      "Ġruling": 6664,
      "Ġscratch": 6665,
      "Ġhairdry": 6666,
      "ushing": 6667,
      "Ġji": 6668,
      "Ġshif": 6669,
      "Ġpacked": 6670,
      "erate": 6671,
      "Ġvic": 6672,
      "Ġfever": 6673,
      "Ġbackup": 6674,
      "Ġenjoying": 6675,
      "Ġbelongs": 6676,
      "iao": 6677,
      "Ġemperor": 6678,
      "nown": 6679,
      "engers": 6680,
      "Ġclaimed": 6681,
      "Ġtibet": 6682,
      "Ġcord": 6683,
      "Ġpainful": 6684,
      "Ġmutual": 6685,
      "bl": 6686,
      "Ġattached": 6687,
      "Ġrocks": 6688,
      "Ġjur": 6689,
      "Ġsheep": 6690,
      "Ġcrucial": 6691,
      "Ġofficially": 6692,
      "Ġventure": 6693,
      "Ġgran": 6694,
      "going": 6695,
      "Ġlion": 6696,
      "Ġabuse": 6697,
      "Ġgrateful": 6698,
      "Ġspokes": 6699,
      "Ġsubstant": 6700,
      "iously": 6701,
      "van": 6702,
      "Ġcandidates": 6703,
      "Ġalb": 6704,
      "Ġeditor": 6705,
      "Ġsignificance": 6706,
      "Ġmyth": 6707,
      "Ġshed": 6708,
      "Ġdraft": 6709,
      "Ġhonestly": 6710,
      "Ġethnic": 6711,
      "Ġrival": 6712,
      "Ġscott": 6713,
      "Ġawake": 6714,
      "Ġannivers": 6715,
      "Ġthirty": 6716,
      "Ġstall": 6717,
      "Ġearned": 6718,
      "Ġcampus": 6719,
      "Ġinspection": 6720,
      "stream": 6721,
      "Ġtransportation": 6722,
      "Ġrib": 6723,
      "Ġimprovement": 6724,
      "Ġsid": 6725,
      "Ġorg": 6726,
      "ologists": 6727,
      "orp": 6728,
      "Ġmuslim": 6729,
      "Ġbasketball": 6730,
      "onym": 6731,
      "Ġhairdryer": 6732,
      "Ġwil": 6733,
      "Ġbreaks": 6734,
      "Ġangle": 6735,
      "Ġtiger": 6736,
      "Ġdemocrats": 6737,
      "Ġclimb": 6738,
      "rimin": 6739,
      "Ġhoped": 6740,
      "Ġshy": 6741,
      "Ġoppon": 6742,
      "Ġunexpected": 6743,
      "Ġwanting": 6744,
      "iate": 6745,
      "Ġjen": 6746,
      "agers": 6747,
      "Ġcruel": 6748,
      "Ġhub": 6749,
      "Ġgorgeous": 6750,
      "Ġgentleman": 6751,
      "Ġdefeat": 6752,
      "lands": 6753,
      "Ġdarkness": 6754,
      "Ġsometime": 6755,
      "cont": 6756,
      "Ġgenuine": 6757,
      "Ġpointed": 6758,
      "Ġemissions": 6759,
      "Ġpunishment": 6760,
      "Ġrip": 6761,
      "Ġblan": 6762,
      "Ġexplosion": 6763,
      "Ġtheat": 6764,
      "Ġexposure": 6765,
      "Ġmaid": 6766,
      "Ġdrama": 6767,
      "Ġcrossed": 6768,
      "Ġlifetime": 6769,
      "Ġtoxic": 6770,
      "Ġwrit": 6771,
      "onscious": 6772,
      "berry": 6773,
      "Ġpersist": 6774,
      "Ġequipped": 6775,
      "Ġtourism": 6776,
      "Ġkilomet": 6777,
      "Ġmathem": 6778,
      "Ġextraordinary": 6779,
      "py": 6780,
      "Ġhates": 6781,
      "Ġbroadcast": 6782,
      "Ġuncomfort": 6783,
      "Ġcave": 6784,
      "ivals": 6785,
      "Ġsynt": 6786,
      "Ġcomparison": 6787,
      "Ġprovisions": 6788,
      "Ġpossess": 6789,
      "Ġpillow": 6790,
      "Ġreturning": 6791,
      "Ġsubjects": 6792,
      "Ġwitnesses": 6793,
      "Ġnit": 6794,
      "Ġwarn": 6795,
      "Ġdiab": 6796,
      "inations": 6797,
      "Ġvisited": 6798,
      "Ġsisters": 6799,
      "Ġfairly": 6800,
      "Ġexperiences": 6801,
      "Ġsab": 6802,
      "Ġgates": 6803,
      "Ġgreet": 6804,
      "Ġautumn": 6805,
      "Ġrobbery": 6806,
      "Ġconver": 6807,
      "Ġpity": 6808,
      "Ġlending": 6809,
      "Ġincent": 6810,
      "cd": 6811,
      "Ġnasty": 6812,
      "Ġinsect": 6813,
      "Ġprotein": 6814,
      "Ġscreaming": 6815,
      "Ġcompensation": 6816,
      "ller": 6817,
      "Ġscrap": 6818,
      "Ġproducing": 6819,
      "Ġshield": 6820,
      "Ġwarming": 6821,
      "Ġexpectations": 6822,
      "Ġfreaking": 6823,
      "Ġcommerce": 6824,
      "Ġacademy": 6825,
      "sing": 6826,
      "Ġconsciousness": 6827,
      "Ġassembly": 6828,
      "Ġorange": 6829,
      "Ġdiscount": 6830,
      "Ġawk": 6831,
      "Ġexerc": 6832,
      "Ġindo": 6833,
      "Ġinteract": 6834,
      "yan": 6835,
      "ena": 6836,
      "Ġcustoms": 6837,
      "Ġadapt": 6838,
      "Ġmadam": 6839,
      "Ġawkward": 6840,
      "Ġpier": 6841,
      "Ġintent": 6842,
      "Ġbehaviour": 6843,
      "Ġfees": 6844,
      "Ġclothing": 6845,
      "Ġfolk": 6846,
      "Ġprompt": 6847,
      "Ġtrave": 6848,
      "Ġshoe": 6849,
      "Ġpard": 6850,
      "umes": 6851,
      "Ġrelie": 6852,
      "Ġrolling": 6853,
      "Ġthorough": 6854,
      "kers": 6855,
      "lla": 6856,
      "Ġxin": 6857,
      "Ġbasement": 6858,
      "Ġartific": 6859,
      "Ġcompete": 6860,
      "sp": 6861,
      "Ġwore": 6862,
      "Ġrats": 6863,
      "Ġlover": 6864,
      "Ġpromotion": 6865,
      "Ġstrengt": 6866,
      "Ġutil": 6867,
      "Ġprocedures": 6868,
      "Ġprisoners": 6869,
      "Ġsurvival": 6870,
      "cow": 6871,
      "Ġdepth": 6872,
      "Ġlaundry": 6873,
      "Ġunknown": 6874,
      "Ġwings": 6875,
      "irl": 6876,
      "Ġburst": 6877,
      "Ġwherever": 6878,
      "Ġcleared": 6879,
      "Ġnetworks": 6880,
      "ressed": 6881,
      "Ġkeen": 6882,
      "Ġpractically": 6883,
      "Ġestablishment": 6884,
      "Ġstairs": 6885,
      "Ġnewspapers": 6886,
      "Ġaggressive": 6887,
      "Ġenormous": 6888,
      "Ġanniversary": 6889,
      "what": 6890,
      "Ġltd": 6891,
      "Ġexists": 6892,
      "Ġtries": 6893,
      "Ġcontrovers": 6894,
      "Ġstops": 6895,
      "orders": 6896,
      "Ġyourselves": 6897,
      "Ġassure": 6898,
      "Ġwheat": 6899,
      "Ġsized": 6900,
      "itar": 6901,
      "Ġseal": 6902,
      "Ġmoscow": 6903,
      "Ġwhore": 6904,
      "Ġchip": 6905,
      "Ġboxes": 6906,
      "Ġtheater": 6907,
      "Ġdil": 6908,
      "Ġhills": 6909,
      "Ġpic": 6910,
      "Ġpour": 6911,
      "Ġdenied": 6912,
      "mat": 6913,
      "Ġtatt": 6914,
      "Ġthief": 6915,
      "ograph": 6916,
      "Ġsearching": 6917,
      "Ġreplaced": 6918,
      "Ġdrew": 6919,
      "Ġconvince": 6920,
      "Ġobser": 6921,
      "Ġgranted": 6922,
      "war": 6923,
      "Ġhighlight": 6924,
      "rating": 6925,
      "xi": 6926,
      "Ġknee": 6927,
      "Ġoverw": 6928,
      "Ġvegetables": 6929,
      "Ġdeputy": 6930,
      "Ġjac": 6931,
      "Ġtowns": 6932,
      "Ġbott": 6933,
      "Ġshops": 6934,
      "Ġfrequently": 6935,
      "Ġstun": 6936,
      "stein": 6937,
      "Ġstruggling": 6938,
      "Ġstir": 6939,
      "Ġmont": 6940,
      "Ġcontemporary": 6941,
      "Ġkat": 6942,
      "Ġgray": 6943,
      "Ġpotato": 6944,
      "Ġire": 6945,
      "Ġsession": 6946,
      "Ġbeef": 6947,
      "Ġrude": 6948,
      "Ġhumili": 6949,
      "Ġstranger": 6950,
      "Ġmainten": 6951,
      "Ġnons": 6952,
      "Ġdining": 6953,
      "Ġbrut": 6954,
      "Ġgrain": 6955,
      "Ġeffectively": 6956,
      "Ġtennis": 6957,
      "Ġgat": 6958,
      "Ġmerch": 6959,
      "Ġmanif": 6960,
      "Ġmoreover": 6961,
      "Ġblond": 6962,
      "Ġlanding": 6963,
      "Ġsurvived": 6964,
      "Ġling": 6965,
      "Ġdestruction": 6966,
      "mal": 6967,
      "Ġconcrete": 6968,
      "Ġphenomenon": 6969,
      "Ġtheories": 6970,
      "Ġfreeze": 6971,
      "Ġunhapp": 6972,
      "agne": 6973,
      "Ġradical": 6974,
      "Ġclinic": 6975,
      "Ġdatabase": 6976,
      "Ġdub": 6977,
      "Ġhind": 6978,
      "Ġhistoric": 6979,
      "Ġtreasury": 6980,
      "zone": 6981,
      "stone": 6982,
      "Ġdeny": 6983,
      "Ġmaintenance": 6984,
      "Ġelevator": 6985,
      "mates": 6986,
      "rup": 6987,
      "Ġwen": 6988,
      "Ġvib": 6989,
      "Ġactor": 6990,
      "Ġinterrupt": 6991,
      "Ġsettlement": 6992,
      "Ġgifts": 6993,
      "Ġlobby": 6994,
      "Ġsnake": 6995,
      "Ġrh": 6996,
      "orted": 6997,
      "Ġpassengers": 6998,
      "Ġtrusted": 6999,
      "cut": 7000,
      "Ġspons": 7001,
      "Ġpassport": 7002,
      "Ġchecks": 7003,
      "Ġurgent": 7004,
      "yard": 7005,
      "Ġdeck": 7006,
      "Ġswed": 7007,
      "Ġcouples": 7008,
      "Ġappet": 7009,
      "Ġpalestin": 7010,
      "alf": 7011,
      "Ġpromises": 7012,
      "Ġwallet": 7013,
      "box": 7014,
      "Ġvotes": 7015,
      "vy": 7016,
      "Ġhits": 7017,
      "Ġnas": 7018,
      "Ġcomments": 7019,
      "Ġstudio": 7020,
      "Ġregulators": 7021,
      "Ġsupreme": 7022,
      "Ġdur": 7023,
      "rey": 7024,
      "abilities": 7025,
      "Ġski": 7026,
      "Ġjung": 7027,
      "Ġdent": 7028,
      "Ġhandling": 7029,
      "Ġsynd": 7030,
      "Ġgrounds": 7031,
      "Ġhood": 7032,
      "Ġgraduate": 7033,
      "Ġkate": 7034,
      "Ġdod": 7035,
      "Ġmining": 7036,
      "Ġdiscipline": 7037,
      "Ġashamed": 7038,
      "Ġcharles": 7039,
      "Ġuncomfortable": 7040,
      "Ġom": 7041,
      "Ġpeas": 7042,
      "Ġbuzz": 7043,
      "Ġprivile": 7044,
      "Ġbuddh": 7045,
      "Ġgam": 7046,
      "Ġrehe": 7047,
      "Ġlouis": 7048,
      "atures": 7049,
      "Ġprints": 7050,
      "Ġextent": 7051,
      "Ġjewel": 7052,
      "Ġancest": 7053,
      "sis": 7054,
      "arts": 7055,
      "ĠâĢĿ": 7056,
      "Ġoverwhel": 7057,
      "zer": 7058,
      "Ġmonitor": 7059,
      "market": 7060,
      "Ġmerc": 7061,
      "Ġcomprehensive": 7062,
      "Ġguilt": 7063,
      "Ġbullets": 7064,
      "Ġrailway": 7065,
      "eable": 7066,
      "Ġpayments": 7067,
      "Ġrhy": 7068,
      "Ġstays": 7069,
      "Ġthreatening": 7070,
      "ola": 7071,
      "Ġbold": 7072,
      "Ġetern": 7073,
      "Ġprincipal": 7074,
      "Ġuseless": 7075,
      "eline": 7076,
      "Ġdates": 7077,
      "Ġpuss": 7078,
      "Ġidentified": 7079,
      "Ġwages": 7080,
      "Ġliu": 7081,
      "Ġarth": 7082,
      "Ġeveryday": 7083,
      "Ġassass": 7084,
      "lessly": 7085,
      "Ġtechnically": 7086,
      "Ġloser": 7087,
      "ription": 7088,
      "Ġdecre": 7089,
      "eing": 7090,
      "Ġadding": 7091,
      "Ġshen": 7092,
      "Ġthomas": 7093,
      "Ġlanguages": 7094,
      "Ġjeff": 7095,
      "Ġarchitecture": 7096,
      "Ġenhance": 7097,
      "Ġthumb": 7098,
      "uting": 7099,
      "Ġoutput": 7100,
      "Ġcollaps": 7101,
      "Ġhurting": 7102,
      "Ġreveal": 7103,
      "Ġmouse": 7104,
      "Ġdefect": 7105,
      "bey": 7106,
      "Ġadmir": 7107,
      "Ġownership": 7108,
      "ui": 7109,
      "Ġwitch": 7110,
      "Ġlegisl": 7111,
      "Ġcourts": 7112,
      "Ġskull": 7113,
      "Ġlamp": 7114,
      "Ġwelf": 7115,
      "Ġnecessarily": 7116,
      "Ġaii": 7117,
      "Ġforbid": 7118,
      "Ġhorn": 7119,
      "Ġterrif": 7120,
      "iped": 7121,
      "Ġrecognized": 7122,
      "Ġwealthy": 7123,
      "ran": 7124,
      "Ġyu": 7125,
      "Ġchase": 7126,
      "Ġmeters": 7127,
      "Ġanswered": 7128,
      "Ġbarg": 7129,
      "Ġlegislation": 7130,
      "Ġpor": 7131,
      "Ġcenturies": 7132,
      "Ġdivided": 7133,
      "Ġpreparing": 7134,
      "Ġpoetry": 7135,
      "Ġmit": 7136,
      "wal": 7137,
      "Ġcertificate": 7138,
      "kel": 7139,
      "irts": 7140,
      "Ġclue": 7141,
      "Ġmenu": 7142,
      "Ġsteam": 7143,
      "Ġcabinet": 7144,
      "Ġdramatic": 7145,
      "add": 7146,
      "Ġprisoner": 7147,
      "Ġmurderer": 7148,
      "Ġneighbour": 7149,
      "Ġpsychological": 7150,
      "owing": 7151,
      "iece": 7152,
      "Ġbeneath": 7153,
      "Ġholes": 7154,
      "Ġwelfare": 7155,
      "Ġrend": 7156,
      "Ġdiscovery": 7157,
      "Ġarbit": 7158,
      "Ġobst": 7159,
      "Ġbiological": 7160,
      "Ġstimulus": 7161,
      "Ġgarbage": 7162,
      "Ġot": 7163,
      "Ġimpressed": 7164,
      "Ġsurrounded": 7165,
      "Ġoffices": 7166,
      "Ġcommodity": 7167,
      "Ġmolec": 7168,
      "Ġpurse": 7169,
      "Ġsuspects": 7170,
      "Ġorgans": 7171,
      "oes": 7172,
      "vable": 7173,
      "Ġsang": 7174,
      "Ġeager": 7175,
      "acles": 7176,
      "Ġweigh": 7177,
      "Ġextended": 7178,
      "Ġpractices": 7179,
      "Ġeleg": 7180,
      "Ġgulf": 7181,
      "Ġrecorded": 7182,
      "Ġsurrend": 7183,
      "Ġevac": 7184,
      "Ġbattery": 7185,
      "Ġassessment": 7186,
      "Ġoutdoor": 7187,
      "Ġster": 7188,
      "Ġproport": 7189,
      "Ġdisorder": 7190,
      "Ġstretch": 7191,
      "Ġtattoo": 7192,
      "Ġemail": 7193,
      "Ġcovering": 7194,
      "Ġdumped": 7195,
      "Ġexplains": 7196,
      "riers": 7197,
      "Ġsaus": 7198,
      "Ġpuzz": 7199,
      "Ġclouds": 7200,
      "Ġpatch": 7201,
      "assy": 7202,
      "Ġeleph": 7203,
      "rick": 7204,
      "Ġwasting": 7205,
      "Ġimperial": 7206,
      "water": 7207,
      "lying": 7208,
      "Ġtracking": 7209,
      "Ġcharm": 7210,
      "Ġcav": 7211,
      "Ġtheme": 7212,
      "Ġpresents": 7213,
      "Ġmanifest": 7214,
      "Ġknees": 7215,
      "Ġstopping": 7216,
      "Ġmusical": 7217,
      "Ġsmells": 7218,
      "Ġdiscl": 7219,
      "Ġexplained": 7220,
      "Ġdiplomatic": 7221,
      "Ġreverse": 7222,
      "Ġovers": 7223,
      "Ġnumerous": 7224,
      "Ġdeclined": 7225,
      "Ġsofa": 7226,
      "Ġsought": 7227,
      "Ġhorm": 7228,
      "teen": 7229,
      "Ġbowl": 7230,
      "Ġorganized": 7231,
      "Ġuniversal": 7232,
      "Ġescaped": 7233,
      "Ġsandwich": 7234,
      "Ġstink": 7235,
      "Ġcontext": 7236,
      "Ġprofound": 7237,
      "Ġrichard": 7238,
      "Ġreaching": 7239,
      "Ġcapture": 7240,
      "Ġbind": 7241,
      "Ġclinton": 7242,
      "Ġemotions": 7243,
      "Ġalleged": 7244,
      "ario": 7245,
      "Ġcleaned": 7246,
      "Ġfactories": 7247,
      "Ġrefuge": 7248,
      "Ġwand": 7249,
      "Ġsue": 7250,
      "plant": 7251,
      "Ġcolors": 7252,
      "Ġspeaks": 7253,
      "Ġphysic": 7254,
      "Ġodds": 7255,
      "Ġbum": 7256,
      "Ġcompass": 7257,
      "Ġfeeding": 7258,
      "itarian": 7259,
      "Ġdeleg": 7260,
      "Ġcounting": 7261,
      "Ġsimpl": 7262,
      "Ġbarack": 7263,
      "Ġreaders": 7264,
      "Ġsufficient": 7265,
      "Ġmercy": 7266,
      "Ġkissed": 7267,
      "anes": 7268,
      "Ġimpl": 7269,
      "Ġisraeli": 7270,
      "Ġambass": 7271,
      "Ġchampion": 7272,
      "Ġgreatly": 7273,
      "Ġthreats": 7274,
      "Ġhes": 7275,
      "Ġchasing": 7276,
      "Ġmanh": 7277,
      "Ġbeings": 7278,
      "Ġstructures": 7279,
      "Ġhaz": 7280,
      "Ġregister": 7281,
      "Ġstrategies": 7282,
      "Ġstroke": 7283,
      "Ġacute": 7284,
      "Ġglory": 7285,
      "Ġarrival": 7286,
      "Ġmmm": 7287,
      "Ġjoey": 7288,
      "Ġfrancisco": 7289,
      "rect": 7290,
      "Ġcircu": 7291,
      "Ġpleasant": 7292,
      "Ġmakers": 7293,
      "Ġterr": 7294,
      "Ġjersey": 7295,
      "Ġadventure": 7296,
      "lings": 7297,
      "Ġplot": 7298,
      "Ġdawn": 7299,
      "Ġhers": 7300,
      "Ġsummit": 7301,
      "Ġquietly": 7302,
      "Ġchampagne": 7303,
      "Ġjewish": 7304,
      "Ġpremium": 7305,
      "itched": 7306,
      "Ġstepped": 7307,
      "Ġintervention": 7308,
      "umber": 7309,
      "Ġregistration": 7310,
      "Ġenforcement": 7311,
      "Ġfisher": 7312,
      "Ġwarri": 7313,
      "Ġreserves": 7314,
      "Ġrivers": 7315,
      "cover": 7316,
      "Ġillust": 7317,
      "aucr": 7318,
      "Ġbru": 7319,
      "Ġcorporation": 7320,
      "mare": 7321,
      "Ġsomed": 7322,
      "Ġros": 7323,
      "Ġvacc": 7324,
      "Ġbureaucr": 7325,
      "Ġpardon": 7326,
      "Ġequally": 7327,
      "Ġstraw": 7328,
      "Ġbench": 7329,
      "Ġlcd": 7330,
      "Ġbankers": 7331,
      "Ġcreatures": 7332,
      "Ġtourists": 7333,
      "Ġkissing": 7334,
      "Ġdisagree": 7335,
      "Ġgene": 7336,
      "Ġarticles": 7337,
      "Ġireland": 7338,
      "Ġls": 7339,
      "Ġerror": 7340,
      "Ġindones": 7341,
      "Ġambul": 7342,
      "Ġdetailed": 7343,
      "Ġmask": 7344,
      "po": 7345,
      "lle": 7346,
      "Ġtransition": 7347,
      "Ġworldwide": 7348,
      "Ġsomeday": 7349,
      "Ġaccurate": 7350,
      "Ġdropping": 7351,
      "Ġpartnership": 7352,
      "Ġmiam": 7353,
      "Ġdeserves": 7354,
      "Ġsurrounding": 7355,
      "Ġdynamic": 7356,
      "Ġbeside": 7357,
      "Ġstrengthen": 7358,
      "Ġcats": 7359,
      "Ġrating": 7360,
      "Ġdispute": 7361,
      "Ġultimate": 7362,
      "Ġarranged": 7363,
      "Ġbury": 7364,
      "Ġconqu": 7365,
      "Ġamid": 7366,
      "rison": 7367,
      "Ġalliance": 7368,
      "Ġbuyers": 7369,
      "Ġcoalition": 7370,
      "Ġauction": 7371,
      "Ġdiagnosis": 7372,
      "Ġhedge": 7373,
      "Ġmiami": 7374,
      "Ġflaw": 7375,
      "Ġsom": 7376,
      "cience": 7377,
      "Ġzoo": 7378,
      "Ġbankrupt": 7379,
      "Ġfart": 7380,
      "Ġcolumn": 7381,
      "Ġmessed": 7382,
      "udge": 7383,
      "Ġclick": 7384,
      "Ġreducing": 7385,
      "Ġlibya": 7386,
      "Ġdeploy": 7387,
      "Ġnegotiations": 7388,
      "urd": 7389,
      "Ġallies": 7390,
      "Ġpotentially": 7391,
      "Ġsophistic": 7392,
      "ifies": 7393,
      "Ġintim": 7394,
      "Ġrobot": 7395,
      "Ġinstrument": 7396,
      "isp": 7397,
      "Ġselfish": 7398,
      "Ġtroubles": 7399,
      "ari": 7400,
      "Ġsuits": 7401,
      "Ġremaining": 7402,
      "Ġbacteria": 7403,
      "yang": 7404,
      "Ġcourses": 7405,
      "Ġentit": 7406,
      "Ġsuspicious": 7407,
      "aks": 7408,
      "Ġfairy": 7409,
      "Ġaccum": 7410,
      "Ġentering": 7411,
      "Ġjimmy": 7412,
      "Ġentrepreneurs": 7413,
      "de": 7414,
      "Ġdistingu": 7415,
      "Ġamounts": 7416,
      "Ġfierce": 7417,
      "Ġformation": 7418,
      "Ġexception": 7419,
      "Ġky": 7420,
      "Ġsheets": 7421,
      "Ġrebu": 7422,
      "Ġreception": 7423,
      "Ġbrid": 7424,
      "Ġperformed": 7425,
      "Ġcontrad": 7426,
      "Ġwins": 7427,
      "Ġtrem": 7428,
      "Ġpound": 7429,
      "Ġdeliber": 7430,
      "Ġmunicip": 7431,
      "ctic": 7432,
      "Ġgrid": 7433,
      "Ġidol": 7434,
      "Ġsneak": 7435,
      "Ġtrunk": 7436,
      "Ġflew": 7437,
      "Ġsamples": 7438,
      "Ġnightmare": 7439,
      "Ġembarrassed": 7440,
      "Ġtorture": 7441,
      "Ġwarehouse": 7442,
      "Ġanth": 7443,
      "Ġfridge": 7444,
      "Ġaged": 7445,
      "Ġcurse": 7446,
      "Ġtreaty": 7447,
      "Ġconventional": 7448,
      "Ġstrongly": 7449,
      "Ġspirits": 7450,
      "Ġsatisfact": 7451,
      "Ġcotton": 7452,
      "Ġfoolish": 7453,
      "Ġprotests": 7454,
      "Ġearnings": 7455,
      "Ġgest": 7456,
      "Ġharmon": 7457,
      "Ġhydro": 7458,
      "greg": 7459,
      "Ġmister": 7460,
      "Ġhabits": 7461,
      "izer": 7462,
      "Ġshaped": 7463,
      "Ġinsult": 7464,
      "Ġeliz": 7465,
      "elled": 7466,
      "Ġwreck": 7467,
      "any": 7468,
      "Ġrust": 7469,
      "Ġartists": 7470,
      "Ġdeaths": 7471,
      "Ġattempts": 7472,
      "Ġstabil": 7473,
      "Ġmonitoring": 7474,
      "Ġaest": 7475,
      "Ġlod": 7476,
      "Ġmothers": 7477,
      "Ġdeclared": 7478,
      "Ġbare": 7479,
      "Ġobservation": 7480,
      "Ġconvenience": 7481,
      "Ġhars": 7482,
      "Ġminded": 7483,
      "Ġvampire": 7484,
      "Ġleak": 7485,
      "Ġtopic": 7486,
      "Ġhoriz": 7487,
      "Ġsocialist": 7488,
      "Ġresolution": 7489,
      "Ġfindings": 7490,
      "Ġretreat": 7491,
      "Ġgains": 7492,
      "Ġmiracle": 7493,
      "Ġvit": 7494,
      "Ġintelligent": 7495,
      "Ġassumed": 7496,
      "abeth": 7497,
      "Ġgenes": 7498,
      "Ġpreparation": 7499,
      "Ġtunnel": 7500,
      "Ġembarrassing": 7501,
      "Ġdou": 7502,
      "Ġpond": 7503,
      "Ġasks": 7504,
      "Ġobserve": 7505,
      "Ġharvest": 7506,
      "Ġthee": 7507,
      "Ġreass": 7508,
      "Ġloaded": 7509,
      "Ġpanc": 7510,
      "Ġnoted": 7511,
      "Ġoccas": 7512,
      "Ġadmire": 7513,
      "Ġmiserable": 7514,
      "enda": 7515,
      "Ġguitar": 7516,
      "Ġexpenses": 7517,
      "Ġsalary": 7518,
      "Ġruled": 7519,
      "Ġspecifically": 7520,
      "Ġrabbit": 7521,
      "Ġchronic": 7522,
      "Ġphysics": 7523,
      "Ġchamber": 7524,
      "Ġpant": 7525,
      "Ġpension": 7526,
      "Ġcaptured": 7527,
      "rome": 7528,
      "Ġirre": 7529,
      "Ġdanny": 7530,
      "Ġshrink": 7531,
      "Ġannouncement": 7532,
      "Ġtasks": 7533,
      "kins": 7534,
      "Ġhay": 7535,
      "Ġnep": 7536,
      "Ġbron": 7537,
      "Ġcheating": 7538,
      "qing": 7539,
      "Ġpian": 7540,
      "Ġhospitals": 7541,
      "Ġconducted": 7542,
      "Ġdescription": 7543,
      "Ġcant": 7544,
      "Ġrape": 7545,
      "Ġshore": 7546,
      "Ġreporter": 7547,
      "Ġserial": 7548,
      "Ġopera": 7549,
      "Ġmong": 7550,
      "Ġbio": 7551,
      "Ġexceed": 7552,
      "Ġsalv": 7553,
      "fol": 7554,
      "Ġgoodness": 7555,
      "Ġlands": 7556,
      "Ġdivorced": 7557,
      "Ġexperimental": 7558,
      "Ġcomponents": 7559,
      "lyn": 7560,
      "Ġjose": 7561,
      "Ġjones": 7562,
      "Ġconsol": 7563,
      "Ġextend": 7564,
      "Ġextensive": 7565,
      "Ġdepartments": 7566,
      "Ġmodest": 7567,
      "Ġdestiny": 7568,
      "ographic": 7569,
      "Ġpeak": 7570,
      "hesis": 7571,
      "Ġlabel": 7572,
      "Ġcharacteristic": 7573,
      "Ġrocket": 7574,
      "Ġpipe": 7575,
      "Ġlecture": 7576,
      "Ġblown": 7577,
      "Ġconcentrate": 7578,
      "Ġmanufacturers": 7579,
      "Ġberlin": 7580,
      "Ġwishes": 7581,
      "Ġaspir": 7582,
      "Ġcancel": 7583,
      "Ġserves": 7584,
      "Ġhomicide": 7585,
      "Ġkills": 7586,
      "Ġinterior": 7587,
      "Ġsurviv": 7588,
      "Ġjerry": 7589,
      "Ġmotherfucker": 7590,
      "unction": 7591,
      "Ġspray": 7592,
      "Ġpole": 7593,
      "Ġawa": 7594,
      "Ġbombs": 7595,
      "Ġwounded": 7596,
      "Ġservant": 7597,
      "Ġargued": 7598,
      "burg": 7599,
      "Ġsum": 7600,
      "Ġfruits": 7601,
      "Ġwalks": 7602,
      "Ġimagination": 7603,
      "Ġconnections": 7604,
      "Ġinspired": 7605,
      "Ġwage": 7606,
      "Ġheadquar": 7607,
      "Ġpursue": 7608,
      "Ġthri": 7609,
      "Ġsmiling": 7610,
      "Ġdepressed": 7611,
      "cr": 7612,
      "Ġtorn": 7613,
      "athan": 7614,
      "Ġelectrical": 7615,
      "Ġreporting": 7616,
      "Ġfabric": 7617,
      "oked": 7618,
      "aid": 7619,
      "ads": 7620,
      "Ġshortly": 7621,
      "Ġtube": 7622,
      "xual": 7623,
      "ata": 7624,
      "Ġoutstanding": 7625,
      "Ġsinger": 7626,
      "attan": 7627,
      "Ġtracks": 7628,
      "Ġmysterious": 7629,
      "va": 7630,
      "Ġimmune": 7631,
      "Ġsuspected": 7632,
      "Ġolympics": 7633,
      "Ġfertil": 7634,
      "Ġnonsense": 7635,
      "oot": 7636,
      "rows": 7637,
      "giving": 7638,
      "pting": 7639,
      "Ġstub": 7640,
      "Ġdefinition": 7641,
      "Ġcitizen": 7642,
      "Ġalike": 7643,
      "Ġlanded": 7644,
      "Ġjudic": 7645,
      "Ġtourist": 7646,
      "Ġhence": 7647,
      "Ġunhappy": 7648,
      "power": 7649,
      "Ġdevast": 7650,
      "Ġmotive": 7651,
      "Ġrepresents": 7652,
      "Ġlinks": 7653,
      "Ġnah": 7654,
      "Ġsucks": 7655,
      "Ġpays": 7656,
      "Ġcolour": 7657,
      "Ġhumanity": 7658,
      "pro": 7659,
      "Ġnavig": 7660,
      "Ġbeast": 7661,
      "Ġlistened": 7662,
      "Ġdaniel": 7663,
      "Ġmild": 7664,
      "Ġconsistent": 7665,
      "Ġoccasionally": 7666,
      "cope": 7667,
      "Ġsorts": 7668,
      "Ġatom": 7669,
      "Ġlets": 7670,
      "Ġinvis": 7671,
      "Ġcopper": 7672,
      "Ġpainted": 7673,
      "Ġexpressed": 7674,
      "Ġchef": 7675,
      "Ġcorrupt": 7676,
      "Ġpassenger": 7677,
      "iox": 7678,
      "Ġfond": 7679,
      "Ġron": 7680,
      "Ġcliff": 7681,
      "Ġhelicopter": 7682,
      "Ġblanket": 7683,
      "Ġdign": 7684,
      "Ġduties": 7685,
      "Ġtrauma": 7686,
      "Ġtension": 7687,
      "Ġpreced": 7688,
      "Ġanxiety": 7689,
      "Ġcompare": 7690,
      "Ġregarded": 7691,
      "Ġbuffet": 7692,
      "Ġrejected": 7693,
      "Ġremarkable": 7694,
      "iner": 7695,
      "Ġnod": 7696,
      "Ġbehalf": 7697,
      "Ġrecognition": 7698,
      "Ġcigarette": 7699,
      "Ġsentiment": 7700,
      "Ġgalax": 7701,
      "ba": 7702,
      "Ġcens": 7703,
      "ami": 7704,
      "Ġcanad": 7705,
      "Ġprocesses": 7706,
      "Ġtouching": 7707,
      "Ġsustainable": 7708,
      "jo": 7709,
      "Ġtoys": 7710,
      "Ġlam": 7711,
      "iser": 7712,
      "Ġgenerations": 7713,
      "Ġrepresentative": 7714,
      "Ġscheduled": 7715,
      "Ġreceiving": 7716,
      "Ġoriginally": 7717,
      "Ġblowing": 7718,
      "Ġquarters": 7719,
      "Ġrick": 7720,
      "umin": 7721,
      "Ġdrivers": 7722,
      "Ġdealer": 7723,
      "Ġingred": 7724,
      "hent": 7725,
      "Ġalley": 7726,
      "ribed": 7727,
      "Ġfifty": 7728,
      "pers": 7729,
      "Ġcu": 7730,
      "Ġgum": 7731,
      "Ġrelation": 7732,
      "Ġzhang": 7733,
      "Ġdisgusting": 7734,
      "Ġoutcome": 7735,
      "Ġupgr": 7736,
      "Ġbible": 7737,
      "ression": 7738,
      "anches": 7739,
      "Ġpsychology": 7740,
      "Ġcommunications": 7741,
      "Ġtiming": 7742,
      "mail": 7743,
      "atics": 7744,
      "Ġovercome": 7745,
      "Ġreceip": 7746,
      "Ġimmigration": 7747,
      "imony": 7748,
      "Ġrelatives": 7749,
      "Ġsignature": 7750,
      "Ġanalyzed": 7751,
      "Ġnope": 7752,
      "Ġmisunder": 7753,
      "Ġachieved": 7754,
      "Ġguidance": 7755,
      "Ġknight": 7756,
      "Ġskip": 7757,
      "irm": 7758,
      "Ġalleg": 7759,
      "Ġdifficulty": 7760,
      "Ġscandal": 7761,
      "Ġporn": 7762,
      "Ġkr": 7763,
      "Ġgoss": 7764,
      "oded": 7765,
      "Ġphr": 7766,
      "Ġlane": 7767,
      "Ġcogn": 7768,
      "Ġatlantic": 7769,
      "Ġpraise": 7770,
      "Ġregularly": 7771,
      "Ġvest": 7772,
      "Ġinterrog": 7773,
      "Ġnd": 7774,
      "Ġbobby": 7775,
      "Ġlayer": 7776,
      "Ġpowder": 7777,
      "Ġinstruments": 7778,
      "Ġgathered": 7779,
      "mun": 7780,
      "vey": 7781,
      "Ġjokes": 7782,
      "Ġdigging": 7783,
      "Ġmartin": 7784,
      "Ġovernight": 7785,
      "Ġdiscour": 7786,
      "life": 7787,
      "Ġsecondary": 7788,
      "Ġattracted": 7789,
      "Ġaccomplish": 7790,
      "Ġenl": 7791,
      "Ġcollab": 7792,
      "Ġperforming": 7793,
      "Ġsupervision": 7794,
      "Ġcondem": 7795,
      "Ġirish": 7796,
      "Ġheadquarters": 7797,
      "Ġnaz": 7798,
      "Ġreduction": 7799,
      "Ġanonym": 7800,
      "Ġwoo": 7801,
      "ilateral": 7802,
      "Ġcontents": 7803,
      "Ġlocker": 7804,
      "Ġembassy": 7805,
      "Ġvirtual": 7806,
      "Ġartificial": 7807,
      "Ġsausage": 7808,
      "uci": 7809,
      "itter": 7810,
      "Ġshareholders": 7811,
      "Ġsovereign": 7812,
      "Ġboots": 7813,
      "Ġnato": 7814,
      "Ġliterary": 7815,
      "Ġshelter": 7816,
      "Ġtables": 7817,
      "Ġeg": 7818,
      "Ġowns": 7819,
      "Ġutter": 7820,
      "Ġfoster": 7821,
      "Ġslipped": 7822,
      "guard": 7823,
      "Ġrevolutionary": 7824,
      "Ġku": 7825,
      "Ġboot": 7826,
      "Ġjoking": 7827,
      "Ġtransplant": 7828,
      "Ġretirement": 7829,
      "Ġtob": 7830,
      "Ġprecisely": 7831,
      "Ġworship": 7832,
      "Ġpathetic": 7833,
      "Ġsilk": 7834,
      "Ġfluid": 7835,
      "iary": 7836,
      "ether": 7837,
      "Ġslave": 7838,
      "elling": 7839,
      "Ġexamine": 7840,
      "Ġinjuries": 7841,
      "Ġliberty": 7842,
      "Ġambassador": 7843,
      "tail": 7844,
      "Ġbour": 7845,
      "Ġbears": 7846,
      "Ġscope": 7847,
      "Ġsupporting": 7848,
      "fire": 7849,
      "Ġwounds": 7850,
      "Ġsupported": 7851,
      "heng": 7852,
      "Ġfence": 7853,
      "Ġnig": 7854,
      "Ġsocc": 7855,
      "Ġsignificantly": 7856,
      "Ġfried": 7857,
      "isy": 7858,
      "Ġprostit": 7859,
      "Ġleis": 7860,
      "Ġdifficulties": 7861,
      "Ġunfair": 7862,
      "Ġpolar": 7863,
      "Ġcreature": 7864,
      "Ġsoccer": 7865,
      "Ġwrap": 7866,
      "Ġchannels": 7867,
      "Ġhip": 7868,
      "Ġpasses": 7869,
      "Ġclassroom": 7870,
      "Ġfiled": 7871,
      "Ġcivilization": 7872,
      "Ġovert": 7873,
      "Ġinstant": 7874,
      "Ġbarb": 7875,
      "Ġcatal": 7876,
      "Ġramp": 7877,
      "Ġdoz": 7878,
      "Ġbehave": 7879,
      "Ġvolcan": 7880,
      "Ġthirst": 7881,
      "ano": 7882,
      "Ġreprod": 7883,
      "Ġtricks": 7884,
      "Ġtons": 7885,
      "Ġtraged": 7886,
      "aughters": 7887,
      "Ġpregnancy": 7888,
      "Ġsnap": 7889,
      "Ġtian": 7890,
      "Ġcheaper": 7891,
      "Ġcreates": 7892,
      "Ġbenefic": 7893,
      "Ġvirginia": 7894,
      "Ġvoted": 7895,
      "Ġselected": 7896,
      "Ġinevitable": 7897,
      "Ġproc": 7898,
      "Ġharvard": 7899,
      "Ġambulance": 7900,
      "organ": 7901,
      "Ġdrives": 7902,
      "Ġextr": 7903,
      "Ġbeaten": 7904,
      "belie": 7905,
      "Ġengines": 7906,
      "Ġloyalty": 7907,
      "Ġengagement": 7908,
      "Ġcatching": 7909,
      "Ġmanaging": 7910,
      "Ġprayer": 7911,
      "Ġsaint": 7912,
      "Ġhint": 7913,
      "Ġworrying": 7914,
      "Ġengineer": 7915,
      "Ġindicate": 7916,
      "Ġresid": 7917,
      "Ġsupporters": 7918,
      "iver": 7919,
      "Ġdishes": 7920,
      "Ġopposed": 7921,
      "Ġmice": 7922,
      "Ġreun": 7923,
      "Ġstructural": 7924,
      "Ġpurposes": 7925,
      "Ġterrorists": 7926,
      "ashes": 7927,
      "Ġwasted": 7928,
      "Ġreluct": 7929,
      "Ġstatements": 7930,
      "Ġcommunicate": 7931,
      "Ġscenes": 7932,
      "Ġkicking": 7933,
      "Ġoutfit": 7934,
      "ounced": 7935,
      "Ġsuitable": 7936,
      "Ġregulatory": 7937,
      "Ġdang": 7938,
      "Ġtwel": 7939,
      "Ġscientist": 7940,
      "Ġmanhattan": 7941,
      "Ġvisible": 7942,
      "Ġaye": 7943,
      "Ġsear": 7944,
      "Ġagenda": 7945,
      "Ġapprox": 7946,
      "Ġlogic": 7947,
      "uk": 7948,
      "Ġpile": 7949,
      "aneous": 7950,
      "Ġsupervis": 7951,
      "Ġcrops": 7952,
      "Ġabund": 7953,
      "Ġtoug": 7954,
      "Ġposted": 7955,
      "eem": 7956,
      "ann": 7957,
      "Ġrings": 7958,
      "Ġcaps": 7959,
      "Ġmeantime": 7960,
      "conn": 7961,
      "Ġtribe": 7962,
      "Ġcapitalism": 7963,
      "Ġcivilian": 7964,
      "Ġdozens": 7965,
      "Ġsomewhat": 7966,
      "Ġcrystal": 7967,
      "Ġtwin": 7968,
      "Ġperce": 7969,
      "Ġcrush": 7970,
      "Ġgrows": 7971,
      "Ġeducated": 7972,
      "Ġdirections": 7973,
      "Ġleisure": 7974,
      "Ġnarr": 7975,
      "Ġech": 7976,
      "Ġrif": 7977,
      "Ġsomeplace": 7978,
      "Ġadam": 7979,
      "Ġantib": 7980,
      "Ġpenn": 7981,
      "Ġparticipants": 7982,
      "Ġaimed": 7983,
      "Ġfiring": 7984,
      "Ġinfected": 7985,
      "cul": 7986,
      "Ġattrib": 7987,
      "Ġparag": 7988,
      "Ġdistant": 7989,
      "Ġimplementation": 7990,
      "Ġinstructions": 7991,
      "Ġpatri": 7992,
      "Ġfantasy": 7993,
      "Ġcatholic": 7994,
      "ione": 7995,
      "rig": 7996,
      "Ġpussy": 7997,
      "ique": 7998,
      "Ġwipe": 7999,
      "Ġbing": 8000,
      "Ġtransferred": 8001,
      "fish": 8002,
      "Ġrevol": 8003,
      "pay": 8004,
      "Ġchill": 8005,
      "Ġinsight": 8006,
      "Ġsubur": 8007,
      "Ġanticip": 8008,
      "rous": 8009,
      "Ġrit": 8010,
      "Ġsituations": 8011,
      "Ġexamples": 8012,
      "Ġflour": 8013,
      "Ġretired": 8014,
      "Ġapology": 8015,
      "Ġune": 8016,
      "Ġcolumb": 8017,
      "Ġproductivity": 8018,
      "Ġoriented": 8019,
      "Ġstatistics": 8020,
      "Ġpretending": 8021,
      "Ġfailing": 8022,
      "Ġinvolving": 8023,
      "Ġcollected": 8024,
      "Ġabandon": 8025,
      "kind": 8026,
      "Ġlag": 8027,
      "Ġexpense": 8028,
      "Ġfrequency": 8029,
      "Ġimports": 8030,
      "Ġprotocol": 8031,
      "Ġvoices": 8032,
      "Ġgeorgia": 8033,
      "Ġlapt": 8034,
      "orr": 8035,
      "Ġwashed": 8036,
      "Ġprohib": 8037,
      "anges": 8038,
      "iana": 8039,
      "Ġacquis": 8040,
      "Ġroughly": 8041,
      "itches": 8042,
      "opsy": 8043,
      "Ġregarding": 8044,
      "Ġcompound": 8045,
      "Ġquot": 8046,
      "Ġslide": 8047,
      "Ġseeds": 8048,
      "Ġcage": 8049,
      "itative": 8050,
      "Ġchi": 8051,
      "Ġcriminals": 8052,
      "Ġfleet": 8053,
      "Ġparticipate": 8054,
      "Ġelizabeth": 8055,
      "Ġplag": 8056,
      "Ġauthent": 8057,
      "Ġadvantages": 8058,
      "har": 8059,
      "Ġcalend": 8060,
      "Ġinsisted": 8061,
      "Ġmaximum": 8062,
      "Ġchips": 8063,
      "Ġministers": 8064,
      "Ġford": 8065,
      "Ġmete": 8066,
      "Ġwhist": 8067,
      "Ġstones": 8068,
      "imeter": 8069,
      "Ġshipping": 8070,
      "Ġcozy": 8071,
      "Ġkidney": 8072,
      "Ġgrey": 8073,
      "Ġtravelers": 8074,
      "Ġlen": 8075,
      "Ġtalented": 8076,
      "Ġavenue": 8077,
      "Ġhostage": 8078,
      "Ġdutch": 8079,
      "Ġcul": 8080,
      "Ġdischar": 8081,
      "Ġseparated": 8082,
      "Ġignor": 8083,
      "Ġdaughters": 8084,
      "Ġrope": 8085,
      "quet": 8086,
      "Ġplug": 8087,
      "Ġgrat": 8088,
      "Ġtale": 8089,
      "iah": 8090,
      "Ġinvolves": 8091,
      "with": 8092,
      "abled": 8093,
      "Ġdestination": 8094,
      "Ġtips": 8095,
      "Ġsket": 8096,
      "Ġbicy": 8097,
      "Ġcheat": 8098,
      "Ġchemistry": 8099,
      "Ġexperiments": 8100,
      "Ġsuccessfully": 8101,
      "Ġsophisticated": 8102,
      "hand": 8103,
      "weight": 8104,
      "Ġjumping": 8105,
      "Ġsatisfied": 8106,
      "gie": 8107,
      "Ġfare": 8108,
      "soft": 8109,
      "Ġsolutions": 8110,
      "Ġpalm": 8111,
      "Ġintegrated": 8112,
      "eous": 8113,
      "Ġtrains": 8114,
      "ogy": 8115,
      "Ġsignals": 8116,
      "shot": 8117,
      "Ġconspir": 8118,
      "Ġga": 8119,
      "Ġdrill": 8120,
      "Ġbarn": 8121,
      "Ġchaos": 8122,
      "Ġrehears": 8123,
      "Ġrear": 8124,
      "Ġargues": 8125,
      "Ġintend": 8126,
      "Ġglor": 8127,
      "Ġdifferently": 8128,
      "Ġmedication": 8129,
      "Ġveter": 8130,
      "Ġpatience": 8131,
      "ounge": 8132,
      "Ġminority": 8133,
      "Ġfoss": 8134,
      "Ġpale": 8135,
      "Ġnu": 8136,
      "Ġtechnological": 8137,
      "Ġmature": 8138,
      "erning": 8139,
      "Ġmour": 8140,
      "Ġpacking": 8141,
      "Ġroots": 8142,
      "neath": 8143,
      "Ġunderneath": 8144,
      "Ġtranslation": 8145,
      "Ġaah": 8146,
      "Ġdeaf": 8147,
      "Ġmurders": 8148,
      "Ġsurgeon": 8149,
      "Ġheal": 8150,
      "Ġrivals": 8151,
      "Ġspots": 8152,
      "Ġfled": 8153,
      "Ġthanksgiving": 8154,
      "Ġdebts": 8155,
      "Ġharsh": 8156,
      "Ġugh": 8157,
      "iban": 8158,
      "Ġsew": 8159,
      "elines": 8160,
      "Ġhumor": 8161,
      "mond": 8162,
      "Ġequival": 8163,
      "Ġsuggesting": 8164,
      "Ġpromoting": 8165,
      "Ġincredibly": 8166,
      "Ġjoining": 8167,
      "Ġvoting": 8168,
      "Ġepis": 8169,
      "Ġdedicated": 8170,
      "Ġdull": 8171,
      "Ġank": 8172,
      "Ġactress": 8173,
      "roph": 8174,
      "Ġsemi": 8175,
      "Ġinvisible": 8176,
      "Ġpup": 8177,
      "Ġoutr": 8178,
      "ribly": 8179,
      "Ġsixth": 8180,
      "Ġwiz": 8181,
      "Ġcel": 8182,
      "Ġherit": 8183,
      "Ġgrabbed": 8184,
      "Ġintegration": 8185,
      "usalem": 8186,
      "inity": 8187,
      "Ġdrain": 8188,
      "Ġjerusalem": 8189,
      "Ġtelecom": 8190,
      "Ġchuck": 8191,
      "Ġfarmer": 8192,
      "Ġinformed": 8193,
      "Ġwinds": 8194,
      "Ġneutral": 8195,
      "Ġwhoo": 8196,
      "Ġmeals": 8197,
      "Ġpaintings": 8198,
      "Ġleather": 8199,
      "ailand": 8200,
      "Ġbadge": 8201,
      "Ġauthentic": 8202,
      "Ġdor": 8203,
      "acular": 8204,
      "Ġmetaph": 8205,
      "Ġpent": 8206,
      "Ġpron": 8207,
      "beat": 8208,
      "Ġcontam": 8209,
      "Ġecological": 8210,
      "Ġautomatic": 8211,
      "Ġthailand": 8212,
      "Ġping": 8213,
      "Ġencouraged": 8214,
      "ckets": 8215,
      "Ġinvestigating": 8216,
      "Ġdave": 8217,
      "Ġdong": 8218,
      "Ġnoble": 8219,
      "Ġpsychiat": 8220,
      "Ġliability": 8221,
      "Ġhonour": 8222,
      "Ġanswering": 8223,
      "esters": 8224,
      "Ġmelt": 8225,
      "ila": 8226,
      "vah": 8227,
      "ima": 8228,
      "Ġsaud": 8229,
      "Ġgermans": 8230,
      "Ġaustralian": 8231,
      "Ġpla": 8232,
      "Ġbrands": 8233,
      "Ġhandled": 8234,
      "Ġmicrosoft": 8235,
      "Ġunderwear": 8236,
      "Ġcia": 8237,
      "Ġrecip": 8238,
      "Ġshoulders": 8239,
      "Ġmovements": 8240,
      "Ġeurozone": 8241,
      "Ġfootage": 8242,
      "Ġmatches": 8243,
      "Ġexpanding": 8244,
      "lon": 8245,
      "pread": 8246,
      "Ġjiang": 8247,
      "Ġhomeless": 8248,
      "Ġbent": 8249,
      "Ġthunder": 8250,
      "Ġfingerprint": 8251,
      "Ġexhibition": 8252,
      "Ġjar": 8253,
      "Ġinterstate": 8254,
      "Ġpatrol": 8255,
      "Ġgrandpa": 8256,
      "oly": 8257,
      "itated": 8258,
      "Ġsuspended": 8259,
      "don": 8260,
      "Ġinvented": 8261,
      "Ġencoun": 8262,
      "Ġcommunities": 8263,
      "Ġmexican": 8264,
      "Ġanxious": 8265,
      "arest": 8266,
      "Ġterrific": 8267,
      "Ġtastes": 8268,
      "Ġassuming": 8269,
      "Ġcigarettes": 8270,
      "Ġclown": 8271,
      "Ġreliable": 8272,
      "Ġgained": 8273,
      "Ġbelly": 8274,
      "active": 8275,
      "Ġtaliban": 8276,
      "Ġdrum": 8277,
      "Ġfinancing": 8278,
      "Ġsurpl": 8279,
      "Ġexcite": 8280,
      "Ġrecording": 8281,
      "Ġclubs": 8282,
      "Ġmars": 8283,
      "Ġtender": 8284,
      "Ġcounterp": 8285,
      "Ġgrief": 8286,
      "Ġbranches": 8287,
      "Ġbubb": 8288,
      "Ġcarpet": 8289,
      "Ġnutr": 8290,
      "nament": 8291,
      "Ġcopies": 8292,
      "Ġintroduction": 8293,
      "Ġpassword": 8294,
      "Ġdesigner": 8295,
      "Ġtay": 8296,
      "arks": 8297,
      "adium": 8298,
      "Ġaudition": 8299,
      "Ġregardless": 8300,
      "Ġalg": 8301,
      "Ġsuspic": 8302,
      "Ġalib": 8303,
      "Ġaccent": 8304,
      "Ġpromising": 8305,
      "Ġunconscious": 8306,
      "Ġarrangement": 8307,
      "anted": 8308,
      "Ġbrad": 8309,
      "ds": 8310,
      "rics": 8311,
      "Ġdealers": 8312,
      "Ġceiling": 8313,
      "orse": 8314,
      "Ġauthors": 8315,
      "Ġtroubled": 8316,
      "bow": 8317,
      "Ġsafer": 8318,
      "Ġmuff": 8319,
      "Ġlounge": 8320,
      "Ġcargo": 8321,
      "Ġsyria": 8322,
      "Ġsqueeze": 8323,
      "Ġwives": 8324,
      "Ġstiff": 8325,
      "Ġconscience": 8326,
      "Ġcontinuing": 8327,
      "Ġbillions": 8328,
      "Ġgravity": 8329,
      "Ġthesis": 8330,
      "Ġbart": 8331,
      "Ġlis": 8332,
      "Ġmans": 8333,
      "Ġpaperwork": 8334,
      "Ġtumor": 8335,
      "Ġsubstit": 8336,
      "rum": 8337,
      "Ġoverd": 8338,
      "Ġdefined": 8339,
      "Ġblocked": 8340,
      "Ġnursing": 8341,
      "Ġisolated": 8342,
      "Ġbout": 8343,
      "arer": 8344,
      "Ġdrank": 8345,
      "Ġportug": 8346,
      "Ġelite": 8347,
      "Ġpenny": 8348,
      "Ġemerged": 8349,
      "Ġsacred": 8350,
      "Ġjackson": 8351,
      "Ġphotograph": 8352,
      "Ġsyndrome": 8353,
      "Ġturb": 8354,
      "Ġstrictly": 8355,
      "Ġworthy": 8356,
      "Ġalph": 8357,
      "Ġblank": 8358,
      "Ġscores": 8359,
      "Ġparam": 8360,
      "Ġrestrictions": 8361,
      "Ġstrangers": 8362,
      "Ġappetite": 8363,
      "Ġgossip": 8364,
      "Ġsigning": 8365,
      "Ġpossession": 8366,
      "Ġsarah": 8367,
      "Ġbree": 8368,
      "Ġbrush": 8369,
      "Ġmao": 8370,
      "Ġcoverage": 8371,
      "Ġdispos": 8372,
      "Ġorph": 8373,
      "Ġsolved": 8374,
      "Ġyelling": 8375,
      "bag": 8376,
      "liness": 8377,
      "seif": 8378,
      "izz": 8379,
      "Ġabsence": 8380,
      "Ġcrossing": 8381,
      "Ġexecution": 8382,
      "Ġaddict": 8383,
      "Ġtragedy": 8384,
      "erge": 8385,
      "Ġrally": 8386,
      "sea": 8387,
      "Ġunbelie": 8388,
      "Ġlungs": 8389,
      "Ġbalcon": 8390,
      "Ġborrowing": 8391,
      "Ġspokesman": 8392,
      "bour": 8393,
      "etes": 8394,
      "igan": 8395,
      "Ġblade": 8396,
      "Ġendless": 8397,
      "Ġcass": 8398,
      "Ġspaces": 8399,
      "Ġbrook": 8400,
      "Ġratio": 8401,
      "Ġhypot": 8402,
      "Ġambit": 8403,
      "Ġsmugg": 8404,
      "Ġartistic": 8405,
      "Ġestabl": 8406,
      "Ġconcentration": 8407,
      "Ġvessels": 8408,
      "car": 8409,
      "oric": 8410,
      "Ġflip": 8411,
      "Ġservants": 8412,
      "Ġtin": 8413,
      "Ġrehab": 8414,
      "Ġnoon": 8415,
      "Ġmarx": 8416,
      "Ġpropag": 8417,
      "Ġcoward": 8418,
      "Ġchemicals": 8419,
      "iar": 8420,
      "Ġlev": 8421,
      "Ġwhereas": 8422,
      "Ġstrikes": 8423,
      "Ġteddy": 8424,
      "Ġtox": 8425,
      "Ġine": 8426,
      "Ġpassage": 8427,
      "Ġfloating": 8428,
      "Ġjews": 8429,
      "itary": 8430,
      "Ġads": 8431,
      "Ġjewelry": 8432,
      "Ġkings": 8433,
      "Ġsubsequ": 8434,
      "Ġinvestor": 8435,
      "Ġcoincidence": 8436,
      "Ġwides": 8437,
      "Ġfounded": 8438,
      "Ġdressing": 8439,
      "Ġengineers": 8440,
      "Ġcompromise": 8441,
      "limin": 8442,
      "Ġlaboratory": 8443,
      "Ġhast": 8444,
      "Ġweaken": 8445,
      "Ġcounts": 8446,
      "Ġrescu": 8447,
      "Ġdeadly": 8448,
      "Ġqualified": 8449,
      "Ġtrends": 8450,
      "Ġneedle": 8451,
      "ifications": 8452,
      "Ġarguing": 8453,
      "Ġrubber": 8454,
      "Ġbusted": 8455,
      "Ġtens": 8456,
      "grad": 8457,
      "Ġzeal": 8458,
      "Ġinterf": 8459,
      "Ġinvesting": 8460,
      "Ġcasino": 8461,
      "Ġritual": 8462,
      "Ġcattle": 8463,
      "Ġbos": 8464,
      "Ġreconstr": 8465,
      "Ġstriking": 8466,
      "Ġgambling": 8467,
      "Ġwriters": 8468,
      "Ġtwelve": 8469,
      "Ġheritage": 8470,
      "agen": 8471,
      "Ġforeigners": 8472,
      "Ġessence": 8473,
      "Ġdread": 8474,
      "Ġrisky": 8475,
      "Ġpenalty": 8476,
      "Ġdancer": 8477,
      "yc": 8478,
      "Ġexemp": 8479,
      "Ġparticles": 8480,
      "ocation": 8481,
      "Ġpremier": 8482,
      "Ġfollows": 8483,
      "Ġassignment": 8484,
      "Ġgathering": 8485,
      "Ġcommodities": 8486,
      "Ġdirectors": 8487,
      "oys": 8488,
      "Ġze": 8489,
      "Ġchris": 8490,
      "Ġrank": 8491,
      "Ġseas": 8492,
      "Ġalter": 8493,
      "Ġvirtually": 8494,
      "Ġexhausted": 8495,
      "opol": 8496,
      "aping": 8497,
      "Ġvalent": 8498,
      "Ġtraders": 8499,
      "Ġtheoretical": 8500,
      "wa": 8501,
      "Ġfitness": 8502,
      "Ġconfession": 8503,
      "Ġterrorism": 8504,
      "win": 8505,
      "Ġov": 8506,
      "Ġink": 8507,
      "Ġforty": 8508,
      "Ġrighteous": 8509,
      "Ġenvelop": 8510,
      "Ġmunicipal": 8511,
      "Ġwidespread": 8512,
      "Ġais": 8513,
      "Ġspit": 8514,
      "Ġprevention": 8515,
      "uster": 8516,
      "Ġpropose": 8517,
      "Ġrud": 8518,
      "Ġtransact": 8519,
      "Ġsafely": 8520,
      "Ġresolve": 8521,
      "Ġindoor": 8522,
      "Ġproven": 8523,
      "Ġsanctions": 8524,
      "Ġcategory": 8525,
      "Ġtobac": 8526,
      "Ġpublicly": 8527,
      "theless": 8528,
      "Ġflexible": 8529,
      "Ġnevertheless": 8530,
      "Ġtransc": 8531,
      "Ġjohnny": 8532,
      "Ġcivilians": 8533,
      "Ġastron": 8534,
      "Ġoffs": 8535,
      "Ġfellas": 8536,
      "Ġambitious": 8537,
      "uates": 8538,
      "Ġnotion": 8539,
      "Ġcried": 8540,
      "Ġboats": 8541,
      "Ġundert": 8542,
      "Ġneglect": 8543,
      "Ġlaser": 8544,
      "Ġsung": 8545,
      "Ġcarrier": 8546,
      "uffs": 8547,
      "shore": 8548,
      "Ġvillages": 8549,
      "Ġsurrender": 8550,
      "Ġari": 8551,
      "Ġaids": 8552,
      "Ġmakeup": 8553,
      "Ġreserv": 8554,
      "Ġhunter": 8555,
      "Ġembrace": 8556,
      "Ġlatter": 8557,
      "Ġclassical": 8558,
      "Ġanalyze": 8559,
      "Ġestimated": 8560,
      "Ġelderly": 8561,
      "Ġwrest": 8562,
      "Ġfires": 8563,
      "Ġscul": 8564,
      "Ġreporters": 8565,
      "Ġcostume": 8566,
      "Ġrounds": 8567,
      "Ġsubstance": 8568,
      "abed": 8569,
      "keys": 8570,
      "opard": 8571,
      "estyle": 8572,
      "Ġsauce": 8573,
      "Ġrises": 8574,
      "Ġshuttle": 8575,
      "Ġarguments": 8576,
      "Ġshocked": 8577,
      "Ġrage": 8578,
      "Ġgenerate": 8579,
      "Ġholidays": 8580,
      "Ġwider": 8581,
      "Ġbis": 8582,
      "step": 8583,
      "Ġprotective": 8584,
      "chester": 8585,
      "Ġprospects": 8586,
      "Ġstadium": 8587,
      "Ġcircles": 8588,
      "Ġunst": 8589,
      "Ġpatent": 8590,
      "Ġcollective": 8591,
      "Ġtransformation": 8592,
      "Ġproportion": 8593,
      "Ġsalad": 8594,
      "Ġbutterf": 8595,
      "Ġelegant": 8596,
      "Ġcanadian": 8597,
      "Ġbearing": 8598,
      "Ġcoco": 8599,
      "Ġbuyer": 8600,
      "Ġspreading": 8601,
      "Ġexcessive": 8602,
      "asters": 8603,
      "Ġrequirement": 8604,
      "Ġdelicate": 8605,
      "fers": 8606,
      "enn": 8607,
      "Ġplates": 8608,
      "Ġenlight": 8609,
      "Ġsubmit": 8610,
      "Ġjuris": 8611,
      "Ġpiano": 8612,
      "ji": 8613,
      "Ġplanes": 8614,
      "Ġcoron": 8615,
      "Ġdiscrimin": 8616,
      "Ġshooter": 8617,
      "Ġdigest": 8618,
      "Ġfashioned": 8619,
      "Ġtropical": 8620,
      "bra": 8621,
      "Ġparall": 8622,
      "Ġmemorial": 8623,
      "ua": 8624,
      "Ġmotel": 8625,
      "Ġracing": 8626,
      "Ġcomponent": 8627,
      "sed": 8628,
      "Ġsubway": 8629,
      "Ġcooked": 8630,
      "Ġreflects": 8631,
      "Ġcircuit": 8632,
      "Ġcalendar": 8633,
      "tains": 8634,
      "Ġhallow": 8635,
      "Ġneat": 8636,
      "Ġtransaction": 8637,
      "Ġcared": 8638,
      "Ġdal": 8639,
      "utors": 8640,
      "Ġshark": 8641,
      "Ġputin": 8642,
      "Ġstrengthe": 8643,
      "zhen": 8644,
      "oli": 8645,
      "uctive": 8646,
      "Ġrestore": 8647,
      "Ġgm": 8648,
      "Ġbeans": 8649,
      "Ġdrought": 8650,
      "Ġpursuit": 8651,
      "Ġtobacco": 8652,
      "eda": 8653,
      "Ġconcerning": 8654,
      "Ġobsc": 8655,
      "Ġrack": 8656,
      "Ġshaking": 8657,
      "Ġchew": 8658,
      "Ġbanned": 8659,
      "Ġprinting": 8660,
      "inery": 8661,
      "Ġsincere": 8662,
      "Ġunsub": 8663,
      "Ġdefine": 8664,
      "Ġspecified": 8665,
      "Ġpulse": 8666,
      "Ġmeteor": 8667,
      "Ġprotesters": 8668,
      "Ġvari": 8669,
      "Ġjean": 8670,
      "rich": 8671,
      "Ġfid": 8672,
      "Ġpartial": 8673,
      "Ġprelimin": 8674,
      "Ġinvitation": 8675,
      "Ġneur": 8676,
      "Ġmighty": 8677,
      "Ġfathers": 8678,
      "Ġfunctional": 8679,
      "Ġmagnetic": 8680,
      "Ġdisturb": 8681,
      "ckey": 8682,
      "Ġpean": 8683,
      "Ġobserved": 8684,
      "Ġrepresentatives": 8685,
      "Ġkilometers": 8686,
      "Ġrecovered": 8687,
      "Ġconfuci": 8688,
      "Ġsends": 8689,
      "Ġstressed": 8690,
      "Ġthread": 8691,
      "Ġcultures": 8692,
      "Ġimmunity": 8693,
      "ouses": 8694,
      "Ġformula": 8695,
      "Ġlegally": 8696,
      "Ġjournalists": 8697,
      "iro": 8698,
      "Ġross": 8699,
      "Ġdelet": 8700,
      "Ġcomplaint": 8701,
      "Ġfrequent": 8702,
      "Ġparagrap": 8703,
      "Ġbend": 8704,
      "oto": 8705,
      "Ġanne": 8706,
      "Ġblamed": 8707,
      "Ġcontaining": 8708,
      "Ġmajesty": 8709,
      "Ġpenet": 8710,
      "Ġsilic": 8711,
      "Ġheroes": 8712,
      "Ġfabulous": 8713,
      "itudes": 8714,
      "Ġcontained": 8715,
      "Ġidi": 8716,
      "Ġtoll": 8717,
      "Ġcorps": 8718,
      "Ġstarving": 8719,
      "Ġdrops": 8720,
      "Ġvolat": 8721,
      "Ġtam": 8722,
      "Ġanch": 8723,
      "Ġsealed": 8724,
      "Ġdisrupt": 8725,
      "Ġafterwards": 8726,
      "Ġdemon": 8727,
      "Ġtaxpay": 8728,
      "itzer": 8729,
      "Ġeliminate": 8730,
      "Ġacknowled": 8731,
      "Ġtune": 8732,
      "Ġcough": 8733,
      "Ġdess": 8734,
      "ethe": 8735,
      "Ġmamm": 8736,
      "Ġjos": 8737,
      "Ġoffense": 8738,
      "Ġgrim": 8739,
      "Ġspectacular": 8740,
      "Ġyields": 8741,
      "Ġtransmission": 8742,
      "uating": 8743,
      "Ġeag": 8744,
      "Ġschem": 8745,
      "Ġpockets": 8746,
      "Ġinduced": 8747,
      "Ġmuscles": 8748,
      "Ġcollapsed": 8749,
      "Ġslam": 8750,
      "Ġbald": 8751,
      "Ġcomplaints": 8752,
      "Ġgroom": 8753,
      "Ġignored": 8754,
      "Ġassigned": 8755,
      "Ġinherit": 8756,
      "Ġtheft": 8757,
      "Ġbee": 8758,
      "Ġhardware": 8759,
      "Ġjohnson": 8760,
      "Ġreplic": 8761,
      "Ġevident": 8762,
      "Ġradar": 8763,
      "Ġsculpt": 8764,
      "Ġturk": 8765,
      "Ġplanted": 8766,
      "Ġattempted": 8767,
      "Ġlifted": 8768,
      "Ġarrangements": 8769,
      "Ġestimates": 8770,
      "Ġwrapped": 8771,
      "Ġbalcony": 8772,
      "Ġresent": 8773,
      "Ġbelg": 8774,
      "Ġinvasion": 8775,
      "Ġphysically": 8776,
      "Ġdemanding": 8777,
      "Ġindonesia": 8778,
      "Ġfiction": 8779,
      "Ġforcing": 8780,
      "Ġabilities": 8781,
      "Ġacted": 8782,
      "Ġfreezing": 8783,
      "Ġharass": 8784,
      "Ġlowest": 8785,
      "Ġmeasured": 8786,
      "Ġfatal": 8787,
      "Ġinitiative": 8788,
      "Ġprox": 8789,
      "ogether": 8790,
      "Ġlightning": 8791,
      "Ġcookies": 8792,
      "Ġpermit": 8793,
      "Ġheadache": 8794,
      "Ġghosts": 8795,
      "Ġdiabetes": 8796,
      "Ġflows": 8797,
      "Ġsimult": 8798,
      "Ġladen": 8799,
      "Ġfrightened": 8800,
      "Ġhou": 8801,
      "Ġguts": 8802,
      "Ġcoke": 8803,
      "Ġcontrolling": 8804,
      "Ġroy": 8805,
      "Ġlarry": 8806,
      "Ġirrit": 8807,
      "Ġwondered": 8808,
      "Ġdreaming": 8809,
      "Ġjeho": 8810,
      "Ġpointing": 8811,
      "licit": 8812,
      "Ġosc": 8813,
      "gered": 8814,
      "Ġleon": 8815,
      "rates": 8816,
      "Ġbegging": 8817,
      "Ġcrashed": 8818,
      "aii": 8819,
      "Ġcarries": 8820,
      "liest": 8821,
      "Ġapprove": 8822,
      "Ġspeaker": 8823,
      "just": 8824,
      "ni": 8825,
      "Ġspill": 8826,
      "Ġproductive": 8827,
      "Ġamend": 8828,
      "Ġsnea": 8829,
      "not": 8830,
      "ora": 8831,
      "oman": 8832,
      "ainted": 8833,
      "Ġopens": 8834,
      "Ġmedal": 8835,
      "Ġthreaten": 8836,
      "zo": 8837,
      "Ġhm": 8838,
      "Ġlaure": 8839,
      "Ġmorgan": 8840,
      "lph": 8841,
      "Ġouter": 8842,
      "Ġsubsc": 8843,
      "Ġcontinent": 8844,
      "Ġmicros": 8845,
      "Ġresponsibilities": 8846,
      "Ġexisted": 8847,
      "Ġrevenues": 8848,
      "tub": 8849,
      "Ġamy": 8850,
      "Ġchel": 8851,
      "Ġpresum": 8852,
      "Ġrestr": 8853,
      "Ġadds": 8854,
      "aneously": 8855,
      "Ġsaudi": 8856,
      "Ġkm": 8857,
      "Ġkevin": 8858,
      "Ġphili": 8859,
      "gun": 8860,
      "maker": 8861,
      "Ġlazy": 8862,
      "Ġtriump": 8863,
      "Ġrepeatedly": 8864,
      "asive": 8865,
      "roc": 8866,
      "Ġreservation": 8867,
      "apping": 8868,
      "Ġexcitement": 8869,
      "Ġphilipp": 8870,
      "Ġpunk": 8871,
      "Ġbrick": 8872,
      "Ġchampionship": 8873,
      "erest": 8874,
      "oen": 8875,
      "Ġdys": 8876,
      "Ġincon": 8877,
      "eed": 8878,
      "nat": 8879,
      "Ġsoap": 8880,
      "neys": 8881,
      "Ġfits": 8882,
      "Ġpoker": 8883,
      "Ġlaug": 8884,
      "Ġsuggestions": 8885,
      "Ġinspector": 8886,
      "chers": 8887,
      "ko": 8888,
      "Ġwicked": 8889,
      "Ġbog": 8890,
      "Ġgord": 8891,
      "Ġlawn": 8892,
      "Ġsla": 8893,
      "Ġproducers": 8894,
      "Ġandy": 8895,
      "Ġcontinu": 8896,
      "Ġdominated": 8897,
      "Ġdependent": 8898,
      "da": 8899,
      "Ġlemon": 8900,
      "iii": 8901,
      "Ġsouls": 8902,
      "Ġcountryside": 8903,
      "itan": 8904,
      "Ġmanual": 8905,
      "Ġparked": 8906,
      "Ġsuggestion": 8907,
      "Ġromney": 8908,
      "Ġdragged": 8909,
      "Ġdeposits": 8910,
      "Ġreferred": 8911,
      "Ġblessing": 8912,
      "Ġlind": 8913,
      "Ġsober": 8914,
      "arded": 8915,
      "Ġcovers": 8916,
      "Ġpigs": 8917,
      "Ġupdate": 8918,
      "Ġexclusive": 8919,
      "Ġbou": 8920,
      "Ġrevers": 8921,
      "Ġrenov": 8922,
      "Ġprick": 8923,
      "Ġrobbed": 8924,
      "Ġswiss": 8925,
      "Ġmessing": 8926,
      "Ġannoying": 8927,
      "Ġattractions": 8928,
      "Ġgab": 8929,
      "ito": 8930,
      "Ġchairs": 8931,
      "Ġintensive": 8932,
      "Ġharbor": 8933,
      "Ġcompetitors": 8934,
      "Ġperf": 8935,
      "Ġrefres": 8936,
      "Ġhybr": 8937,
      "Ġanytime": 8938,
      "Ġhalfway": 8939,
      "Ġattach": 8940,
      "Ġhuang": 8941,
      "Ġpermitted": 8942,
      "jin": 8943,
      "oved": 8944,
      "Ġequivalent": 8945,
      "mble": 8946,
      "herent": 8947,
      "Ġdot": 8948,
      "Ġnowad": 8949,
      "Ġcaut": 8950,
      "Ġobsessed": 8951,
      "Ġcreepy": 8952,
      "vest": 8953,
      "Ġhiring": 8954,
      "Ġworn": 8955,
      "Ġlocations": 8956,
      "Ġinfant": 8957,
      "Ġromance": 8958,
      "Ġscenario": 8959,
      "Ġmes": 8960,
      "Ġjord": 8961,
      "Ġhandful": 8962,
      "Ġorient": 8963,
      "Ġobjection": 8964,
[...]
