{
  "version": "1.0",
  "truncation": null,
  "padding": null,
  "added_tokens": [
    {
      "id": 0,
      "content": "[PAD]",
      "single_word": false,
      "lstrip": false,
      "rstrip": false,
      "normalized": false,
      "special": true
    },
    {
      "id": 1,
      "content": "[BOS]",
      "single_word": false,
      "lstrip": false,
      "rstrip": false,
      "normalized": false,
      "special": true
    },
    {
      "id": 2,
      "content": "[EOS]",
      "single_word": false,
      "lstrip": false,
      "rstrip": false,
      "normalized": false,
      "special": true
    },
    {
      "id": 3,
      "content": "[UNK]",
      "single_word": false,
      "lstrip": false,
      "rstrip": false,
      "normalized": false,
      "special": true
    }
  ],
  "normalizer": {
    "type": "Sequence",
    "normalizers": [
      {
        "type": "NFKC"
      },
      {
        "type": "StripAccents"
      },
      {
        "type": "NFD"
      },
      {
        "type": "Lowercase"
      }
    ]
  },
  "pre_tokenizer": {
    "type": "Sequence",
    "pretokenizers": [
      {
        "type": "Whitespace"
      },
      {
        "type": "Punctuation",
        "behavior": "Isolated"
      },
      {
        "type": "Digits",
        "individual_digits": true
      },
      {
        "type": "ByteLevel",
        "add_prefix_space": true,
        "trim_offsets": true,
        "use_regex": true
      }
    ]
  },
  "post_processor": {
    "type": "TemplateProcessing",
    "single": [
      {
        "SpecialToken": {
          "id": "[BOS]",
          "type_id": 0
        }
      },
      {
        "Sequence": {
          "id": "A",
          "type_id": 0
        }
      },
      {
        "SpecialToken": {
          "id": "[EOS]",
          "type_id": 0
        }
      }
    ],
    "pair": [
      {
        "SpecialToken": {
          "id": "[BOS]",
          "type_id": 0
        }
      },
      {
        "Sequence": {
          "id": "A",
          "type_id": 0
        }
      },
      {
        "SpecialToken": {
          "id": "[EOS]",
          "type_id": 0
        }
      },
      {
        "SpecialToken": {
          "id": "[BOS]",
          "type_id": 0
        }
      },
      {
        "Sequence": {
          "id": "B",
          "type_id": 0
        }
      },
      {
        "SpecialToken": {
          "id": "[EOS]",
          "type_id": 0
        }
      }
    ],
    "special_tokens": {
      "[BOS]": {
        "id": "[BOS]",
        "ids": [
          1
        ],
        "tokens": [
          "[BOS]"
        ]
      },
      "[EOS]": {
        "id": "[EOS]",
        "ids": [
          2
        ],
        "tokens": [
          "[EOS]"
        ]
      }
    }
  },
  "decoder": {
    "type": "ByteLevel",
    "add_prefix_space": true,
    "trim_offsets": true,
    "use_regex": true
  },
  "model": {
    "type": "BPE",
    "dropout": null,
    "unk_token": "[UNK]",
    "continuing_subword_prefix": null,
    "end_of_word_suffix": null,
    "fuse_unk": false,
    "byte_fallback": false,
    "ignore_merges": false,
    "vocab": {
      "[PAD]": 0,
      "[BOS]": 1,
      "[EOS]": 2,
      "[UNK]": 3,
      "!": 4,
      "\"": 5,
      "#": 6,
      "$": 7,
      "%": 8,
      "&": 9,
      "'": 10,
      "(": 11,
      ")": 12,
      "*": 13,
      "+": 14,
      ",": 15,
      "-": 16,
      ".": 17,
      "/": 18,
      "0": 19,
      "1": 20,
      "2": 21,
      "3": 22,
      "4": 23,
      "5": 24,
      "6": 25,
      "7": 26,
      "8": 27,
      "9": 28,
      ":": 29,
      ";": 30,
      "<": 31,
      "=": 32,
      ">": 33,
      "?": 34,
      "@": 35,
      "[": 36,
      "\\": 37,
      "]": 38,
      "^": 39,
      "_": 40,
      "`": 41,
      "a": 42,
      "b": 43,
      "c": 44,
      "d": 45,
      "e": 46,
      "f": 47,
      "g": 48,
      "h": 49,
      "i": 50,
      "j": 51,
      "k": 52,
      "l": 53,
      "m": 54,
      "n": 55,
      "o": 56,
      "p": 57,
      "q": 58,
      "r": 59,
      "s": 60,
      "t": 61,
      "u": 62,
      "v": 63,
      "w": 64,
      "x": 65,
      "y": 66,
      "z": 67,
      "{": 68,
      "|": 69,
      "}": 70,
      "~": 71,
      "¡": 72,
      "¢": 73,
      "£": 74,
      "¤": 75,
      "¥": 76,
      "¦": 77,
      "§": 78,
      "¨": 79,
      "©": 80,
      "ª": 81,
      "«": 82,
      "¬": 83,
      "®": 84,
      "¯": 85,
      "°": 86,
      "±": 87,
      "²": 88,
      "³": 89,
      "´": 90,
      "µ": 91,
      "¶": 92,
      "·": 93,
      "¸": 94,
      "¹": 95,
      "º": 96,
      "»": 97,
      "¼": 98,
      "½": 99,
      "¾": 100,
      "¿": 101,
      "Â": 102,
      "Ã": 103,
      "Ä": 104,
      "Å": 105,
      "Æ": 106,
      "Ç": 107,
      "È": 108,
      "É": 109,
      "Ê": 110,
      "Ë": 111,
      "Ì": 112,
      "Î": 113,
      "Ï": 114,
      "Ð": 115,
      "Ñ": 116,
      "Ò": 117,
      "×": 118,
      "Ø": 119,
      "Ù": 120,
      "Ú": 121,
      "Û": 122,
      "à": 123,
      "á": 124,
      "â": 125,
      "ã": 126,
      "ä": 127,
      "å": 128,
      "æ": 129,
      "ç": 130,
      "è": 131,
      "é": 132,
      "ê": 133,
      "î": 134,
      "ï": 135,
      "ā": 136,
      "Ă": 137,
      "ă": 138,
      "Ą": 139,
      "ą": 140,
      "Ć": 141,
      "ć": 142,
      "Ĉ": 143,
      "Ď": 144,
      "ď": 145,
      "Đ": 146,
      "đ": 147,
      "Ē": 148,
      "ē": 149,
      "Ĕ": 150,
      "ĕ": 151,
      "Ė": 152,
      "ė": 153,
      "Ę": 154,
      "ę": 155,
      "ě": 156,
      "Ĝ": 157,
      "ĝ": 158,
      "Ğ": 159,
      "ğ": 160,
      "Ġ": 161,
      "ġ": 162,
      "Ģ": 163,
      "ģ": 164,
      "Ĥ": 165,
      "ĥ": 166,
      "Ħ": 167,
      "ħ": 168,
      "Ĩ": 169,
      "ĩ": 170,
      "Ī": 171,
      "ī": 172,
      "Ĭ": 173,
      "ĭ": 174,
      "Į": 175,
      "į": 176,
      "İ": 177,
      "ı": 178,
      "Ĳ": 179,
      "ĳ": 180,
      "Ĵ": 181,
      "ĵ": 182,
      "Ķ": 183,
      "ķ": 184,
      "ĸ": 185,
      "Ĺ": 186,
      "ĺ": 187,
      "Ļ": 188,
      "ļ": 189,
      "Ľ": 190,
      "ľ": 191,
      "Ŀ": 192,
      "ŀ": 193,
      "Ł": 194,
      "ł": 195,
      "Ń": 196,
      "Ġt": 197,
      "Ġa": 198,
      "Ġth": 199,
      "in": 200,
      "on": 201,
      "Ġthe": 202,
      "re": 203,
      "ti": 204,
      "Ġo": 205,
      "Ġs": 206,
      "er": 207,
      "en": 208,
      "Ġc": 209,
      "Ġp": 210,
      "Ġ,": 211,
      "Ġof": 212,
      "Ġ.": 213,
      "nd": 214,
      "es": 215,
      "tion": 216,
      "or": 217,
      "Ġin": 218,
      "al": 219,
      "ed": 220,
      "it": 221,
      "Ġw": 222,
      "Ġf": 223,
      "is": 224,
      "Ġand": 225,
      "at": 226,
      "an": 227,
      "Ġb": 228,
      "Ġm": 229,
      "ing": 230,
      "Ġto": 231,
      "Ġd": 232,
      "ar": 233,
      "Ġre": 234,
      "ation": 235,
      "ro": 236,
      "ent": 237,
      "Ġh": 238,
      "ic": 239,
      "ou": 240,
      "le": 241,
      "ec": 242,
      "Ġn": 243,
      "om": 244,
      "as": 245,
      "Ġe": 246,
      "ve": 247,
      "ment": 248,
      "Ġ0": 249,
      "Ġg": 250,
      "Ġ1": 251,
      "il": 252,
      "Ġu": 253,
      "ce": 254,
      "Ġ2": 255,
      "Ġcon": 256,
      "Ġfor": 257,
      "ra": 258,
      "Ġpro": 259,
      "Ġl": 260,
      "ri": 261,
      "st": 262,
      "Ġon": 263,
      "Ġ-": 264,
      "ol": 265,
      "Ġst": 266,
      "Ġbe": 267,
      "th": 268,
      "si": 269,
      "Ġi": 270,
      "ly": 271,
      "Ġas": 272,
      "Ġcom": 273,
      "Ġde": 274,
      "ur": 275,
      "ter": 276,
      "Ġthat": 277,
      "Ġit": 278,
      "ts": 279,
      "op": 280,
      "Ġis": 281,
      "se": 282,
      "ver": 283,
      "Ġ)": 284,
      "Ġ(": 285,
      "ul": 286,
      "Ġsu": 287,
      "ith": 288,
      "gh": 289,
      "ate": 290,
      "ir": 291,
      "Ġwith": 292,
      "id": 293,
      "Ġ9": 294,
      "ations": 295,
      "Ġun": 296,
      "te": 297,
      "ad": 298,
      "Ġac": 299,
      "Ġal": 300,
      "ac": 301,
      "Ġwh": 302,
      "ity": 303,
      "mp": 304,
      "Ġor": 305,
      "Ġ3": 306,
      "ld": 307,
      "res": 308,
      "Ġno": 309,
      "pp": 310,
      "et": 311,
      "Ġex": 312,
      "ab": 313,
      "Ġan": 314,
      "Ġby": 315,
      "ort": 316,
      "tic": 317,
      "Ġwe": 318,
      "ers": 319,
      "Ġcou": 320,
      "Ġ5": 321,
      "Ġcomm": 322,
      "Ġy": 323,
      "Ġpar": 324,
      "Ġch": 325,
      "Ġ/": 326,
      "Ġme": 327,
      "qu": 328,
      "ut": 329,
      "oc": 330,
      "Ġen": 331,
      "Ġ4": 332,
      "ge": 333,
      "mb": 334,
      "Ġv": 335,
      "Ġres": 336,
      "Ġ'": 337,
      "ow": 338,
      "ff": 339,
      "Ġad": 340,
      "ain": 341,
      "Ġat": 342,
      "ay": 343,
      "ial": 344,
      "Ġsh": 345,
      "Ġ6": 346,
      "ational": 347,
      "vel": 348,
      "sion": 349,
      "uc": 350,
      "ess": 351,
      "Ġhe": 352,
      "nt": 353,
      "me": 354,
      "ion": 355,
      "Ġrep": 356,
      "Ġare": 357,
      "ud": 358,
      "ist": 359,
      "ch": 360,
      "Ġsec": 361,
      "tive": 362,
      "Ġj": 363,
      "Ġle": 364,
      "end": 365,
      "od": 366,
      "Ġinter": 367,
      "iz": 368,
      "Ġimp": 369,
      "Ġ7": 370,
      "Ġ8": 371,
      "um": 372,
      "ties": 373,
      "ted": 374,
      "Ġne": 375,
      "and": 376,
      "ary": 377,
      "un": 378,
      "us": 379,
      "ak": 380,
      "ill": 381,
      "Ġwas": 382,
      "Ġ;": 383,
      "ther": 384,
      "Ġwor": 385,
      "ance": 386,
      "Ġinc": 387,
      "ore": 388,
      "Ġgo": 389,
      "li": 390,
      "Ġse": 391,
      "Ġcont": 392,
      "velop": 393,
      "Ġits": 394,
      "Ġha": 395,
      "Ġdevelop": 396,
      "ure": 397,
      "ited": 398,
      "est": 399,
      "Ġag": 400,
      "rom": 401,
      "ren": 402,
      "Ġsp": 403,
      "os": 404,
      "Ġyou": 405,
      "Ġ:": 406,
      "ated": 407,
      "fic": 408,
      "Ġ\"": 409,
      "Ġfrom": 410,
      "ution": 411,
      "Ġco": 412,
      "Ġk": 413,
      "rou": 414,
      "ould": 415,
      "Ġnot": 416,
      "Ġreg": 417,
      "Ġthis": 418,
      "Ġr": 419,
      "ven": 420,
      "em": 421,
      "ard": 422,
      "Ġunited": 423,
      "Ġintern": 424,
      "gra": 425,
      "Ġdis": 426,
      "Ġri": 427,
      "ant": 428,
      "ip": 429,
      "all": 430,
      "Ġall": 431,
      "Ġar": 432,
      "for": 433,
      "eral": 434,
      "ie": 435,
      "ig": 436,
      "Ġgen": 437,
      "Ġcomp": 438,
      "lic": 439,
      "ments": 440,
      "min": 441,
      "Ġpre": 442,
      "ates": 443,
      "Ġli": 444,
      "ap": 445,
      "Ġexp": 446,
      "Ġhave": 447,
      "Ġapp": 448,
      "Ġrec": 449,
      "ies": 450,
      "el": 451,
      "Ġper": 452,
      "Ġrigh": 453,
      "Ġcommit": 454,
      "red": 455,
      "Ġinternational": 456,
      "ities": 457,
      "ich": 458,
      "Ġprov": 459,
      "form": 460,
      "mber": 461,
      "Ġnations": 462,
      "Ġdec": 463,
      "our": 464,
      "Ġtheir": 465,
      "Ġwork": 466,
      "Ġacc": 467,
      "Ġund": 468,
      "ust": 469,
      "Ġhas": 470,
      "Ġcount": 471,
      "able": 472,
      "ia": 473,
      "Ġpe": 474,
      "Ġwhich": 475,
      "Ġpl": 476,
      "Ġgeneral": 477,
      "am": 478,
      "im": 479,
      "ish": 480,
      "vern": 481,
      "lo": 482,
      "Ġdevelopment": 483,
      "iv": 484,
      "sid": 485,
      "tee": 486,
      "ous": 487,
      "Ġman": 488,
      "Ġpol": 489,
      "age": 490,
      "Ġind": 491,
      "Ġwill": 492,
      "lud": 493,
      "ans": 494,
      "Ġab": 495,
      "Ġunder": 496,
      "uman": 497,
      "ces": 498,
      "Ġgovern": 499,
      "ace": 500,
      "Ġcommittee": 501,
      "ence": 502,
      "Ġpo": 503,
      "Ġeff": 504,
      "ome": 505,
      "Ġhuman": 506,
      "ub": 507,
      "igh": 508,
      "ty": 509,
      "Ġtra": 510,
      "ord": 511,
      "ission": 512,
      "tiv": 513,
      "Ġsa": 514,
      "ress": 515,
      "Ġorg": 516,
      "ect": 517,
      "so": 518,
      "Ġrights": 519,
      "erv": 520,
      "tions": 521,
      "Ġsub": 522,
      "ry": 523,
      "ct": 524,
      "fe": 525,
      "Ġsupp": 526,
      "Ġass": 527,
      "ong": 528,
      "lement": 529,
      "Ġreport": 530,
      "Ġother": 531,
      "ision": 532,
      "ild": 533,
      "Ġalso": 534,
      "Ġstates": 535,
      "duc": 536,
      "Ġinclud": 537,
      "Ġhad": 538,
      "og": 539,
      "Ġorgan": 540,
      "gram": 541,
      "Ġbeen": 542,
      "Ġfin": 543,
      "ue": 544,
      "ll": 545,
      "Ġop": 546,
      "Ġla": 547,
      "Ġint": 548,
      "eration": 549,
      "ric": 550,
      "Ġprogram": 551,
      "Ġwere": 552,
      "Ġorganiz": 553,
      "Ġtr": 554,
      "Ġam": 555,
      "Ġstate": 556,
      "ries": 557,
      "ech": 558,
      "ult": 559,
      "Ġrequ": 560,
      "ret": 561,
      "olution": 562,
      "Ġout": 563,
      "Ġspec": 564,
      "Ġec": 565,
      "Ġinform": 566,
      "ari": 567,
      "Ġdi": 568,
      "Ġsy": 569,
      "ear": 570,
      "Ġcoun": 571,
      "Ġprovid": 572,
      "Ġcons": 573,
      "Ġadd": 574,
      "Ġup": 575,
      "Ġresp": 576,
      "resent": 577,
      "Ġshould": 578,
      "ign": 579,
      "anc": 580,
      "ublic": 581,
      "ical": 582,
      "Ġimplement": 583,
      "ach": 584,
      "ms": 585,
      "Ġnational": 586,
      "Ġmo": 587,
      "ast": 588,
      "Ġwom": 589,
      "Ġob": 590,
      "Ġthere": 591,
      "Ġconc": 592,
      "Ġcan": 593,
      "Ġpartic": 594,
      "tit": 595,
      "ake": 596,
      "Ġra": 597,
      "Ġaf": 598,
      "ual": 599,
      "ble": 600,
      "ep": 601,
      "onom": 602,
      "Ġcountries": 603,
      "ree": 604,
      "Ġoffic": 605,
      "Ġproc": 606,
      "ase": 607,
      "Ġwould": 608,
      "Ġinv": 609,
      "ag": 610,
      "Ġsupport": 611,
      "Ġsoc": 612,
      "Ġcent": 613,
      "Ġwomen": 614,
      "reat": 615,
      "cil": 616,
      "Ġthey": 617,
      "Ġsecret": 618,
      "ine": 619,
      "Ġgrou": 620,
      "Ġhis": 621,
      "Ġgovernment": 622,
      "Ġresolution": 623,
      "Ġnew": 624,
      "ose": 625,
      "Ġbo": 626,
      "Ġeconom": 627,
      "ures": 628,
      "Ġro": 629,
      "Ġpers": 630,
      "ative": 631,
      "ke": 632,
      "ice": 633,
      "low": 634,
      "Ġter": 635,
      "ons": 636,
      "Ġmeet": 637,
      "iew": 638,
      "out": 639,
      "stem": 640,
      "Ġrel": 641,
      "Ġcouncil": 642,
      "Ġlaw": 643,
      "Ġbut": 644,
      "ession": 645,
      "ors": 646,
      "urity": 647,
      "Ġserv": 648,
      "Ġsuch": 649,
      "rib": 650,
      "Ġus": 651,
      "Ġqu": 652,
      "Ġsystem": 653,
      "Ġmore": 654,
      "lish": 655,
      "orts": 656,
      "Ġyear": 657,
      "Ġsecurity": 658,
      "Ġmin": 659,
      "Ġso": 660,
      "mo": 661,
      "ten": 662,
      "vention": 663,
      "Ġone": 664,
      "ility": 665,
      "ory": 666,
      "Ġbas": 667,
      "Ġpeop": 668,
      "Ġinformation": 669,
      "und": 670,
      "Ġgroup": 671,
      "Ġregion": 672,
      "Ġstr": 673,
      "ating": 674,
      "Ġdo": 675,
      "ition": 676,
      "ular": 677,
      "Ġchild": 678,
      "Ġprot": 679,
      "rough": 680,
      "Ġincluding": 681,
      "Ġins": 682,
      "Ġmar": 683,
      "Ġmon": 684,
      "ph": 685,
      "Ġasse": 686,
      "ru": 687,
      "enc": 688,
      "Ġmeeting": 689,
      "Ġover": 690,
      "Ġneed": 691,
      "ern": 692,
      "ade": 693,
      "Ġfac": 694,
      "ft": 695,
      "ere": 696,
      "Ġca": 697,
      "Ġappro": 698,
      "tical": 699,
      "Ġbet": 700,
      "les": 701,
      "Ġmay": 702,
      "ail": 703,
      "Ġsome": 704,
      "Ġiss": 705,
      "feren": 706,
      "Ġdisc": 707,
      "Ġtrans": 708,
      "omm": 709,
      "Ġcl": 710,
      "Ġvi": 711,
      "Ġcontin": 712,
      "Ġcommission": 713,
      "Ġti": 714,
      "Ġprop": 715,
      "ang": 716,
      "Ġcommun": 717,
      "Ġartic": 718,
      "Ġspecial": 719,
      "ks": 720,
      "Ġhigh": 721,
      "Ġdep": 722,
      "Ġconsid": 723,
      "echn": 724,
      "Ġau": 725,
      "Ġleg": 726,
      "Ġpri": 727,
      "Ġeconomic": 728,
      "Ġest": 729,
      "Ġrev": 730,
      "Ġtechn": 731,
      "Ġsession": 732,
      "ond": 733,
      "very": 734,
      "mit": 735,
      "Ġpeople": 736,
      "we": 737,
      "Ġprogramme": 738,
      "ting": 739,
      "Ġactiv": 740,
      "Ġthrough": 741,
      "iti": 742,
      "Ġimplementation": 743,
      "Ġinto": 744,
      "ective": 745,
      "Ġassemb": 746,
      "Ġwho": 747,
      "Ġtw": 748,
      "Ġagain": 749,
      "Ġany": 750,
      "Ġassembly": 751,
      "Ġte": 752,
      "Ġfund": 753,
      "ablish": 754,
      "Ġestablish": 755,
      "Ġtime": 756,
      "Ġlevel": 757,
      "Ġcri": 758,
      "ific": 759,
      "ving": 760,
      "Ġgu": 761,
      "Ġpart": 762,
      "enti": 763,
      "Ġsocial": 764,
      "Ġâ": 765,
      "uring": 766,
      "Ġif": 767,
      "ference": 768,
      "Ġmade": 769,
      "Ġdra": 770,
      "Ġcoop": 771,
      "ĠâĢ": 772,
      "Ġ?": 773,
      "rac": 774,
      "Ġthese": 775,
      "Ġconvention": 776,
      "Ġinte": 777,
      "Ġpeace": 778,
      "Ġpolic": 779,
      "Ġfinanc": 780,
      "Ġsc": 781,
      "Ġcap": 782,
      "Ġhow": 783,
      "Ġworld": 784,
      "Ġassist": 785,
      "Ġmeas": 786,
      "Ġconcern": 787,
      "Ġrecomm": 788,
      "graph": 789,
      "ount": 790,
      "ues": 791,
      "Ġrecommend": 792,
      "olog": 793,
      "Ġfol": 794,
      "de": 795,
      "Ġrepresent": 796,
      "Ġarticle": 797,
      "Ġwell": 798,
      "air": 799,
      "Ġdes": 800,
      "Ġpara": 801,
      "Ġsecretary": 802,
      "Ġthem": 803,
      "ile": 804,
      "ack": 805,
      "ection": 806,
      "Ġthose": 807,
      "Ġactivities": 808,
      "Ġref": 809,
      "Ġfollow": 810,
      "Ġincre": 811,
      "ot": 812,
      "Ġmy": 813,
      "Ġthan": 814,
      "tain": 815,
      "Ġfir": 816,
      "ire": 817,
      "ween": 818,
      "Ġbetween": 819,
      "Ġadv": 820,
      "Ġprocess": 821,
      "Ġed": 822,
      "ange": 823,
      "ved": 824,
      "Ġsta": 825,
      "Ġimport": 826,
      "Ġmat": 827,
      "Ġresour": 828,
      "one": 829,
      "Ġagainst": 830,
      "ural": 831,
      "Ġher": 832,
      "Ġpublic": 833,
      "go": 834,
      "Ġcol": 835,
      "titution": 836,
      "Ġadop": 837,
      "Ġpr": 838,
      "Ġplan": 839,
      "Ġuse": 840,
      "Ġauth": 841,
      "ally": 842,
      "lec": 843,
      "Ġev": 844,
      "Ġequ": 845,
      "Ġens": 846,
      "Ġcountry": 847,
      "Ġfe": 848,
      "art": 849,
      "ices": 850,
      "Ġwhen": 851,
      "als": 852,
      "Ġcooperation": 853,
      "Ġconf": 854,
      "ges": 855,
      "ters": 856,
      "ok": 857,
      "Ġparticular": 858,
      "cc": 859,
      "Ġtak": 860,
      "ful": 861,
      "Ġtwo": 862,
      "au": 863,
      "hip": 864,
      "Ġaccord": 865,
      "Ġchildren": 866,
      "der": 867,
      "fore": 868,
      "agement": 869,
      "Ġfur": 870,
      "Ġviol": 871,
      "led": 872,
      "Ġyour": 873,
      "tives": 874,
      "Ġconference": 875,
      "Ġauthor": 876,
      "mes": 877,
      "get": 878,
      "Ġabout": 879,
      "ration": 880,
      "are": 881,
      "Ġparties": 882,
      "Ġform": 883,
      "mbers": 884,
      "ateg": 885,
      "Ġnon": 886,
      "Ġlo": 887,
      "Ġchin": 888,
      "lear": 889,
      "Ġmain": 890,
      "alth": 891,
      "Ġsit": 892,
      "Ġemp": 893,
      "Ġpromo": 894,
      "Ġexper": 895,
      "rit": 896,
      "Ġmeasures": 897,
      "Ġcour": 898,
      "if": 899,
      "Ġrespon": 900,
      "Ġfirst": 901,
      "Ġeduc": 902,
      "Ġnu": 903,
      "leg": 904,
      "ects": 905,
      "Ġoper": 906,
      "ise": 907,
      "now": 908,
      "Ġmr": 909,
      "ays": 910,
      "Ġbu": 911,
      "ens": 912,
      "Ġaff": 913,
      "ized": 914,
      "Ġour": 915,
      "ian": 916,
      "ass": 917,
      "man": 918,
      "Ġdecision": 919,
      "ilit": 920,
      "Ġfurther": 921,
      "Ġregard": 922,
      "Ġregional": 923,
      "ide": 924,
      "Ġcould": 925,
      "ism": 926,
      "Ġprovision": 927,
      "Ġreview": 928,
      "Ġenv": 929,
      "ents": 930,
      "Ġful": 931,
      "mination": 932,
      "ality": 933,
      "Ġmanagement": 934,
      "Ġrepublic": 935,
      "ious": 936,
      "Ġann": 937,
      "Ġbec": 938,
      "Ġshe": 939,
      "Ġafric": 940,
      "Ġsee": 941,
      "iod": 942,
      "ath": 943,
      "Ġaction": 944,
      "Ġshall": 945,
      "Ġservices": 946,
      "Ġfinancial": 947,
      "Ġparticip": 948,
      "Ġoffice": 949,
      "Ġonly": 950,
      "Ġorganizations": 951,
      "ning": 952,
      "ruc": 953,
      "Ġproduc": 954,
      "int": 955,
      "Ġset": 956,
      "Ġjo": 957,
      "uation": 958,
      "ied": 959,
      "ork": 960,
      "Ġdraft": 961,
      "Ġresources": 962,
      "Ġ$": 963,
      "ght": 964,
      "sive": 965,
      "ards": 966,
      "Ġhealth": 967,
      "lev": 968,
      "ive": 969,
      "Ġmembers": 970,
      "Ġparagraph": 971,
      "old": 972,
      "Ġproj": 973,
      "ency": 974,
      "vers": 975,
      "onment": 976,
      "Ġnumber": 977,
      "Ġperiod": 978,
      "Ġdem": 979,
      "Ġdiff": 980,
      "Ġduring": 981,
      "Ġefforts": 982,
      "inc": 983,
      "ound": 984,
      "arm": 985,
      "Ġright": 986,
      "Ġworking": 987,
      "pe": 988,
      "Ġsaid": 989,
      "Ġparty": 990,
      "sible": 991,
      "Ġdoc": 992,
      "Ġpur": 993,
      "Ġperson": 994,
      "Ġorganization": 995,
      "ings": 996,
      "Ġsi": 997,
      "bal": 998,
      "Ġes": 999,
      "Ġglo": 1000,
      "Ġpoli": 1001,
      "Ġdire": 1002,
      "loy": 1003,
      "Ġenvir": 1004,
      "Ġpresent": 1005,
      "Ġcontrib": 1006,
      "ization": 1007,
      "ining": 1008,
      "sts": 1009,
      "med": 1010,
      "row": 1011,
      "Ġorder": 1012,
      "Ġassistance": 1013,
      "Ġimpro": 1014,
      "gth": 1015,
      "Ġpropos": 1016,
      "ef": 1017,
      "Ġadmin": 1018,
      "ight": 1019,
      "Ġmember": 1020,
      "xt": 1021,
      "Ġtake": 1022,
      "Ġwhat": 1023,
      "Ġenvironment": 1024,
      "Ġstrateg": 1025,
      "Ġcar": 1026,
      "Ġend": 1027,
      "Ġprovide": 1028,
      "Ġlike": 1029,
      "Ġensure": 1030,
      "Ġmission": 1031,
      "ute": 1032,
      "Ġph": 1033,
      "Ġaddress": 1034,
      "Ġma": 1035,
      "Ġsch": 1036,
      "ite": 1037,
      "Ġcur": 1038,
      "Ġmost": 1039,
      "Ġyears": 1040,
      "Ġfore": 1041,
      "tice": 1042,
      "ability": 1043,
      "Ġciv": 1044,
      "Ġissues": 1045,
      "ected": 1046,
      "Ġstaff": 1047,
      "Ġknow": 1048,
      "Ġglobal": 1049,
      "Ġeducation": 1050,
      "Ġmust": 1051,
      "lig": 1052,
      "av": 1053,
      "Ġstud": 1054,
      "ys": 1055,
      "land": 1056,
      "act": 1057,
      "erg": 1058,
      "ety": 1059,
      "Ġloc": 1060,
      "pr": 1061,
      "Ġsign": 1062,
      "Ġcivil": 1063,
      "king": 1064,
      "Ġstren": 1065,
      "Ġstrength": 1066,
      "Ġafter": 1067,
      "Ġpolitical": 1068,
      "Ġpresid": 1069,
      "Ġeu": 1070,
      "ordin": 1071,
      "Ġtreat": 1072,
      "lu": 1073,
      "cep": 1074,
      "Ġwhere": 1075,
      "ral": 1076,
      "ber": 1077,
      "Ġwithin": 1078,
      "Ġprotection": 1079,
      "Ġoff": 1080,
      "Ġinst": 1081,
      "Ġmany": 1082,
      "Ġadminist": 1083,
      "wn": 1084,
      "Ġaddition": 1085,
      "Ġact": 1086,
      "Ġprac": 1087,
      "Ġbud": 1088,
      "Ġeffective": 1089,
      "Ġrelev": 1090,
      "Ġbased": 1091,
      "lf": 1092,
      "Ġpolicy": 1093,
      "Ġstand": 1094,
      "Ġitem": 1095,
      "Ġinstitution": 1096,
      "Ġdocu": 1097,
      "ince": 1098,
      "Ġdeveloping": 1099,
      "Ġpos": 1100,
      "Ġcall": 1101,
      "Ġent": 1102,
      "Ġext": 1103,
      "Ġnor": 1104,
      "Ġav": 1105,
      "Ġmill": 1106,
      "ood": 1107,
      "Ġmed": 1108,
      "Ġaccount": 1109,
      "work": 1110,
      "Ġsou": 1111,
      "Ġagend": 1112,
      "ases": 1113,
      "ium": 1114,
      "Ġpersons": 1115,
      "tor": 1116,
      "par": 1117,
      "Ġcoordin": 1118,
      "Ġcor": 1119,
      "lect": 1120,
      "ament": 1121,
      "ered": 1122,
      "Ġprev": 1123,
      "Ġagree": 1124,
      "Ġdef": 1125,
      "Ġmake": 1126,
      "ulation": 1127,
      "Ġagenda": 1128,
      "ants": 1129,
      "ily": 1130,
      "Ġgood": 1131,
      "Ġprovided": 1132,
      "Ġach": 1133,
      "Ġrelevant": 1134,
      "Ġview": 1135,
      "Ġiniti": 1136,
      "Ġrelated": 1137,
      "Ġbeing": 1138,
      "ater": 1139,
      "Ġareas": 1140,
      "Ġfra": 1141,
      "Ġlegal": 1142,
      "Ġcapac": 1143,
      "Ġtechnolog": 1144,
      "Ġwhile": 1145,
      "Ġbuild": 1146,
      "Ġtraining": 1147,
      "Ġachie": 1148,
      "Ġchina": 1149,
      "atives": 1150,
      "Ġstrengthen": 1151,
      "ued": 1152,
      "stain": 1153,
      "Ġser": 1154,
      "Ġprogrammes": 1155,
      "Ġcontro": 1156,
      "Ġmod": 1157,
      "its": 1158,
      "Ġrem": 1159,
      "lar": 1160,
      "tim": 1161,
      "Ġeuro": 1162,
      "tern": 1163,
      "Ġchar": 1164,
      "Ġgreat": 1165,
      "Ġsustain": 1166,
      "ilities": 1167,
      "Ġbudget": 1168,
      "ey": 1169,
      "Ġprinc": 1170,
      "Ġinf": 1171,
      "ever": 1172,
      "ind": 1173,
      "Ġid": 1174,
      "enn": 1175,
      "omes": 1176,
      "ield": 1177,
      "tis": 1178,
      "Ġprincip": 1179,
      "Ġcommunity": 1180,
      "Ġreques": 1181,
      "Ġdirect": 1182,
      "til": 1183,
      "Ġfollowing": 1184,
      "rent": 1185,
      "gress": 1186,
      "Ġimportant": 1187,
      "sib": 1188,
      "Ġapplic": 1189,
      "Ġtrade": 1190,
      "Ġatt": 1191,
      "Ġfam": 1192,
      "Ġaw": 1193,
      "Ġhim": 1194,
      "Ġii": 1195,
      "Ġdece": 1196,
      "Ġbefore": 1197,
      "reed": 1198,
      "Ġincreas": 1199,
      "Ġdat": 1200,
      "Ġsince": 1201,
      "Ġques": 1202,
      "Ġheld": 1203,
      "Ġboth": 1204,
      "Ġpop": 1205,
      "Ġlong": 1206,
      "Ġsecond": 1207,
      "Ġpresident": 1208,
      "Ġdecember": 1209,
      "Ġobj": 1210,
      "Ġdeleg": 1211,
      "Ġdist": 1212,
      "Ġeng": 1213,
      "ib": 1214,
      "Ġbod": 1215,
      "Ġnow": 1216,
      "ariat": 1217,
      "day": 1218,
      "Ġur": 1219,
      "Ġsecretariat": 1220,
      "di": 1221,
      "Ġlead": 1222,
      "Ġamong": 1223,
      "sition": 1224,
      "Ġdiscus": 1225,
      "ender": 1226,
      "arch": 1227,
      "Ġuni": 1228,
      "ower": 1229,
      "Ġear": 1230,
      "Ġrequire": 1231,
      "Ġcurrent": 1232,
      "pri": 1233,
      "Ġhowever": 1234,
      "Ġnuc": 1235,
      "Ġdepart": 1236,
      "ared": 1237,
      "Ġim": 1238,
      "Ġrece": 1239,
      "Ġservice": 1240,
      "Ġz": 1241,
      "Ġben": 1242,
      "Ġaccess": 1243,
      "Ġthree": 1244,
      "Ġinteg": 1245,
      "Ġadopted": 1246,
      "Ġcapacity": 1247,
      "Ġban": 1248,
      "Ġexa": 1249,
      "Ġnuclear": 1250,
      "stan": 1251,
      "Ġeurope": 1252,
      "Ġenc": 1253,
      "Ġproced": 1254,
      "Ġsur": 1255,
      "eric": 1256,
      "Ġtechnical": 1257,
      "ines": 1258,
      "Ġsituation": 1259,
      "ffic": 1260,
      "Ġassess": 1261,
      "ecess": 1262,
      "Ġhel": 1263,
      "Ġconsult": 1264,
      "Ġsm": 1265,
      "Ġcontinue": 1266,
      "Ġpartn": 1267,
      "ize": 1268,
      "Ġcontrol": 1269,
      "Ġfield": 1270,
      "Ġframe": 1271,
      "Ġval": 1272,
      "Ġhead": 1273,
      "echan": 1274,
      "Ġcourt": 1275,
      "Ġmechan": 1276,
      "Ġproble": 1277,
      "Ġsubmit": 1278,
      "ked": 1279,
      "Ġtaken": 1280,
      "erc": 1281,
      "Ġju": 1282,
      "gin": 1283,
      "itor": 1284,
      "Ġown": 1285,
      "Ġsix": 1286,
      "Ġrecommendations": 1287,
      "Ġremain": 1288,
      "Ġem": 1289,
      "ired": 1290,
      "Ġrespect": 1291,
      "Ġjud": 1292,
      "Ġsoci": 1293,
      "une": 1294,
      "Ġaccordance": 1295,
      "Ġthir": 1296,
      "ough": 1297,
      "Ġfour": 1298,
      "Ġindic": 1299,
      "Ġspecific": 1300,
      "Ġgender": 1301,
      "Ġcomple": 1302,
      "Ġbus": 1303,
      "Ġnecess": 1304,
      "Ġcult": 1305,
      "Ġreports": 1306,
      "Ġappropri": 1307,
      "Ġvari": 1308,
      "Ġrole": 1309,
      "Ġdon": 1310,
      "aking": 1311,
      "Ġmen": 1312,
      "Ġeach": 1313,
      "Ġjus": 1314,
      "Ġprogress": 1315,
      "iness": 1316,
      "Ġocc": 1317,
      "Ġemploy": 1318,
      "Ġhelp": 1319,
      "Ġprior": 1320,
      "Ġevery": 1321,
      "Ġsame": 1322,
      "Ġameric": 1323,
      "Ġopp": 1324,
      "oura": 1325,
      "urn": 1326,
      "Ġweap": 1327,
      "Ġobs": 1328,
      "Ġwithout": 1329,
      "Ġsum": 1330,
      "ves": 1331,
      "Ġgrow": 1332,
      "Ġidenti": 1333,
      "Ġcontain": 1334,
      "Ġestablished": 1335,
      "own": 1336,
      "Ġdata": 1337,
      "tention": 1338,
      "Ġconsider": 1339,
      "Ġlocal": 1340,
      "Ġlife": 1341,
      "Ġboard": 1342,
      "Ġdid": 1343,
      "ool": 1344,
      "Ġused": 1345,
      "round": 1346,
      "iation": 1347,
      "ogn": 1348,
      "ex": 1349,
      "Ġvery": 1350,
      "Ġviolence": 1351,
      "Ġrecogn": 1352,
      "Ġmaj": 1353,
      "ris": 1354,
      "ror": 1355,
      "Ġmand": 1356,
      "Ġris": 1357,
      "Ġcrimin": 1358,
      "Ġanal": 1359,
      "Ġdiscri": 1360,
      "Ġcommunic": 1361,
      "Ġsti": 1362,
      "Ġdisp": 1363,
      "Ġrepresentative": 1364,
      "Ġpartners": 1365,
      "Ġsouth": 1366,
      "Ġmillion": 1367,
      "unc": 1368,
      "Ġstat": 1369,
      "Ġintere": 1370,
      "ause": 1371,
      "Ġfull": 1372,
      "Ġconflic": 1373,
      "Ġexec": 1374,
      "Ġchair": 1375,
      "ese": 1376,
      "Ġavail": 1377,
      "ivid": 1378,
      "ell": 1379,
      "Ġnat": 1380,
      "up": 1381,
      "ket": 1382,
      "Ġrese": 1383,
      "Ġland": 1384,
      "Ġlet": 1385,
      "Ġdocument": 1386,
      "arian": 1387,
      "Ġafrica": 1388,
      "Ġcase": 1389,
      "Ġreduc": 1390,
      "Ġmajor": 1391,
      "Ġway": 1392,
      "isl": 1393,
      "Ġcre": 1394,
      "Ġfact": 1395,
      "Ġsustainable": 1396,
      "Ġinvol": 1397,
      "ined": 1398,
      "ages": 1399,
      "ner": 1400,
      "ital": 1401,
      "vement": 1402,
      "Ġbi": 1403,
      "Ġcriminal": 1404,
      "Ġlegisl": 1405,
      "Ġjune": 1406,
      "Ġconduc": 1407,
      "Ġexpress": 1408,
      "ale": 1409,
      "Ġinstitutions": 1410,
      "Ġmul": 1411,
      "Ġinvest": 1412,
      "Ġappropriate": 1413,
      "Ġgra": 1414,
      "ss": 1415,
      "Ġbr": 1416,
      "Ġbuilding": 1417,
      "Ġfoc": 1418,
      "Ġmeth": 1419,
      "Ġcare": 1420,
      "roduc": 1421,
      "Ġschool": 1422,
      "Ġplace": 1423,
      "Ġday": 1424,
      "Ġofficial": 1425,
      "ture": 1426,
      "Ġguid": 1427,
      "Ġarea": 1428,
      "Ġexist": 1429,
      "Ġbecause": 1430,
      "Ġmonitor": 1431,
      "Ġapproach": 1432,
      "Ġtechnology": 1433,
      "Ġterrit": 1434,
      "ness": 1435,
      "Ġnecessary": 1436,
      "Ġair": 1437,
      "ame": 1438,
      "Ġlar": 1439,
      "Ġenh": 1440,
      "Ġbasis": 1441,
      "Ġframework": 1442,
      "Ġencoura": 1443,
      "ently": 1444,
      "Ġcases": 1445,
      "Ġterror": 1446,
      "Ġeven": 1447,
      "Ġdepartment": 1448,
      "fy": 1449,
      "Ġcer": 1450,
      "tal": 1451,
      "Ġdesign": 1452,
      "Ġmilit": 1453,
      "Ġgroups": 1454,
      "Ġprof": 1455,
      "Ġproject": 1456,
      "ience": 1457,
      "tig": 1458,
      "Ġwater": 1459,
      "ink": 1460,
      "Ġpolicies": 1461,
      "Ġresearch": 1462,
      "Ġgi": 1463,
      "Ġrest": 1464,
      "Ġpossible": 1465,
      "ister": 1466,
      "Ìģ": 1467,
      "Ġjustice": 1468,
      "Ġtransp": 1469,
      "Ġsociety": 1470,
      "Ġ[": 1471,
      "Ġopen": 1472,
      "Ġoperations": 1473,
      "Ġjust": 1474,
      "Ġupon": 1475,
      "Ġpriv": 1476,
      "Ġpa": 1477,
      "Ġadvis": 1478,
      "Ġmethod": 1479,
      "allen": 1480,
      "sibility": 1481,
      "sp": 1482,
      "Ġincrease": 1483,
      "Ġsector": 1484,
      "erent": 1485,
      "Ġforce": 1486,
      "Ġhand": 1487,
      "ged": 1488,
      "Ġdeter": 1489,
      "Ġmeetings": 1490,
      "Ġfif": 1491,
      "Ġcontribution": 1492,
      "encies": 1493,
      "uch": 1494,
      "Ġforeign": 1495,
      "Ġtre": 1496,
      "Ġmilitary": 1497,
      "Ġdeveloped": 1498,
      "Ġcomb": 1499,
      "fication": 1500,
      "stand": 1501,
      "Ġindivid": 1502,
      "ban": 1503,
      "Ġindividual": 1504,
      "Ġrul": 1505,
      "Ġback": 1506,
      "Ġneeds": 1507,
      "Ġpay": 1508,
      "Ġfound": 1509,
      "Ġprovisions": 1510,
      "ensive": 1511,
      "Ġdemoc": 1512,
      "Ġpal": 1513,
      "ron": 1514,
      "Ġresult": 1515,
      "Ġcompan": 1516,
      "lc": 1517,
      "Ġbusiness": 1518,
      "Ġsmall": 1519,
      "Ġlast": 1520,
      "Ġnote": 1521,
      "nel": 1522,
      "ortun": 1523,
      "read": 1524,
      "Ġfunc": 1525,
      "Ġchange": 1526,
      "Ġdiscrimination": 1527,
      "Ġpolice": 1528,
      "Ġresul": 1529,
      "itarian": 1530,
      "ended": 1531,
      "Ġnet": 1532,
      "Ġafrican": 1533,
      "Ġconst": 1534,
      "aim": 1535,
      "rab": 1536,
      "Ġconsideration": 1537,
      "Ġaccording": 1538,
      "Ġvis": 1539,
      "rative": 1540,
      "ering": 1541,
      "Ġbro": 1542,
      "Ġjuly": 1543,
      "Ġthird": 1544,
      "sions": 1545,
      "ross": 1546,
      "Ġlist": 1547,
      "fied": 1548,
      "Ġchallen": 1549,
      "Ġproposed": 1550,
      "tics": 1551,
      "Ġsen": 1552,
      "Ġhumanitarian": 1553,
      "Ġ]": 1554,
      "Ġinclude": 1555,
      "ule": 1556,
      "Ġfood": 1557,
      "ove": 1558,
      "Ġfocus": 1559,
      "Ġwar": 1560,
      "Ġunivers": 1561,
      "airs": 1562,
      "Ġinves": 1563,
      "Ġavailable": 1564,
      "Ġthen": 1565,
      "Ġpost": 1566,
      "erial": 1567,
      "ised": 1568,
      "Ġperform": 1569,
      "Ġoblig": 1570,
      "Ġgovernments": 1571,
      "ĠâĢĻ": 1572,
      "Ġpopulation": 1573,
      "Ġwelc": 1574,
      "Ġagreement": 1575,
      "eping": 1576,
      "Ġreceiv": 1577,
      "Ġspe": 1578,
      "Ġproper": 1579,
      "thing": 1580,
      "Ġmonth": 1581,
      "Ġreal": 1582,
      "Ġdeclar": 1583,
      "Ġunion": 1584,
      "Ġtow": 1585,
      "ocol": 1586,
      "Ġweapons": 1587,
      "Ġtotal": 1588,
      "tle": 1589,
      "ennium": 1590,
      "Ġfut": 1591,
      "Ġlab": 1592,
      "atory": 1593,
      "Ġbeh": 1594,
      "Ġdoes": 1595,
      "Ġfamily": 1596,
      "Ġconcerned": 1597,
      "Ġdeli": 1598,
      "Ġgiven": 1599,
      "Ġindust": 1600,
      "epend": 1601,
      "Ġadministrative": 1602,
      "Ġred": 1603,
      "Ġ!": 1604,
      "Ġpromote": 1605,
      "Ġterm": 1606,
      "rug": 1607,
      "Ġassoc": 1608,
      "Ġallow": 1609,
      "Ġissue": 1610,
      "Ġsw": 1611,
      "Ġinvestig": 1612,
      "ruction": 1613,
      "ai": 1614,
      "Ġprotocol": 1615,
      "ov": 1616,
      "Ġisra": 1617,
      "cept": 1618,
      "Ġvic": 1619,
      "Ġbl": 1620,
      "tial": 1621,
      "Ġfuture": 1622,
      "Ġret": 1623,
      "Ġannex": 1624,
      "oun": 1625,
      "Ġstill": 1626,
      "Ġconflict": 1627,
      "Ġjoint": 1628,
      "Ġcost": 1629,
      "Ġdeb": 1630,
      "Ġclaim": 1631,
      "Ġeuropean": 1632,
      "mple": 1633,
      "Ġopportun": 1634,
      "Ġquestion": 1635,
      "Ġtreaty": 1636,
      "Ġregul": 1637,
      "use": 1638,
      "Ġmarket": 1639,
      "Ġlevels": 1640,
      "Ġrules": 1641,
      "Ġconte": 1642,
      "ateral": 1643,
      "Ġvarious": 1644,
      "Ġclear": 1645,
      "Ġelect": 1646,
      "Ġcontinued": 1647,
      "Ġcoordination": 1648,
      "Ġvol": 1649,
      "Ġsubj": 1650,
      "ient": 1651,
      "Ġget": 1652,
      "Ġprepar": 1653,
      "Ġbenef": 1654,
      "Ġx": 1655,
      "ences": 1656,
      "Ġdecid": 1657,
      "Ġaim": 1658,
      "Ġaffairs": 1659,
      "ately": 1660,
      "Ġstatus": 1661,
      "Ġsep": 1662,
      "ditions": 1663,
      "Ġexecu": 1664,
      "Ġparticipation": 1665,
      "Ġoct": 1666,
      "Ġdifferent": 1667,
      "Ġelec": 1668,
      "ran": 1669,
      "Ġpurp": 1670,
      "verty": 1671,
      "Ġpoverty": 1672,
      "Ġfree": 1673,
      "Ġcentral": 1674,
      "Ġparticularly": 1675,
      "sia": 1676,
      "ract": 1677,
      "Ġfed": 1678,
      "Ġadditional": 1679,
      "Ġrequirements": 1680,
      "Ġimportance": 1681,
      "reh": 1682,
      "Ġindepend": 1683,
      "pec": 1684,
      "Ġconsidered": 1685,
      "Ġmaterial": 1686,
      "Ġrequired": 1687,
      "alf": 1688,
      "ah": 1689,
      "ators": 1690,
      "Ġfind": 1691,
      "Ġintegr": 1692,
      "Ġsex": 1693,
      "ather": 1694,
      "ator": 1695,
      "ober": 1696,
      "Ġnoted": 1697,
      "Ġsignific": 1698,
      "Ġfacilit": 1699,
      "Ġoctober": 1700,
      "tember": 1701,
      "Ġseptember": 1702,
      "Ġimprove": 1703,
      "Ġdeclaration": 1704,
      "Ġreform": 1705,
      "Ġtri": 1706,
      "Ġabove": 1707,
      "Ġwhe": 1708,
      "Ġnove": 1709,
      "uge": 1710,
      "Ġcrime": 1711,
      "Ġpalest": 1712,
      "Ġnovember": 1713,
      "Ġeval": 1714,
      "Ġdet": 1715,
      "Ġmuch": 1716,
      "Ġarab": 1717,
      "Ġpurs": 1718,
      "ouse": 1719,
      "Ġintroduc": 1720,
      "Ġcompreh": 1721,
      "self": 1722,
      "Ġconditions": 1723,
      "gn": 1724,
      "Ġsever": 1725,
      "ls": 1726,
      "ceed": 1727,
      "Ġprivate": 1728,
      "Ġdelegation": 1729,
      "Ġprojects": 1730,
      "Ġauthorities": 1731,
      "Ġmonitoring": 1732,
      "Ġexecutive": 1733,
      "Ġsection": 1734,
      "Ġtraffic": 1735,
      "Ġrelations": 1736,
      "Ġbodies": 1737,
      "ually": 1738,
      "Ġcli": 1739,
      "istan": 1740,
      "Ġer": 1741,
      "Ġplay": 1742,
      "Ġrequest": 1743,
      "other": 1744,
      "ling": 1745,
      "Ġtherefore": 1746,
      "Ġbri": 1747,
      "Ġlook": 1748,
      "Ġaid": 1749,
      "Ġbeli": 1750,
      "Ġcomprehensive": 1751,
      "Ġmeans": 1752,
      "Ġcommon": 1753,
      "Ġundert": 1754,
      "Ġstep": 1755,
      "Ġrepresentatives": 1756,
      "Ġve": 1757,
      "ope": 1758,
      "Ġmarch": 1759,
      "Ġdown": 1760,
      "Ġresults": 1761,
      "Ġge": 1762,
      "Ġclo": 1763,
      "Ġimpact": 1764,
      "Ġagencies": 1765,
      "Ġstruc": 1766,
      "Ġmal": 1767,
      "Ġdisarm": 1768,
      "mar": 1769,
      "Ġsubmitted": 1770,
      "ost": 1771,
      "ced": 1772,
      "Ġsubstan": 1773,
      "Ġenti": 1774,
      "Ġresolutions": 1775,
      "Ġseveral": 1776,
      "Ġstudy": 1777,
      "Ġori": 1778,
      "ists": 1779,
      "ergy": 1780,
      "Ġpersonnel": 1781,
      "Ġjan": 1782,
      "osed": 1783,
      "Ġinterest": 1784,
      "Ġvo": 1785,
      "Ġprevention": 1786,
      "Ġincreased": 1787,
      "irc": 1788,
      "Ġanalys": 1789,
      "ug": 1790,
      "atic": 1791,
      "Ġlit": 1792,
      "Ġsystems": 1793,
      "Ġprevent": 1794,
      "Ġdisarmament": 1795,
      "Ġpan": 1796,
      "lain": 1797,
      "Ġkey": 1798,
      "Ġanother": 1799,
      "Ġdrug": 1800,
      "Ġless": 1801,
      "Ġpap": 1802,
      "Ġpower": 1803,
      "Ġspace": 1804,
      "yp": 1805,
      "mary": 1806,
      "fer": 1807,
      "dition": 1808,
      "equ": 1809,
      "sequ": 1810,
      "Ġchang": 1811,
      "ially": 1812,
      "Ġcultural": 1813,
      "Ġcirc": 1814,
      "Ġtowards": 1815,
      "Ġreas": 1816,
      "ne": 1817,
      "Ġapplication": 1818,
      "Ġprinciples": 1819,
      "Ġestablishment": 1820,
      "Ġstrategy": 1821,
      "Ġrisk": 1822,
      "Ġtaking": 1823,
      "uce": 1824,
      "sh": 1825,
      "co": 1826,
      "Ġdomes": 1827,
      "Ġmaking": 1828,
      "Ġenvironmental": 1829,
      "Ġamount": 1830,
      "oration": 1831,
      "Ġenergy": 1832,
      "orte": 1833,
      "Ġlarge": 1834,
      "Ġpros": 1835,
      "aren": 1836,
      "Ġwhether": 1837,
      "Ġsignificant": 1838,
      "Ġrapp": 1839,
      "Ġattention": 1840,
      "Ġshow": 1841,
      "Ġprep": 1842,
      "idence": 1843,
      "Ġbank": 1844,
      "Ġtar": 1845,
      "Ġdomestic": 1846,
      "Ġsucc": 1847,
      "orteur": 1848,
      "Ġread": 1849,
      "Ġemerg": 1850,
      "istry": 1851,
      "Ġrapporteur": 1852,
      "ave": 1853,
      "Ġdiv": 1854,
      "Ġapr": 1855,
      "Ġrequests": 1856,
      "az": 1857,
      "Ġrequested": 1858,
      "Ġrule": 1859,
      "Ġple": 1860,
      "Ġmandate": 1861,
      "Ġput": 1862,
      "Ġsuccess": 1863,
      "Ġrefuge": 1864,
      "Ġadvisory": 1865,
      "Ġagreed": 1866,
      "Ġfri": 1867,
      "Ġaud": 1868,
      "Ġcontext": 1869,
      "ential": 1870,
      "Ġespec": 1871,
      "Ġunderstand": 1872,
      "Ġinstru": 1873,
      "Ġbetter": 1874,
      "Ġgrowth": 1875,
      "Ġdemocra": 1876,
      "Ġapril": 1877,
      "Ġtreatment": 1878,
      "izing": 1879,
      "Ġstatement": 1880,
      "Ġenter": 1881,
      "Ġespecially": 1882,
      "Ġver": 1883,
      "Ġpeaceke": 1884,
      "enous": 1885,
      "uary": 1886,
      "Ġpen": 1887,
      "Ġconcerning": 1888,
      "sian": 1889,
      "Ġstandards": 1890,
      "Ġperman": 1891,
      "ger": 1892,
      "Ġregular": 1893,
      "be": 1894,
      "Ġindig": 1895,
      "goti": 1896,
      "Ġcentre": 1897,
      "mate": 1898,
      "Ġposi": 1899,
      "Ġrecord": 1900,
      "hold": 1901,
      "Ġsal": 1902,
      "Ġestim": 1903,
      "Ġgoals": 1904,
      "iss": 1905,
      "Ġadoption": 1906,
      "Ġeth": 1907,
      "Ġill": 1908,
      "Ġnegoti": 1909,
      "Ġke": 1910,
      "Ġcosts": 1911,
      "Ġindigenous": 1912,
      "Ġjanuary": 1913,
      "Ġel": 1914,
      "Ġminister": 1915,
      "Ġproduction": 1916,
      "Ġbest": 1917,
      "Ġreporting": 1918,
      "Ġfive": 1919,
      "Ġsour": 1920,
      "Ġgovernmental": 1921,
      "tices": 1922,
      "ock": 1923,
      "ash": 1924,
      "Ġplanning": 1925,
      "Ġreceived": 1926,
      "Ġpermanent": 1927,
      "ories": 1928,
      "Ġeli": 1929,
      "Ġquality": 1930,
      "Ġarmed": 1931,
      "enth": 1932,
      "Ġleast": 1933,
      "Ġpeacekeeping": 1934,
      "Ġgir": 1935,
      "Ġgive": 1936,
      "Ġhere": 1937,
      "Ġmor": 1938,
      "ax": 1939,
      "Ġexisting": 1940,
      "ward": 1941,
      "Ġwish": 1942,
      "Ġstrong": 1943,
      "Ġserious": 1944,
      "reg": 1945,
      "Ġoccup": 1946,
      "Ġdemocratic": 1947,
      "Ġcontract": 1948,
      "rec": 1949,
      "less": 1950,
      "isms": 1951,
      "Ġcalled": 1952,
      "Ġold": 1953,
      "Ġmig": 1954,
      "Ġstrengthening": 1955,
      "Ġadministration": 1956,
      "Ġtrib": 1957,
      "Ġassessment": 1958,
      "Ġobserv": 1959,
      "Ġcontained": 1960,
      "thers": 1961,
      "Ġlegislation": 1962,
      "Ġlat": 1963,
      "Ġpres": 1964,
      "Ġcertain": 1965,
      "Ġproblems": 1966,
      "Ġchinese": 1967,
      "Ġprocedures": 1968,
      "Ġentit": 1969,
      "Ġmight": 1970,
      "Ġunit": 1971,
      "ances": 1972,
      "Ġterrorism": 1973,
      "Ġinvestment": 1974,
      "ned": 1975,
      "Ġsk": 1976,
      "Ġpartnership": 1977,
      "Ġresponsibility": 1978,
      "Ġteam": 1979,
      "Ġterms": 1980,
      "Ġfunds": 1981,
      "aced": 1982,
      "Ġnext": 1983,
      "Ġreach": 1984,
      "ison": 1985,
      "Ġpric": 1986,
      "Ġsubject": 1987,
      "side": 1988,
      "Ġregarding": 1989,
      "Ġreported": 1990,
      "Ġlear": 1991,
      "Ġincreasing": 1992,
      "angu": 1993,
      "Ġrecent": 1994,
      "has": 1995,
      "Ġpractices": 1996,
      "Ġfreed": 1997,
      "Ġrelating": 1998,
      "Ġbal": 1999,
      "ending": 2000,
      "Ġtim": 2001,
      "Ġsim": 2002,
      "Ġsug": 2003,
      "Ġself": 2004,
      "tional": 2005,
      "Ġmaintain": 2006,
      "Ġarr": 2007,
      "Ġsup": 2008,
      "Ġeffic": 2009,
      "Ġresponse": 2010,
      "Ġagency": 2011,
      "ried": 2012,
      "Ġtas": 2013,
      "Ġdiffic": 2014,
      "aring": 2015,
      "abilities": 2016,
      "ina": 2017,
      "Ġdue": 2018,
      "Ġpalestin": 2019,
      "Ġbelie": 2020,
      "Ġexch": 2021,
      "Ġincome": 2022,
      "Ġsay": 2023,
      "ior": 2024,
      "Ġfreedom": 2025,
      "Ġ%": 2026,
      "Ġsol": 2027,
      "Ġhold": 2028,
      "Ġcust": 2029,
      "Ġanalysis": 2030,
      "Ġdial": 2031,
      "Ġthreat": 2032,
      "Ġcome": 2033,
      "Ġmechanisms": 2034,
      "line": 2035,
      "ipment": 2036,
      "Ġira": 2037,
      "he": 2038,
      "Ġreturn": 2039,
      "Ġclose": 2040,
      "Ġiraq": 2041,
      "Ġdeal": 2042,
      "Ġrus": 2043,
      "Ġhouse": 2044,
      "Ġforces": 2045,
      "Ġlangu": 2046,
      "Ġrate": 2047,
      "Ġamerica": 2048,
      "gether": 2049,
      "Ġachieve": 2050,
      "Ġincluded": 2051,
      "Ġemployment": 2052,
      "Ġstatis": 2053,
      "Ġequality": 2054,
      "Ġeast": 2055,
      "Ġconven": 2056,
      "Ġmid": 2057,
      "Ġnever": 2058,
      "Ġchallenges": 2059,
      "Ġprevious": 2060,
      "Ġlack": 2061,
      "Ġasp": 2062,
      "Ġrecall": 2063,
      "Ġcontributions": 2064,
      "Ġcod": 2065,
      "Ġfully": 2066,
      "Ġage": 2067,
      "Ġproviding": 2068,
      "Ġbar": 2069,
      "Ġexperts": 2070,
      "Ġexample": 2071,
      "Ġemphas": 2072,
      "Ġmet": 2073,
      "Ġpromotion": 2074,
      "Ġlabour": 2075,
      "Ġforum": 2076,
      "Ġdirector": 2077,
      "ising": 2078,
      "Ġexpressed": 2079,
      "Ġministry": 2080,
      "Ġbecome": 2081,
      "ick": 2082,
      "ledge": 2083,
      "Ġroom": 2084,
      "Ġaug": 2085,
      "Ġconstitution": 2086,
      "Ġauthority": 2087,
      "Ġeas": 2088,
      "oss": 2089,
      "Ġappe": 2090,
      "uted": 2091,
      "dic": 2092,
      "Ġbra": 2093,
      "Ġwee": 2094,
      "ready": 2095,
      "Ġtogether": 2096,
      "Ġalready": 2097,
      "Ġgr": 2098,
      "Ġoften": 2099,
      "Ġpursu": 2100,
      "Ġperformance": 2101,
      "Ġpeoples": 2102,
      "Ġproblem": 2103,
      "titute": 2104,
      "itation": 2105,
      "Ġdialog": 2106,
      "oy": 2107,
      "Ġdecisions": 2108,
      "Ġcy": 2109,
      "utes": 2110,
      "mental": 2111,
      "Ġtransport": 2112,
      "Ġdest": 2113,
      "Ġentitled": 2114,
      "ends": 2115,
      "Ġcred": 2116,
      "sel": 2117,
      "Ġwrit": 2118,
      "Ġprosec": 2119,
      "Ġenfor": 2120,
      "ump": 2121,
      "Ġlight": 2122,
      "Ġsci": 2123,
      "Ġtable": 2124,
      "Ġannual": 2125,
      "ev": 2126,
      "ds": 2127,
      "Ġforms": 2128,
      "Ġobligations": 2129,
      "Ġdecided": 2130,
      "Ġcris": 2131,
      "Ġpractice": 2132,
      "Ġpast": 2133,
      "Ġbur": 2134,
      "Ġrefer": 2135,
      "ises": 2136,
      "Ġstrategic": 2137,
      "Ġprovides": 2138,
      "Ġoutc": 2139,
      "Ġisland": 2140,
      "Ġtransfer": 2141,
      "Ġarrange": 2142,
      "Ġvicti": 2143,
      "Ġequipment": 2144,
      "Ġiv": 2145,
      "Ġtoo": 2146,
      "Ġvictims": 2147,
      "Ġbroad": 2148,
      "Ġconn": 2149,
      "Ġactive": 2150,
      "Ġrati": 2151,
      "Ġprotect": 2152,
      "Ġcoll": 2153,
      "aged": 2154,
      "Ġmodel": 2155,
      "Ġtrafficking": 2156,
      "Ġproperty": 2157,
      "Ġshort": 2158,
      "aw": 2159,
      "Ġic": 2160,
      "Ġcompany": 2161,
      "mission": 2162,
      "Ġthus": 2163,
      "Ġyoun": 2164,
      "Ġfinancing": 2165,
      "lusion": 2166,
      "Ġcollec": 2167,
      "ways": 2168,
      "Ġaugust": 2169,
      "Ġdays": 2170,
      "Ġexc": 2171,
      "Ġleaders": 2172,
      "Ġdetermin": 2173,
      "Ġline": 2174,
      "Ġmatters": 2175,
      "ological": 2176,
      "Ġdivision": 2177,
      "Ġbasic": 2178,
      "Ġcamp": 2179,
      "Ġearly": 2180,
      "Ġfar": 2181,
      "Ġfeb": 2182,
      "itiz": 2183,
      "Ġfl": 2184,
      "ĠâĢľ": 2185,
      "Ġaddressed": 2186,
      "aster": 2187,
      "Ġagric": 2188,
      "Ġundp": 2189,
      "Ġorigin": 2190,
      "Ġyet": 2191,
      "Ġagricult": 2192,
      "Ġpaper": 2193,
      "Ġtook": 2194,
      "Ġreduction": 2195,
      "Ġcop": 2196,
      "Ġnotes": 2197,
      "Ġlow": 2198,
      "Ġexerc": 2199,
      "Ġthink": 2200,
      "ruary": 2201,
      "Ġfebruary": 2202,
      "Ġbill": 2203,
      "Ġtur": 2204,
      "Ġdialogue": 2205,
      "Ġdocuments": 2206,
      "Ġdiscuss": 2207,
      "Ġpanel": 2208,
      "Ġcaus": 2209,
      "Ġnatural": 2210,
      "Ġjap": 2211,
      "Ġprocedure": 2212,
      "Ġsing": 2213,
      "Ġposition": 2214,
      "hib": 2215,
      "Ġdate": 2216,
      "Ġfinal": 2217,
      "Ġsaf": 2218,
      "Ġsent": 2219,
      "Ġorganized": 2220,
      "Ġeconomy": 2221,
      "Ġproceed": 2222,
      "Ġjapan": 2223,
      "Ġess": 2224,
      "cent": 2225,
      "Ġmechanism": 2226,
      "Ġtribun": 2227,
      "Ġconsultations": 2228,
      "Ġoperational": 2229,
      "Ġeffect": 2230,
      "Ġarms": 2231,
      "Ġhaving": 2232,
      "liance": 2233,
      "Ġpalestinian": 2234,
      "por": 2235,
      "Ġfail": 2236,
      "Ġstress": 2237,
      "Ġpress": 2238,
      "Ġresponsible": 2239,
      "Ġtemp": 2240,
      "Ġenhance": 2241,
      "Ġprofession": 2242,
      "Ġgre": 2243,
      "Ġtal": 2244,
      "Ġadequ": 2245,
      "Ġconclud": 2246,
      "Ġtoday": 2247,
      "Ġpoten": 2248,
      "Ġclimate": 2249,
      "Ġaust": 2250,
      "Ġhome": 2251,
      "ream": 2252,
      "Ġbody": 2253,
      "Ġactions": 2254,
      "Ġjudic": 2255,
      "Ġterritory": 2256,
      "val": 2257,
      "omp": 2258,
      "Ġlaws": 2259,
      "Ġknowledge": 2260,
      "Ġcommitment": 2261,
      "by": 2262,
      "Ġmatter": 2263,
      "Ġfew": 2264,
      "Ġhour": 2265,
      "Ġwide": 2266,
      "Ġguidel": 2267,
      "Ġinitiatives": 2268,
      "Ġdetail": 2269,
      "Ġquestions": 2270,
      "Ġsafety": 2271,
      "Ġking": 2272,
      "Ġvalue": 2273,
      "ops": 2274,
      "Ġms": 2275,
      "Ġevaluation": 2276,
      "Ġiii": 2277,
      "Ġisrael": 2278,
      "Ġasia": 2279,
      "Ġscienti": 2280,
      "anced": 2281,
      "Ġcover": 2282,
      "Ġwant": 2283,
      "ics": 2284,
      "Ġinternal": 2285,
      "ians": 2286,
      "Ġyoung": 2287,
      "Ġoperation": 2288,
      "Ġothers": 2289,
      "crib": 2290,
      "Ġmissions": 2291,
      "Ġregulations": 2292,
      "Ġassoci": 2293,
      "Ġrac": 2294,
      "bs": 2295,
      "Ġsexual": 2296,
      "aran": 2297,
      "Ġobjective": 2298,
      "unch": 2299,
      "Ġground": 2300,
      "Ġname": 2301,
      "Ġmean": 2302,
      "Ġmulti": 2303,
      "Ġtop": 2304,
      "Ġalth": 2305,
      "Ġstatements": 2306,
      "Ġdemand": 2307,
      "acy": 2308,
      "Ġindependent": 2309,
      "Ġworkers": 2310,
      "Ġpromoting": 2311,
      "ding": 2312,
      "Ġrelig": 2313,
      "Ġcontinu": 2314,
      "Ġalthough": 2315,
      "Ġbring": 2316,
      "Ġviolations": 2317,
      "Ġappo": 2318,
      "Ġneeded": 2319,
      "Ġliving": 2320,
      "Ġletter": 2321,
      "Ġaround": 2322,
      "Ġpoint": 2323,
      "ĠâĢĿ": 2324,
      "onst": 2325,
      "Ġcommunication": 2326,
      "Ġteach": 2327,
      "dom": 2328,
      "Ġsud": 2329,
      "Ġcustom": 2330,
      "Ġenterpr": 2331,
      "Ġobjec": 2332,
      "Ġalways": 2333,
      "Ġcal": 2334,
      "Ġsafe": 2335,
      "lied": 2336,
      "ati": 2337,
      "Ġfourth": 2338,
      "uty": 2339,
      "ints": 2340,
      "Ġtarget": 2341,
      "Ġpass": 2342,
      "ging": 2343,
      "Ġable": 2344,
      "Ġbre": 2345,
      "Ġkind": 2346,
      "Ġexchange": 2347,
      "Ġfr": 2348,
      "Ġlittle": 2349,
      "Ġplans": 2350,
      "erate": 2351,
      "Ġusing": 2352,
      "Ġfunding": 2353,
      "Ġdeath": 2354,
      "Ġunf": 2355,
      "rup": 2356,
      "Ġstar": 2357,
      "gu": 2358,
      "Ġresid": 2359,
      "ury": 2360,
      "Ġpriority": 2361,
      "ible": 2362,
      "Ġdev": 2363,
      "Ġlim": 2364,
      "Ġclass": 2365,
      "rast": 2366,
      "Ġpat": 2367,
      "ones": 2368,
      "Ġdistrib": 2369,
      "Ġcompe": 2370,
      "Ġexplo": 2371,
      "Ġhist": 2372,
      "Ġcapital": 2373,
      "Ġvolu": 2374,
      "ression": 2375,
      "Ġconsist": 2376,
      "Ġmoney": 2377,
      "Ġobser": 2378,
      "Ġexperience": 2379,
      "Ġlimit": 2380,
      "cy": 2381,
      "Ġequal": 2382,
      "Ġharm": 2383,
      "Ġguidelines": 2384,
      "Ġil": 2385,
      "Ġcomplain": 2386,
      "Ġnetwork": 2387,
      "Ġcode": 2388,
      "Ġtran": 2389,
      "Ġ*": 2390,
      "Ġrecommendation": 2391,
      "to": 2392,
      "Ġrefugees": 2393,
      "Ġstrategies": 2394,
      "Ġhigher": 2395,
      "Ġrural": 2396,
      "arters": 2397,
      "Ġacts": 2398,
      "Ġplease": 2399,
      "Ġexpected": 2400,
      "Ġagreements": 2401,
      "acter": 2402,
      "Ġgreater": 2403,
      "Ġide": 2404,
      "Ġtravel": 2405,
      "medi": 2406,
      "Ġbehalf": 2407,
      "Ġcitiz": 2408,
      "Ġexperi": 2409,
      "Ġtrust": 2410,
      "Ġmedical": 2411,
      "Ġnature": 2412,
      "Ġsugges": 2413,
      "Ġbiennium": 2414,
      "Ġintegrated": 2415,
      "Ġchap": 2416,
      "Ġconduct": 2417,
      "Ġprinciple": 2418,
      "Ġreli": 2419,
      "Ġprepared": 2420,
      "Ġste": 2421,
      "thern": 2422,
      "Ġcann": 2423,
      "Ġformer": 2424,
      "Ġhiv": 2425,
      "ograph": 2426,
      "Ġcrisis": 2427,
      "aken": 2428,
      "veness": 2429,
      "Ġbel": 2430,
      "Ġexpend": 2431,
      "Ġcommunications": 2432,
      "Ġcounter": 2433,
      "Ġpurpose": 2434,
      "Ġcourse": 2435,
      "Ġforward": 2436,
      "areness": 2437,
      "ably": 2438,
      "Ġhapp": 2439,
      "Ġawareness": 2440,
      "Ġuntil": 2441,
      "Ġmob": 2442,
      "Ġapproved": 2443,
      "que": 2444,
      "Ġmonths": 2445,
      "Ġdispl": 2446,
      "Ġdiscussion": 2447,
      "Ġpotential": 2448,
      "Ġgirls": 2449,
      "Ġchairman": 2450,
      "aff": 2451,
      "Ġtax": 2452,
      "Ġlimited": 2453,
      "Ġcommitted": 2454,
      "Ġamerican": 2455,
      "Ġsummit": 2456,
      "Ġfacilities": 2457,
      "Ġanti": 2458,
      "Ġsolution": 2459,
      "Ġabs": 2460,
      "Ġtribunal": 2461,
      "gent": 2462,
      "vere": 2463,
      "Ġopportunities": 2464,
      "Ġsteps": 2465,
      "Ġreason": 2466,
      "Ġimplementing": 2467,
      "iting": 2468,
      "Ġoffices": 2469,
      "Ġpursuant": 2470,
      "Ġonce": 2471,
      "ilar": 2472,
      "Ġrecommended": 2473,
      "Ġofficials": 2474,
      "Ġarm": 2475,
      "Ġaut": 2476,
      "Ġexpl": 2477,
      "Ġchanges": 2478,
      "Ġheadqu": 2479,
      "Ġproducts": 2480,
      "Ġmultil": 2481,
      "Ġguaran": 2482,
      "wa": 2483,
      "ulated": 2484,
      "Ġsurve": 2485,
      "Ġinvolved": 2486,
      "uter": 2487,
      "Ġaffected": 2488,
      "Ġcoven": 2489,
      "Ġobjectives": 2490,
      "oming": 2491,
      "Ġstandard": 2492,
      "Ġger": 2493,
      "Ġfifth": 2494,
      "xim": 2495,
      "Ġsupported": 2496,
      "Ġdelegations": 2497,
      "Ġunderstanding": 2498,
      "Ġadj": 2499,
      "ased": 2500,
      "Ġtransition": 2501,
      "Ġtort": 2502,
      "Ġenforce": 2503,
      "Ġheadquarters": 2504,
      "Ġremo": 2505,
      "Ġsimilar": 2506,
      "rict": 2507,
      "ix": 2508,
      "Ġresource": 2509,
      "Ġinformal": 2510,
      "ither": 2511,
      "ĠâĢĵ": 2512,
      "Ġoverall": 2513,
      "Ġarticles": 2514,
      "Ġcarried": 2515,
      "Ġcommunities": 2516,
      "Ġcollab": 2517,
      "Ġden": 2518,
      "rial": 2519,
      "Ġcarry": 2520,
      "Ġfa": 2521,
      "Ġwhole": 2522,
      "way": 2523,
      "oses": 2524,
      "Ġchem": 2525,
      "Ġworksh": 2526,
      "ified": 2527,
      "app": 2528,
      "vernmental": 2529,
      "Ġmedia": 2530,
      "Ġfunction": 2531,
      "Ġminor": 2532,
      "Ġpun": 2533,
      "Ġalleg": 2534,
      "Ġbegin": 2535,
      "Ġce": 2536,
      "Ġfamil": 2537,
      "Ġinstruments": 2538,
      "Ġloss": 2539,
      "Ġcommissioner": 2540,
      "over": 2541,
      "Ġenj": 2542,
      "Ġtool": 2543,
      "Ġcompeti": 2544,
      "Ġunc": 2545,
      "Ġreserv": 2546,
      "Ġarrangements": 2547,
      "Ġrespective": 2548,
      "Ġrein": 2549,
      "Ġtorture": 2550,
      "Ġcannot": 2551,
      "Ġissued": 2552,
      "Ġfundament": 2553,
      "Ġexpendit": 2554,
      "Ġessential": 2555,
      "Ġtest": 2556,
      "Ġadequate": 2557,
      "Ġrun": 2558,
      "rop": 2559,
      "Ġkore": 2560,
      "Ġcombat": 2561,
      "Ġcovenant": 2562,
      "Ġensuring": 2563,
      "ada": 2564,
      "Ġuniversal": 2565,
      "Ġshare": 2566,
      "uations": 2567,
      "Ġfacilitate": 2568,
      "Ġimplemented": 2569,
      "lies": 2570,
      "Ġwhy": 2571,
      "Ġapprec": 2572,
      "Ġmultilateral": 2573,
      "Ġaimed": 2574,
      "akes": 2575,
      "Ġposts": 2576,
      "Ġaids": 2577,
      "urs": 2578,
      "Ġflow": 2579,
      "Ġcurrently": 2580,
      "Ġvul": 2581,
      "Ġmillennium": 2582,
      "Ġaspects": 2583,
      "lam": 2584,
      "Ġturn": 2585,
      "Ġrespond": 2586,
      "Ġexpert": 2587,
      "Ġrussian": 2588,
      "affir": 2589,
      "Ġreaffir": 2590,
      "Ġlove": 2591,
      "Ġproposals": 2592,
      "loyment": 2593,
      "uel": 2594,
      "Ġdone": 2595,
      "Ġhard": 2596,
      "Ġuniversity": 2597,
      "Ġcharacter": 2598,
      "Ġinitiative": 2599,
      "Ġaudit": 2600,
      "Ġbenefits": 2601,
      "Ġevidence": 2602,
      "Ġofficers": 2603,
      "Ġapply": 2604,
      "Ġfil": 2605,
      "Ġconsequ": 2606,
      "Ġidentify": 2607,
      "Ġinsp": 2608,
      "lected": 2609,
      "dle": 2610,
      "Ġweek": 2611,
      "Ġnear": 2612,
      "Ġlaunch": 2613,
      "Ġbord": 2614,
      "rastruc": 2615,
      "Ġscientific": 2616,
      "Ġsepar": 2617,
      "Ġcity": 2618,
      "Ġfeel": 2619,
      "Ġdel": 2620,
      "Ġvulner": 2621,
      "Ġdam": 2622,
      "Ġfifty": 2623,
      "Ġinfrastruc": 2624,
      "eria": 2625,
      "Ġdirec": 2626,
      "Ġtradition": 2627,
      "ador": 2628,
      "Ġhous": 2629,
      "Ġindividuals": 2630,
      "Ġsect": 2631,
      "Ġpositive": 2632,
      "bit": 2633,
      "tiveness": 2634,
      "Ġimmedi": 2635,
      "Ġnorth": 2636,
      "Ġnam": 2637,
      "Ġpoor": 2638,
      "tered": 2639,
      "ature": 2640,
      "Ġport": 2641,
      "Ġroad": 2642,
      "Ġindustry": 2643,
      "Ġcross": 2644,
      "Ġprohib": 2645,
      "ming": 2646,
      "ze": 2647,
      "Ġdeep": 2648,
      "isc": 2649,
      "anda": 2650,
      "Ġstructure": 2651,
      "Ġseem": 2652,
      "Ġimm": 2653,
      "Ġeffects": 2654,
      "Ġfunctions": 2655,
      "Ġcalls": 2656,
      "ored": 2657,
      "Ġenjoy": 2658,
      "Ġexercise": 2659,
      "action": 2660,
      "Ġsea": 2661,
      "Ġspeak": 2662,
      "Ġcha": 2663,
      "Ġphys": 2664,
      "Ġdesp": 2665,
      "kets": 2666,
      "oid": 2667,
      "Ġfundamental": 2668,
      "Ġface": 2669,
      "Ġprovisional": 2670,
      "pa": 2671,
      "Ġenglish": 2672,
      "Ġsudan": 2673,
      "Ġmanag": 2674,
      "Ġinformed": 2675,
      "Ġprocesses": 2676,
      "Ġfish": 2677,
      "Ġdri": 2678,
      "Ġfederation": 2679,
      "atch": 2680,
      "Ġcompon": 2681,
      "Ġafgh": 2682,
      "Ġopportunity": 2683,
      "Ġproposal": 2684,
      "Ġitems": 2685,
      "Ġchemical": 2686,
      "Ġcomplete": 2687,
      "Ġgoing": 2688,
      "Ġmind": 2689,
      "Ġinstitutional": 2690,
      "ilateral": 2691,
      "xic": 2692,
      "Ġyork": 2693,
      "Ġbelow": 2694,
      "Ġemb": 2695,
      "Ġgerman": 2696,
      "Ġmethods": 2697,
      "Ġkeep": 2698,
      "Ġpunish": 2699,
      "Ġinn": 2700,
      "rought": 2701,
      "Ġtext": 2702,
      "wor": 2703,
      "Ġll": 2704,
      "Ġcompliance": 2705,
      "selves": 2706,
      "Ġpresented": 2707,
      "ounts": 2708,
      "Ġreference": 2709,
      "lements": 2710,
      "ij": 2711,
      "bia": 2712,
      "Ġlanguage": 2713,
      "going": 2714,
      "Ġconstruction": 2715,
      "ars": 2716,
      "eva": 2717,
      "iter": 2718,
      "Ġprimary": 2719,
      "Ġrelationship": 2720,
      "Ġpercent": 2721,
      "Ġcateg": 2722,
      "Ġmention": 2723,
      "Ġreduce": 2724,
      "Ġcitizens": 2725,
      "Ġintergo": 2726,
      "Ġafghan": 2727,
      "Ġoutcome": 2728,
      "ipl": 2729,
      "reme": 2730,
      "Ġhours": 2731,
      "Ġintergovernmental": 2732,
      "enty": 2733,
      "Ġstudents": 2734,
      "ides": 2735,
      "Ġhost": 2736,
      "Ġdisabilities": 2737,
      "Ġdr": 2738,
      "vered": 2739,
      "Ġcharter": 2740,
      "zer": 2741,
      "Ġstake": 2742,
      "Ġobtain": 2743,
      "ferences": 2744,
      "omin": 2745,
      "Ġgeneva": 2746,
      "Ġinfrastructure": 2747,
      "Ġjur": 2748,
      "Ġmaterials": 2749,
      "Ġcontribute": 2750,
      "ung": 2751,
      "Ġmanner": 2752,
      "ania": 2753,
      "Ġkingdom": 2754,
      "iency": 2755,
      "Ġstated": 2756,
      "inted": 2757,
      "Ġconducted": 2758,
      "Ġjudicial": 2759,
      "Ġviews": 2760,
      "mal": 2761,
      "Ġprison": 2762,
      "Ġinterp": 2763,
      "Ġnegotiations": 2764,
      "urement": 2765,
      "lif": 2766,
      "Ġmiddle": 2767,
      "Ġlin": 2768,
      "Ġundertaken": 2769,
      "Ġprofessional": 2770,
      "ured": 2771,
      "Ġamend": 2772,
      "Ġbig": 2773,
      "Ġrecommends": 2774,
      "rence": 2775,
      "aries": 2776,
      "Ġdetention": 2777,
      "Ġalloc": 2778,
      "Ġintegration": 2779,
      "Ġcrimes": 2780,
      "Ġtask": 2781,
      "ology": 2782,
      "Ġcircum": 2783,
      "Ġcompanies": 2784,
      "Ġregions": 2785,
      "Ġaltern": 2786,
      "Ġgoods": 2787,
      "Ġq": 2788,
      "Ġcompens": 2789,
      "Ġpreparation": 2790,
      "Ġpac": 2791,
      "eli": 2792,
      "Ġaccept": 2793,
      "Ġadvance": 2794,
      "Ġmigr": 2795,
      "Ġconcerns": 2796,
      "Ġenforcement": 2797,
      "wing": 2798,
      "Ġten": 2799,
      "uts": 2800,
      "Ġurban": 2801,
      "ama": 2802,
      "ring": 2803,
      "Ġleban": 2804,
      "ying": 2805,
      "fficient": 2806,
      "ought": 2807,
      "ana": 2808,
      "Ġremains": 2809,
      "Ġtry": 2810,
      "Ġcho": 2811,
      "Ġimproving": 2812,
      "Ġvolunt": 2813,
      "Ġparli": 2814,
      "amb": 2815,
      "ensus": 2816,
      "Ġdol": 2817,
      "Ġdated": 2818,
      "Ġcommitments": 2819,
      "Ġculture": 2820,
      "Ġrather": 2821,
      "Ġgovernance": 2822,
      "Ġminim": 2823,
      "aps": 2824,
      "Ġdu": 2825,
      "Ġupd": 2826,
      "Ġhar": 2827,
      "Ġty": 2828,
      "Ġrecognized": 2829,
      "Ġfamilies": 2830,
      "liferation": 2831,
      "Ġelimination": 2832,
      "Ġsuccessful": 2833,
      "Ġparticipants": 2834,
      "Ġhope": 2835,
      "olid": 2836,
      "wh": 2837,
      "tt": 2838,
      "Ġrates": 2839,
      "Ġaway": 2840,
      "Ġdiffe": 2841,
      "Ġopin": 2842,
      "Ġexamin": 2843,
      "uting": 2844,
      "Ġsubstantive": 2845,
      "Ġassociation": 2846,
      "Ġinstitute": 2847,
      "Ġevent": 2848,
      "Ġjuris": 2849,
      "iary": 2850,
      "icef": 2851,
      "Ġopinion": 2852,
      "Ġlog": 2853,
      "Ġsett": 2854,
      "Ġliber": 2855,
      "Ġhong": 2856,
      "Ġyouth": 2857,
      "Ġdise": 2858,
      "most": 2859,
      "Ġparagraphs": 2860,
      "hab": 2861,
      "Ġindustrial": 2862,
      "rary": 2863,
      "Ġinten": 2864,
      "izes": 2865,
      "Ġlegislative": 2866,
      "Ġindia": 2867,
      "nic": 2868,
      "new": 2869,
      "erous": 2870,
      "Ġdebt": 2871,
      "ief": 2872,
      "Ġcub": 2873,
      "pid": 2874,
      "racy": 2875,
      "ortion": 2876,
      "Ġways": 2877,
      "Ġstatistics": 2878,
      "Ġdar": 2879,
      "Ġtimes": 2880,
      "Ġscience": 2881,
      "Ġmovement": 2882,
      "ees": 2883,
      "Ġconnection": 2884,
      "tees": 2885,
      "holders": 2886,
      "Ġentities": 2887,
      "Ġneg": 2888,
      "Ġeg": 2889,
      "Ġthroughout": 2890,
      "Ġisraeli": 2891,
      "Ġcompet": 2892,
      "Ġkorea": 2893,
      "ires": 2894,
      "Ġoil": 2895,
      "sibilities": 2896,
      "Ġthings": 2897,
      "region": 2898,
      "Ġarbit": 2899,
      "Ġhon": 2900,
      "ipp": 2901,
      "Ġcritical": 2902,
      "ik": 2903,
      "Ġsuff": 2904,
      "Ġsusp": 2905,
      "Ġsummary": 2906,
      "Ġsupply": 2907,
      "Ġfav": 2908,
      "Ġphysical": 2909,
      "Ġrele": 2910,
      "Ġhos": 2911,
      "Ġpacific": 2912,
      "Ġkill": 2913,
      "Ġlib": 2914,
      "Ġclaims": 2915,
      "istic": 2916,
      "fact": 2917,
      "Ġgoverning": 2918,
      "Ġbenefit": 2919,
      "Ġaver": 2920,
      "Ġled": 2921,
      "Ġemergency": 2922,
      "sign": 2923,
      "Ġidentified": 2924,
      "Ġexport": 2925,
      "Ġchapter": 2926,
      "Ġskill": 2927,
      "Ġfem": 2928,
      "na": 2929,
      "Ġexpand": 2930,
      "Ġdescrib": 2931,
      "Ġschools": 2932,
      "Ġbeg": 2933,
      "Ġcr": 2934,
      "Ġbir": 2935,
      "Ġeffectively": 2936,
      "urance": 2937,
      "Ġpeaceful": 2938,
      "Ġjob": 2939,
      "Ġmove": 2940,
      "Ġreferred": 2941,
      "tenance": 2942,
      "Ġbelieve": 2943,
      "Ġmut": 2944,
      "Ġinterests": 2945,
      "Ġmaintenance": 2946,
      "Ġalong": 2947,
      "Ġradi": 2948,
      "Ġsixty": 2949,
      "Ġrange": 2950,
      "Ġitself": 2951,
      "Ġcivilian": 2952,
      "Ġbrief": 2953,
      "Ġassets": 2954,
      "tification": 2955,
      "Ġcanada": 2956,
      "Ġachieved": 2957,
      "Ġfulf": 2958,
      "Ġdifficult": 2959,
      "Ġcentres": 2960,
      "Ġpurposes": 2961,
      "Ġacqu": 2962,
      "Ġproliferation": 2963,
      "works": 2964,
      "Ġunct": 2965,
      "Ġintroduced": 2966,
      "Ġdemonst": 2967,
      "Ġord": 2968,
      "Ġdespite": 2969,
      "ha": 2970,
      "Ġlive": 2971,
      "Ġtyp": 2972,
      "ins": 2973,
      "Ġavoid": 2974,
      "rip": 2975,
      "Ġunicef": 2976,
      "Ġcle": 2977,
      "gest": 2978,
      "Ġfig": 2979,
      "Ġsessions": 2980,
      "Ġdollar": 2981,
      "Ġimproved": 2982,
      "omed": 2983,
      "Ġiran": 2984,
      "orary": 2985,
      "Ġwest": 2986,
      "Ġparliament": 2987,
      "orn": 2988,
      "Ġfederal": 2989,
      "Ġislam": 2990,
      "Ġadjust": 2991,
      "Ġvoluntary": 2992,
      "Ġstudies": 2993,
      "minate": 2994,
      "Ġhalf": 2995,
      "osition": 2996,
      "ancing": 2997,
      "Ġrestric": 2998,
      "Ġinj": 2999,
      "of": 3000,
      "Ġasked": 3001,
      "Ġkong": 3002,
      "mpt": 3003,
      "Ġcame": 3004,
      "Ġrecon": 3005,
      "itable": 3006,
      "Ġaustral": 3007,
      "ternal": 3008,
      "Ġleave": 3009,
      "ery": 3010,
      "Ġchief": 3011,
      "Ġpenal": 3012,
      "Ġsoon": 3013,
      "Ġterritories": 3014,
      "Ġoutside": 3015,
      "Ġactivity": 3016,
      "Ġcreate": 3017,
      "Ġtwenty": 3018,
      "Ġeffort": 3019,
      "Ġgoal": 3020,
      "Ġdirectly": 3021,
      "Ġcircumstan": 3022,
      "ification": 3023,
      "ectiveness": 3024,
      "Ġpersonal": 3025,
      "Ġprec": 3026,
      "Ġparticipate": 3027,
      "Ġongoing": 3028,
      "Ġvote": 3029,
      "arent": 3030,
      "Ġfire": 3031,
      "Ġsource": 3032,
      "Ġacross": 3033,
      "Ġcircumstances": 3034,
      "Ġleft": 3035,
      "Ġrevised": 3036,
      "Ġeducational": 3037,
      "Ġunctad": 3038,
      "Ġsubmission": 3039,
      "Ġscale": 3040,
      "Ġanaly": 3041,
      "unic": 3042,
      "Ġsyri": 3043,
      "Ġstock": 3044,
      "Ġamb": 3045,
      "Ġfinance": 3046,
      "ier": 3047,
      "rest": 3048,
      "cr": 3049,
      "Ġencourage": 3050,
      "Ġeffectiveness": 3051,
      "Ġsan": 3052,
      "ler": 3053,
      "Ġguidance": 3054,
      "Ġrecru": 3055,
      "Ġtraditional": 3056,
      "Ġinvestigation": 3057,
      "Ġoh": 3058,
      "Ġelements": 3059,
      "Ġtell": 3060,
      "Ġtro": 3061,
      "Ġhousing": 3062,
      "Ġseek": 3063,
      "Ġdefin": 3064,
      "Ġwords": 3065,
      "Ġregist": 3066,
      "oph": 3067,
      "Ġethnic": 3068,
      "Ġsources": 3069,
      "Ġsubsequ": 3070,
      "Ġestimated": 3071,
      "Ġincludes": 3072,
      "Ġtrend": 3073,
      "Ġtechnologies": 3074,
      "Ġstruct": 3075,
      "Ġextra": 3076,
      "Ġindicated": 3077,
      "Ġenable": 3078,
      "Ġthemselves": 3079,
      "Ġconv": 3080,
      "Ġexternal": 3081,
      "Ġflo": 3082,
      "eth": 3083,
      "Ġunh": 3084,
      "Ġmus": 3085,
      "Ġsays": 3086,
      "Ġprice": 3087,
      "Ġsatis": 3088,
      "Ġlater": 3089,
      "Ġdistribution": 3090,
      "Ġgot": 3091,
      "Ġrom": 3092,
      "Ġfre": 3093,
      "Ġalia": 3094,
      "Ġscope": 3095,
      "more": 3096,
      "Ġsl": 3097,
      "Ġcore": 3098,
      "ene": 3099,
      "Ġcommerc": 3100,
      "Ġappeal": 3101,
      "Ġbillion": 3102,
      "aign": 3103,
      "Ġappear": 3104,
      "Ġfactors": 3105,
      "Ġwhose": 3106,
      "bo": 3107,
      "Ġgl": 3108,
      "Ġbalance": 3109,
      "Ġdou": 3110,
      "ya": 3111,
      "Ġpub": 3112,
      "Ġcampaign": 3113,
      "Ġvisit": 3114,
      "Ġthough": 3115,
      "Ġdiscussions": 3116,
      "Ġside": 3117,
      "know": 3118,
      "Ġrepl": 3119,
      "Ġearth": 3120,
      "Ġaffect": 3121,
      "ronic": 3122,
      "Ġofficer": 3123,
      "overy": 3124,
      "Ġindicators": 3125,
      "Ġelection": 3126,
      "Ġevents": 3127,
      "pro": 3128,
      "Ġpractical": 3129,
      "Ġmic": 3130,
      "Ġjurisdic": 3131,
      "Ġcongo": 3132,
      "Ġsituations": 3133,
      "Ġtakes": 3134,
      "light": 3135,
      "Ġborder": 3136,
      "Ġfrance": 3137,
      "Ġparts": 3138,
      "ically": 3139,
      "Ġrecalling": 3140,
      "Ġbrought": 3141,
      "Ġsigned": 3142,
      "Ġperiodic": 3143,
      "Ġefficiency": 3144,
      "Ġstability": 3145,
      "Ġapplied": 3146,
      "Ġsom": 3147,
      "Ġround": 3148,
      "Ġmass": 3149,
      "Ġdelivery": 3150,
      "Ġstart": 3151,
      "Ġproceedings": 3152,
      "ruption": 3153,
      "Ġsixth": 3154,
      "Ġabuse": 3155,
      "ii": 3156,
      "ats": 3157,
      "ligh": 3158,
      "Ġexten": 3159,
      "af": 3160,
      "den": 3161,
      "Ġprocurement": 3162,
      "Ġdisse": 3163,
      "Ġfall": 3164,
      "Ġpoints": 3165,
      "Ġforest": 3166,
      "umption": 3167,
      "Ġappoint": 3168,
      "Ġcommercial": 3169,
      "Ġsectors": 3170,
      "Ġstakeholders": 3171,
      "Ġaccomp": 3172,
      "Ġdisaster": 3173,
      "Ġilleg": 3174,
      "ites": 3175,
      "Ġsubsid": 3176,
      "Ġassociated": 3177,
      "Ġdrugs": 3178,
      "Ġelections": 3179,
      "Ġsubregion": 3180,
      "Ġmexic": 3181,
      "ps": 3182,
      "Ġinnov": 3183,
      "Ġmentioned": 3184,
      "Ġintroduction": 3185,
      "Ġdecl": 3186,
      "Ġtype": 3187,
      "Ġart": 3188,
      "Ġaverage": 3189,
      "Ġir": 3190,
      "Ġdevelopments": 3191,
      "pl": 3192,
      "Ġcand": 3193,
      "Ġfair": 3194,
      "ton": 3195,
      "Ġcn": 3196,
      "ades": 3197,
      "estern": 3198,
      "Ġesc": 3199,
      "io": 3200,
      "ident": 3201,
      "gets": 3202,
      "Ġcollaboration": 3203,
      "Ġeither": 3204,
      "Ġsingle": 3205,
      "hic": 3206,
      "Ġpublish": 3207,
      "verse": 3208,
      "Ġgain": 3209,
      "Ġmis": 3210,
      "enary": 3211,
      "emp": 3212,
      "Ġlower": 3213,
      "Ġcompensation": 3214,
      "lusive": 3215,
      "Ġvehic": 3216,
      "Ġunep": 3217,
      "Ġinflu": 3218,
      "Ġwelcomed": 3219,
      "Ġsupporting": 3220,
      "duce": 3221,
      "rench": 3222,
      "aly": 3223,
      "Ġey": 3224,
      "Ġsev": 3225,
      "Ġconsensus": 3226,
      "Ġcomments": 3227,
      "Ġpriorities": 3228,
      "ourn": 3229,
      "Ġmarkets": 3230,
      "Ġsound": 3231,
      "Ġsched": 3232,
      "Ġresponsibilities": 3233,
      "Ġachieving": 3234,
      "Ġbraz": 3235,
      "adic": 3236,
      "Ġcut": 3237,
      "Ġpaid": 3238,
      "Ġcomplex": 3239,
      "ilization": 3240,
      "Ġwestern": 3241,
      "Ġaddressing": 3242,
      "Ġafghanistan": 3243,
      "Ġreally": 3244,
      "Ġadvice": 3245,
      "Ġunits": 3246,
      "bbe": 3247,
      "Ġadap": 3248,
      "Ġfle": 3249,
      "Ġever": 3250,
      "yl": 3251,
      "Ġsomething": 3252,
      "used": 3253,
      "icit": 3254,
      "Ġgiv": 3255,
      "Ġdemonstr": 3256,
      "ica": 3257,
      "Ġreflect": 3258,
      "Ġmother": 3259,
      "Ġcause": 3260,
      "Ġfurthermore": 3261,
      "Ġsomal": 3262,
      "Ġreligious": 3263,
      "Ġmom": 3264,
      "Ġvac": 3265,
      "Ġknown": 3266,
      "Ġsenior": 3267,
      "Ġthought": 3268,
      "Ġgermany": 3269,
      "acks": 3270,
      "Ġutil": 3271,
      "Ġcredit": 3272,
      "Ġho": 3273,
      "oks": 3274,
      "Ġoccur": 3275,
      "Ġspecialized": 3276,
      "Ġet": 3277,
      "Ġwelcomes": 3278,
      "Ġbure": 3279,
      "Ġintel": 3280,
      "Ġmodern": 3281,
      "Ġbrazil": 3282,
      "Ġestablishing": 3283,
      "Ġrelation": 3284,
      "Ġcontinuing": 3285,
      "Ġbase": 3286,
      "Ġtransmit": 3287,
      "ane": 3288,
      "Ġresol": 3289,
      "Ġsurvey": 3290,
      "Ġconsultation": 3291,
      "Ġjudge": 3292,
      "Ġcontinues": 3293,
      "ancy": 3294,
      "aties": 3295,
      "Ġinitial": 3296,
      "Ġku": 3297,
      "versity": 3298,
      "Ġconferences": 3299,
      "Ġtreaties": 3300,
      "Ġbey": 3301,
      "oral": 3302,
      "Ġconclusion": 3303,
      "ibility": 3304,
      "Ġseen": 3305,
      "Ġmag": 3306,
      "Ġcari": 3307,
      "Ġrecovery": 3308,
      "Ġconsolid": 3309,
      "Ġability": 3310,
      "ude": 3311,
      "Ġislamic": 3312,
      "Ġphil": 3313,
      "Ġagricultural": 3314,
      "Ġharmon": 3315,
      "Ġwa": 3316,
      "éĪ": 3317,
      "Ġsanc": 3318,
      "Ġdifficul": 3319,
      "ma": 3320,
      "Ġoptional": 3321,
      "sy": 3322,
      "Ġgreen": 3323,
      "Ġplenary": 3324,
      "Ġincor": 3325,
      "istics": 3326,
      "Ġfo": 3327,
      "Ġbeyond": 3328,
      "ody": 3329,
      "Ġvulnerable": 3330,
      "Ġwind": 3331,
      "Ġreceive": 3332,
      "Ġcaribbe": 3333,
      "Ġimplic": 3334,
      "Ġextent": 3335,
      "Ġcaribbean": 3336,
      "Ġqual": 3337,
      "Ġreiter": 3338,
      "view": 3339,
      "éĪ¥": 3340,
      "Ġencourages": 3341,
      "enced": 3342,
      "Ġmach": 3343,
      "Ġadopt": 3344,
      "Ġap": 3345,
      "Ġeconomies": 3346,
      "Ġtrial": 3347,
      "time": 3348,
      "Ġunhcr": 3349,
      "Ġinsurance": 3350,
      "Ġeigh": 3351,
      "Ġfel": 3352,
      "Ġracial": 3353,
      "Ġconfir": 3354,
      "Ġcorruption": 3355,
      "Ġwal": 3356,
      "ime": 3357,
      "Ġhab": 3358,
      "bu": 3359,
      "Ġlonger": 3360,
      "Ġhy": 3361,
      "Ġalmost": 3362,
      "Ġdiscussed": 3363,
      "Ġlikely": 3364,
      "Ġgrowing": 3365,
      "Ġdetermination": 3366,
      "ae": 3367,
      "Ġmexico": 3368,
      "Ġinvited": 3369,
      "Ġeradic": 3370,
      "Ġpak": 3371,
      "Ġindependence": 3372,
      "Ġcompleted": 3373,
      "Ġviolation": 3374,
      "Ġdebate": 3375,
      "Ġconcept": 3376,
      "ulate": 3377,
      "bi": 3378,
      "Ġdestruction": 3379,
      "Ġdecre": 3380,
      "Ġwent": 3381,
      "Ġreached": 3382,
      "aces": 3383,
      "Ġagriculture": 3384,
      "Ġcourts": 3385,
      "Ġrecently": 3386,
      "Ġdang": 3387,
      "Ġcuba": 3388,
      "Ġatte": 3389,
      "Ġphase": 3390,
      "Ġbul": 3391,
      "ĠâĢĶ": 3392,
      "raft": 3393,
      "Ġillicit": 3394,
      "Ġoccupied": 3395,
      "Ġnight": 3396,
      "Ġstop": 3397,
      "Ġyes": 3398,
      "Ġgod": 3399,
      "Ġcrit": 3400,
      "Ġconstit": 3401,
      "Ġgener": 3402,
      "Ġdefence": 3403,
      "Ġbilateral": 3404,
      "Ġpositions": 3405,
      "Ġprices": 3406,
      "Ġapproval": 3407,
      "Ġaustralia": 3408,
      "Ġcreation": 3409,
      "Ġappreciation": 3410,
      "Ġformal": 3411,
      "isters": 3412,
      "Ġweapon": 3413,
      "ka": 3414,
      "Ġheart": 3415,
      "asion": 3416,
      "Ġapplications": 3417,
      "Ġconventions": 3418,
      "Ġfemale": 3419,
      "Ġcandid": 3420,
      "Ġrelief": 3421,
      "Ġgrad": 3422,
      "Ġspons": 3423,
      "Ġdesigned": 3424,
      "Ġpakistan": 3425,
      "Ġrapid": 3426,
      "Ġreasons": 3427,
      "Ġmanu": 3428,
      "Ġplat": 3429,
      "Ġvir": 3430,
      "Ġstage": 3431,
      "Ġenterprises": 3432,
      "Ġhistory": 3433,
      "Ġexpenditure": 3434,
      "Ġfrench": 3435,
      "ua": 3436,
      "Ġencouraged": 3437,
      "Ġwit": 3438,
      "Ġmakes": 3439,
      "Ġmanufact": 3440,
      "Ġleadership": 3441,
      "Ġwoman": 3442,
      "ening": 3443,
      "cell": 3444,
      "ijing": 3445,
      "Ġchec": 3446,
      "Ġpermit": 3447,
      "Ġsyrian": 3448,
      "sight": 3449,
      "lation": 3450,
      "Ġbeijing": 3451,
      "Ġmigration": 3452,
      "Ġuk": 3453,
      "Ġtour": 3454,
      "Ġterrorist": 3455,
      "yn": 3456,
      "Ġfriends": 3457,
      "Ġentire": 3458,
      "resp": 3459,
      "Ġprosp": 3460,
      "Ġtemporary": 3461,
      "Ġobligation": 3462,
      "Ġlatin": 3463,
      "Ġmoreover": 3464,
      "Ġdecade": 3465,
      "Ġapplicable": 3466,
      "lusions": 3467,
      "mor": 3468,
      "Ġacknow": 3469,
      "ened": 3470,
      "Ġsettlement": 3471,
      "Ġdisplaced": 3472,
      "Ġengine": 3473,
      "Ġenough": 3474,
      "Ġjourn": 3475,
      "Ġjurisdiction": 3476,
      "Ġsuperv": 3477,
      "Ġsemin": 3478,
      "Ġmil": 3479,
      "ously": 3480,
      "Ġinh": 3481,
      "Ġjudges": 3482,
      "Ġdetailed": 3483,
      "Ġpartnerships": 3484,
      "Ġimprovement": 3485,
      "Ġspir": 3486,
      "Ġbureau": 3487,
      "ront": 3488,
      "tivity": 3489,
      "Ġurges": 3490,
      "Ġprosecut": 3491,
      "Ġinternet": 3492,
      "Ġnorthern": 3493,
      "Ġregistration": 3494,
      "Ġmiss": 3495,
      "Ġexplain": 3496,
      "Ġswit": 3497,
      "erve": 3498,
      "Ġfollows": 3499,
      "Ġdipl": 3500,
      "Ġfriend": 3501,
      "key": 3502,
      "Ġcompared": 3503,
      "Ġegyp": 3504,
      "men": 3505,
      "Ġaccountability": 3506,
      "Ġdiplom": 3507,
      "Ġseries": 3508,
      "Ġillegal": 3509,
      "Ġrw": 3510,
      "Ġwaste": 3511,
      "Ġsoft": 3512,
      "Ġcat": 3513,
      "Ġsharing": 3514,
      "Ġfinally": 3515,
      "rents": 3516,
      "Ġclos": 3517,
      "Ġconclusions": 3518,
      "Ġsite": 3519,
      "Ġdepend": 3520,
      "Ġbudgetary": 3521,
      "Ġchallenge": 3522,
      "Ġarrest": 3523,
      "Ġaccep": 3524,
      "Ġskills": 3525,
      "Ġnegative": 3526,
      "Ġannoun": 3527,
      "Ġproduct": 3528,
      "Ġclearly": 3529,
      "Ġguine": 3530,
      "Ġraised": 3531,
      "Ġmajority": 3532,
      "Ġkuwa": 3533,
      "Ġserve": 3534,
      "Ġrehab": 3535,
      "Ġrequires": 3536,
      "Ġcorpor": 3537,
      "mis": 3538,
      "tise": 3539,
      "ables": 3540,
      "Ġnig": 3541,
      "Ġans": 3542,
      "Ġachievement": 3543,
      "Ġrehabilit": 3544,
      "Ġadvoc": 3545,
      "Ġrenew": 3546,
      "Ġuseful": 3547,
      "Ġcash": 3548,
      "Ġhop": 3549,
      "Ġcreated": 3550,
      "cs": 3551,
      "ished": 3552,
      "Ġ`": 3553,
      "Ġoffer": 3554,
      "Ġnoting": 3555,
      "lav": 3556,
      "Ġduty": 3557,
      "eal": 3558,
      "Ġmeasure": 3559,
      "Ġconsistent": 3560,
      "Ġelectronic": 3561,
      "Ġinde": 3562,
      "Ġmarri": 3563,
      "Ġcompetition": 3564,
      "Ġislands": 3565,
      "Ġsovere": 3566,
      "ush": 3567,
      "Ġcaused": 3568,
      "Ġinterpret": 3569,
      "Ġang": 3570,
      "Ġbook": 3571,
      "Ġassign": 3572,
      "Ġremed": 3573,
      "Ġseven": 3574,
      "uri": 3575,
      "Ġremained": 3576,
      "Ġlink": 3577,
      "Ġoperating": 3578,
      "Ġplatform": 3579,
      "Ġlearning": 3580,
      "Ġwin": 3581,
      "Ġnar": 3582,
      "Ġconcluded": 3583,
      "ense": 3584,
      "ception": 3585,
      "Ġregime": 3586,
      "Ġdecides": 3587,
      "Ġtrac": 3588,
      "hood": 3589,
      "Ġdisapp": 3590,
      "Ġcolle": 3591,
      "Ġsupplement": 3592,
      "itions": 3593,
      "Ġgrant": 3594,
      "Ġdistrict": 3595,
      "Ġdollars": 3596,
      "org": 3597,
      "lier": 3598,
      "Ġdoing": 3599,
      "Ġpayment": 3600,
      "Ġcovered": 3601,
      "ulations": 3602,
      "Ġhear": 3603,
      "eg": 3604,
      "Ġminimum": 3605,
      "Ġng": 3606,
      "Ġexploitation": 3607,
      "Ġsanctions": 3608,
      "Ġhighligh": 3609,
      "Ġconfidence": 3610,
      "Ġbeginning": 3611,
      "tically": 3612,
      "Ġnothing": 3613,
      "stream": 3614,
      "dra": 3615,
      "standing": 3616,
      "istered": 3617,
      "ground": 3618,
      "alities": 3619,
      "Ġsafegu": 3620,
      "sych": 3621,
      "Ġsufficient": 3622,
      "Ġsil": 3623,
      "Ġquick": 3624,
      "Ġunid": 3625,
      "Ġguinea": 3626,
      "Ġasian": 3627,
      "Ġpsych": 3628,
      "build": 3629,
      "Ġobst": 3630,
      "Ġnin": 3631,
      "Ġleading": 3632,
      "Ġactors": 3633,
      "Ġparents": 3634,
      "Ġoriginal": 3635,
      "Ġbreak": 3636,
      "Ġtools": 3637,
      "Ġentry": 3638,
      "Ġcontact": 3639,
      "erson": 3640,
      "assi": 3641,
      "enna": 3642,
      "Ġstanding": 3643,
      "Ġinstrument": 3644,
      "Ġobservations": 3645,
      "Ġprom": 3646,
      "Ġfarm": 3647,
      "Ġsolid": 3648,
      "Ġlives": 3649,
      "Ġcompar": 3650,
      "Ġbirth": 3651,
      "Ġexpect": 3652,
      "ware": 3653,
      "wise": 3654,
      "Ġguarantee": 3655,
      "Ġhosp": 3656,
      "Ġslo": 3657,
      "Ġsetting": 3658,
      "Ġenhanced": 3659,
      "Ġpoll": 3660,
      "Ġtransparen": 3661,
      "Ġsimp": 3662,
      "Ġaccounts": 3663,
      "Ġreflected": 3664,
      "Ġalleged": 3665,
      "Ġmedium": 3666,
      "Ġalternative": 3667,
      "Ġoversight": 3668,
      "Ġsure": 3669,
      "Ġire": 3670,
      "Ġtransparency": 3671,
      "Ġgeograph": 3672,
      "Ġunfpa": 3673,
      "rete": 3674,
      "rid": 3675,
      "Ġpack": 3676,
      "Ġenterprise": 3677,
      "Ġlebanon": 3678,
      "Ġmicro": 3679,
      "Ġwitness": 3680,
      "Ġapproaches": 3681,
      "Ġpain": 3682,
      "adem": 3683,
      "Ġcyc": 3684,
      "Ġsuggested": 3685,
      "Ġgenerally": 3686,
      "Ġimplications": 3687,
      "Ġvienna": 3688,
      "Ġenhancing": 3689,
      "Ġrelative": 3690,
      "eless": 3691,
      "ple": 3692,
      "Ġdeg": 3693,
      "Ġireland": 3694,
      "Ġfocused": 3695,
      "ee": 3696,
      "lands": 3697,
      "Ġcontrac": 3698,
      "oslav": 3699,
      "umb": 3700,
      "Ġgas": 3701,
      "Ġresulting": 3702,
      "lling": 3703,
      "ighb": 3704,
      "Ġwritten": 3705,
      "Ġdifferen": 3706,
      "Ġfight": 3707,
      "Ġvill": 3708,
      "tific": 3709,
      "Ġconsum": 3710,
      "Ġmine": 3711,
      "Ġyug": 3712,
      "Ġneighb": 3713,
      "Ġworkshop": 3714,
      "Ġmainly": 3715,
      "Ġefficient": 3716,
      "Ġyugoslav": 3717,
      "oon": 3718,
      "Ġcriteria": 3719,
      "Ġrecruit": 3720,
      "Ġindones": 3721,
      "Ġhol": 3722,
      "Ġworks": 3723,
      "Ġlic": 3724,
      "Ġcondition": 3725,
      "Ġpreparatory": 3726,
      "nes": 3727,
      "Ġarch": 3728,
      "Ġextreme": 3729,
      "Ġsubregional": 3730,
      "Ġtes": 3731,
      "Ġweb": 3732,
      "Ġaccounting": 3733,
      "Ġdia": 3734,
      "Ġpunishment": 3735,
      "Ġfrequ": 3736,
      "Ġdamage": 3737,
      "Ġcollection": 3738,
      "Ġstation": 3739,
      "pet": 3740,
      "ental": 3741,
      "Ġstatistical": 3742,
      "Ġcontent": 3743,
      "Ġpresence": 3744,
      "Ġinvolving": 3745,
      "Ġacadem": 3746,
      "ony": 3747,
      "Ġmess": 3748,
      "Ġdepartments": 3749,
      "Ġcharge": 3750,
      "Ġcomputer": 3751,
      "Ġje": 3752,
      "Ġclean": 3753,
      "Ġraising": 3754,
      "Ġconsequences": 3755,
      "Ġactual": 3756,
      "Ġtimely": 3757,
      "Ġbegan": 3758,
      "Ġadvant": 3759,
      "Ġoce": 3760,
      "nia": 3761,
      "Ġclosed": 3762,
      "let": 3763,
      "Ġconflicts": 3764,
      "anch": 3765,
      "Ġheav": 3766,
      "Ġfather": 3767,
      "Ġslow": 3768,
      "Ġtypes": 3769,
      "ination": 3770,
      "Ġsettle": 3771,
      "Ġmort": 3772,
      "Ġpic": 3773,
      "Ġheard": 3774,
      "Ġfuel": 3775,
      "acts": 3776,
      "Ġdelay": 3777,
      "Ġdemocracy": 3778,
      "Ġdead": 3779,
      "Ġrecords": 3780,
      "Ġopening": 3781,
      "Ġpow": 3782,
      "ece": 3783,
      "Ġvice": 3784,
      "inking": 3785,
      "Ġadded": 3786,
      "Ġseventh": 3787,
      "Ġoutp": 3788,
      "Ġcommand": 3789,
      "Ġdraw": 3790,
      "Ġsubpro": 3791,
      "Ġtown": 3792,
      "craft": 3793,
      "Ġcapacities": 3794,
      "teenth": 3795,
      "Ġincorpor": 3796,
      "Ġowing": 3797,
      "inary": 3798,
      "Ġcomment": 3799,
      "Ġlot": 3800,
      "Ġhabit": 3801,
      "Ġconcrete": 3802,
      "Ġhoc": 3803,
      "Ġdocumentation": 3804,
      "Ġbuy": 3805,
      "Ġbad": 3806,
      "Ġspirit": 3807,
      "Ġlaunched": 3808,
      "Ġrehabilitation": 3809,
      "Ġthing": 3810,
      "Ġreduced": 3811,
      "Ġended": 3812,
      "Ġsubc": 3813,
      "Ġcomponent": 3814,
      "Ġcollective": 3815,
      "Ġsold": 3816,
      "Ġreproduc": 3817,
      "Ġobserver": 3818,
      "Ġmaxim": 3819,
      "Ġheads": 3820,
      "Ġsubprogram": 3821,
      "Ġhaiti": 3822,
      "Ġmutual": 3823,
      "Ġmoment": 3824,
      "Ġsomalia": 3825,
      "Ġtru": 3826,
      "Ġforth": 3827,
      "Ġstri": 3828,
      "Ġdatab": 3829,
      "Ġmainstream": 3830,
      "Ġblo": 3831,
      "Ġtold": 3832,
      "Ġegypt": 3833,
      "Ġrisks": 3834,
      "Ġargent": 3835,
      "Ġorganizational": 3836,
      "Ġemission": 3837,
      "Ġattend": 3838,
      "Ġcongress": 3839,
      "Ġministers": 3840,
      "oke": 3841,
      "Ġbol": 3842,
      "Ġclosely": 3843,
      "Ġreligion": 3844,
      "Ġattach": 3845,
      "mer": 3846,
      "Ġsensi": 3847,
      "Ġconstruc": 3848,
      "Ġtan": 3849,
      "Ġfoundation": 3850,
      "Ġpi": 3851,
      "Ġdetain": 3852,
      "Ġsyn": 3853,
      "Ġrecognition": 3854,
      "Ġregulation": 3855,
      "Ġbanks": 3856,
      "Ġnews": 3857,
      "Ġsun": 3858,
      "building": 3859,
      "Ġstra": 3860,
      "Ġelectric": 3861,
      "Ġsubs": 3862,
      "Ġconstitutional": 3863,
      "Ġperpet": 3864,
      "ugg": 3865,
      "Ġprepare": 3866,
      "Ġcauses": 3867,
      "Ġlay": 3868,
      "Ġfulfil": 3869,
      "Ġaircraft": 3870,
      "Ġwid": 3871,
      "Ġbos": 3872,
      "Ġprem": 3873,
      "ses": 3874,
      "Ġeastern": 3875,
      "Ġcreat": 3876,
      "ixed": 3877,
      "Ġarri": 3878,
      "Ġplanned": 3879,
      "Ġship": 3880,
      "Ġdegra": 3881,
      "Ġdonors": 3882,
      "Ġago": 3883,
      "Ġradio": 3884,
      "Ġdescribed": 3885,
      "Ġwithdra": 3886,
      "Ġlanguages": 3887,
      "imen": 3888,
      "Ġpati": 3889,
      "Ġguide": 3890,
      "Ġdeployment": 3891,
      "Ġquar": 3892,
      "Ġadapt": 3893,
      "Ġsearch": 3894,
      "Ġwebs": 3895,
      "Ġmembership": 3896,
      "Ġbang": 3897,
      "Ġexcell": 3898,
      "Ġturkey": 3899,
      "onia": 3900,
      "oring": 3901,
      "Ġsouthern": 3902,
      "Ġfirm": 3903,
      "Ġelected": 3904,
      "Ġempower": 3905,
      "Ġwelcome": 3906,
      "Ġdifficulties": 3907,
      "Ġreducing": 3908,
      "Ġky": 3909,
      "Ġcommittees": 3910,
      "Ġmount": 3911,
      "face": 3912,
      "Ġcooper": 3913,
      "Ġprosecution": 3914,
      "Ġurgent": 3915,
      "ert": 3916,
      "Ġitaly": 3917,
      "Ġcommod": 3918,
      "Ġpurch": 3919,
      "Ġrich": 3920,
      "gment": 3921,
      "aria": 3922,
      "Ġouter": 3923,
      "Ġenab": 3924,
      "Ġindeed": 3925,
      "Ġdetermined": 3926,
      "Ġelectoral": 3927,
      "Ġcalc": 3928,
      "Ġcontributing": 3929,
      "Ġattack": 3930,
      "Ġactively": 3931,
      "Ġder": 3932,
      "Ġdomin": 3933,
      "Ġpressure": 3934,
      "Ġthous": 3935,
      "Ġrefugee": 3936,
      "active": 3937,
      "Ġfollowed": 3938,
      "Ġthousand": 3939,
      "Ġtrue": 3940,
      "Ġimmediate": 3941,
      "Ġmarriage": 3942,
      "Ġcro": 3943,
      "Ġlate": 3944,
      "Ġshown": 3945,
      "arity": 3946,
      "versi": 3947,
      "Ġstressed": 3948,
      "Ġhistor": 3949,
      "Ġmarine": 3950,
      "Ġindonesia": 3951,
      "Ġword": 3952,
      "Ġforced": 3953,
      "Ġwall": 3954,
      "Ġdetermine": 3955,
      "Ġabsence": 3956,
      "Ġdefined": 3957,
      "fully": 3958,
      "Ġmandates": 3959,
      "Ġcombating": 3960,
      "Ġbound": 3961,
      "Ġassessments": 3962,
      "uck": 3963,
      "Ġraise": 3964,
      "Ġfailure": 3965,
      "imb": 3966,
      "Ġapproxim": 3967,
      "Ġemerging": 3968,
      "Ġeighth": 3969,
      "Ġfill": 3970,
      "Ġmac": 3971,
      "ented": 3972,
      "Ġworkshops": 3973,
      "Ġzone": 3974,
      "Ġimmediately": 3975,
      "Ġorgans": 3976,
      "Ġpublished": 3977,
      "Ġrise": 3978,
      "jan": 3979,
      "Ġswed": 3980,
      "Ġjournal": 3981,
      "Ġninth": 3982,
      "Ġmunic": 3983,
      "Ġowners": 3984,
      "Ġlooking": 3985,
      "hol": 3986,
      "ead": 3987,
      "Ġstay": 3988,
      "Ġthank": 3989,
      "Ġcell": 3990,
      "Ġmunicip": 3991,
      "Ġlu": 3992,
      "Ġcivilians": 3993,
      "ta": 3994,
      "ival": 3995,
      "Ġclari": 3996,
      "Ġunido": 3997,
      "orial": 3998,
      "Ġkuwait": 3999,
      "Ġjoh": 4000,
      "ilt": 4001,
      "ape": 4002,
      "Ġoptions": 4003,
      "Ġpattern": 4004,
      "Ġforty": 4005,
      "Ġeight": 4006,
      "crip": 4007,
      "Ġextended": 4008,
      "Ġngos": 4009,
      "Ġdefinition": 4010,
      "Ġshared": 4011,
      "Ġrwanda": 4012,
      "Ġintended": 4013,
      "ÌĤ": 4014,
      "Ġstrengthened": 4015,
      "lying": 4016,
      "Ġtun": 4017,
      "Ġcoming": 4018,
      "Ġrecognizing": 4019,
      "Ġrecruitment": 4020,
      "Ġincreasingly": 4021,
      "lled": 4022,
      "Ġgaz": 4023,
      "Ġwatch": 4024,
      "Ġpage": 4025,
      "Ġministerial": 4026,
      "Ġundertake": 4027,
      "rep": 4028,
      "Ġmerc": 4029,
      "ocks": 4030,
      "Ġspain": 4031,
      "Ġgave": 4032,
      "Ġevalu": 4033,
      "Ġacting": 4034,
      "Ġsolutions": 4035,
      "lined": 4036,
      "ervation": 4037,
      "Ġmer": 4038,
      "Ġinspection": 4039,
      "Ġinvolvement": 4040,
      "Ġattacks": 4041,
      "Ġbackground": 4042,
      "Ġsaw": 4043,
      "Ġmeaning": 4044,
      "Ġrej": 4045,
      "Ġbranch": 4046,
      "Ġgh": 4047,
      "Ġcategory": 4048,
      "Ġpossibility": 4049,
      "Ġestimates": 4050,
      "Ġconsumption": 4051,
      "ife": 4052,
      "Ġhousehold": 4053,
      "Ġlost": 4054,
      "Ġwr": 4055,
      "Ġaccepted": 4056,
      "Ġflex": 4057,
      "Ġfields": 4058,
      "Ġcolom": 4059,
      "Ġquan": 4060,
      "Ġambass": 4061,
      "Ġsuc": 4062,
      "Ġexpertise": 4063,
      "Ġreconcil": 4064,
      "Ġdonor": 4065,
      "Ġnep": 4066,
      "gen": 4067,
      "Ġnation": 4068,
      "ique": 4069,
      "Ġplaced": 4070,
      "Ġfreedoms": 4071,
      "Ġnine": 4072,
      "respond": 4073,
      "Ġsmo": 4074,
      "Ġcorrespond": 4075,
      "Ġprocessing": 4076,
      "Ġpercentage": 4077,
      "Ġcontracts": 4078,
      "Ġminorities": 4079,
      "times": 4080,
      "Ġcomplement": 4081,
      "umed": 4082,
      "Ġcond": 4083,
      "teg": 4084,
      "Ġplaces": 4085,
      "Ġswitzer": 4086,
      "Ġzeal": 4087,
      "Ġswitzerland": 4088,
      "Ġcoordinated": 4089,
      "lection": 4090,
      "Ġinstead": 4091,
      "Ġacknowled": 4092,
      "Ġwan": 4093,
      "Ġchairp": 4094,
      "uay": 4095,
      "Ġbehav": 4096,
      "Ġww": 4097,
      "Ġobservers": 4098,
      "Ġkeeping": 4099,
      "Ġhighest": 4100,
      "Ġsense": 4101,
      "Ġfactor": 4102,
      "Ġdeliver": 4103,
      "Ġinclusion": 4104,
      "Ġwhite": 4105,
      "enses": 4106,
      "Ġnether": 4107,
      "oth": 4108,
      "Ġukra": 4109,
      "Ġdeputy": 4110,
      "Ġallowed": 4111,
      "Ġidea": 4112,
      "Ġreviewed": 4113,
      "Ġsubcomm": 4114,
      "Ġaccordingly": 4115,
      "Ġexpression": 4116,
      "Ġrepresentation": 4117,
      "Ġengaged": 4118,
      "ots": 4119,
      "aily": 4120,
      "Ġdig": 4121,
      "Ġdirection": 4122,
      "Ġuses": 4123,
      "Ġsaving": 4124,
      "Ġshows": 4125,
      "Ġson": 4126,
      "Ġgold": 4127,
      "Ġug": 4128,
      "iop": 4129,
      "Ġelab": 4130,
      "Ġnetherlands": 4131,
      "Ġunemp": 4132,
      "Ġspeed": 4133,
      "Ġansw": 4134,
      "erra": 4135,
      "Ġsometimes": 4136,
      "Ġargentina": 4137,
      "wide": 4138,
      "Ġdaily": 4139,
      "Ġparticipated": 4140,
      "Ġcentury": 4141,
      "Ġproduced": 4142,
      "Ġuns": 4143,
      "Ġrepe": 4144,
      "Ġapproximately": 4145,
      "Ġanim": 4146,
      "eng": 4147,
      "Ġinvestigations": 4148,
      "itig": 4149,
      "Ġali": 4150,
      "Ġendors": 4151,
      "Ġbat": 4152,
      "Ġcruc": 4153,
      "Ġvalues": 4154,
      "Ġoffences": 4155,
      "Ġunless": 4156,
      "Ġusually": 4157,
      "Ġnorway": 4158,
      "Ġcustoms": 4159,
      "Ġsubprogramme": 4160,
      "Ġmorning": 4161,
      "Ġlegiti": 4162,
      "Ġmad": 4163,
      "Ġexamination": 4164,
      "Ġgross": 4165,
      "Ġautom": 4166,
      "mples": 4167,
      "Ġlearn": 4168,
      "Ġzealand": 4169,
      "Ġdyn": 4170,
      "Ġspeaking": 4171,
      "Ġconsidering": 4172,
      "Ġurged": 4173,
      "Ġgran": 4174,
      "Ġbrit": 4175,
      "Ġimposed": 4176,
      "Ġsize": 4177,
      "idents": 4178,
      "Ġrepresented": 4179,
      "Ġearlier": 4180,
      "Ġagg": 4181,
      "Ġkos": 4182,
      "Ġdoub": 4183,
      "Ġnetworks": 4184,
      "Ġprime": 4185,
      "Ġremaining": 4186,
      "Ġtargets": 4187,
      "Ġask": 4188,
      "Ġelement": 4189,
      "chr": 4190,
      "Ġinterim": 4191,
      "tes": 4192,
      "Ġappointment": 4193,
      "Ġconting": 4194,
      "Ġspecifically": 4195,
      "Ġlearned": 4196,
      "Ġpalestine": 4197,
      "Ġhor": 4198,
      "Ġcooperate": 4199,
      "Ġhighly": 4200,
      "Ġpersp": 4201,
      "asters": 4202,
      "Ġsierra": 4203,
      "Ġliberia": 4204,
      "Ġoccupation": 4205,
      "utri": 4206,
      "Ġseparate": 4207,
      "Ġethiop": 4208,
      "Ġstarted": 4209,
      "Ġreinfor": 4210,
      "Ġnum": 4211,
      "Ġmedic": 4212,
      "Ġholding": 4213,
      "Ġlabor": 4214,
      "head": 4215,
      "Ġspan": 4216,
      "Ġinp": 4217,
      "rew": 4218,
      "Ġsettlements": 4219,
      "Ġdealing": 4220,
      "theless": 4221,
      "ovo": 4222,
      "ames": 4223,
      "Ġfigure": 4224,
      "ived": 4225,
      "Ġdepos": 4226,
      "Ġwww": 4227,
      "atell": 4228,
      "Ġdiversity": 4229,
      "Ġul": 4230,
      "Ġchamber": 4231,
      "Ġhonour": 4232,
      "mark": 4233,
      "enders": 4234,
      "Ġperspective": 4235,
      "Ġeveryone": 4236,
      "Ġetc": 4237,
      "Ġfost": 4238,
      "Ġdemo": 4239,
      "iring": 4240,
      "Ġcities": 4241,
      "Ġreplace": 4242,
      "Ġstructures": 4243,
      "Ġidentification": 4244,
      "Ġrespectively": 4245,
      "Ġalone": 4246,
      "Ġleone": 4247,
      "Ġpeacebuilding": 4248,
      "Ġweak": 4249,
      "Ġdisease": 4250,
      "Ġoccasion": 4251,
      "usal": 4252,
      "Ġconform": 4253,
      "Ġles": 4254,
      "Ġeliminate": 4255,
      "Ġstre": 4256,
      "rc": 4257,
      "Ġwon": 4258,
      "actions": 4259,
      "Ġready": 4260,
      "Ġthreats": 4261,
      "Ġintegrity": 4262,
      "Ġcomponents": 4263,
      "Ġinternationally": 4264,
      "Ġsecondary": 4265,
      "Ġfoot": 4266,
      "Ġmoroc": 4267,
      "Ġsubsequent": 4268,
      "ley": 4269,
      "Ġbecame": 4270,
      "Ġcheck": 4271,
      "Ġfindings": 4272,
      "Ġken": 4273,
      "Ġtransform": 4274,
      "Ġemphasis": 4275,
      "Ġvalid": 4276,
      "Ġacce": 4277,
      "national": 4278,
      "Ġassistant": 4279,
      "Ġperpetr": 4280,
      "Ġhimself": 4281,
      "Ġsales": 4282,
      "Ġemphasized": 4283,
      "Ġpil": 4284,
      "Ġfear": 4285,
      "Ġreinteg": 4286,
      "Ġsoftware": 4287,
      "Ġhaz": 4288,
      "band": 4289,
      "Ġmitig": 4290,
      "Ġcrucial": 4291,
      "Ġbelong": 4292,
      "Ġmigrants": 4293,
      "Ġcreating": 4294,
      "Ġusers": 4295,
      "Ġmail": 4296,
      "Ġproduce": 4297,
      "Ġparticipating": 4298,
      "Ġconcent": 4299,
      "Ġauthorized": 4300,
      "Ġconsultative": 4301,
      "Ġconver": 4302,
      "Ġcypr": 4303,
      "Ġsevere": 4304,
      "Ġsatell": 4305,
      "Ġdimen": 4306,
      "onses": 4307,
      "Ġunm": 4308,
      "Ġburund": 4309,
      "Ġcyprus": 4310,
      "Ġohchr": 4311,
      "Ġratification": 4312,
      "ids": 4313,
      "ressive": 4314,
      "Ġprosecutor": 4315,
      "Ġblack": 4316,
      "Ġarmy": 4317,
      "Ġbehind": 4318,
      "Ġtrends": 4319,
      "Ġaward": 4320,
      "Ġlisted": 4321,
      "uses": 4322,
      "Ġbosnia": 4323,
      "Ġstor": 4324,
      "Ġsubsidiary": 4325,
      "Ġneighbour": 4326,
      "arily": 4327,
      "Ġconstitute": 4328,
      "Ġwebsite": 4329,
      "Ġded": 4330,
      "Ġlawy": 4331,
      "Ġgeorg": 4332,
      "Ġresponses": 4333,
      "Ġengage": 4334,
      "Ġprob": 4335,
      "Ġinfluence": 4336,
      "Ġresulted": 4337,
      "Ġvictim": 4338,
      "Ġgirl": 4339,
      "Ġobstac": 4340,
      "Ġoutcomes": 4341,
      "Ġpredic": 4342,
      "Ġpension": 4343,
      "Ġalign": 4344,
      "Ġkosovo": 4345,
      "Ġseas": 4346,
      "Ġregistered": 4347,
      "Ġcompetent": 4348,
      "Ġcourses": 4349,
      "Ġappointed": 4350,
      "Ġeyes": 4351,
      "Ġgrounds": 4352,
      "Ġcong": 4353,
      "Ġaustri": 4354,
      "Ġcam": 4355,
      "Ġtrain": 4356,
      "pt": 4357,
      "unity": 4358,
      "Ġnamely": 4359,
      "tially": 4360,
      "eme": 4361,
      "Ġdidn": 4362,
      "Ġeasy": 4363,
      "Ġoverc": 4364,
      "Ġdiseases": 4365,
      "Ġreconciliation": 4366,
      "Ġtasks": 4367,
      "Ġphot": 4368,
      "Ġeradication": 4369,
      "Ġdegree": 4370,
      "Ġimmig": 4371,
      "Ġinstall": 4372,
      "Ġrequirement": 4373,
      "Ġlord": 4374,
      "ify": 4375,
      "Ġ_": 4376,
      "Ġambassador": 4377,
      "Ġche": 4378,
      "Ġchan": 4379,
      "Ġaccomplish": 4380,
      "Ġran": 4381,
      "ula": 4382,
      "Ġbritain": 4383,
      "Ġfloor": 4384,
      "Ġreforms": 4385,
      "Ġbene": 4386,
      "Ġball": 4387,
      "Ġthirty": 4388,
      "Ġinterested": 4389,
      "Ġhus": 4390,
      "Ġhands": 4391,
      "Ġsecure": 4392,
      "tified": 4393,
      "Ġlessons": 4394,
      "Ġcandidates": 4395,
      "loyed": 4396,
      "Ġoptim": 4397,
      "Ġsurv": 4398,
      "aging": 4399,
      "gov": 4400,
      "ara": 4401,
      "Ġdetails": 4402,
      "Ġowned": 4403,
      "Ġbiological": 4404,
      "Ġthematic": 4405,
      "rable": 4406,
      "Ġpersist": 4407,
      "ĠéĪ¥": 4408,
      "Ġemployees": 4409,
      "Ġfront": 4410,
      "Ġphilipp": 4411,
      "Ġukraine": 4412,
      "Ġdeliber": 4413,
      "Ġconsent": 4414,
      "Ġstreet": 4415,
      "Ġhabitat": 4416,
      "Ġcorre": 4417,
      "Ġwelf": 4418,
      "ares": 4419,
      "Ġinterpretation": 4420,
      "Ġ&": 4421,
      "Ġcompletion": 4422,
      "asc": 4423,
      "sc": 4424,
      "Ġwelfare": 4425,
      "Ġmatern": 4426,
      "Ġsweden": 4427,
      "pped": 4428,
      "Ġinclusive": 4429,
      "Ġnigeria": 4430,
      "Ġracism": 4431,
      "Ġconstra": 4432,
      "Ġdisability": 4433,
      "Ġpowers": 4434,
      "ship": 4435,
      "Ġdatabase": 4436,
      "Ġweeks": 4437,
      "bai": 4438,
      "Ġotherwise": 4439,
      "Ġwrong": 4440,
      "Ġpreventing": 4441,
      "Ġshel": 4442,
      "Ġazer": 4443,
      "Ġcoordinator": 4444,
      "fered": 4445,
      "Ġelse": 4446,
      "Ġpath": 4447,
      "Ġcolombia": 4448,
      "Ġteaching": 4449,
      "Ġgiving": 4450,
      "Ġproportion": 4451,
      "Ġexpan": 4452,
      "Ġattrib": 4453,
      "cast": 4454,
      "ded": 4455,
      "Ġquite": 4456,
      "Ġaware": 4457,
      "Ġschedul": 4458,
      "atures": 4459,
      "Ġoutstanding": 4460,
      "Ġwhom": 4461,
      "Ġrelease": 4462,
      "Ġcontributed": 4463,
      "Ġhung": 4464,
      "ola": 4465,
      "Ġvehicles": 4466,
      "Ġboliv": 4467,
      "Ġherze": 4468,
      "Ġherzegov": 4469,
      "Ġriver": 4470,
      "Ġfelt": 4471,
      "Ġexpenditures": 4472,
      "Ġherzegovina": 4473,
      "Ġivo": 4474,
      "Ġwife": 4475,
      "Ġdur": 4476,
      "Ġexcept": 4477,
      "Ġembar": 4478,
      "Ġappeals": 4479,
      "Ġsle": 4480,
      "bon": 4481,
      "Ġfaced": 4482,
      "Ġsale": 4483,
      "iers": 4484,
      "Ġvisits": 4485,
      "Ġcontains": 4486,
      "Ġamendment": 4487,
      "Ġscheme": 4488,
      "Ġindicate": 4489,
      "Ġsites": 4490,
      "Ġturk": 4491,
      "Ġchemicals": 4492,
      "Ġcomplaints": 4493,
      "Ġreintegration": 4494,
      "tify": 4495,
      "Ġazerbai": 4496,
      "Ġchile": 4497,
      "Ġazerbaijan": 4498,
      "Ġreven": 4499,
      "Ġpopulations": 4500,
      "Ġsuper": 4501,
      "tish": 4502,
      "Ġstatute": 4503,
      "aint": 4504,
      "Ġdiplomatic": 4505,
      "Ġterritorial": 4506,
      "Ġminority": 4507,
      "Ġextend": 4508,
      "Ġlooked": 4509,
      "where": 4510,
      "Ġworked": 4511,
      "Ġspread": 4512,
      "Ġcoast": 4513,
      "Ġroc": 4514,
      "Ġregulatory": 4515,
      "Ġrecognize": 4516,
      "Ġcompris": 4517,
      "Ġtechnological": 4518,
      "Ġivoire": 4519,
      "Ġoffered": 4520,
      "ume": 4521,
      "Ġmari": 4522,
      "Ġnormal": 4523,
      "Ġpra": 4524,
      "Ġobserved": 4525,
      "Ġplant": 4526,
      "Ġwed": 4527,
      "Ġoly": 4528,
      "Ġcategories": 4529,
      "Ġburundi": 4530,
      "Ġliter": 4531,
      "Ġrecorded": 4532,
      "Ġdissemination": 4533,
      "Ġentered": 4534,
      "Ġolymp": 4535,
      "Ġnationality": 4536,
      "Ġtourism": 4537,
      "Ġexperiences": 4538,
      "Ġactually": 4539,
      "osure": 4540,
      "Ġpresentation": 4541,
      "Ġreproductive": 4542,
      "Ġglobalization": 4543,
      "Ġhighlighted": 4544,
      "Ġreme": 4545,
      "titude": 4546,
      "quid": 4547,
      "Ġconvic": 4548,
      "oted": 4549,
      "Ġsocio": 4550,
      "Ġjer": 4551,
      "Ġalger": 4552,
      "Ġchairperson": 4553,
      "Ġtransnational": 4554,
      "Ġrestrictions": 4555,
      "Ġposs": 4556,
      "Ġparas": 4557,
      "Ġstrict": 4558,
      "Ġsignificantly": 4559,
      "Ġliby": 4560,
      "Ġsupplies": 4561,
      "Ġtrying": 4562,
      "ques": 4563,
      "Ġdispute": 4564,
      "Ġdoor": 4565,
      "etary": 4566,
      "Ġcroati": 4567,
      "Ġconcluding": 4568,
      "herence": 4569,
      "Ġexpansion": 4570,
      "Ġexistence": 4571,
      "iling": 4572,
      "Ġpregn": 4573,
      "Ġseems": 4574,
      "Ġteachers": 4575,
      "Ġemissions": 4576,
      "Ġvolun": 4577,
      "the": 4578,
      "Ġjobs": 4579,
      "Ġsought": 4580,
      "Ġcycle": 4581,
      "Ġallegations": 4582,
      "ham": 4583,
      "Ġfeed": 4584,
      "fur": 4585,
      "oles": 4586,
      "Ġcomes": 4587,
      "Ġprincipal": 4588,
      "Ġseeking": 4589,
      "Ġsubstantial": 4590,
      "Ġselected": 4591,
      "Ġwash": 4592,
      "Ġsr": 4593,
      "Ġnorms": 4594,
      "Ġinvestments": 4595,
      "ailand": 4596,
      "Ġexceed": 4597,
      "Ġautonom": 4598,
      "Ġfunded": 4599,
      "Ġmorocco": 4600,
      "Ġplayed": 4601,
      "Ġthailand": 4602,
      "Ġsupreme": 4603,
      "tieth": 4604,
      "Ġconsiders": 4605,
      "Ġtalk": 4606,
      "Ġmaster": 4607,
      "Ġbearing": 4608,
      "Ġwood": 4609,
      "Ġexecution": 4610,
      "Ġdepri": 4611,
      "Ġavailability": 4612,
      "Ġsell": 4613,
      "Ġstrongly": 4614,
      "Ġmargin": 4615,
      "Ġmalay": 4616,
      "Ġwithdraw": 4617,
      "Ġteams": 4618,
      "Ġfailed": 4619,
      "Ġcurren": 4620,
      "Ġwidely": 4621,
      "Ġhund": 4622,
      "Ġverification": 4623,
      "Ġfavour": 4624,
      "Ġbed": 4625,
      "Ġethiopia": 4626,
      "Ġdecide": 4627,
      "Ġnorm": 4628,
      "uan": 4629,
      "Ġclassi": 4630,
      "ao": 4631,
      "Ġvital": 4632,
      "Ġobtained": 4633,
      "Ġgranted": 4634,
      "Ġcru": 4635,
      "Ġlan": 4636,
      "aea": 4637,
      "Ġcertific": 4638,
      "Ġsupports": 4639,
      "Ġhundred": 4640,
      "Ġfunctioning": 4641,
      "Ġcommissions": 4642,
      "Ġnone": 4643,
      "nty": 4644,
      "Ġprovince": 4645,
      "Ġlosses": 4646,
      "Ġempowerment": 4647,
      "Ġfacility": 4648,
      "Ġblood": 4649,
      "cing": 4650,
      "rain": 4651,
      "eries": 4652,
      "Ġtheme": 4653,
      "Ġanything": 4654,
      "Ġamendments": 4655,
      "Ġidentity": 4656,
      "Ġpayments": 4657,
      "Ġappreci": 4658,
      "Ġclust": 4659,
      "ignty": 4660,
      "Ġvolunte": 4661,
      "Ġsovereignty": 4662,
      "Ġreconst": 4663,
      "Ġcard": 4664,
      "rate": 4665,
      "Ġentity": 4666,
      "gs": 4667,
      "Ġsah": 4668,
      "akh": 4669,
      "Ġiaea": 4670,
      "Ġeverything": 4671,
      "Ġadvancement": 4672,
      "Ġexpenses": 4673,
      "Ġadvanced": 4674,
      "Ġcamb": 4675,
      "Ġboy": 4676,
      "Ġhur": 4677,
      "Ġrealization": 4678,
      "ns": 4679,
      "minated": 4680,
      "Ġsqu": 4681,
      "Ġinvent": 4682,
      "ives": 4683,
      "Ġacces": 4684,
      "Ġbelief": 4685,
      "Ġcolon": 4686,
      "Ġduties": 4687,
      "Ġsimple": 4688,
      "Ġpreviously": 4689,
      "Ġjord": 4690,
      "Ġspoke": 4691,
      "Ġtransportation": 4692,
      "ague": 4693,
      "iles": 4694,
      "set": 4695,
      "Ġspecified": 4696,
      "Ġcarrying": 4697,
      "Ġbenefic": 4698,
      "Ġbor": 4699,
      "Ġyugoslavia": 4700,
      "ÌĪ": 4701,
      "Ġinstance": 4702,
      "Ġinterview": 4703,
      "Ġlargest": 4704,
      "Ġfacing": 4705,
      "Ġmigrant": 4706,
      "rs": 4707,
      "Ġdisasters": 4708,
      "Ġaustria": 4709,
      "Ġcoal": 4710,
      "Ġadvantage": 4711,
      "udi": 4712,
      "wan": 4713,
      "Ġkenya": 4714,
      "Ġdynam": 4715,
      "Ġrob": 4716,
      "Ġtele": 4717,
      "Ġattemp": 4718,
      "Ġbah": 4719,
      "Ġengagement": 4720,
      "Ġtransitional": 4721,
      "Ġbritish": 4722,
      "osph": 4723,
      "Ġjordan": 4724,
      "Ġphilippines": 4725,
      "Ġrecognizes": 4726,
      "Ġtit": 4727,
      "osing": 4728,
      "Ġsho": 4729,
      "Ġnumbers": 4730,
      "Ġsubstances": 4731,
      "Ġcamer": 4732,
      "Ġprohibition": 4733,
      "Ġnames": 4734,
      "ocked": 4735,
      "Ġtransit": 4736,
      "Ġtrading": 4737,
      "Ġcontaining": 4738,
      "Ġtheory": 4739,
      "Ġencouraging": 4740,
      "Ġcold": 4741,
      "Ġ=": 4742,
      "Ġconsiderable": 4743,
      "Ġgaza": 4744,
      "Ġdecrease": 4745,
      "Ġwilling": 4746,
      "Ġcenter": 4747,
      "Ġobject": 4748,
      "Ġwriting": 4749,
      "Ġtopic": 4750,
      "Ġmaintaining": 4751,
      "Ġsam": 4752,
      "Ġenjoyment": 4753,
      "Ġworth": 4754,
      "Ġattain": 4755,
      "Ġnomin": 4756,
      "faction": 4757,
      "Ġonline": 4758,
      "inding": 4759,
      "Ġportug": 4760,
      "load": 4761,
      "Ġcoordinating": 4762,
      "Ġcd": 4763,
      "Ġmobil": 4764,
      "Ġinternally": 4765,
      "Ġpublications": 4766,
      "orate": 4767,
      "Ġquarter": 4768,
      "Ġformulation": 4769,
      "Ġstip": 4770,
      "body": 4771,
      "Ġheavy": 4772,
      "jud": 4773,
      "Ġsomeone": 4774,
      "Ġequitable": 4775,
      "Ġnearly": 4776,
      "Ġbit": 4777,
      "Ġcas": 4778,
      "Ġownership": 4779,
      "Ġcoverage": 4780,
      "Ġfast": 4781,
      "Ġlinked": 4782,
      "itre": 4783,
      "Ġopened": 4784,
      "Ġdecent": 4785,
      "Ġamended": 4786,
      "Ġdestro": 4787,
      "Ġcharacteristics": 4788,
      "Ġmaintained": 4789,
      "Ġocean": 4790,
      "Ġvision": 4791,
      "Ġolder": 4792,
      "ylum": 4793,
      "ont": 4794,
      "Ġsustained": 4795,
      "Ġperu": 4796,
      "Ġkilled": 4797,
      "Ġupdated": 4798,
      "Ġbelg": 4799,
      "Ġextensive": 4800,
      "Ġsubsequently": 4801,
      "Ġamounts": 4802,
      "limin": 4803,
      "Ġcombined": 4804,
      "osis": 4805,
      "akers": 4806,
      "Ġfigh": 4807,
      "Ġlatest": 4808,
      "Ġoverse": 4809,
      "Ġreservations": 4810,
      "Ġasylum": 4811,
      "Ġprotected": 4812,
      "Ġmainstreaming": 4813,
      "Ġnic": 4814,
      "Ġalgeria": 4815,
      "ommod": 4816,
      "Ġdifferences": 4817,
      "Ġprelimin": 4818,
      "ept": 4819,
      "Ġfixed": 4820,
      "Ġinvestigate": 4821,
      "Ġpled": 4822,
      "Ġaccommod": 4823,
      "Ġtargeted": 4824,
      "Ġexpresses": 4825,
      "Ġcomply": 4826,
      "Ġmental": 4827,
      "Ġinvites": 4828,
      "Ġhappy": 4829,
      "Ġunable": 4830,
      "ark": 4831,
      "Ġkh": 4832,
      "Ġassessed": 4833,
      "Ġdarfur": 4834,
      "Ġcorporate": 4835,
      "lades": 4836,
      "Ġecos": 4837,
      "Ġspeakers": 4838,
      "Ġdesignated": 4839,
      "Ġmaximum": 4840,
      "Ġlen": 4841,
      "Ġafford": 4842,
      "Ġhu": 4843,
      "Ġretain": 4844,
      "Ġinside": 4845,
      "Ġta": 4846,
      "Ġcondem": 4847,
      "port": 4848,
      "Ġendorsed": 4849,
      "Ġdrafting": 4850,
      "Ġvide": 4851,
      "Ġmalaysia": 4852,
      "Ġannounced": 4853,
      "Ġnumerous": 4854,
      "Ġframeworks": 4855,
      "Ġlocated": 4856,
      "Ġeritre": 4857,
      "Ġnotice": 4858,
      "anmar": 4859,
      "Ġarising": 4860,
      "Ġones": 4861,
      "Ġbanglades": 4862,
      "Ġbangladesh": 4863,
      "Ġadaptation": 4864,
      "Ġwond": 4865,
      "Ġcz": 4866,
      "Ġmyanmar": 4867,
      "Ġfer": 4868,
      "Ġgeographical": 4869,
      "Ġfine": 4870,
      "Ġuganda": 4871,
      "Ġmines": 4872,
      "Ġoffence": 4873,
      "Ġaims": 4874,
      "Ġbuilt": 4875,
      "Ġod": 4876,
      "lines": 4877,
      "iry": 4878,
      "Ġpreliminary": 4879,
      "Ġtruth": 4880,
      "Ġict": 4881,
      "Ġintensi": 4882,
      "Ġflows": 4883,
      "ertain": 4884,
      "thes": 4885,
      "Ġstations": 4886,
      "Ġgeorgia": 4887,
      "Ġuser": 4888,
      "Ġtelev": 4889,
      "Ġworldwide": 4890,
      "fect": 4891,
      "Ġhusband": 4892,
      "Ġbelar": 4893,
      "Ġconvened": 4894,
      "Ġdisappear": 4895,
      "ift": 4896,
      "Ġvoc": 4897,
      "Ġves": 4898,
      "Ġmortality": 4899,
      "Ġexamples": 4900,
      "Ġdream": 4901,
      "Ġchannel": 4902,
      "Ġintention": 4903,
      "Ġsentence": 4904,
      "ios": 4905,
      "road": 4906,
      "Ġrace": 4907,
      "Ġprotecting": 4908,
      "Ġreconstruction": 4909,
      "Ġhospital": 4910,
      "Ġproductive": 4911,
      "Ġenabling": 4912,
      "Ġunemployment": 4913,
      "Ġremin": 4914,
      "Ġmap": 4915,
      "Ġliability": 4916,
      "Ġfacilitating": 4917,
      "Ġextension": 4918,
      "Ġpointed": 4919,
      "Ġallocation": 4920,
      "Ġaffir": 4921,
      "Ġreceiving": 4922,
      "Ġinterven": 4923,
      "Ġpublication": 4924,
      "Ġmemor": 4925,
      "Ġreasonable": 4926,
      "Ġpenalty": 4927,
      "Ġgeneration": 4928,
      "Ġunod": 4929,
      "Ġresist": 4930,
      "Ġsor": 4931,
      "Ġideas": 4932,
      "Ġmanagers": 4933,
      "Ġsatisfaction": 4934,
      "Ġmas": 4935,
      "Ġcontents": 4936,
      "Ġimpris": 4937,
      "Ġconservation": 4938,
      "Ġcollect": 4939,
      "Ġintellect": 4940,
      "Ġhot": 4941,
      "Ġcontra": 4942,
      "Ġexclud": 4943,
      "Ġmountain": 4944,
      "Ġtransl": 4945,
      "char": 4946,
      "Ġcollege": 4947,
      "Ġpollution": 4948,
      "Ġced": 4949,
      "Ġpopular": 4950,
      "Ġgrand": 4951,
      "Ġchoice": 4952,
      "Ġvirt": 4953,
      "Ġengineering": 4954,
      "Ġintellig": 4955,
      "Ġexplan": 4956,
      "Ġindex": 4957,
      "Ġunodc": 4958,
      "Ġsubcommit": 4959,
      "Ġ>": 4960,
      "Ġshowed": 4961,
      "Ġczech": 4962,
      "Ġminutes": 4963,
      "Ġguate": 4964,
      "resh": 4965,
      "Ġachievements": 4966,
      "Ġnd": 4967,
      "Ġguatemal": 4968,
      "omen": 4969,
      "Ġtelevision": 4970,
      "Ġwarm": 4971,
      "Ġstructural": 4972,
      "Ġcroatia": 4973,
      "Ġsatellite": 4974,
      "Ġselection": 4975,
      "Ġmusic": 4976,
      "Ġcp": 4977,
      "Ġsaudi": 4978,
      "Ġtroops": 4979,
      "Ġnav": 4980,
      "Ġilo": 4981,
      "haps": 4982,
      "Ġgrave": 4983,
      "Ġld": 4984,
      "Ġcambod": 4985,
      "marily": 4986,
      "Ġbarri": 4987,
      "Ġtemper": 4988,
      "Ġtunis": 4989,
      "Ġinequ": 4990,
      "Ġsustainability": 4991,
      "Ġtroop": 4992,
      "Ġpul": 4993,
      "Ġdign": 4994,
      "Ġsimply": 4995,
      "Ġpreparing": 4996,
      "tition": 4997,
      "Ġfinland": 4998,
      "Ġdelivered": 4999,
      "Ġanswer": 5000,
      "Ġrot": 5001,
      "ulating": 5002,
      "Ġcomplainant": 5003,
      "Ġunique": 5004,
      "Ġsurface": 5005,
      "Ġperhaps": 5006,
      "la": 5007,
      "Ġsensitive": 5008,
      "Ġsystematic": 5009,
      "ingu": 5010,
      "Ġlebanese": 5011,
      "Ġnevertheless": 5012,
      "Ġconfirmed": 5013,
      "Ġcorrec": 5014,
      "Ġlia": 5015,
      "Ġmu": 5016,
      "Ġprisoners": 5017,
      "ky": 5018,
      "Ġsaint": 5019,
      "Ġdeser": 5020,
      "Ġwindow": 5021,
      "esco": 5022,
      "Ġphen": 5023,
      "ieties": 5024,
      "Ġwishes": 5025,
      "Ġattended": 5026,
      "Ġinqu": 5027,
      "Ġoption": 5028,
      "Ġfao": 5029,
      "oler": 5030,
      "Ġchanging": 5031,
      "po": 5032,
      "Ġratified": 5033,
      "Ġmanage": 5034,
      "Ġlocation": 5035,
      "Ġliquid": 5036,
      "Ġrevision": 5037,
      "Ġgap": 5038,
      "aving": 5039,
      "Ġtimor": 5040,
      "Ġpartner": 5041,
      "Ġwarning": 5042,
      "ventive": 5043,
      "Ġtai": 5044,
      "Ġtransparent": 5045,
      "Ġprimarily": 5046,
      "Ġorganis": 5047,
      "ean": 5048,
      "Ġinstruc": 5049,
      "Ġclin": 5050,
      "Ġpoland": 5051,
      "Ġseminar": 5052,
      "mine": 5053,
      "Ġlines": 5054,
      "Ġsat": 5055,
      "Ġquickly": 5056,
      "Ġbelarus": 5057,
      "Ġconstructive": 5058,
      "Ġgetting": 5059,
      "Ġren": 5060,
      "Ġecu": 5061,
      "Ġnutri": 5062,
      "rol": 5063,
      "Ġbrid": 5064,
      "Ġresident": 5065,
      "Ġmultiple": 5066,
      "Ġintellectual": 5067,
      "Ġfinding": 5068,
      "Ġhazard": 5069,
      "Ġfaith": 5070,
      "Ġexports": 5071,
      "ball": 5072,
      "Ġacquis": 5073,
      "Ġsole": 5074,
      "Ġlatter": 5075,
      "Ġjointly": 5076,
      "abled": 5077,
      "Ġbeau": 5078,
      "Ġexamine": 5079,
      "Ġdefic": 5080,
      "Ġsports": 5081,
      "Ġarmen": 5082,
      "Ġaffecting": 5083,
      "Ġpreventive": 5084,
      "Ġprotocols": 5085,
      "Ġunesco": 5086,
      "Ġbox": 5087,
      "Ġconstant": 5088,
      "Ġpursue": 5089,
      "rated": 5090,
      "Ġforests": 5091,
      "Ġvene": 5092,
      "Ġargu": 5093,
      "Ġspanish": 5094,
      "Ġshan": 5095,
      "ob": 5096,
      "Ġtransactions": 5097,
      "Ġreve": 5098,
      "Ġadverse": 5099,
      "Ġwanted": 5100,
      "Ġinitiated": 5101,
      "Ġpending": 5102,
      "Ġunif": 5103,
      "Ġhom": 5104,
      "Ġaccused": 5105,
      "Ġresolve": 5106,
      "Ġinnovative": 5107,
      "Ġimpacts": 5108,
      "Ġinnovation": 5109,
      "Ġdisputes": 5110,
      "Ġreti": 5111,
      "Ġsafeguards": 5112,
      "Ġbab": 5113,
      "Ġreturned": 5114,
      "Ġparis": 5115,
      "Ġrose": 5116,
      "Ġthereby": 5117,
      "Ġmonday": 5118,
      "Ġincidents": 5119,
      "Ġfigures": 5120,
      "Ġmonetary": 5121,
      "Ġbear": 5122,
      "Ġjudiciary": 5123,
      "Ġjoin": 5124,
      "Ġreserve": 5125,
      "Ġecuador": 5126,
      "Ġchanged": 5127,
      "Ġbinding": 5128,
      "Ġtried": 5129,
      "Ġconformity": 5130,
      "Ġstream": 5131,
      "Ġvoice": 5132,
      "Ġbarb": 5133,
      "Ġsanitation": 5134,
      "Ġabol": 5135,
      "Ġthousands": 5136,
      "Ġdifference": 5137,
      "Ġcoordinate": 5138,
      "Ġgame": 5139,
      "uable": 5140,
      "Ġvehicle": 5141,
      "atri": 5142,
      "Ġobstacles": 5143,
      "Ġidentifying": 5144,
      "Ġnepal": 5145,
      "ivers": 5146,
      "Ġsubcommittee": 5147,
      "Ġestimate": 5148,
      "Ġdiscrimin": 5149,
      "Ġsalv": 5150,
      "Ġmaritime": 5151,
      "Ġkept": 5152,
      "ambia": 5153,
      "Ġissu": 5154,
      "Ġbasel": 5155,
      "rely": 5156,
      "Ġgames": 5157,
      "urse": 5158,
      "zuel": 5159,
      "Ġschedule": 5160,
      "Ġbelgium": 5161,
      "Ġcontrols": 5162,
      "Ġsingap": 5163,
      "Ġarbitration": 5164,
      "Ġviet": 5165,
      "Ġeat": 5166,
      "Ġsides": 5167,
      "Ġhyd": 5168,
      "Ġtex": 5169,
      "ections": 5170,
      "Ġsingapore": 5171,
      "Ġmale": 5172,
      "Ġsupervision": 5173,
      "Ġtend": 5174,
      "Ġconventional": 5175,
      "Ġsolidarity": 5176,
      "Ġoccurred": 5177,
      "Ġhelped": 5178,
      "Ġpilot": 5179,
      "Ġcopy": 5180,
      "lin": 5181,
      "Ġsend": 5182,
      "rust": 5183,
      "Ġfulfill": 5184,
      "Ġreiterates": 5185,
      "Ġthanks": 5186,
      "Ġcounty": 5187,
      "rat": 5188,
      "Ġasset": 5189,
      "cription": 5190,
      "Ġguatemala": 5191,
      "Ġvenezuel": 5192,
      "Ġremote": 5193,
      "Ġreviews": 5194,
      "Ġlogistics": 5195,
      "Ġdro": 5196,
      "Ġrelatively": 5197,
      "ets": 5198,
      "oto": 5199,
      "Ġsri": 5200,
      "Ġbecoming": 5201,
      "Ġrussia": 5202,
      "Ġmanufacture": 5203,
      "Ġbelieves": 5204,
      "Ġblue": 5205,
      "tel": 5206,
      "Ġlimits": 5207,
      "Ġfriday": 5208,
      "Ġdism": 5209,
      "Ġimprovements": 5210,
      "Ġdangerous": 5211,
      "Ġvii": 5212,
      "Ġlond": 5213,
      "Ġconsc": 5214,
      "Ġvariety": 5215,
      "Ġsaying": 5216,
      "Ġprompt": 5217,
      "Ġburden": 5218,
      "Ġcharges": 5219,
      "Ġphenomen": 5220,
      "Ġarg": 5221,
      "Ġregularly": 5222,
      "Ġneither": 5223,
      "Ġjohn": 5224,
      "Ġequity": 5225,
      "Ġlondon": 5226,
      "Ġincreases": 5227,
      "Ġsavings": 5228,
      "Ġdedic": 5229,
      "Ġlegitimate": 5230,
      "Ġassociations": 5231,
      "Ġmist": 5232,
      "Ġmd": 5233,
      "Ġadvocacy": 5234,
      "Ġtesting": 5235,
      "Ġbooks": 5236,
      "Ġfit": 5237,
      "Ġregister": 5238,
      "Ġcc": 5239,
      "Ġexpanded": 5240,
      "Ġcounsel": 5241,
      "Ġpatients": 5242,
      "Ġhun": 5243,
      "Ġremember": 5244,
      "cessive": 5245,
      "Ġcease": 5246,
      "Ġstab": 5247,
      "Ġcoh": 5248,
      "oned": 5249,
      "Ġreaffirms": 5250,
      "Ġye": 5251,
      "Ġexplore": 5252,
      "Ġrend": 5253,
      "ystem": 5254,
      "Ġcorrect": 5255,
      "Ġbuildings": 5256,
      "Ġreservation": 5257,
      "asing": 5258,
      "usalem": 5259,
      "Ġbeauti": 5260,
      "Ġos": 5261,
      "elling": 5262,
      "Ġjerusalem": 5263,
      "Ġmatch": 5264,
      "Ġmonthly": 5265,
      "Ġexchang": 5266,
      "Ġlength": 5267,
      "Ġinvestors": 5268,
      "Ġallocated": 5269,
      "Ġcarbon": 5270,
      "Ġunp": 5271,
      "Ġarbitrary": 5272,
      "Ġpapers": 5273,
      "Ġdisabled": 5274,
      "Ġcul": 5275,
      "urg": 5276,
      "Ġenem": 5277,
      "Ġtelec": 5278,
      "Ġpassed": 5279,
      "Ġxx": 5280,
      "Ġpet": 5281,
      "urate": 5282,
      "Ġspeech": 5283,
      "Ġdrawn": 5284,
      "vi": 5285,
      "Ġhit": 5286,
      "Ġstresses": 5287,
      "Ġformed": 5288,
      "Ġregret": 5289,
      "Ġrent": 5290,
      "Ġscheduled": 5291,
      "Ġreflec": 5292,
      "rant": 5293,
      "Ġsummer": 5294,
      "Ġdestroy": 5295,
      "Ġreleased": 5296,
      "Ġkaz": 5297,
      "iscal": 5298,
      "Ġgreece": 5299,
      "Ġrail": 5300,
      "Ġmobile": 5301,
      "Ġdeclared": 5302,
      "Ġfocal": 5303,
      "Ġcedaw": 5304,
      "Ġgives": 5305,
      "Ġletters": 5306,
      "Ġmur": 5307,
      "Ġbom": 5308,
      "Ġdenmark": 5309,
      "iently": 5310,
      "Ġrepresents": 5311,
      "Ġreaffirming": 5312,
      "Ġboys": 5313,
      "Ġecosystem": 5314,
      "Ġupdate": 5315,
      "ken": 5316,
      "Ġcapabilities": 5317,
      "Ġmessage": 5318,
      "Ġdemands": 5319,
      "Ġcurrency": 5320,
      "Ġlibrary": 5321,
      "erted": 5322,
      "Ġacademic": 5323,
      "Ġangola": 5324,
      "fying": 5325,
      "Ġaccompan": 5326,
      "ommunic": 5327,
      "erce": 5328,
      "Ġenvis": 5329,
      "Ġzh": 5330,
      "Ġguarantees": 5331,
      "Ġborn": 5332,
      "Ġbringing": 5333,
      "Ġabroad": 5334,
      "Ġultim": 5335,
      "stance": 5336,
      "Ġrecip": 5337,
      "Ġpill": 5338,
      "Ġversion": 5339,
      "Ġcosta": 5340,
      "ugh": 5341,
      "Ġadjustment": 5342,
      "Ġinspect": 5343,
      "Ġlinks": 5344,
      "Ġfiscal": 5345,
      "rene": 5346,
      "Ġiraqi": 5347,
      "Ġbehavi": 5348,
      "Ġunli": 5349,
      "Ġhoped": 5350,
      "Ġmining": 5351,
      "Ġunam": 5352,
      "arc": 5353,
      "Ġvillage": 5354,
      "coming": 5355,
      "Ġchain": 5356,
      "Ġimage": 5357,
      "lor": 5358,
      "ennial": 5359,
      "Ġbelieved": 5360,
      "Ġprefer": 5361,
      "Ġunl": 5362,
      "dered": 5363,
      "Ġfell": 5364,
      "Ġcambodia": 5365,
      "Ġsuffering": 5366,
      "Ġsponsors": 5367,
      "roduce": 5368,
      "Ġmanual": 5369,
      "Ġfal": 5370,
      "Ġcomposition": 5371,
      "Ġstable": 5372,
      "Ġauditors": 5373,
      "Ġdispos": 5374,
      "Ġexamined": 5375,
      "Ġshar": 5376,
      "Ġteacher": 5377,
      "Ġeritrea": 5378,
      "Ġleaving": 5379,
      "Ġattempt": 5380,
      "Ġconstraints": 5381,
      "Ġyourself": 5382,
      "Ġattached": 5383,
      "Ġremedies": 5384,
      "Ġquanti": 5385,
      "Ġrecalled": 5386,
      "Ġfacts": 5387,
      "Ġhum": 5388,
      "Ġvenezuela": 5389,
      "Ġdignity": 5390,
      "Ġserbia": 5391,
      "Ġassisting": 5392,
      "Ġji": 5393,
      "Ġbeautiful": 5394,
      "Ġantic": 5395,
      "Ġchance": 5396,
      "Ġwrite": 5397,
      "Ġimprisonment": 5398,
      "Ġmark": 5399,
      "Ġreiterated": 5400,
      "Ġintoler": 5401,
      "Ġutilization": 5402,
      "Ġstocks": 5403,
      "Ġunilateral": 5404,
      "Ġdiscriminatory": 5405,
      "Ġturned": 5406,
      "emen": 5407,
      "yle": 5408,
      "Ġpresidential": 5409,
      "minating": 5410,
      "sile": 5411,
      "Ġrain": 5412,
      "Ġchoose": 5413,
      "Ġdog": 5414,
      "Ġguard": 5415,
      "Ġcarri": 5416,
      "Ġnarco": 5417,
      "Ġkn": 5418,
      "Ġfru": 5419,
      "Ġdiscl": 5420,
      "Ġseminars": 5421,
      "Ġswe": 5422,
      "Ġinhuman": 5423,
      "Ġsoldiers": 5424,
      "Ġsummar": 5425,
      "Ġjoined": 5426,
      "egal": 5427,
      "Ġmi": 5428,
      "Ġwealth": 5429,
      "aves": 5430,
      "Ġemployed": 5431,
      "Ġlad": 5432,
      "Ġcovering": 5433,
      "Ġdigital": 5434,
      "augh": 5435,
      "Ġinsu": 5436,
      "Ġthinking": 5437,
      "Ġvolume": 5438,
      "Ġwelcoming": 5439,
      "rist": 5440,
      "Ġviolated": 5441,
      "Ġexped": 5442,
      "econom": 5443,
      "yal": 5444,
      "Ġstaffing": 5445,
      "Ġstory": 5446,
      "Ġsocieties": 5447,
      "ita": 5448,
      "Ġscre": 5449,
      "roc": 5450,
      "phone": 5451,
      "Ġperpetrators": 5452,
      "Ġcommerce": 5453,
      "Ġportugal": 5454,
      "Ġtalks": 5455,
      "Ġdrop": 5456,
      "Ġdesertification": 5457,
      "Ġcurric": 5458,
      "Ġsenegal": 5459,
      "Ġstim": 5460,
      "Ġsn": 5461,
      "Ġnai": 5462,
      "Ġdark": 5463,
      "Ġpreced": 5464,
      "Ġrepeated": 5465,
      "Ġreality": 5466,
      "Ġcanc": 5467,
      "Ġlanka": 5468,
      "Ġtrou": 5469,
      "ster": 5470,
      "rend": 5471,
      "sels": 5472,
      "mi": 5473,
      "Ġalban": 5474,
      "Ġsoil": 5475,
      "Ġmachine": 5476,
      "Ġfeas": 5477,
      "Ġtoler": 5478,
      "Ġeld": 5479,
      "Ġdoesn": 5480,
      "Ġ+": 5481,
      "Ġstrugg": 5482,
      "Ġmanaged": 5483,
      "Ġurug": 5484,
      "Ġuruguay": 5485,
      "Ġroles": 5486,
      "Ġign": 5487,
      "Ġdepth": 5488,
      "matic": 5489,
      "Ġfile": 5490,
      "Ġmethodology": 5491,
      "Ġprogramming": 5492,
      "Ġstorage": 5493,
      "Ġinade": 5494,
      "Ġacceptance": 5495,
      "Ġdisag": 5496,
      "Ġinadequ": 5497,
      "Ġstarting": 5498,
      "Ġarrested": 5499,
      "iques": 5500,
      "Ġwto": 5501,
      "Ġtrack": 5502,
      "Ġacquisition": 5503,
      "Ġserved": 5504,
      "Ġnpt": 5505,
      "Ġsad": 5506,
      "Ġprog": 5507,
      "poration": 5508,
      "Ġcruel": 5509,
      "Ġmanif": 5510,
      "Ġauthors": 5511,
      "Ġadoles": 5512,
      "robi": 5513,
      "dp": 5514,
      "Ġahead": 5515,
      "vak": 5516,
      "inance": 5517,
      "Ġadministr": 5518,
      "Ġreading": 5519,
      "Ġcluster": 5520,
      "Ġindustries": 5521,
      "with": 5522,
      "Ġupgra": 5523,
      "Ġguy": 5524,
      "Ġgath": 5525,
      "Ġrunning": 5526,
      "Ġparliamentary": 5527,
      "Ġprostitution": 5528,
      "Ġcampaigns": 5529,
      "aled": 5530,
      "Ġhistorical": 5531,
      "Ġmoving": 5532,
      "Ġdie": 5533,
      "pping": 5534,
      "Ġanc": 5535,
      "Ġhumanity": 5536,
      "bid": 5537,
      "Ġbond": 5538,
      "Ġsir": 5539,
      "Ġunity": 5540,
      "Ġcontrary": 5541,
      "Ġweather": 5542,
      "Ġreply": 5543,
      "Ġsections": 5544,
      "Ġspent": 5545,
      "atically": 5546,
      "Ġcorresponding": 5547,
      "Ġhal": 5548,
      "Ġarts": 5549,
      "Ġprobably": 5550,
      "Ġimpunity": 5551,
      "Ġrational": 5552,
      "Ġmong": 5553,
      "Ġham": 5554,
      "Ġlaund": 5555,
      "Ġdecades": 5556,
      "Ġannivers": 5557,
      "Ġcommodity": 5558,
      "Ġfilm": 5559,
      "ba": 5560,
      "Ġnairobi": 5561,
      "Ġlargely": 5562,
      "Ġmodalities": 5563,
      "Ġmanager": 5564,
      "Ġhelping": 5565,
      "ccc": 5566,
      "Ġmandated": 5567,
      "Ġvaluable": 5568,
      "Ġtechniques": 5569,
      "Ġende": 5570,
      "leb": 5571,
      "gy": 5572,
      "Ġsets": 5573,
      "Ġintelligence": 5574,
      "urch": 5575,
      "Ġdoubt": 5576,
      "Ġbes": 5577,
      "Ġlarger": 5578,
      "Ġminist": 5579,
      "Ġoffers": 5580,
      "Ġcontrolled": 5581,
      "Ġvocational": 5582,
      "Ġdeem": 5583,
      "Ġrecalls": 5584,
      "Ġmobilization": 5585,
      "ney": 5586,
      "ja": 5587,
      "Ġdouble": 5588,
      "Ġendeav": 5589,
      "Ġtanz": 5590,
      "Ġserving": 5591,
      "Ġreaching": 5592,
      "Ġlooks": 5593,
      "Ġfriendly": 5594,
      "Ġprofess": 5595,
      "Ġextremely": 5596,
      "Ġok": 5597,
      "Ġtrained": 5598,
      "Ġmem": 5599,
      "Ġoios": 5600,
      "Ġinflation": 5601,
      "Ġobjects": 5602,
      "Ġtob": 5603,
      "Ġsegment": 5604,
      "Ġweight": 5605,
      "Ġappears": 5606,
      "Ġkazakh": 5607,
      "Ġrica": 5608,
      "rown": 5609,
      "Ġdischar": 5610,
      "economic": 5611,
      "Ġfresh": 5612,
      "Ġromania": 5613,
      "ox": 5614,
      "Ġtenth": 5615,
      "vious": 5616,
      "Ġtreated": 5617,
      "Ġbott": 5618,
      "Ġcollabor": 5619,
      "Ġcareer": 5620,
      "Ġbreach": 5621,
      "Ġexplained": 5622,
      "Ġassigned": 5623,
      "Ġministries": 5624,
      "Ġincen": 5625,
      "Ġdecline": 5626,
      "Ġarabia": 5627,
      "Ġanyone": 5628,
      "Ġfeatures": 5629,
      "Ġdistributed": 5630,
      "Ġpu": 5631,
      "ago": 5632,
      "zh": 5633,
      "Ġintroduce": 5634,
      "Ġvulnerability": 5635,
      "Ġdisposal": 5636,
      "ping": 5637,
      "room": 5638,
      "Ġdivid": 5639,
      "Ġintolerance": 5640,
      "Ġsalary": 5641,
      "Ġdemob": 5642,
      "atar": 5643,
      "Ġcontinuous": 5644,
      "Ġtues": 5645,
      "Ġseriously": 5646,
      "Ġimpar": 5647,
      "Ġdoctor": 5648,
      "Ġcontracting": 5649,
      "cribed": 5650,
      "Ġstudent": 5651,
      "Ġsafeguard": 5652,
      "Ġgenoc": 5653,
      "Ġindicates": 5654,
      "yc": 5655,
      "Ġtransmitted": 5656,
      "Ġbroader": 5657,
      "astic": 5658,
      "Ġbudgets": 5659,
      "Ġsuggest": 5660,
      "Ġconvinc": 5661,
      "Ġurg": 5662,
      "Ġpurchase": 5663,
      "Ġescap": 5664,
      "Ġimped": 5665,
      "Ġintervention": 5666,
      "Ġperiods": 5667,
      "Ġtuesday": 5668,
      "ped": 5669,
      "Ġwashing": 5670,
      "Ġbehaviour": 5671,
      "Ġworkpl": 5672,
      "Ġshop": 5673,
      "Ġeasily": 5674,
      "ography": 5675,
      "Ġmacro": 5676,
      "Ġresumed": 5677,
      "Ġatm": 5678,
      "Ġwitnesses": 5679,
      "Ġelig": 5680,
      "Ġapart": 5681,
      "Ġanticip": 5682,
      "inting": 5683,
      "Ġtopics": 5684,
      "Ġfighting": 5685,
      "zed": 5686,
      "Ġcutting": 5687,
      "Ġxen": 5688,
      "Ġsuffered": 5689,
      "Ġcoherence": 5690,
      "Ġliberal": 5691,
      "Ġpret": 5692,
      "rees": 5693,
      "Ġghana": 5694,
      "Ġimmigration": 5695,
      "Ġtunisia": 5696,
      "adv": 5697,
      "Ġgaps": 5698,
      "Ġlux": 5699,
      "Ġomb": 5700,
      "Ġenforced": 5701,
      "Ġmaternal": 5702,
      "Ġthurs": 5703,
      "Ġovercome": 5704,
      "Ġoverview": 5705,
      "Ġobvious": 5706,
      "Ġjapanese": 5707,
      "Ġexperienced": 5708,
      "Ġanniversary": 5709,
      "Ġequival": 5710,
      "reach": 5711,
      "Ġtot": 5712,
      "Ġbriefing": 5713,
      "Ġba": 5714,
      "Ġspok": 5715,
      "ali": 5716,
      "Ġabsol": 5717,
      "Ġreflects": 5718,
      "Ġjam": 5719,
      "Ġton": 5720,
      "Ġhall": 5721,
      "Ġliberty": 5722,
      "Ġlandl": 5723,
      "Ġfocusing": 5724,
      "Ġfisheries": 5725,
      "Ġliaison": 5726,
      "Ġarmenia": 5727,
      "Ġembargo": 5728,
      "Ġombud": 5729,
      "Ġreaffirmed": 5730,
      "Ġtanzania": 5731,
      "Ġgene": 5732,
      "Ġflag": 5733,
      "iro": 5734,
      "Ġthursday": 5735,
      "Ġorders": 5736,
      "zation": 5737,
      "ino": 5738,
      "Ġoutlined": 5739,
      "Ġbalanced": 5740,
      "gor": 5741,
      "Ġoutput": 5742,
      "Ġkazakhstan": 5743,
      "Ġexclusive": 5744,
      "Ġpreparations": 5745,
      "Ġpremises": 5746,
      "Ġoriented": 5747,
      "Ġdry": 5748,
      "Ġlocations": 5749,
      "Ġfishing": 5750,
      "Ġknew": 5751,
      "Ġrepatri": 5752,
      "Ġsalvador": 5753,
      "Ġwednes": 5754,
      "ste": 5755,
      "Ġbulg": 5756,
      "Ġfu": 5757,
      "Ġsubjected": 5758,
      "Ġtransferred": 5759,
      "Ġcomplaint": 5760,
      "Ġvideo": 5761,
      "Ġinvolve": 5762,
      "Ġadviser": 5763,
      "Ġgenocide": 5764,
      "unction": 5765,
      "Ġchrist": 5766,
      "ova": 5767,
      "Ġdirected": 5768,
      "Ġdeeply": 5769,
      "Ġfarmers": 5770,
      "Ġjuven": 5771,
      "Ġchurch": 5772,
      "Ġexcep": 5773,
      "Ġopposition": 5774,
      "Ġhungary": 5775,
      "Ġwednesday": 5776,
      "Ġtouch": 5777,
      "Ġconsumer": 5778,
      "Ġxenoph": 5779,
      "Ġseemed": 5780,
      "Ġdecree": 5781,
      "licit": 5782,
      "Ġfunctional": 5783,
      "Ġrising": 5784,
      "Ġsurpr": 5785,
      "Ġfoster": 5786,
      "ults": 5787,
      "encing": 5788,
      "tian": 5789,
      "Ġprohibited": 5790,
      "house": 5791,
      "Ġsave": 5792,
      "Ġcolonial": 5793,
      "ught": 5794,
      "Ġdoct": 5795,
      "Ġnationals": 5796,
      "Ġpoly": 5797,
      "Ġpush": 5798,
      "Ġsb": 5799,
      "mond": 5800,
      "Ġeye": 5801,
      "Ġdemonstrated": 5802,
      "Ġmali": 5803,
      "Ġslovak": 5804,
      "Ġdeaths": 5805,
      "Ġceleb": 5806,
      "Ġoutreach": 5807,
      "Ġflu": 5808,
      "Ġadver": 5809,
      "advant": 5810,
      "reprene": 5811,
      "Ġinventory": 5812,
      "Ġldcs": 5813,
      "per": 5814,
      "Ġcast": 5815,
      "Ġexemp": 5816,
      "Ġdisadvant": 5817,
      "Ġmongol": 5818,
      "Ġparent": 5819,
      "Ġlegally": 5820,
      "Ġtaiwan": 5821,
      "Ġtack": 5822,
      "Ġah": 5823,
      "Ġcompetitive": 5824,
      "Ġhearing": 5825,
      "Ġperformed": 5826,
      "fort": 5827,
      "Ġhomes": 5828,
      "Ġwider": 5829,
      "Ġfat": 5830,
      "greg": 5831,
      "Ġdetained": 5832,
      "down": 5833,
      "Ġgoes": 5834,
      "Ġacced": 5835,
      "Ġmodels": 5836,
      "Ġkil": 5837,
      "Ġbiod": 5838,
      "bek": 5839,
      "ili": 5840,
      "Ġcontemp": 5841,
      "Ġsleep": 5842,
      "Ġexception": 5843,
      "Ġdeliberations": 5844,
      "Ġcolor": 5845,
      "Ġconsequently": 5846,
      "irect": 5847,
      "Ġcrop": 5848,
      "Ġentreprene": 5849,
      "Ġconducting": 5850,
      "Ġatmosph": 5851,
      "Ġadminister": 5852,
      "Ġthor": 5853,
      "arag": 5854,
      "kh": 5855,
      "Ġcalling": 5856,
      "Ġdegrading": 5857,
      "Ġngo": 5858,
      "Ġhealthy": 5859,
      "obia": 5860,
      "Ġmanaging": 5861,
      "Ġgreatly": 5862,
      "Ġabsolute": 5863,
      "Ġleague": 5864,
      "Ġmanufacturing": 5865,
      "ker": 5866,
      "Ġinvitation": 5867,
      "pread": 5868,
      "Ġmau": 5869,
      "lan": 5870,
      "Ġmovements": 5871,
      "Ġorganize": 5872,
      "Ġyester": 5873,
      "Ġmrs": 5874,
      "Ġwild": 5875,
      "Ġlith": 5876,
      "Ġmarginal": 5877,
      "Ġoperate": 5878,
      "iplinary": 5879,
      "Ġwides": 5880,
      "ghai": 5881,
      "here": 5882,
      "Ġcrc": 5883,
      "Ġrd": 5884,
      "Ġcry": 5885,
      "Ġcompetence": 5886,
      "Ġproductivity": 5887,
      "Ġwidespread": 5888,
      "eland": 5889,
      "Ġdiagn": 5890,
      "Ġsimilarly": 5891,
      "Ġconstitutes": 5892,
      "Ġmold": 5893,
      "space": 5894,
      "Ġcontingent": 5895,
      "Ġshift": 5896,
      "Ġdrawing": 5897,
      "Ġcorr": 5898,
      "Ġconfirm": 5899,
      "Ġzones": 5900,
      "Ġyesterday": 5901,
      "oud": 5902,
      "rel": 5903,
      "Ġsuitable": 5904,
      "Ġrevenue": 5905,
      "Ġdistinc": 5906,
      "Ġloans": 5907,
      "Ġfellow": 5908,
      "Ġinsufficient": 5909,
      "Ġprevail": 5910,
      "Ġemphasizes": 5911,
      "Ġamm": 5912,
      "Ġenemy": 5913,
      "Ġwait": 5914,
      "Ġspecies": 5915,
      "Ġlasting": 5916,
      "Ġreimb": 5917,
      "Ġunops": 5918,
      "iri": 5919,
      "Ġgon": 5920,
      "Ġgone": 5921,
      "Ġrelevance": 5922,
      "Ġmachin": 5923,
      "Ġevaluate": 5924,
      "Ġyemen": 5925,
      "Ġsens": 5926,
      "Ġstudied": 5927,
      "Ġnewly": 5928,
      "emic": 5929,
      "Ġprejud": 5930,
      "Ġresidence": 5931,
      "Ġequally": 5932,
      "Ġincur": 5933,
      "oty": 5934,
      "Ġsuggestions": 5935,
      "Ġtelecommunic": 5936,
      "Ġinput": 5937,
      "Ġsubstance": 5938,
      "Ġlawyers": 5939,
      "Ġgdp": 5940,
      "Ġdefend": 5941,
      "Ġregards": 5942,
      "Ġshanghai": 5943,
      "Ġcab": 5944,
      "Ġuniform": 5945,
      "Ġindian": 5946,
      "table": 5947,
      "ruct": 5948,
      "Ġmercury": 5949,
      "Ġspending": 5950,
      "Ġformat": 5951,
      "aur": 5952,
      "Ġautonomous": 5953,
      "Ġnicarag": 5954,
      "Ġpicture": 5955,
      "Ġdanger": 5956,
      "Ġqatar": 5957,
      "Ġbarriers": 5958,
      "Ġip": 5959,
      "Ġarchit": 5960,
      "urities": 5961,
      "Ġsloven": 5962,
      "Ġtemperature": 5963,
      "Ġinterventions": 5964,
      "Ġkyoto": 5965,
      "Ġjama": 5966,
      "Ġperfect": 5967,
      "Ġreliable": 5968,
      "Ġdeployed": 5969,
      "Ġprofit": 5970,
      "Ġundertaking": 5971,
      "Ġdisplace": 5972,
      "Ġstead": 5973,
      "amp": 5974,
      "Ġcooperative": 5975,
      "Ġdimension": 5976,
      "Ġpleased": 5977,
      "Ġparame": 5978,
      "Ġdrive": 5979,
      "Ġbolivia": 5980,
      "Ġseason": 5981,
      "Ġconsolidated": 5982,
      "ils": 5983,
      "Ġfranc": 5984,
      "Ġdealt": 5985,
      "Ġgar": 5986,
      "Ġhazardous": 5987,
      "Ġcertainly": 5988,
      "Ġlaundering": 5989,
      "inces": 5990,
      "Ġmauri": 5991,
      "Ġdeposit": 5992,
      "Ġcharged": 5993,
      "omic": 5994,
      "cession": 5995,
      "Ġspring": 5996,
      "Ġallowance": 5997,
      "uls": 5998,
      "Ġcounse": 5999,
      "Ġmos": 6000,
      "Ġmunicipal": 6001,
      "Ġairport": 6002,
      "Ġattrac": 6003,
      "Ġtelephone": 6004,
      "Ġgun": 6005,
      "Ġfirms": 6006,
      "aters": 6007,
      "Ġmedicine": 6008,
      "zing": 6009,
      "Ġrepresenting": 6010,
      "Ġadopting": 6011,
      "Ġtib": 6012,
      "Ġconj": 6013,
      "Ġsport": 6014,
      "Ġmou": 6015,
      "Ġexha": 6016,
      "oa": 6017,
      "Ġrape": 6018,
      "Ġproperly": 6019,
      "Ġfurn": 6020,
      "Ġwithdrawal": 6021,
      "Ġscen": 6022,
      "tius": 6023,
      "ican": 6024,
      "Ġincident": 6025,
      "Ġexhib": 6026,
      "Ġtitle": 6027,
      "Ġbusinesses": 6028,
      "Ġpromoted": 6029,
      "Ġaccessible": 6030,
      "Ġdiss": 6031,
      "iled": 6032,
      "Ġphone": 6033,
      "Ġhuge": 6034,
      "dation": 6035,
      "Ġvan": 6036,
      "Ġsquare": 6037,
      "otes": 6038,
      "Ġextradition": 6039,
      "Ġleader": 6040,
      "iversity": 6041,
      "Ġcompletely": 6042,
      "Ġgreatest": 6043,
      "Ġaccident": 6044,
      "Ġsubpar": 6045,
      "Ġturkish": 6046,
      "Ġchad": 6047,
      "Ġrang": 6048,
      "Ġexcellency": 6049,
      "Ġpackage": 6050,
      "Ġcamps": 6051,
      "tile": 6052,
      "Ġlibyan": 6053,
      "Ġexplicit": 6054,
      "Ġblock": 6055,
      "Ġaviation": 6056,
      "Ġvoting": 6057,
      "Ġdynamic": 6058,
      "Ġrad": 6059,
      "Ġunr": 6060,
      "Ġpatterns": 6061,
      "Ġdress": 6062,
      "Ġreceip": 6063,
      "zy": 6064,
      "Ġrapidly": 6065,
      "Ġhair": 6066,
      "Ġcameroon": 6067,
      "za": 6068,
      "via": 6069,
      "Ġfees": 6070,
      "Ġinteraction": 6071,
      "Ġgains": 6072,
      "Ġindirect": 6073,
      "Ġgranting": 6074,
      "Ġcra": 6075,
      "Ġtransf": 6076,
      "Ġagents": 6077,
      "Ġsubpara": 6078,
      "Ġmoral": 6079,
      "Ġapplying": 6080,
      "Ġconfid": 6081,
      "andum": 6082,
      "overed": 6083,
      "Ġload": 6084,
      "Ġsuccessfully": 6085,
      "Ġbulgaria": 6086,
      "Ġpark": 6087,
      "Ġlandlocked": 6088,
      "Ġmemorandum": 6089,
      "Ġbiodiversity": 6090,
      "Ġimmun": 6091,
      "Ġallows": 6092,
      "Ġinadequate": 6093,
      "Ġdele": 6094,
      "Ġmauritius": 6095,
      "Ġdan": 6096,
      "Ġintegrate": 6097,
      "Ġber": 6098,
      "Ġuz": 6099,
      "Ġoral": 6100,
      "Ġaccession": 6101,
      "Ġdied": 6102,
      "Ġtang": 6103,
      "Ġlif": 6104,
      "Ġtoward": 6105,
      "Ġcertificate": 6106,
      "Ġcancer": 6107,
      "Ġposed": 6108,
      "Ġwished": 6109,
      "Ġsupplementary": 6110,
      "Ġunrwa": 6111,
      "Ġbrother": 6112,
      "Ġarrangement": 6113,
      "Ġbanking": 6114,
      "Ġresidents": 6115,
      "Ġtub": 6116,
      "Ġobservation": 6117,
      "Ġimag": 6118,
      "Ġintegral": 6119,
      "Ġprograms": 6120,
      "Ġadmit": 6121,
      "Ġdevices": 6122,
      "Ġolympic": 6123,
      "Ġpsychological": 6124,
      "Ġrealize": 6125,
      "Ġcere": 6126,
      "Ġschem": 6127,
      "Ġcrises": 6128,
      "Ġprofessionals": 6129,
      "Ġtranslation": 6130,
      "Ġformulated": 6131,
      "Ġexact": 6132,
      "Ġpertain": 6133,
      "Ġreb": 6134,
      "Ġconvinced": 6135,
      "éĶ": 6136,
      "acted": 6137,
      "els": 6138,
      "umn": 6139,
      "Ġfacilitation": 6140,
      "Ġenvisaged": 6141,
      "Ġcommodities": 6142,
      "Ġcopies": 6143,
      "Ġairspace": 6144,
      "Ġhrc": 6145,
      "Ġexploration": 6146,
      "Ġvisited": 6147,
      "Ġbench": 6148,
      "morrow": 6149,
      "back": 6150,
      "Ġpas": 6151,
      "Ġaligned": 6152,
      "Ġskin": 6153,
      "Ġillust": 6154,
      "Ġdegradation": 6155,
      "Ġpresidency": 6156,
      "Ġrome": 6157,
      "Ġtomorrow": 6158,
      "Ġfas": 6159,
      "olon": 6160,
      "rog": 6161,
      "Ġfun": 6162,
      "Ġforums": 6163,
      "Ġsymb": 6164,
      "Ġwalk": 6165,
      "Ġslovenia": 6166,
      "Ġsucceed": 6167,
      "Ġdedicated": 6168,
      "Ġflight": 6169,
      "Ġdj": 6170,
      "Ġlaid": 6171,
      "Ġhotel": 6172,
      "Ġborders": 6173,
      "Ġmun": 6174,
      "Ġsharp": 6175,
      "Ġmoved": 6176,
      "Ġelev": 6177,
      "Ġcoup": 6178,
      "Ġrevolution": 6179,
      "Ġcoastal": 6180,
      "Ġtree": 6181,
      "erity": 6182,
      "Ġcomplic": 6183,
      "Ġmarried": 6184,
      "Ġbecomes": 6185,
      "Ġplaying": 6186,
      "Ġdaugh": 6187,
      "Ġdemobilization": 6188,
      "Ġsecurities": 6189,
      "Ġplants": 6190,
      "Ġkinds": 6191,
      "Ġpc": 6192,
      "Ġunderst": 6193,
      "Ġaccel": 6194,
      "Ġfinanced": 6195,
      "Ġgard": 6196,
      "Ġthorough": 6197,
      "Ġmov": 6198,
      "Ġtibet": 6199,
      "orters": 6200,
      "Ġannounce": 6201,
      "Ġsudden": 6202,
      "Ġmitigation": 6203,
      "Ġqualified": 6204,
      "Ġmonit": 6205,
      "Ġuncertain": 6206,
      "hr": 6207,
      "Ġconsiderations": 6208,
      "Ġnicaragua": 6209,
      "oting": 6210,
      "Ġacknowledged": 6211,
      "Ġservic": 6212,
      "Ġtwel": 6213,
      "Ġclub": 6214,
      "Ġprocedural": 6215,
      "Ġprogressive": 6216,
      "Ġexcessive": 6217,
      "inal": 6218,
      "Ġaged": 6219,
      "Ġtreas": 6220,
      "Ġxenophobia": 6221,
      "Ġpool": 6222,
      "Ġjamaica": 6223,
      "Ġincorporated": 6224,
      "rap": 6225,
      "tin": 6226,
      "Ġcance": 6227,
      "Ġparal": 6228,
      "Ġequivalent": 6229,
      "Ġhouseholds": 6230,
      "Ġcongrat": 6231,
      "Ġcustomers": 6232,
      "Ġbon": 6233,
      "Ġcovers": 6234,
      "zone": 6235,
      "Ġduration": 6236,
      "Ġsubparagraph": 6237,
      "Ġfraud": 6238,
      "Ġhydro": 6239,
      "Ġallowing": 6240,
      "Ġkit": 6241,
      "Ġelder": 6242,
      "Ġnegotiation": 6243,
      "Ġimpos": 6244,
      "Ġdetermining": 6245,
      "Ġmachinery": 6246,
      "Ġmont": 6247,
      "Ġgradu": 6248,
      "Ġmongolia": 6249,
      "oked": 6250,
      "Ġsovereign": 6251,
      "Ġlands": 6252,
      "Ġrelationships": 6253,
      "Ġsand": 6254,
      "ray": 6255,
      "Ġmanifest": 6256,
      "Ġstages": 6257,
      "Ġsteel": 6258,
      "Ġarchitect": 6259,
      "Ġherit": 6260,
      "Ġdav": 6261,
      "while": 6262,
      "Ġmonten": 6263,
      "Ġconclude": 6264,
      "Ġordinary": 6265,
      "Ġflexible": 6266,
      "Ġdecolon": 6267,
      "Ġharass": 6268,
      "Ġmonteneg": 6269,
      "Ġphenomenon": 6270,
      "Ġcompound": 6271,
      "oured": 6272,
      "tility": 6273,
      "Ġdiversi": 6274,
      "Ġprovinces": 6275,
      "Ġevol": 6276,
      "bed": 6277,
      "Ġinjury": 6278,
      "Ġprojected": 6279,
      "Ġts": 6280,
      "Ġexplanation": 6281,
      "Ġut": 6282,
      "Ġsignificance": 6283,
      "Ġouts": 6284,
      "Ġnotification": 6285,
      "éĶĽ": 6286,
      "Ġast": 6287,
      "Ġfrequently": 6288,
      "Ġhospit": 6289,
      "Ġburk": 6290,
      "ores": 6291,
      "ero": 6292,
      "Ġdevoted": 6293,
      "Ġabd": 6294,
      "Ġoutputs": 6295,
      "Ġox": 6296,
      "Ġimper": 6297,
      "Ġvolunteers": 6298,
      "Ġunfortun": 6299,
      "Ġoverseas": 6300,
      "orm": 6301,
      "book": 6302,
      "Ġbiennial": 6303,
      "Ġsymbol": 6304,
      "Ġuzbek": 6305,
      "Ġrequesting": 6306,
      "Ġmissing": 6307,
      "Ġcomposed": 6308,
      "utable": 6309,
      "Ġdiver": 6310,
      "Ġdup": 6311,
      "Ġendeavour": 6312,
      "Ġbelonging": 6313,
      "Ġurge": 6314,
      "Ġmich": 6315,
      "omet": 6316,
      "Ġtransmission": 6317,
      "Ġheritage": 6318,
      "rupt": 6319,
      "Ġglass": 6320,
      "Ġdecolonization": 6321,
      "Ġexpressing": 6322,
      "Ġflood": 6323,
      "Ġmarked": 6324,
      "Ġdependent": 6325,
      "Ġprofessor": 6326,
      "udget": 6327,
      "Ġmyself": 6328,
      "atever": 6329,
      "Ġgenu": 6330,
      "ancies": 6331,
      "ote": 6332,
      "Ġconsolidation": 6333,
      "ĠéĪ¥æ": 6334,
      "Ġmoz": 6335,
      "Ġspect": 6336,
      "gue": 6337,
      "Ġwhatever": 6338,
      "Ġrefers": 6339,
      "Ġredep": 6340,
      "Ġcirculated": 6341,
      "Ġhyp": 6342,
      "uct": 6343,
      "Ġfeature": 6344,
      "fp": 6345,
      "Ġburkina": 6346,
      "Ġproperties": 6347,
      "Ġsymp": 6348,
      "Ġcritic": 6349,
      "Ġmillions": 6350,
      "Ġappeared": 6351,
      "Ġratio": 6352,
      "Ġnewsp": 6353,
      "Ġfaso": 6354,
      "Ġapparent": 6355,
      "Ġtolerance": 6356,
      "water": 6357,
      "ÌĢ": 6358,
      "Ġneighbouring": 6359,
      "Ġnewspap": 6360,
      "Ġtaj": 6361,
      "ulf": 6362,
      "Ġuniversi": 6363,
      "Ġrejected": 6364,
      "irates": 6365,
      "Ġdp": 6366,
      "Ġwashington": 6367,
      "Ġstyle": 6368,
      "Ġremove": 6369,
      "Ġdisplacement": 6370,
      "Ġflexibility": 6371,
      "Ġconsultants": 6372,
      "Ġmotiv": 6373,
      "Ġallev": 6374,
      "Ġdrew": 6375,
      "Ġtel": 6376,
      "teed": 6377,
      "Ġassisted": 6378,
      "Ġexpanding": 6379,
      "Ġdesire": 6380,
      "Ġremedy": 6381,
      "Ġdin": 6382,
      "missible": 6383,
      "ourable": 6384,
      "Ġgenuine": 6385,
      "isons": 6386,
      "Ġguaranteed": 6387,
      "Ġrecur": 6388,
      "Ġmaced": 6389,
      "Ġadjustments": 6390,
      "kes": 6391,
      "Ġdemonstrate": 6392,
      "Ġorient": 6393,
      "Ġstood": 6394,
      "Ġtransfers": 6395,
      "Ġhunger": 6396,
      "Ġisol": 6397,
      "Ġwastes": 6398,
      "Ġregistry": 6399,
      "Ġslovakia": 6400,
      "Ġunders": 6401,
      "Ġbid": 6402,
      "Ġmontenegro": 6403,
      "Ġslight": 6404,
      "Ġmarketing": 6405,
      "Ġjournalists": 6406,
      "Ġheat": 6407,
      "Ġdisplay": 6408,
      "Ġremoval": 6409,
      "Ġsubmissions": 6410,
      "Ġkid": 6411,
      "Ġmemory": 6412,
      "Ġreviewing": 6413,
      "Ġacceptable": 6414,
      "Ġproved": 6415,
      "Ġprovinc": 6416,
      "Ġseparation": 6417,
      "Ġcustomer": 6418,
      "Ġpolicym": 6419,
      "itral": 6420,
      "Ġcarefully": 6421,
      "Ġfruit": 6422,
      "Ġcustody": 6423,
      "Ġscientists": 6424,
      "Ġcatch": 6425,
      "Ġammun": 6426,
      "veli": 6427,
      "Ġexplosive": 6428,
      "Ġlists": 6429,
      "Ġvia": 6430,
      "real": 6431,
      "Ġzambia": 6432,
      "Ġpossess": 6433,
      "Ġclaimed": 6434,
      "Ġfran": 6435,
      "Ġprovincial": 6436,
      "Ġextrab": 6437,
      "Ġuniversities": 6438,
      "udgetary": 6439,
      "Ġhandling": 6440,
      "Ġstrip": 6441,
      "Ġextrabudgetary": 6442,
      "Ġpresents": 6443,
      "Ġbrain": 6444,
      "udes": 6445,
      "Ġmaybe": 6446,
      "Ġlisten": 6447,
      "ifications": 6448,
      "Ġformation": 6449,
      "Ġwage": 6450,
      "stein": 6451,
      "Ġalliance": 6452,
      "Ġinstit": 6453,
      "Ġsignature": 6454,
      "Ġuncitral": 6455,
      "Ġinterc": 6456,
      "Ġencoun": 6457,
      "Ġabsor": 6458,
      "Ġviii": 6459,
      "Ġbrand": 6460,
      "Ġstockp": 6461,
      "ourg": 6462,
      "Ġviolent": 6463,
      "ault": 6464,
      "Ġwonder": 6465,
      "Ġfeeling": 6466,
      "sta": 6467,
      "Ġregardless": 6468,
      "Ġyield": 6469,
      "Ġrio": 6470,
      "istence": 6471,
      "ateful": 6472,
      "Ġpowerful": 6473,
      "Ġliveli": 6474,
      "Ġunlike": 6475,
      "tory": 6476,
      "kind": 6477,
      "Ġunderstood": 6478,
      "Ġchris": 6479,
      "Ġrequiring": 6480,
      "Ġbomb": 6481,
      "Ġreserves": 6482,
      "Ġbegun": 6483,
      "Ġtajik": 6484,
      "Ġaggression": 6485,
      "Ġlivelihood": 6486,
      "issau": 6487,
      "Ġsectoral": 6488,
      "Ġreinforce": 6489,
      "Ġimpossible": 6490,
      "Ġombuds": 6491,
      "Ġque": 6492,
      "Ġlie": 6493,
      "Ġroma": 6494,
      "Ġabst": 6495,
      "Ġsurveys": 6496,
      "Ġunlaw": 6497,
      "Ġpip": 6498,
      "Ġelectricity": 6499,
      "Ġsurround": 6500,
      "Ġsbi": 6501,
      "abwe": 6502,
      "Ġzimb": 6503,
      "Ġacceler": 6504,
      "Ġspend": 6505,
      "Ġpalestinians": 6506,
      "iny": 6507,
      "ida": 6508,
      "Ġtom": 6509,
      "Ġgrants": 6510,
      "Ġduplic": 6511,
      "uania": 6512,
      "Ġtests": 6513,
      "Ġschemes": 6514,
      "Ġzimbabwe": 6515,
      "Ġlithuania": 6516,
      "mon": 6517,
      "Ġdetainees": 6518,
      "uries": 6519,
      "Ġsong": 6520,
      "Ġproducing": 6521,
      "Ġgrass": 6522,
      "Ġinterpre": 6523,
      "aneous": 6524,
      "Ġnutrition": 6525,
      "Ġlose": 6526,
      "Ġhappened": 6527,
      "Ġaccurate": 6528,
      "Ġlas": 6529,
      "Ġepid": 6530,
      "Ġbag": 6531,
      "wards": 6532,
      "Ġjuvenile": 6533,
      "Ġtribunals": 6534,
      "Ġcultiv": 6535,
      "Ġschol": 6536,
      "Ġdoha": 6537,
      "Ġroot": 6538,
      "Ġinvite": 6539,
      "Ġvast": 6540,
      "Ġmozamb": 6541,
      "Ġbridge": 6542,
      "Ġpleas": 6543,
      "Ġdiamond": 6544,
      "Ġadequately": 6545,
      "Ġstore": 6546,
      "Ġexcellent": 6547,
      "ests": 6548,
      "Ġwants": 6549,
      "Ġru": 6550,
      "isp": 6551,
      "Ġrepatriation": 6552,
      "Ġorganic": 6553,
      "Ġdecentral": 6554,
      "Ġtv": 6555,
      "Ġsick": 6556,
      "Ġsorry": 6557,
      "Ġ@": 6558,
      "pper": 6559,
      "Ġsubjects": 6560,
      "Ġcrow": 6561,
      "Ġbroadcast": 6562,
      "fa": 6563,
      "Ġpersistent": 6564,
      "ji": 6565,
      "Ġrenewable": 6566,
      "Ġstere": 6567,
      "Ġremar": 6568,
      "Ġfash": 6569,
      "Ġspl": 6570,
      "Ġemployers": 6571,
      "uras": 6572,
      "Ġinterd": 6573,
      "ension": 6574,
      "Ġammunition": 6575,
      "Ġdefense": 6576,
      "Ġethics": 6577,
      "Ġmacedonia": 6578,
      "aling": 6579,
      "Ġhill": 6580,
      "Ġdefine": 6581,
      "Ġconjunction": 6582,
      "Ġbissau": 6583,
      "Ġmostly": 6584,
      "Ġprecise": 6585,
      "rgy": 6586,
      "Ġmusli": 6587,
      "endum": 6588,
      "Ġvent": 6589,
      "Ġanimals": 6590,
      "Ġincomp": 6591,
      "Ġcapable": 6592,
      "Ġtong": 6593,
      "Ġgren": 6594,
      "Ġuzbekistan": 6595,
      "Ġsigning": 6596,
      "Ġnegotiating": 6597,
      "Ġshipp": 6598,
      "Ġresearchers": 6599,
      "Ġmineral": 6600,
      "Ġcells": 6601,
      "Ġcommended": 6602,
      "Ġanalytical": 6603,
      "Ġpanama": 6604,
      "Ġcloser": 6605,
      "Ġkyrgy": 6606,
      "Ġsmugg": 6607,
      "Ġanimal": 6608,
      "Ġdistingu": 6609,
      "Ġrefe": 6610,
      "Ġselect": 6611,
      "Ġliabilities": 6612,
      "vest": 6613,
      "Ġkyrgyz": 6614,
      "Ġinterior": 6615,
      "Ġassessing": 6616,
      "Ġbush": 6617,
      "Ġinsec": 6618,
      "Ġsuffer": 6619,
      "Ġcitizen": 6620,
      "Ġshares": 6621,
      "Ġentering": 6622,
      "Ġgrateful": 6623,
      "Ġharmful": 6624,
      "Ġearthqu": 6625,
      "Ġorganizing": 6626,
      "Ġtalking": 6627,
      "Ġattract": 6628,
      "Ġfavor": 6629,
      "Ġprospects": 6630,
      "hu": 6631,
      "Ġmalaria": 6632,
      "Ġfinds": 6633,
      "Ġquot": 6634,
      "Ġsin": 6635,
      "Ġenvironmentally": 6636,
      "Ġinvestigated": 6637,
      "Ġadministering": 6638,
      "hem": 6639,
      "rets": 6640,
      "Ġparalle": 6641,
      "Ġseeks": 6642,
      "Ġdriven": 6643,
      "Ġcombination": 6644,
      "Ġreceipt": 6645,
      "Ġresistance": 6646,
      "ecting": 6647,
      "ecd": 6648,
      "Ġderived": 6649,
      "Ġalbania": 6650,
      "Ġdistance": 6651,
      "Ġyuan": 6652,
      "Ġretire": 6653,
      "Ġalternatives": 6654,
      "Ġcollected": 6655,
      "Ġaspect": 6656,
      "Ġcup": 6657,
      "Ġcompuls": 6658,
      "Ġexposure": 6659,
      "Ġtables": 6660,
      "Ġatomic": 6661,
      "Ġexchanges": 6662,
      "Ġaccred": 6663,
      "Ġdescription": 6664,
      "Ġinquiry": 6665,
      "Ġgenerated": 6666,
      "Ġcomparison": 6667,
      "Ġresponding": 6668,
      "Ġcapability": 6669,
      "Ġtrad": 6670,
      "Ġending": 6671,
      "Ġbaby": 6672,
      "ales": 6673,
      "Ġcustomary": 6674,
      "itive": 6675,
      "Ġmothers": 6676,
      "Ġtrip": 6677,
      "Ġmoon": 6678,
      "Ġroman": 6679,
      "Ġcontractual": 6680,
      "Ġstronger": 6681,
      "Ġisn": 6682,
      "Ġtransaction": 6683,
      "minent": 6684,
      "Ġborrow": 6685,
      "Ġsbsta": 6686,
      "Ġhence": 6687,
      "Ġcrp": 6688,
      "Ġentrepreneurs": 6689,
      "Ġemo": 6690,
      "acing": 6691,
      "Ġresc": 6692,
      "Ġmozambique": 6693,
      "Ġtermin": 6694,
      "Ġdrinking": 6695,
      "ull": 6696,
      "Ġbenin": 6697,
      "Ġdeemed": 6698,
      "Ġmotor": 6699,
      "met": 6700,
      "Ġagent": 6701,
      "Ġguiding": 6702,
      "Ìĥ": 6703,
      "Ġoffering": 6704,
      "Ġdelays": 6705,
      "Ġcompulsory": 6706,
      "Ġep": 6707,
      "Ġlived": 6708,
      "Ġentrust": 6709,
      "rem": 6710,
      "Ġwound": 6711,
      "Ġrenewed": 6712,
      "Ġdenied": 6713,
      "reto": 6714,
      "Ġmeanwhile": 6715,
      "Ġconcep": 6716,
      "Ġcomprom": 6717,
      "Ġmoldova": 6718,
      "Ġbottom": 6719,
      "Ġreportedly": 6720,
      "ulsion": 6721,
      "esty": 6722,
      "Ġevaluations": 6723,
      "Ġmalta": 6724,
      "Ġharassment": 6725,
      "Ġthin": 6726,
      "teen": 6727,
      "Ġvacancy": 6728,
      "Ġdrought": 6729,
      "Ġaccountable": 6730,
      "rich": 6731,
      "Ġdefenders": 6732,
      "Ġfiled": 6733,
      "Ġreflecting": 6734,
      "ko": 6735,
      "Ġiceland": 6736,
      "Ġapplies": 6737,
      "Ġattempts": 6738,
      "Ġhat": 6739,
      "ologies": 6740,
      "Ġwaters": 6741,
      "Ġinstructions": 6742,
      "Ġjudgement": 6743,
      "ÌĮ": 6744,
      "Ġgenerate": 6745,
      "Ġconve": 6746,
      "Ġannually": 6747,
      "entials": 6748,
      "Ġarrived": 6749,
      "iar": 6750,
      "ishing": 6751,
      "Ġpertaining": 6752,
      "Ġtor": 6753,
      "Ġda": 6754,
      "Ġamp": 6755,
      "Ġlinkages": 6756,
      "Ġclassification": 6757,
      "Ġhouses": 6758,
      "Ġcomprising": 6759,
      "Ġcomparative": 6760,
      "Ġopinions": 6761,
      "Ġfort": 6762,
      "Ġarti": 6763,
      "Ġgree": 6764,
      "Ġrelate": 6765,
      "Ġholid": 6766,
      "Ġluc": 6767,
      "Ġinteractive": 6768,
      "Ġaband": 6769,
      "Ġinputs": 6770,
      "Ġroll": 6771,
      "Ġmisc": 6772,
      "Ġintroducing": 6773,
      "emb": 6774,
      "Ġliteracy": 6775,
      "Ġwfp": 6776,
      "Ġtransmitting": 6777,
      "ched": 6778,
      "awi": 6779,
      "Ġrestruct": 6780,
      "Ġgradually": 6781,
      "orest": 6782,
      "Ġreimburse": 6783,
      "Ġageing": 6784,
      "Ġtrees": 6785,
      "Ġombudsman": 6786,
      "Ġband": 6787,
      "Ġinstances": 6788,
      "titudes": 6789,
      "Ġforg": 6790,
      "Ġven": 6791,
      "Ġordinance": 6792,
      "Ġtu": 6793,
      "Ġrestructuring": 6794,
      "Ġmotion": 6795,
      "Ġcontinent": 6796,
      "Ġkar": 6797,
      "Ġniger": 6798,
      "Ġharmonization": 6799,
      "Ġfrequency": 6800,
      "Ġelderly": 6801,
      "Ġproviders": 6802,
      "Ġunac": 6803,
      "Ġmeant": 6804,
      "Ġwaiting": 6805,
      "Ġcitizenship": 6806,
      "Ġloan": 6807,
      "ips": 6808,
      "Ġdimensions": 6809,
      "Ġhond": 6810,
      "Ġbiggest": 6811,
      "Ġhopes": 6812,
      "Ġbalances": 6813,
      "Ġdismiss": 6814,
      "Ġnecessity": 6815,
      "Ġbeings": 6816,
      "Ġatmosphere": 6817,
      "Ġintim": 6818,
      "tili": 6819,
      "Ġrestricted": 6820,
      "Ġjew": 6821,
      "Ġtajikistan": 6822,
      "Ġgef": 6823,
      "Ġxi": 6824,
      "Ġsort": 6825,
      "Ġservicing": 6826,
      "ny": 6827,
      "Ġparag": 6828,
      "Ġfeet": 6829,
      "Ġadolesc": 6830,
      "Ġcoherent": 6831,
      "orated": 6832,
      "Ġreplaced": 6833,
      "Ġissuance": 6834,
      "Ġdiscip": 6835,
      "Ġresolved": 6836,
      "Ġct": 6837,
      "Ġtic": 6838,
      "Ġnamib": 6839,
      "Ġstereoty": 6840,
      "Ġlies": 6841,
      "Ġleste": 6842,
      "Ġseized": 6843,
      "Ġlatvia": 6844,
      "Ġparallel": 6845,
      "ario": 6846,
      "Ġinters": 6847,
      "Ġiron": 6848,
      "Ġconstituted": 6849,
      "inct": 6850,
      "orter": 6851,
      "Ġresponded": 6852,
      "Ġaccelerate": 6853,
      "Ġpolitics": 6854,
      "Ġmacroeconomic": 6855,
      "Ġforthcoming": 6856,
      "Ġfashion": 6857,
      "Ġvig": 6858,
      "Ġratify": 6859,
      "Ġguided": 6860,
      "Ġnotably": 6861,
      "lb": 6862,
      "Ġregarded": 6863,
      "Ġancient": 6864,
      "Ġexists": 6865,
      "Ġdischarge": 6866,
      "Ġtransformation": 6867,
      "Ġicc": 6868,
      "iaries": 6869,
      "Ġunions": 6870,
      "Ġdevice": 6871,
      "Ġlt": 6872,
      "Ġpiece": 6873,
      "Ġcath": 6874,
      "Ġinequality": 6875,
      "Ġreplies": 6876,
      "Ġdestroyed": 6877,
      "Ġstruggle": 6878,
      "Ġeligible": 6879,
      "Ġnarrow": 6880,
      "Ġluxemb": 6881,
      "Ġdriving": 6882,
      "Ġfacilitated": 6883,
      "Ġadvances": 6884,
      "Ġmdgs": 6885,
      "Ġpes": 6886,
      "Ġspeaker": 6887,
      "Ġemirates": 6888,
      "Ġsuggests": 6889,
      "Ġsac": 6890,
      "osite": 6891,
      "Ġdominican": 6892,
      "Ġlift": 6893,
      "Ġformulate": 6894,
      "Ġcook": 6895,
      "oms": 6896,
      "tilities": 6897,
      "Ġcontinuation": 6898,
      "Ġaftern": 6899,
      "Ġconcepts": 6900,
      "Ġparameters": 6901,
      "Ġdepends": 6902,
      "Ġgri": 6903,
      "Ġdetection": 6904,
      "Ġallegedly": 6905,
      "Ġseed": 6906,
      "Ġligh": 6907,
      "Ġincentives": 6908,
      "Ġparaguay": 6909,
      "Ġcredentials": 6910,
      "Ġrou": 6911,
      "Ġclient": 6912,
      "Ġincurred": 6913,
      "Ġinhab": 6914,
      "Ġsmaller": 6915,
      "Ġconsists": 6916,
      "rage": 6917,
      "Ġconsumers": 6918,
      "ulg": 6919,
      "Ġexclusion": 6920,
      "Ġbahrain": 6921,
      "Ġluxembourg": 6922,
      "Ġnarcotic": 6923,
      "usion": 6924,
      "Ġcontacts": 6925,
      "Ġoecd": 6926,
      "Ġaccommodation": 6927,
      "Ġnavig": 6928,
      "uff": 6929,
      "Ġanticipated": 6930,
      "Ġips": 6931,
      "Ġunderlying": 6932,
      "fire": 6933,
      "Ġlimitations": 6934,
      "Ġdistinction": 6935,
      "ole": 6936,
      "Ġclearance": 6937,
      "Ġheading": 6938,
      "Ġrepair": 6939,
      "Ġunlawful": 6940,
      "Ġpreval": 6941,
      "Ġadvantages": 6942,
      "Ġlawyer": 6943,
      "Ġproof": 6944,
      "Ġshape": 6945,
      "Ġestonia": 6946,
      "Ġsuffic": 6947,
      "Ġprescribed": 6948,
      "Ġordered": 6949,
      "Ġdeclarations": 6950,
      "Ġfilled": 6951,
      "Ġobjection": 6952,
      "Ġattributable": 6953,
      "Ġacid": 6954,
      "Ġclosing": 6955,
      "Ġfalling": 6956,
      "Ġrevital": 6957,
      "holder": 6958,
      "cture": 6959,
      "Ġmagn": 6960,
      "Ġmediation": 6961,
      "Ġwhenever": 6962,
      "Ġthereof": 6963,
      "Ġprivile": 6964,
      "atible": 6965,
      "Ġsmooth": 6966,
      "rey": 6967,
      "Ġgab": 6968,
      "Ġterrorists": 6969,
      "Ġreferend": 6970,
      "Ġexpectations": 6971,
      "Ġpot": 6972,
      "missibility": 6973,
      "Ġaccum": 6974,
      "Ġjun": 6975,
      "Ġwinter": 6976,
      "Ġrub": 6977,
      "Ġgc": 6978,
      "ners": 6979,
      "Ġoperative": 6980,
      "Ġsuit": 6981,
      "Ġsolve": 6982,
      "Ġamounted": 6983,
      "Ġrealized": 6984,
      "orted": 6985,
      "Ġneut": 6986,
      "Ġpace": 6987,
      "anged": 6988,
      "Ġforget": 6989,
      "Ġmutually": 6990,
      "Ġmandatory": 6991,
      "Ġevening": 6992,
      "Ġcertification": 6993,
      "Ġpursued": 6994,
      "Ġdeprived": 6995,
      "Ġsky": 6996,
      "Ġincorporate": 6997,
      "sibly": 6998,
      "Ġafternoon": 6999,
      "Ġcorporation": 7000,
      "Ġmeasurement": 7001,
      "Ġbh": 7002,
      "Ġtari": 7003,
      "elled": 7004,
      "Ġpossession": 7005,
      "Ġacquired": 7006,
      "Ġobama": 7007,
      "Ġentail": 7008,
      "uit": 7009,
      "Ġplays": 7010,
      "ulates": 7011,
      "Ġasc": 7012,
      "Ġgonna": 7013,
      "aba": 7014,
      "Ġmode": 7015,
      "Ġdrink": 7016,
      "pes": 7017,
      "Ġadults": 7018,
      "Ġreplacement": 7019,
      "Ġaccompanied": 7020,
      "ahiri": 7021,
      "Ġseat": 7022,
      "oo": 7023,
      "right": 7024,
      "ata": 7025,
      "Ġtail": 7026,
      "ani": 7027,
      "Ġsponsored": 7028,
      "Ġplayers": 7029,
      "Ġmouth": 7030,
      "Ġboost": 7031,
      "rig": 7032,
      "Ġcomfort": 7033,
      "ocation": 7034,
      "Ġnamibia": 7035,
      "Ġputting": 7036,
      "Ġhtt": 7037,
      "Ġsupervis": 7038,
      "Ġdivided": 7039,
      "vation": 7040,
      "ga": 7041,
      "Ġintensive": 7042,
      "Ġnormally": 7043,
      "cp": 7044,
      "Ġtoxic": 7045,
      "bre": 7046,
      "Ġcommence": 7047,
      "Ġenqu": 7048,
      "Ġexperiment": 7049,
      "ums": 7050,
      "Ġice": 7051,
      "Ġmerely": 7052,
      "Ġclinical": 7053,
      "Ġprisons": 7054,
      "Ġroyal": 7055,
      "Ġjamahiri": 7056,
      "éĪ¥æ": 7057,
      "Ġsentenced": 7058,
      "Ġpregnancy": 7059,
      "Ġwave": 7060,
      "Ġspot": 7061,
      "Ġdesk": 7062,
      "Ġoceans": 7063,
      "Ġjamahiriya": 7064,
      "Ġaqu": 7065,
      "Ġevolution": 7066,
      "Ġdisappearance": 7067,
      "ye": 7068,
      "Ġrespected": 7069,
      "arms": 7070,
      "Ġfccc": 7071,
      "Ġdaughter": 7072,
      "Ġclaimant": 7073,
      "Ġfrag": 7074,
      "Ġrh": 7075,
      "Ġvary": 7076,
      "ensity": 7077,
      "Ġremoved": 7078,
      "Ġimports": 7079,
      "Ġobserve": 7080,
      "Ġgreek": 7081,
      "Ġenhancement": 7082,
      "ules": 7083,
      "Ġwhereas": 7084,
      "Ġcontemporary": 7085,
      "Ġvotes": 7086,
      "Ġsla": 7087,
      "Ġdirectors": 7088,
      "Ġdavid": 7089,
      "Ġquantity": 7090,
      "uda": 7091,
      "Ġreferences": 7092,
      "Ġconfisc": 7093,
      "Ġtwice": 7094,
      "Ġhappen": 7095,
      "tures": 7096,
      "Ġdifficulty": 7097,
      "Ġstabilization": 7098,
      "Ġreductions": 7099,
      "Ġconnected": 7100,
      "ki": 7101,
      "Ġtexts": 7102,
      "liers": 7103,
      "Ġrefused": 7104,
      "Ġalgor": 7105,
      "fall": 7106,
      "Ġpolitic": 7107,
      "Ġcensus": 7108,
      "Ġfreely": 7109,
      "Ġindicator": 7110,
      "iet": 7111,
      "Ġcool": 7112,
      "Ġgrade": 7113,
      "Ġalgorith": 7114,
      "Ġelaboration": 7115,
      "Ġinjured": 7116,
      "Ġprove": 7117,
      "Ġappra": 7118,
      "Ġheaded": 7119,
      "Ġunfortunately": 7120,
      "Ġipsas": 7121,
      "Ġinterference": 7122,
      "Ġmobility": 7123,
      "Ġcultures": 7124,
      "iterate": 7125,
      "inational": 7126,
      "Ġkilling": 7127,
      "Ġclients": 7128,
      "Ġhospitals": 7129,
      "Ġcandidate": 7130,
      "Ġgained": 7131,
      "Ġmobilize": 7132,
      "outi": 7133,
      "Ġpromulg": 7134,
      "Ġemphasize": 7135,
      "Ġproceeds": 7136,
      "Ġveget": 7137,
      "Ġadolescents": 7138,
      "Ġinnoc": 7139,
      "Ġpropose": 7140,
      "Ġconstitu": 7141,
      "Ġstrictly": 7142,
      "Ġjose": 7143,
      "Ġprosecutors": 7144,
      "ourse": 7145,
      "rants": 7146,
      "Ġlaugh": 7147,
      "Ġpregnant": 7148,
      "Ġadult": 7149,
      "Ġshelter": 7150,
      "Ġinvolves": 7151,
      "Ġhonduras": 7152,
      "Ġgol": 7153,
      "Ġtelecommunications": 7154,
      "osen": 7155,
      "Ġestate": 7156,
      "Ġcouple": 7157,
      "Ġna": 7158,
      "Ġaus": 7159,
      "Ġdjib": 7160,
      "Ġhttp": 7161,
      "ilation": 7162,
      "Ġoccupying": 7163,
      "Ġoffset": 7164,
      "Ġdw": 7165,
      "Ġclosure": 7166,
      "Ġdisaggreg": 7167,
      "ergies": 7168,
      "Ġverbal": 7169,
      "ille": 7170,
      "Ġrelates": 7171,
      "sen": 7172,
      "Ġcoff": 7173,
      "Ġdisseminate": 7174,
      "Ġabuses": 7175,
      "Ġnice": 7176,
      "Ġthemes": 7177,
      "Ġrough": 7178,
      "Ġsurveill": 7179,
      "Ġbehavior": 7180,
      "Ġundermin": 7181,
      "Ġoccupational": 7182,
      "Ġprejudice": 7183,
      "burg": 7184,
      "Ġintensify": 7185,
      "Ġorganisation": 7186,
      "Ġsurveillance": 7187,
      "Ġtariff": 7188,
      "uters": 7189,
      "df": 7190,
      "Ġeventually": 7191,
      "Ġpermitted": 7192,
      "Ġmeaningful": 7193,
      "olic": 7194,
      "Ġeradicate": 7195,
      "Ġozone": 7196,
      "Ġconducive": 7197,
      "Ġinvasion": 7198,
      "Ġremarks": 7199,
      "Ġconvening": 7200,
      "Ġmuse": 7201,
      "Ġorientation": 7202,
      "Ġtruly": 7203,
      "Ġdefer": 7204,
      "Ġjump": 7205,
      "Ġprosperity": 7206,
      "lining": 7207,
      "Ġthereto": 7208,
      "Ġsalaries": 7209,
      "Ġassume": 7210,
      "Ġchairs": 7211,
      "Ġmontreal": 7212,
      "Ġcapture": 7213,
      "Ġcompetitiveness": 7214,
      "Ġblow": 7215,
      "urb": 7216,
      "Ġamericans": 7217,
      "Ġbriefings": 7218,
      "Ġmassive": 7219,
      "Ġkorean": 7220,
      "Ġsecured": 7221,
      "Ġhappiness": 7222,
      "orse": 7223,
      "Ġfamous": 7224,
      "asts": 7225,
      "Ġtrouble": 7226,
      "Ġki": 7227,
      "agen": 7228,
      "Ġprioritiz": 7229,
      "Ġnurs": 7230,
      "bound": 7231,
      "Ġvacc": 7232,
      "Ġath": 7233,
      "Ġvillages": 7234,
      "factory": 7235,
      "Ġfulfilment": 7236,
      "Ġeliminating": 7237,
      "Ġinsol": 7238,
      "bert": 7239,
      "Ġawards": 7240,
      "Ġvessels": 7241,
      "Ġdic": 7242,
      "Ġdates": 7243,
      "Ġspokes": 7244,
      "Ġextraordin": 7245,
      "Ġreaffirm": 7246,
      "Ġstem": 7247,
      "Ġmetal": 7248,
      "ode": 7249,
      "Ġbreat": 7250,
      "Ġsnow": 7251,
      "Ġarise": 7252,
      "Ġclothes": 7253,
      "Ġsister": 7254,
      "Ġearthquake": 7255,
      "Ġunto": 7256,
      "Ġradiation": 7257,
      "Ġcareful": 7258,
      "tenstein": 7259,
      "Ġturning": 7260,
      "Ġsund": 7261,
      "Ġstamp": 7262,
      "Ġsigns": 7263,
      "Ġshowing": 7264,
      "Ġstands": 7265,
      "Ġhandle": 7266,
      "Ġknows": 7267,
      "Ġimf": 7268,
      "Ġlicens": 7269,
      "orge": 7270,
      "lex": 7271,
      "Ġadministrator": 7272,
      "Ġliech": 7273,
      "Ġcart": 7274,
      "Ġdelegates": 7275,
      "Ġfalse": 7276,
      "mas": 7277,
      "Ġdiverse": 7278,
      "Ġbroken": 7279,
      "Ġattitude": 7280,
      "Ġcorner": 7281,
      "Ġdraf": 7282,
      "Ġliechtenstein": 7283,
      "endar": 7284,
      "Ġhundreds": 7285,
      "Ġwages": 7286,
      "Ġremun": 7287,
      "Ġfi": 7288,
      "Ġcounselling": 7289,
      "utory": 7290,
      "Ġfootball": 7291,
      "Ġworry": 7292,
      "Ġsurvival": 7293,
      "Ġfax": 7294,
      "Ġplus": 7295,
      "Ġdirectorate": 7296,
      "Ġmunicipalities": 7297,
      "Ġmel": 7298,
      "Ġcausing": 7299,
      "kers": 7300,
      "iture": 7301,
      "iration": 7302,
      "Ġcoc": 7303,
      "uration": 7304,
      "Ġimpose": 7305,
      "Ġdjibouti": 7306,
      "Ġmaur": 7307,
      "Ġlogis": 7308,
      "oma": 7309,
      "Ġga": 7310,
      "Ġemployee": 7311,
      "Ġaccomplishments": 7312,
      "Ġearning": 7313,
      "Ġpaying": 7314,
      "Ġpenalties": 7315,
      "Ġzero": 7316,
      "Ġconscious": 7317,
      "Ġfirearms": 7318,
      "éĪ¥æª": 7319,
      "Ġgarden": 7320,
      "Ġdepending": 7321,
      "Ġbeneficiaries": 7322,
      "Ġhelps": 7323,
      "Ġsuppression": 7324,
      "Ġminute": 7325,
      "Ġmoham": 7326,
      "mad": 7327,
      "Ġsuspected": 7328,
      "Ġultimately": 7329,
      "Ġenshr": 7330,
      "Ġgal": 7331,
      "Ġapplicant": 7332,
      "Ġrock": 7333,
      "Ġseats": 7334,
      "sis": 7335,
      "Ġpharm": 7336,
      "Ġ<": 7337,
      "Ġfee": 7338,
      "Ġhang": 7339,
      "Ġservants": 7340,
      "Ġdiscipline": 7341,
      "Ġtechnique": 7342,
      "iji": 7343,
      "Ġbright": 7344,
      "lets": 7345,
      "Ġlastly": 7346,
      "Ġarre": 7347,
      "Ġtargeting": 7348,
      "Ġchamp": 7349,
      "Ġpreserve": 7350,
      "ceived": 7351,
      "Ġheavily": 7352,
      "Ġarchitecture": 7353,
      "laim": 7354,
      "Ġdil": 7355,
      "Ġpaul": 7356,
      "Ġkyrgyzstan": 7357,
      "com": 7358,
      "Ġhosted": 7359,
      "Ġgovernor": 7360,
      "Ġthereon": 7361,
      "graphic": 7362,
      "Ġacknowledge": 7363,
      "Ġbattle": 7364,
      "Ġbeat": 7365,
      "Ġelsewhere": 7366,
      "erated": 7367,
      "Ġretirement": 7368,
      "entieth": 7369,
      "Ġscholars": 7370,
      "Ġinduc": 7371,
      "Ġsignal": 7372,
      "Ġtwentieth": 7373,
      "Ġtogo": 7374,
      "Ġsimpli": 7375,
      "Ġsubsidies": 7376,
      "Ġchannels": 7377,
      "Ġlogistical": 7378,
      "ressed": 7379,
      "raid": 7380,
      "Ġcontrast": 7381,
      "Ġsurpl": 7382,
      "Ġnecessarily": 7383,
      "Ġpages": 7384,
      "Ġpick": 7385,
      "Ġtrials": 7386,
      "Ġclarification": 7387,
      "ulum": 7388,
      "Ġapprove": 7389,
      "Ġboss": 7390,
      "Ġworst": 7391,
      "Ġconviction": 7392,
      "Ġattitudes": 7393,
      "Ġholy": 7394,
      "Ġextrac": 7395,
      "Ġstressing": 7396,
      "Ġaddendum": 7397,
      "Ġoutline": 7398,
      "Ġfes": 7399,
      "uous": 7400,
      "Ġstipulated": 7401,
      "Ġships": 7402,
      "Ġsme": 7403,
      "Ġattendance": 7404,
      "Ġconsequence": 7405,
      "Ġshut": 7406,
      "Ġappointments": 7407,
      "Ġpit": 7408,
      "ados": 7409,
      "Ġenorm": 7410,
      "Ġtaxes": 7411,
      "Ġrestoration": 7412,
      "Ġange": 7413,
      "Ġconvey": 7414,
      "Ġinteresting": 7415,
      "Ġrestaur": 7416,
      "Ġinfant": 7417,
      "vals": 7418,
      "rates": 7419,
      "Ġweakness": 7420,
      "Ġrailway": 7421,
      "Ġappropriation": 7422,
      "Ġroads": 7423,
      "Ġanalyses": 7424,
      "Ġsimult": 7425,
      "Ġcorporations": 7426,
      "Ġdecreased": 7427,
      "Ġdispar": 7428,
      "Ġleaves": 7429,
      "Ġconta": 7430,
      "Ġprince": 7431,
      "Ġenact": 7432,
      "Ġcanad": 7433,
      "Ġemergencies": 7434,
      "Ġattor": 7435,
      "Ġafraid": 7436,
      "iable": 7437,
      "Ġmakers": 7438,
      "Ġprofile": 7439,
      "Ġsteering": 7440,
      "Ġwear": 7441,
      "Ġunifil": 7442,
      "Ġnlb": 7443,
      "mony": 7444,
      "Ġsuppliers": 7445,
      "Ġassumed": 7446,
      "Ġreferendum": 7447,
      "tan": 7448,
      "imes": 7449,
      "Ġdisciplinary": 7450,
      "Ġconsistently": 7451,
      "Ġreaction": 7452,
      "Ġsentences": 7453,
      "Ġdom": 7454,
      "nam": 7455,
      "oe": 7456,
      "Ġcabin": 7457,
      "Ġgreenhouse": 7458,
      "Ġemployer": 7459,
      "Ġsmuggling": 7460,
      "Ġgenerations": 7461,
      "Ġlimitation": 7462,
      "ches": 7463,
      "hi": 7464,
      "wana": 7465,
      "Ġmiliti": 7466,
      "Ġshot": 7467,
      "Ġentirely": 7468,
      "Ġaddresses": 7469,
      "Ġorally": 7470,
      "Ġtherein": 7471,
      "Ġintegrating": 7472,
      "Ġcoalition": 7473,
      "Ġdurban": 7474,
      "Ġfdi": 7475,
      "Ġfavourable": 7476,
      "isite": 7477,
      "bted": 7478,
      "lers": 7479,
      "Ġdivor": 7480,
      "Ġemphasizing": 7481,
      "Ġthy": 7482,
      "Ġbea": 7483,
      "Ġirre": 7484,
      "Ġpatient": 7485,
      "rah": 7486,
      "Ġextraordinary": 7487,
      "Ġstic": 7488,
      "utation": 7489,
      "Ġundersc": 7490,
      "Ġcis": 7491,
      "xi": 7492,
      "Ġobtaining": 7493,
      "Ġmixed": 7494,
      "Ġliberalization": 7495,
      "Ġlao": 7496,
      "Ġcalculated": 7497,
      "Ġenrich": 7498,
      "Ġclasses": 7499,
      "Ġargument": 7500,
      "Ġburn": 7501,
      "Ġsahara": 7502,
      "lete": 7503,
      "Ġpred": 7504,
      "Ġtear": 7505,
      "Ġchosen": 7506,
      "oci": 7507,
      "Ġcolour": 7508,
      "Ġbots": 7509,
      "Ġdescribe": 7510,
      "Ġdisclosure": 7511,
      "Ġadvertis": 7512,
      "Ġexpulsion": 7513,
      "Ġcalendar": 7514,
      "general": 7515,
      "Ġassociate": 7516,
      "Ġabduc": 7517,
      "Ġcontractor": 7518,
      "Ġourselves": 7519,
      "Ġauthorization": 7520,
      "Ġfocuses": 7521,
      "Ġstraight": 7522,
      "Ġalarm": 7523,
      "Ġthreatened": 7524,
      "Ġpreamb": 7525,
      "Ġlayer": 7526,
      "Ġoda": 7527,
      "Ġoffenders": 7528,
      "Ġdurable": 7529,
      "Ġceasefire": 7530,
      "do": 7531,
      "Ġupper": 7532,
      "Ġreferring": 7533,
      "Ġyeah": 7534,
      "vity": 7535,
      "zen": 7536,
      "Ġpresidents": 7537,
      "Ġadvisers": 7538,
      "osoph": 7539,
      "Ġbesides": 7540,
      "Ġinher": 7541,
      "Ġcombatants": 7542,
      "Ġappreciate": 7543,
      "Ġslavery": 7544,
      "eces": 7545,
      "Ġausp": 7546,
      "atories": 7547,
      "izations": 7548,
      "Ġerror": 7549,
      "iii": 7550,
      "Ġdisaggregated": 7551,
      "lantic": 7552,
      "Ġhid": 7553,
      "Ġresort": 7554,
      "Ġjack": 7555,
      "Ġendorse": 7556,
      "Ġluck": 7557,
      "Ġrevealed": 7558,
      "Ġgets": 7559,
      "zz": 7560,
      "itative": 7561,
      "Ġregimes": 7562,
      "Ġlibya": 7563,
      "Ġacute": 7564,
      "Ġmonuc": 7565,
      "Ġbotswana": 7566,
      "Ġinhabit": 7567,
      "Ġbudgeting": 7568,
      "Ġine": 7569,
      "Ġusd": 7570,
      "Ġphilosoph": 7571,
      "Ġxv": 7572,
      "Ġphr": 7573,
      "Ġital": 7574,
      "Ġclarify": 7575,
      "Ġmeasured": 7576,
      "Ġpromptly": 7577,
      "ions": 7578,
      "Ġdeploy": 7579,
      "Ġmissile": 7580,
      "fol": 7581,
      "Ġinad": 7582,
      "Ġrestore": 7583,
      "Ġuna": 7584,
      "Ġcredibility": 7585,
      "Ġtons": 7586,
      "tious": 7587,
      "Ġcomplementary": 7588,
      "Ġfiji": 7589,
      "Ġhaven": 7590,
      "Ġannexes": 7591,
      "Ġmc": 7592,
      "Ġhistoric": 7593,
      "Ġunifem": 7594,
      "Ġcasual": 7595,
      "Ġmethodologies": 7596,
      "osi": 7597,
      "Ġpure": 7598,
      "Ġlegitim": 7599,
      "Ġdelayed": 7600,
      "Ġholders": 7601,
      "Ġpostp": 7602,
      "Ġsystematically": 7603,
      "Ġenrol": 7604,
      "Ġcontractors": 7605,
      "Ġgenetic": 7606,
      "itious": 7607,
      "Ġspare": 7608,
      "Ġarabic": 7609,
      "Ġentrusted": 7610,
      "Ġdump": 7611,
      "Ġcypri": 7612,
      "Ġcommonwe": 7613,
      "vency": 7614,
      "Ġunan": 7615,
      "Ġsyria": 7616,
      "rote": 7617,
      "aco": 7618,
      "Ġdisadvantaged": 7619,
      "opol": 7620,
      "Ġpreserv": 7621,
      "Ġshap": 7622,
      "Ġnovel": 7623,
      "Ġchaired": 7624,
      "Ġcommander": 7625,
      "Ġacquire": 7626,
      "Ġpresentations": 7627,
      "Ġenabled": 7628,
      "Ġporn": 7629,
      "uss": 7630,
      "Ġecological": 7631,
      "Ġillness": 7632,
      "Ġnap": 7633,
      "Ġuphold": 7634,
      "Ġscar": 7635,
      "Ġcommonwealth": 7636,
      "Ġmurder": 7637,
      "Ġhamp": 7638,
      "Ġdeclined": 7639,
      "Ġadmission": 7640,
      "Ġsha": 7641,
      "Ġrout": 7642,
      "field": 7643,
      "Ġgrown": 7644,
      "Ġeasier": 7645,
      "Ġbarbados": 7646,
      "Ġcollaborative": 7647,
      "Ġadministered": 7648,
      "Ġengaging": 7649,
      "aka": 7650,
      "Ġconvicted": 7651,
      "Ġconfig": 7652,
      "Ġundermine": 7653,
      "Ġmm": 7654,
      "Ġindicating": 7655,
      "Ġreturns": 7656,
      "Ġsufficiently": 7657,
      "Ġherself": 7658,
      "ascar": 7659,
      "Ġibid": 7660,
      "Ġdual": 7661,
      "Ġcoffee": 7662,
      "Ġvend": 7663,
      "Ġhelic": 7664,
      "Ġcurriculum": 7665,
      "Ġleads": 7666,
      "Ġeconomics": 7667,
      "inder": 7668,
      "ows": 7669,
      "Ġliberation": 7670,
      "Ġmadag": 7671,
      "Ġsurviv": 7672,
      "Ġconcerted": 7673,
      "Ġapportion": 7674,
      "Ġfirmly": 7675,
      "ael": 7676,
      "Ġmeasuring": 7677,
      "Ġaustralian": 7678,
      "Ġglob": 7679,
      "Ġchronic": 7680,
      "Ġdoctors": 7681,
      "Ġmald": 7682,
      "Ġmaternity": 7683,
      "dam": 7684,
      "Ġcargo": 7685,
      "tioned": 7686,
      "Ġfab": 7687,
      "Ġexposed": 7688,
      "Ġmaurit": 7689,
      "Ġtrin": 7690,
      "Ġmadagascar": 7691,
      "Ġrice": 7692,
      "Ġextrem": 7693,
      "Ġresil": 7694,
      "Ġfaces": 7695,
      "Ġsolar": 7696,
      "Ġpreparedness": 7697,
      "Ġforestry": 7698,
      "Ġexceptional": 7699,
      "Ġtermination": 7700,
      "Ġdeprivation": 7701,
      "Ġfrank": 7702,
      "Ġstone": 7703,
      "Ġmovie": 7704,
      "Ġtheore": 7705,
      "Ġmainland": 7706,
      "Ġseekers": 7707,
      "ipped": 7708,
      "Ġanalyse": 7709,
      "Ġexcess": 7710,
      "Ġreimbursement": 7711,
      "Ġmerits": 7712,
      "Ġvisual": 7713,
      "va": 7714,
      "Ġstopped": 7715,
      "ricts": 7716,
      "Ġcomplexity": 7717,
      "Ġhero": 7718,
      "Ġexhaust": 7719,
      "Ġeleventh": 7720,
      "Ġturkmen": 7721,
      "Ġnoise": 7722,
      "Ġcompilation": 7723,
      "Ġpromise": 7724,
      "Ġconversion": 7725,
      "Ġpeak": 7726,
      "Ġabu": 7727,
      "Ġix": 7728,
      "Ġmalawi": 7729,
      "Ġforecast": 7730,
      "Ġnepad": 7731,
      "Ġflat": 7732,
      "Ġhk": 7733,
      "Ġaffirm": 7734,
      "Ġsuspension": 7735,
      "Ġcards": 7736,
      "Ġbolivarian": 7737,
      "Ġcape": 7738,
      "oul": 7739,
      "Ġstrike": 7740,
      "Ġlaboratory": 7741,
      "Ġselling": 7742,
      "Ġrely": 7743,
      "Ġdeadline": 7744,
      "Ġalco": 7745,
      "Ġcars": 7746,
      "Ġenshrined": 7747,
      "erb": 7748,
      "Ġunderlined": 7749,
      "Ġidb": 7750,
      "Ġremuneration": 7751,
      "long": 7752,
      "Ġsuggestion": 7753,
      "agues": 7754,
      "ompass": 7755,
      "Ġideal": 7756,
      "Ġmomentum": 7757,
      "Ġdesi": 7758,
      "ifying": 7759,
      "Ġremark": 7760,
      "ano": 7761,
      "uk": 7762,
      "Ġblind": 7763,
      "Ġpotentially": 7764,
      "Ġnamed": 7765,
      "Ġquiet": 7766,
      "bian": 7767,
      "Ġoccasions": 7768,
      "Ġtangible": 7769,
      "Ġsequ": 7770,
      "Ġencompass": 7771,
      "Ġdistricts": 7772,
      "Ġperforming": 7773,
      "Ġauspices": 7774,
      "naire": 7775,
      "Ġconsolidate": 7776,
      "gi": 7777,
      "holm": 7778,
      "Ġreiterate": 7779,
      "Ġdelivering": 7780,
      "Ġconfront": 7781,
      "Ġsli": 7782,
      "idad": 7783,
      "Ġlake": 7784,
      "Ġassignment": 7785,
      "ca": 7786,
      "Ġlikewise": 7787,
      "Ġconvene": 7788,
      "Ġinitially": 7789,
      "Ġfewer": 7790,
      "Ġwillingness": 7791,
      "Ġinsecurity": 7792,
      "Ġimperative": 7793,
      "Ġbreast": 7794,
      "illing": 7795,
      "Ġthou": 7796,
      "ultural": 7797,
      "Ġadjusted": 7798,
      "Ġpartly": 7799,
      "Ġcreative": 7800,
      "Ġtea": 7801,
      "Ġinval": 7802,
      "fications": 7803,
      "Ġcs": 7804,
      "Ġsample": 7805,
      "Ġdrag": 7806,
      "eck": 7807,
      "Ġera": 7808,
      "Ġpreservation": 7809,
      "Ġholds": 7810,
      "Ġguyana": 7811,
      "Ġinterdepend": 7812,
      "Ġexactly": 7813,
      "Ġrepar": 7814,
      "Ġrecover": 7815,
      "Ġplain": 7816,
      "Ġsamoa": 7817,
      "Ġorganisations": 7818,
      "Ġecosystems": 7819,
      "tery": 7820,
      "Ġolympics": 7821,
      "Ġquestionnaire": 7822,
      "Ġfly": 7823,
      "Ġ#": 7824,
      "Ġcanadian": 7825,
      "Ġlicense": 7826,
      "Ġfacto": 7827,
      "Ġfeasible": 7828,
      "Ġapprais": 7829,
      "Ġalcohol": 7830,
      "Ġworse": 7831,
      "Ġproducers": 7832,
      "titioners": 7833,
      "Ġobservance": 7834,
      "Ġdinner": 7835,
      "Ġalgorithm": 7836,
      "Ġfactory": 7837,
      "Ġwrote": 7838,
      "Ġmary": 7839,
      "Ġdropped": 7840,
      "Ġinsolvency": 7841,
      "ighten": 7842,
      "Ġfamiliar": 7843,
      "Ġwet": 7844,
      "Ġstockholm": 7845,
      "Ġmilk": 7846,
      "Ġfro": 7847,
      "Ġprofound": 7848,
      "Ġworkload": 7849,
      "Ġparticipatory": 7850,
      "bul": 7851,
      "Ġrecruited": 7852,
      "Ġcredible": 7853,
      "Ġdear": 7854,
      "Ġfiles": 7855,
      "Ġinitiate": 7856,
      "Ġenvoy": 7857,
      "Ġprofits": 7858,
      "Ġinstruction": 7859,
      "Ġmessages": 7860,
      "Ġfeedback": 7861,
      "Ġsecretarygeneral": 7862,
      "Ġsight": 7863,
      "Ġcommem": 7864,
      "Ġphotograph": 7865,
      "Ġbrown": 7866,
      "Ġhelicop": 7867,
      "Ġdestination": 7868,
      "Ġmodified": 7869,
      "Ġmaldives": 7870,
      "Ġsuspended": 7871,
      "isation": 7872,
      "Ġsatisfied": 7873,
      "Ġment": 7874,
      "Ġboat": 7875,
      "Ġasean": 7876,
      "Ġredress": 7877,
      "Ġcouldn": 7878,
      "Ġimmunity": 7879,
      "Ġperspec": 7880,
      "Ġenormous": 7881,
      "Ġboundary": 7882,
      "Ġring": 7883,
      "che": 7884,
      "Ġfestiv": 7885,
      "Ġsixtieth": 7886,
      "Ġbrings": 7887,
      "Ġow": 7888,
      "Ġcertificates": 7889,
      "Ġchildhood": 7890,
      "Ġacademy": 7891,
      "Ġcharacterized": 7892,
      "Ġmix": 7893,
      "Ġliterature": 7894,
      "Ġunamid": 7895,
      "Ġconcentration": 7896,
      "Ġprevented": 7897,
      "Ġvisiting": 7898,
      "Ġworkplace": 7899,
      "Ġclic": 7900,
      "Ġserves": 7901,
      "Ġprosecute": 7902,
      "Ġmonitored": 7903,
      "Ġseeing": 7904,
      "Ġgenerating": 7905,
      "Ġtracking": 7906,
      "Ġperspectives": 7907,
      "Ġped": 7908,
      "Ġclock": 7909,
      "Ġassurance": 7910,
      "Ġfing": 7911,
      "Ġminors": 7912,
      "Ġcant": 7913,
      "Ġreplied": 7914,
      "Ġbeauty": 7915,
      "Ġweigh": 7916,
      "Ġfis": 7917,
      "ni": 7918,
      "Ġsuddenly": 7919,
      "Ġearn": 7920,
      "Ġtackle": 7921,
      "urances": 7922,
      "aments": 7923,
      "Ġbhut": 7924,
      "aven": 7925,
      "Ġsitting": 7926,
      "Ġseverely": 7927,
      "Ġcomputers": 7928,
      "Ġinspectors": 7929,
      "roll": 7930,
      "Ġadmissibility": 7931,
      "rum": 7932,
      "Ġgeographic": 7933,
      "Ġhighlight": 7934,
      "Ġdeals": 7935,
      "Ġglobally": 7936,
      "Ġalter": 7937,
      "Ġawa": 7938,
      "Ġinhabitants": 7939,
      "oh": 7940,
      "Ġsubstantially": 7941,
      "Ġemerged": 7942,
      "Ġadding": 7943,
      "withstanding": 7944,
      "Ġmauritania": 7945,
      "Ġdistinct": 7946,
      "Ġnotwithstanding": 7947,
      "Ġintermedi": 7948,
      "Ġther": 7949,
      "Ġcaught": 7950,
      "Ġuncc": 7951,
      "entially": 7952,
      "Ġfired": 7953,
      "Ġunw": 7954,
      "Ġinherent": 7955,
      "Ġraw": 7956,
      "Ġsuspic": 7957,
      "Ġmagaz": 7958,
      "Ġdomain": 7959,
      "Ġfostering": 7960,
      "Ġdetect": 7961,
      "Ġprevalence": 7962,
      "Ġinfring": 7963,
      "Ġflowers": 7964,
      "Ġharmonized": 7965,
      "Ġestablishes": 7966,
      "Ġslightly": 7967,
      "Ġpossibly": 7968,
      "Ġpursuing": 7969,
      "retion": 7970,
      "Ġjes": 7971,
      "Ġcu": 7972,
      "Ġcommunicate": 7973,
      "wered": 7974,
      "Ġdemographic": 7975,
      "Ġcataly": 7976,
      "Ġokay": 7977,
      "Ġpursuit": 7978,
      "Ġfriendship": 7979,
      "ients": 7980,
      "Ġelectrical": 7981,
      "Ġvolunteer": 7982,
      "Ġmaintains": 7983,
      "Ġroutine": 7984,
      "Ġexercises": 7985,
      "Ġpup": 7986,
      "tization": 7987,
      "itude": 7988,
      "Ġbranches": 7989,
      "Ġconsisting": 7990,
      "acting": 7991,
      "Ġscene": 7992,
      "Ġcheap": 7993,
      "Ġenjoyed": 7994,
      "Ġdefinitions": 7995,
      "Ġautomatic": 7996,
      "ogen": 7997,
      "Ġwing": 7998,
      "Ġengland": 7999,
      "Ġindisp": 8000,
      "Ġwhereby": 8001,
      "Ġfeasibility": 8002,
      "Ġcrops": 8003,
      "Ġsweet": 8004,
      "Ġexpensive": 8005,
      "Ġpose": 8006,
      "Ġruling": 8007,
      "Ġurgently": 8008,
      "Ġaccessibility": 8009,
      "Ġregrets": 8010,
      "Ġgathering": 8011,
      "Ġrefrain": 8012,
      "boundary": 8013,
      "Ġportion": 8014,
      "Ġtransboundary": 8015,
      "Ġtrig": 8016,
      "Ġcoerc": 8017,
      "Ġcmp": 8018,
      "Ġseparately": 8019,
      "Ġjudgment": 8020,
      "Ġyel": 8021,
      "Ġguil": 8022,
      "Ġpossibilities": 8023,
      "Ġsynthes": 8024,
      "Ġunanim": 8025,
      "Ġimages": 8026,
      "mn": 8027,
      "Ġpound": 8028,
      "Ġsocialist": 8029,
      "Ġcabinet": 8030,
      "icide": 8031,
      "Ġunex": 8032,
      "Ġrapporteurs": 8033,
      "Ġstudying": 8034,
      "Ġsecondly": 8035,
      "Ġincons": 8036,
      "Ġimb": 8037,
      "Ġhoriz": 8038,
      "rance": 8039,
      "idation": 8040,
      "Ġportfol": 8041,
      "Ġceremony": 8042,
      "Ġintends": 8043,
      "regular": 8044,
      "Ġhanded": 8045,
      "Ġunmik": 8046,
      "Ġmunitions": 8047,
      "Ġduplication": 8048,
      "fth": 8049,
      "Ġchristian": 8050,
      "Ġshipping": 8051,
      "Ġminur": 8052,
      "Ġretained": 8053,
      "kel": 8054,
      "Ġconcur": 8055,
      "Ġscreen": 8056,
      "Ġsurplus": 8057,
      "Ġassurances": 8058,
      "Ġencountered": 8059,
      "urning": 8060,
      "ongo": 8061,
      "Ġmitigate": 8062,
      "Ġsubmits": 8063,
      "Ġpretty": 8064,
      "iate": 8065,
      "Ġ|": 8066,
      "Ġdifferenti": 8067,
      "rations": 8068,
      "Ġpartial": 8069,
      "Ġlaunching": 8070,
      "Ġinjuries": 8071,
      "Ġsatisfactory": 8072,
      "Ġturkmenistan": 8073,
      "Ġaccidents": 8074,
      "Ġwg": 8075,
      "Ġcuban": 8076,
      "Ġupdating": 8077,
      "Ġwoods": 8078,
      "utors": 8079,
      "Ġbreath": 8080,
      "fies": 8081,
      "Ġcodes": 8082,
      "Ġtobac": 8083,
      "Ġaside": 8084,
      "Ġaccounted": 8085,
      "Ġcontradic": 8086,
      "Ġautonomy": 8087,
      "Ġplate": 8088,
      "Ġdescent": 8089,
      "Ġsynergies": 8090,
      "Ġprivacy": 8091,
      "Ġtrinidad": 8092,
      "Ġbought": 8093,
      "Ġanalyzed": 8094,
      "Ġirregular": 8095,
      "organ": 8096,
      "Ġawarded": 8097,
      "Ġgate": 8098,
      "Ġrescue": 8099,
      "Ġwp": 8100,
      "Ġsubmitting": 8101,
      "Ġexplicitly": 8102,
      "point": 8103,
      "Ġtobacco": 8104,
      "Ġsubsistence": 8105,
      "Ġprevailing": 8106,
      "Ġwire": 8107,
      "Ġspite": 8108,
      "umes": 8109,
      "Ġinconsist": 8110,
      "Ġworker": 8111,
      "ishment": 8112,
      "ouses": 8113,
      "Ġrobust": 8114,
      "ĠéĪ¥æ·": 8115,
      "aires": 8116,
      "Ġreadiness": 8117,
      "Ġhorse": 8118,
      "Ġbeneficial": 8119,
      "Ġmuslim": 8120,
      "Ġdiscovered": 8121,
      "my": 8122,
      "Ġshad": 8123,
      "Ġinfection": 8124,
      "Ġowner": 8125,
      "Ġitalian": 8126,
      "Ġslowly": 8127,
      "Ġpermits": 8128,
      "Ġtensions": 8129,
      "Ġsar": 8130,
      "ura": 8131,
      "Ġtwelfth": 8132,
      "Ġsoul": 8133,
      "Ġcapita": 8134,
      "Ġexcluded": 8135,
      "Ġenrolment": 8136,
      "bc": 8137,
      "Ġrental": 8138,
      "Ġcomprises": 8139,
      "Ġimpartial": 8140,
      "Ġparam": 8141,
      "Ġpermission": 8142,
      "Ġswim": 8143,
      "Ġforese": 8144,
      "Ġtestim": 8145,
      "ato": 8146,
      "Ġupgrading": 8147,
      "Ġattorney": 8148,
      "Ġrid": 8149,
      "Ġpublicly": 8150,
      "ook": 8151,
      "Ġpreceding": 8152,
      "Ġviable": 8153,
      "Ġtherap": 8154,
      "Ġvisitors": 8155,
      "Ġroute": 8156,
      "Ġfrequent": 8157,
      "Ġsummits": 8158,
      "oys": 8159,
      "Ġhostilities": 8160,
      "Ġdriver": 8161,
      "Ġcf": 8162,
      "Ġgratitude": 8163,
      "Ġconvers": 8164,
      "Ġiranian": 8165,
      "Ġdad": 8166,
      "Ġselec": 8167,
      "Ġbay": 8168,
      "Ġlicence": 8169,
      "Ġsunday": 8170,
      "isive": 8171,
      "board": 8172,
      "Ġdisappo": 8173,
      "Ġsomali": 8174,
      "erto": 8175,
      "Ġwang": 8176,
      "Ġscr": 8177,
      "iel": 8178,
      "Ġwishing": 8179,
      "lac": 8180,
      "Ġnavigation": 8181,
      "Ġmete": 8182,
      "after": 8183,
      "Ġpetro": 8184,
      "Ġjoy": 8185,
      "andan": 8186,
      "Ġformally": 8187,
      "amas": 8188,
      "Ġtobago": 8189,
      "eness": 8190,
      "Ġbow": 8191,
      "Ġtension": 8192,
      "Ġpump": 8193,
      "Ġretail": 8194,
      "Ġinstallation": 8195,
      "ami": 8196,
      "Ġopposed": 8197,
      "Ġfoundations": 8198,
      "Ġirresp": 8199,
      "Ġaffects": 8200,
      "Ġappearance": 8201,
      "Ġminimize": 8202,
      "Ġtac": 8203,
      "rar": 8204,
      "Ġaspir": 8205,
      "sa": 8206,
      "Ġurgency": 8207,
      "ranean": 8208,
      "Ġrepeatedly": 8209,
      "Ġresume": 8210,
      "Ġalien": 8211,
      "son": 8212,
      "Ġadvancing": 8213,
      "Ġfinished": 8214,
      "Ġmichael": 8215,
      "Ġpornography": 8216,
      "Ġsupposed": 8217,
      "Ġbin": 8218,
      "Ġtowns": 8219,
      "Ġbhutan": 8220,
      "Ġqa": 8221,
      "Ġremit": 8222,
      "Ġexisted": 8223,
      "Ġappraisal": 8224,
      "Ġgent": 8225,
      "Ġltd": 8226,
      "Ġwine": 8227,
      "Ġformulating": 8228,
      "Ġinev": 8229,
      "Ġincidence": 8230,
      "umbered": 8231,
      "dy": 8232,
      "Ġcla": 8233,
      "Ġnewspaper": 8234,
      "Ġbenefited": 8235,
      "Ġconsistency": 8236,
      "Ġultimate": 8237,
      "Ġtranslated": 8238,
      "Ġkilomet": 8239,
      "antly": 8240,
      "tar": 8241,
      "Ġunn": 8242,
      "Ġdeple": 8243,
      "Ġprinting": 8244,
      "Ġlisting": 8245,
      "Ġpromotes": 8246,
      "ala": 8247,
      "uracy": 8248,
      "Ġprohibit": 8249,
      "Ġguilty": 8250,
      "Ġdefining": 8251,
      "Ġcontinuity": 8252,
      "Ġbudgeted": 8253,
      "Ġviewed": 8254,
      "Ġsciences": 8255,
      "Ġgrew": 8256,
      "roph": 8257,
      "umin": 8258,
      "care": 8259,
      "Ġmultid": 8260,
      "Ġaffordable": 8261,
      "Ġoman": 8262,
      "Ġreturning": 8263,
      "Ġrevenues": 8264,
      "Ġgabon": 8265,
      "Ġasking": 8266,
      "Ġlesson": 8267,
      "Ġqualifications": 8268,
      "Ġpolicymakers": 8269,
      "kok": 8270,
      "Ġunu": 8271,
      "Ġatlantic": 8272,
      "ortions": 8273,
      "Ġunknow": 8274,
      "Ġsaharan": 8275,
      "Ġplane": 8276,
      "Ġcolleagues": 8277,
      "udence": 8278,
      "Ġmarginalized": 8279,
      "Ġranging": 8280,
      "Ġgathered": 8281,
      "Ġadmitted": 8282,
      "Ġconstantly": 8283,
      "Ġabolition": 8284,
      "Ġredeployment": 8285,
      "Ġthrow": 8286,
      "Ġescal": 8287,
      "Ġunmil": 8288,
      "Ġsurrounding": 8289,
      "Ġbuyer": 8290,
      "Ġunified": 8291,
      "Ġenacted": 8292,
      "Ġconfident": 8293,
      "Ġeating": 8294,
      "Ġboards": 8295,
      "Ġbenchmar": 8296,
      "Ġearnings": 8297,
      "Ġcalculation": 8298,
      "iscri": 8299,
      "look": 8300,
      "enable": 8301,
      "asa": 8302,
      "zhou": 8303,
      "Ġhurt": 8304,
      "Ġappend": 8305,
      "Ġpeer": 8306,
      "rick": 8307,
      "Ġexperimental": 8308,
      "Ġfulfilling": 8309,
      "Ġflying": 8310,
      "Ġkm": 8311,
      "iliation": 8312,
      "rific": 8313,
      "Ġfinalized": 8314,
      "Ġpleasure": 8315,
      "Ġpollut": 8316,
      "Ġhen": 8317,
      "Ġabortion": 8318,
      "Ġepidemic": 8319,
      "Ġunoci": 8320,
      "Ġvirgin": 8321,
      "Ġsilver": 8322,
      "Ġshell": 8323,
      "using": 8324,
      "Ġfix": 8325,
      "Ġsubcommission": 8326,
      "Ġradioactive": 8327,
      "Ġaggreg": 8328,
      "iland": 8329,
      "Ġmediter": 8330,
      "Ġextending": 8331,
      "Ġchristmas": 8332,
      "ras": 8333,
      "Ġcos": 8334,
      "Ġdeclare": 8335,
      "mans": 8336,
      "Ġwis": 8337,
      "Ġnegotiated": 8338,
      "Ġeconomically": 8339,
      "Ġyellow": 8340,
      "Ġseiz": 8341,
      "Ġappreciated": 8342,
      "Ġfaster": 8343,
      "Ġdamages": 8344,
      "Ġmediterranean": 8345,
      "Ġeditor": 8346,
      "Ġstories": 8347,
      "Ġsed": 8348,
      "Ġexecutions": 8349,
      "Ġunpre": 8350,
      "Ġnormative": 8351,
      "gar": 8352,
      "Ġoriginally": 8353,
      "iment": 8354,
      "Ġdiagnosis": 8355,
      "aneously": 8356,
      "Ġhan": 8357,
      "Ġtalib": 8358,
      "Ġcontributes": 8359,
      "Ġsuperior": 8360,
      "atis": 8361,
      "Ġfalls": 8362,
      "Ġcompromise": 8363,
      "Ġnetworking": 8364,
      "Ġusual": 8365,
      "Ġanswered": 8366,
      "Ġrelatives": 8367,
      "Ġadvise": 8368,
      "Ġsmart": 8369,
      "Ġcited": 8370,
      "Ġmiles": 8371,
      "Ġexclusively": 8372,
      "Ġsummarized": 8373,
      "Ġheaven": 8374,
      "Ġkg": 8375,
      "Ġsheet": 8376,
      "Ġstatutory": 8377,
      "éĪ¥æªļ": 8378,
      "Ġharmony": 8379,
      "Ġhague": 8380,
      "Ġresett": 8381,
      "aker": 8382,
      "Ġensured": 8383,
      "Ġconfidential": 8384,
      "Ġfissile": 8385,
      "Ġdiscretion": 8386,
      "Ġmerg": 8387,
      "requ": 8388,
      "Ġexamining": 8389,
      "Ġexecutives": 8390,
      "Ġcommend": 8391,
      "Ġformula": 8392,
      "cedented": 8393,
      "reshold": 8394,
      "Ġtreasury": 8395,
      "Ġinnocent": 8396,
      "Ġpiracy": 8397,
      "irt": 8398,
      "Ġconsiderably": 8399,
      "Ġunprecedented": 8400,
      "Ġinstability": 8401,
      "apping": 8402,
      "owas": 8403,
      "Ġthreshold": 8404,
      "Ġdeficit": 8405,
      "Ġrendered": 8406,
      "Ġpainting": 8407,
      "Ġtested": 8408,
      "Ġpledges": 8409,
      "Ġlod": 8410,
      "Ġsized": 8411,
      "Ġprolong": 8412,
      "Ġsteady": 8413,
      "ado": 8414,
      "iencies": 8415,
      "Ġwasn": 8416,
      "Ġlady": 8417,
      "Ġfurniture": 8418,
      "Ġpatent": 8419,
      "Ġecowas": 8420,
      "Ġbullet": 8421,
      "Ġgift": 8422,
      "Ġresidential": 8423,
      "Ġbusy": 8424,
      "han": 8425,
      "Ġthick": 8426,
      "Ġinsist": 8427,
      "Ġplastic": 8428,
      "Ġenviron": 8429,
      "Ġgm": 8430,
      "Ġobliged": 8431,
      "Ġadherence": 8432,
      "Ġtaliban": 8433,
      "Ġplanet": 8434,
      "Ġtypically": 8435,
      "ropri": 8436,
      "Ġmeat": 8437,
      "Ġrelax": 8438,
      "Ġbangkok": 8439,
      "Ġcrac": 8440,
      "Ġseparated": 8441,
      "Ġmeteor": 8442,
      "Ġlingu": 8443,
      "Ġgeorge": 8444,
      "ensable": 8445,
      "Ġarrival": 8446,
      "Ġaccuracy": 8447,
      "Ġinterface": 8448,
      "apse": 8449,
      "Ġuncertainty": 8450,
      "Ġjustify": 8451,
      "Ġjohan": 8452,
      "Ġstateless": 8453,
      "ondition": 8454,
      "force": 8455,
      "Ġdisappearances": 8456,
      "Ġrealistic": 8457,
      "Ġjiu": 8458,
      "Ġsatur": 8459,
      "Ġadvertising": 8460,
      "Ġevident": 8461,
      "otho": 8462,
      "Ġdevast": 8463,
      "Ġevac": 8464,
      "Ġgulf": 8465,
      "Ġvalidity": 8466,
      "under": 8467,
      "Ġresolving": 8468,
      "Ġdesigning": 8469,
      "Ġlakes": 8470,
      "Ġsolely": 8471,
      "Ġwouldn": 8472,
      "Ġswiss": 8473,
      "Ġcurricula": 8474,
      "Ġunknown": 8475,
      "Ġsecuring": 8476,
      "Ġbirths": 8477,
      "Ġindication": 8478,
      "Ġadvised": 8479,
      "Ġbird": 8480,
      "Ġexecuted": 8481,
      "iat": 8482,
      "Ġdeparture": 8483,
      "des": 8484,
      "Ġmonaco": 8485,
      "Ġcontrolling": 8486,
      "Ġstakeholder": 8487,
      "log": 8488,
      "Ġpeter": 8489,
      "Ġlesotho": 8490,
      "Ġindispensable": 8491,
      "ortive": 8492,
      "Ġpredictable": 8493,
      "Ġclothing": 8494,
      "Ġclause": 8495,
      "Ġcompli": 8496,
      "Ġbroke": 8497,
      "Ġargued": 8498,
      "rine": 8499,
      "Ġdrafted": 8500,
      "Ġoperated": 8501,
      "Ġvirus": 8502,
      "gments": 8503,
      "Ġunequ": 8504,
      "Ġfabric": 8505,
      "Ġloved": 8506,
      "Ġpoorest": 8507,
      "Ġash": 8508,
      "Ġcontinental": 8509,
      "Ġmankind": 8510,
      "Ġmortg": 8511,
      "Ġimbal": 8512,
      "Ġdisord": 8513,
      "Ġholiday": 8514,
      "Ġequipped": 8515,
      "Ġbis": 8516,
      "Ġacknowledging": 8517,
      "Ġelaborate": 8518,
      "Ġdivisions": 8519,
      "Ġrecipient": 8520,
      "Ġcondemn": 8521,
      "Ġunmis": 8522,
      "Ġdatabases": 8523,
      "Ġosce": 8524,
      "Ġlending": 8525,
      "Ġassure": 8526,
      "Ġedge": 8527,
      "Ġaer": 8528,
      "Ġnongo": 8529,
      "Ġweekly": 8530,
      "word": 8531,
      "Ġaliens": 8532,
      "Ġnan": 8533,
      "Ġfinish": 8534,
      "icial": 8535,
      "Ġant": 8536,
      "Ġtau": 8537,
      "Ġtall": 8538,
      "Ġfault": 8539,
      "Ġdeterior": 8540,
      "Ġdont": 8541,
      "Ġinali": 8542,
      "olese": 8543,
      "asm": 8544,
      "Ġexac": 8545,
      "Ġassumption": 8546,
      "Ġallocate": 8547,
      "Ġjustified": 8548,
      "Ġfeelings": 8549,
      "Ġrc": 8550,
      "Ġfounded": 8551,
      "Ġties": 8552,
      "Ġpillars": 8553,
      "Ġcoordinators": 8554,
      "Ġutilized": 8555,
      "Ġunccd": 8556,
      "Ġfiftieth": 8557,
      "Ġcharacteristic": 8558,
      "Ġrecyc": 8559,
      "Ġmodernization": 8560,
      "Ġcollecting": 8561,
      "Ġbread": 8562,
      "ulted": 8563,
      "Ġdow": 8564,
      "Ġrecurrent": 8565,
      "Ġeca": 8566,
      "Ġhighlights": 8567,
      "Ġnongovernmental": 8568,
      "Ġrare": 8569,
      "Ġfate": 8570,
      "da": 8571,
      "Ġgraph": 8572,
      "Ġascertain": 8573,
      "Ġkuwaiti": 8574,
      "Ġtill": 8575,
      "Ġpieces": 8576,
      "Ġcontinuously": 8577,
      "Ġtimet": 8578,
      "tering": 8579,
      "Ġamis": 8580,
      "Ġguang": 8581,
      "Ġhate": 8582,
      "Ġrooms": 8583,
      "otal": 8584,
      "Ġforeigners": 8585,
      "Ġinalienable": 8586,
      "Ġoperators": 8587,
      "Ġexacerb": 8588,
      "Ġnotify": 8589,
      "Ġundcp": 8590,
      "Ġdegrees": 8591,
      "Ġfron": 8592,
      "Ġconserv": 8593,
      "Ġpapua": 8594,
      "Ġdescribes": 8595,
      "Ġlever": 8596,
      "Ġreinforcing": 8597,
      "Ġelectron": 8598,
      "Ġcali": 8599,
      "Ġcarrier": 8600,
      "Ġmonter": 8601,
      "wood": 8602,
      "tm": 8603,
      "oning": 8604,
      "Ġperceived": 8605,
      "iving": 8606,
      "Ġunaccept": 8607,
      "Ġescape": 8608,
      "Ġdiversification": 8609,
      "Ġcultivation": 8610,
      "Ġdivorce": 8611,
      "Ġlivelihoods": 8612,
      "Ġessentially": 8613,
      "Ġsupportive": 8614,
      "Ġaudience": 8615,
      "rise": 8616,
      "Ġduly": 8617,
      "Ġcalm": 8618,
      "Ġchoices": 8619,
      "Ġreminded": 8620,
      "Ġamaz": 8621,
      "Ġjesus": 8622,
      "Ġsettled": 8623,
      "Ġcourage": 8624,
      "Ġmultip": 8625,
      "Ġinvestigating": 8626,
      "Ġmarsh": 8627,
      "Ġshipment": 8628,
      "Ġregulate": 8629,
      "Ġunemployed": 8630,
      "onduc": 8631,
      "Ġdust": 8632,
      "Ġbahamas": 8633,
      "unt": 8634,
      "Ġtender": 8635,
      "Ġproven": 8636,
      "Ġroots": 8637,
      "itement": 8638,
      "Ġbaseline": 8639,
      "Ġneutral": 8640,
      "ĠÂ": 8641,
      "Ġdamaged": 8642,
      "Ġchambers": 8643,
      "lla": 8644,
      "Ġdish": 8645,
      "Ġwindows": 8646,
      "Ġenvironments": 8647,
      "Ġhorizon": 8648,
      "Ġspecify": 8649,
      "Ġretention": 8650,
      "Ġproceeding": 8651,
      "Ġportfolio": 8652,
      "Ġmonterrey": 8653,
      "iy": 8654,
      "ested": 8655,
      "Ġsmile": 8656,
      "Ġswitch": 8657,
      "Ġeverybody": 8658,
      "Ġincumb": 8659,
      "Ġproposes": 8660,
      "Ġmeets": 8661,
      "Ġbath": 8662,
      "Ġsimulation": 8663,
      "Ġsphere": 8664,
      "omon": 8665,
      "iph": 8666,
      "Ġsending": 8667,
      "Ġglad": 8668,
      "Ġcomplicated": 8669,
      "Ġpestic": 8670,
      "Ġoverl": 8671,
      "gan": 8672,
      "Ġasser": 8673,
      "Ġadvocate": 8674,
      "Ġreleases": 8675,
      "Ġpassage": 8676,
      "Ġmaln": 8677,
      "east": 8678,
      "Ġcondemned": 8679,
      "Ġwars": 8680,
      "Ġacknowledges": 8681,
      "Ġlegitimacy": 8682,
      "Ġautomatically": 8683,
      "ingly": 8684,
      "uate": 8685,
      "enger": 8686,
      "Ġcompact": 8687,
      "att": 8688,
      "ena": 8689,
      "Ġsuccession": 8690,
      "Ġpayable": 8691,
      "Ġvirtual": 8692,
      "Ġhelpful": 8693,
      "Ġadditionally": 8694,
      "hips": 8695,
      "och": 8696,
      "Ġthirteenth": 8697,
      "Ġthoughts": 8698,
      "Ġjean": 8699,
      "Ġinspec": 8700,
      "Ġefficiently": 8701,
      "Ġkilometres": 8702,
      "Ġstereotypes": 8703,
      "awa": 8704,
      "Ġgoverned": 8705,
      "regional": 8706,
      "Ġgather": 8707,
      "rating": 8708,
      "Ġece": 8709,
      "viet": 8710,
      "Ġphases": 8711,
      "Ġfallen": 8712,
      "Ġpartially": 8713,
      "Ġverify": 8714,
      "Ġaspirations": 8715,
      "Ġterri": 8716,
      "essional": 8717,
      "kyo": 8718,
      "Ġrow": 8719,
      "Ġwarrant": 8720,
      "Ġmathem": 8721,
      "Ġkids": 8722,
      "Ġinspections": 8723,
      "ente": 8724,
      "Ġtotall": 8725,
      "Ġensures": 8726,
      "Ġannouncement": 8727,
      "Ġgentle": 8728,
      "Ġsant": 8729,
      "Ġremind": 8730,
      "Ġbonds": 8731,
      "Ġcatholic": 8732,
      "Ġdecentralization": 8733,
      "Ġdeserv": 8734,
      "Ġpledged": 8735,
      "Ġutmost": 8736,
      "Ġmarry": 8737,
      "Ġinterviews": 8738,
      "Ġsoviet": 8739,
      "Ġmobilizing": 8740,
      "Ġgolan": 8741,
      "Ġhardly": 8742,
      "Ġconfron": 8743,
      "Ġtrustees": 8744,
      "Ġreverse": 8745,
      "Ġages": 8746,
      "Ġventure": 8747,
      "Ġdownload": 8748,
      "engers": 8749,
      "ticed": 8750,
      "Ġlou": 8751,
      "Ġmedicines": 8752,
      "Ġsul": 8753,
      "Ġdebris": 8754,
      "Ġborne": 8755,
      "Ġpassing": 8756,
      "Ġsettings": 8757,
      "Ġconce": 8758,
      "Ġdeposits": 8759,
      "Ġguess": 8760,
      "Ġregistrar": 8761,
      "Ġreact": 8762,
      "Ġdispro": 8763,
      "Ġdesirable": 8764,
      "ila": 8765,
      "Ġdecisive": 8766,
      "Ġpunished": 8767,
      "Ġcommends": 8768,
      "Ġrestra": 8769,
      "Ġhey": 8770,
      "itely": 8771,
      "ona": 8772,
      "Ġproud": 8773,
      "Ġnonetheless": 8774,
      "Ġcolumn": 8775,
      "Ġwalked": 8776,
      "Ġdebates": 8777,
      "Ġarbitral": 8778,
      "Ġprotective": 8779,
      "Ġmountains": 8780,
      "Ġreligions": 8781,
      "Ġdenial": 8782,
      "Ġseller": 8783,
      "Ġdimin": 8784,
      "arians": 8785,
      "mentioned": 8786,
[...]
