{
  "version": "1.0",
  "truncation": null,
  "padding": null,
  "added_tokens": [
    {
      "id": 0,
      "content": "[PAD]",
      "single_word": false,
      "lstrip": false,
      "rstrip": false,
      "normalized": false,
      "special": true
    },
    {
      "id": 1,
      "content": "[UNK]",
      "single_word": false,
      "lstrip": false,
      "rstrip": false,
      "normalized": false,
      "special": true
    },
    {
      "id": 2,
      "content": "[BOS]",
      "single_word": false,
      "lstrip": false,
      "rstrip": false,
      "normalized": false,
      "special": true
    },
    {
      "id": 3,
      "content": "[EOS]",
      "single_word": false,
      "lstrip": false,
      "rstrip": false,
      "normalized": false,
      "special": true
    }
  ],
  "normalizer": {
    "type": "Sequence",
    "normalizers": [
      {
        "type": "NFKC"
      },
      {
        "type": "StripAccents"
      },
      {
        "type": "NFD"
      },
      {
        "type": "Lowercase"
      }
    ]
  },
  "pre_tokenizer": {
    "type": "Sequence",
    "pretokenizers": [
      {
        "type": "Punctuation",
        "behavior": "Isolated"
      },
      {
        "type": "Digits",
        "individual_digits": true
      },
      {
        "type": "ByteLevel",
        "add_prefix_space": true,
        "trim_offsets": true,
        "use_regex": true
      }
    ]
  },
  "post_processor": {
    "type": "TemplateProcessing",
    "single": [
      {
        "SpecialToken": {
          "id": "[BOS]",
          "type_id": 0
        }
      },
      {
        "Sequence": {
          "id": "A",
          "type_id": 0
        }
      },
      {
        "SpecialToken": {
          "id": "[EOS]",
          "type_id": 0
        }
      }
    ],
    "pair": [
      {
        "SpecialToken": {
          "id": "[BOS]",
          "type_id": 0
        }
      },
      {
        "Sequence": {
          "id": "A",
          "type_id": 0
        }
      },
      {
        "SpecialToken": {
          "id": "[EOS]",
          "type_id": 0
        }
      },
      {
        "SpecialToken": {
          "id": "[BOS]",
          "type_id": 0
        }
      },
      {
        "Sequence": {
          "id": "B",
          "type_id": 0
        }
      },
      {
        "SpecialToken": {
          "id": "[EOS]",
          "type_id": 0
        }
      }
    ],
    "special_tokens": {
      "[BOS]": {
        "id": "[BOS]",
        "ids": [
          2
        ],
        "tokens": [
          "[BOS]"
        ]
      },
      "[EOS]": {
        "id": "[EOS]",
        "ids": [
          3
        ],
        "tokens": [
          "[EOS]"
        ]
      }
    }
  },
  "decoder": {
    "type": "ByteLevel",
    "add_prefix_space": true,
    "trim_offsets": true,
    "use_regex": true
  },
  "model": {
    "type": "BPE",
    "dropout": null,
    "unk_token": "[UNK]",
    "continuing_subword_prefix": null,
    "end_of_word_suffix": null,
    "fuse_unk": false,
    "byte_fallback": false,
    "vocab": {
      "[PAD]": 0,
      "[UNK]": 1,
      "[BOS]": 2,
      "[EOS]": 3,
      "!": 4,
      "\"": 5,
      "#": 6,
      "$": 7,
      "%": 8,
      "&": 9,
      "'": 10,
      "(": 11,
      ")": 12,
      "*": 13,
      "+": 14,
      ",": 15,
      "-": 16,
      ".": 17,
      "/": 18,
      "0": 19,
      "1": 20,
      "2": 21,
      "3": 22,
      "4": 23,
      "5": 24,
      "6": 25,
      "7": 26,
      "8": 27,
      "9": 28,
      ":": 29,
      ";": 30,
      "<": 31,
      "=": 32,
      ">": 33,
      "?": 34,
      "@": 35,
      "[": 36,
      "\\": 37,
      "]": 38,
      "^": 39,
      "_": 40,
      "`": 41,
      "a": 42,
      "b": 43,
      "c": 44,
      "d": 45,
      "e": 46,
      "f": 47,
      "g": 48,
      "h": 49,
      "i": 50,
      "j": 51,
      "k": 52,
      "l": 53,
      "m": 54,
      "n": 55,
      "o": 56,
      "p": 57,
      "q": 58,
      "r": 59,
      "s": 60,
      "t": 61,
      "u": 62,
      "v": 63,
      "w": 64,
      "x": 65,
      "y": 66,
      "z": 67,
      "{": 68,
      "|": 69,
      "}": 70,
      "~": 71,
      "¡": 72,
      "¢": 73,
      "£": 74,
      "¤": 75,
      "¥": 76,
      "¦": 77,
      "§": 78,
      "¨": 79,
      "©": 80,
      "ª": 81,
      "«": 82,
      "¬": 83,
      "®": 84,
      "¯": 85,
      "°": 86,
      "±": 87,
      "²": 88,
      "³": 89,
      "´": 90,
      "µ": 91,
      "¶": 92,
      "·": 93,
      "¸": 94,
      "¹": 95,
      "º": 96,
      "»": 97,
      "¼": 98,
      "½": 99,
      "¾": 100,
      "¿": 101,
      "Â": 102,
      "Ã": 103,
      "Ì": 104,
      "Î": 105,
      "Ï": 106,
      "Ð": 107,
      "Ñ": 108,
      "â": 109,
      "ã": 110,
      "ä": 111,
      "å": 112,
      "æ": 113,
      "ç": 114,
      "è": 115,
      "é": 116,
      "ï": 117,
      "ð": 118,
      "ĉ": 119,
      "Ċ": 120,
      "Ġ": 121,
      "ġ": 122,
      "Ģ": 123,
      "ģ": 124,
      "Ĥ": 125,
      "ĥ": 126,
      "Ħ": 127,
      "ħ": 128,
      "Ĩ": 129,
      "ĩ": 130,
      "Ī": 131,
      "ī": 132,
      "Ĭ": 133,
      "ĭ": 134,
      "Į": 135,
      "į": 136,
      "İ": 137,
      "ı": 138,
      "Ĳ": 139,
      "ĳ": 140,
      "Ĵ": 141,
      "ĵ": 142,
      "Ķ": 143,
      "ķ": 144,
      "ĸ": 145,
      "Ĺ": 146,
      "ĺ": 147,
      "Ļ": 148,
      "ļ": 149,
      "Ľ": 150,
      "ľ": 151,
      "Ŀ": 152,
      "ŀ": 153,
      "Ł": 154,
      "ł": 155,
      "Ń": 156,
      "ĠĊ": 157,
      "Ġt": 158,
      "Ġ,": 159,
      "Ġa": 160,
      "he": 161,
      "ä¸": 162,
      "Ġ.": 163,
      "in": 164,
      "ãĢ": 165,
      "ĠãĢ": 166,
      "ĠãĢĤ": 167,
      "Ġs": 168,
      "Ġthe": 169,
      "çļ": 170,
      "çļĦ": 171,
      "re": 172,
      "Ġo": 173,
      "Ġw": 174,
      "Ġå": 175,
      "äº": 176,
      "ä»": 177,
      "Ġc": 178,
      "Ġi": 179,
      "ou": 180,
      "Ġm": 181,
      "er": 182,
      "Ġb": 183,
      "on": 184,
      "at": 185,
      "Ġæ": 186,
      "an": 187,
      "ä½": 188,
      "Ġf": 189,
      "en": 190,
      "ing": 191,
      "Ġp": 192,
      "Ġd": 193,
      "Ġan": 194,
      "Ġl": 195,
      "or": 196,
      "es": 197,
      "Ġh": 198,
      "Īĳ": 199,
      "è¿": 200,
      "Ġto": 201,
      "Ġg": 202,
      "Ġin": 203,
      "Ġy": 204,
      "åı": 205,
      "æľ": 206,
      "ed": 207,
      "Ġ'": 208,
      "it": 209,
      "al": 210,
      "Ġof": 211,
      "æĺ": 212,
      "ar": 213,
      "Ġand": 214,
      "Ġth": 215,
      "is": 216,
      "Ġ?": 217,
      "Ġyou": 218,
      "å¤": 219,
      "åĲ": 220,
      "om": 221,
      "åľ": 222,
      "Ġn": 223,
      "åĪ": 224,
      "æĺ¯": 225,
      "åħ": 226,
      "ä½ł": 227,
      "äºĨ": 228,
      "ä¹": 229,
      "as": 230,
      "ä¸Ģ": 231,
      "ic": 232,
      "å®": 233,
      "ve": 234,
      "è¯": 235,
      "ä¸į": 236,
      "ll": 237,
      "Ġe": 238,
      "Ġre": 239,
      "ä¼": 240,
      "ion": 241,
      "ĠæĪĳ": 242,
      "ä»¬": 243,
      "å°": 244,
      "et": 245,
      "ç»": 246,
      "us": 247,
      "ut": 248,
      "çĶ": 249,
      "le": 250,
      "åľ¨": 251,
      "ot": 252,
      "ay": 253,
      "ent": 254,
      "åĽ": 255,
      "æĪĳ": 256,
      "è®": 257,
      "æĿ": 258,
      "äºº": 259,
      "Ġbe": 260,
      "ow": 261,
      "è¿Ļ": 262,
      "Ġ-": 263,
      "æľī": 264,
      "ly": 265,
      "Ġhe": 266,
      "å¾": 267,
      "åĬ": 268,
      "ä»ĸ": 269,
      "ĥ½": 270,
      "Ġit": 271,
      "Ġis": 272,
      "Ġon": 273,
      "æĸ": 274,
      "Ġwe": 275,
      "Ġu": 276,
      "æĹ": 277,
      "ac": 278,
      "åŃ": 279,
      "ä¸ª": 280,
      "æī": 281,
      "éĩ": 282,
      "ld": 283,
      "ro": 284,
      "Ġthat": 285,
      "å¥": 286,
      "ig": 287,
      "Ġç": 288,
      "Ġst": 289,
      "Ġfor": 290,
      "ad": 291,
      "id": 292,
      "oo": 293,
      "èĢ": 294,
      "ver": 295,
      "ä¼ļ": 296,
      "Ġä½ł": 297,
      "å·": 298,
      "å¸": 299,
      "st": 300,
      "Ġwh": 301,
      "Ġ!": 302,
      "å¼": 303,
      "åĩ": 304,
      "ä¸º": 305,
      "æĿ¥": 306,
      "im": 307,
      "åĴ": 308,
      "åį": 309,
      "Ġ0": 310,
      "è¡": 311,
      "se": 312,
      "èµ": 313,
      "æĪ": 314,
      "åº": 315,
      "ur": 316,
      "ir": 317,
      "Ġr": 318,
      "å¯": 319,
      "¦ģ": 320,
      "èĥ½": 321,
      "ct": 322,
      "åĴĮ": 323,
      "Ġha": 324,
      "ke": 325,
      "Ġso": 326,
      "è¦ģ": 327,
      "ith": 328,
      "ä¸Ĭ": 329,
      "åĨ": 330,
      "è§": 331,
      "çļĦæ": 332,
      "éĢ": 333,
      "Ġwith": 334,
      "åĽ½": 335,
      "Ġj": 336,
      "åĪ°": 337,
      "Ġå¥": 338,
      "ä»¥": 339,
      "æŃ": 340,
      "ation": 341,
      "ce": 342,
      "am": 343,
      "ä¸Ń": 344,
      "éĤ": 345,
      "åĳ": 346,
      "æĢ": 347,
      "åİ": 348,
      "æĬ": 349,
      "å¹": 350,
      "Ġme": 351,
      "æł": 352,
      "æŀ": 353,
      "Ġare": 354,
      "å¿": 355,
      "ome": 356,
      "Ġyour": 357,
      "ill": 358,
      "æĥ": 359,
      "çĽ": 360,
      "ch": 361,
      "éĤ£": 362,
      "çľ": 363,
      "Ġch": 364,
      "Ġbut": 365,
      "ä¹Ī": 366,
      "ht": 367,
      "éĹ": 368,
      "è´": 369,
      "æĶ": 370,
      "æ²": 371,
      "å¤§": 372,
      "Ġcan": 373,
      "Ġk": 374,
      "il": 375,
      "ust": 376,
      "Ġse": 377,
      "Ġne": 378,
      "Ġde": 379,
      "Ġä½": 380,
      "Ġsh": 381,
      "çİ": 382,
      "Ġas": 383,
      "èĩ": 384,
      "çī": 385,
      "her": 386,
      "Ġhave": 387,
      "åı¯": 388,
      "ter": 389,
      "Ġfr": 390,
      "ç§": 391,
      "Ġgo": 392,
      "æĹ¶": 393,
      "æĭ": 394,
      "Ġli": 395,
      "è¯´": 396,
      "æķ": 397,
      "Ġmo": 398,
      "Ġ1": 399,
      "çĿ": 400,
      "éĿ": 401,
      "Ġdo": 402,
      "å°±": 403,
      "Ġwas": 404,
      "Ġcon": 405,
      "ould": 406,
      "çĶŁ": 407,
      "åĮ": 408,
      "ist": 409,
      "Ġun": 410,
      "Ġthis": 411,
      "Ġnot": 412,
      "ight": 413,
      "op": 414,
      "ers": 415,
      "Ġä½Ĩ": 416,
      "äºĽ": 417,
      "¦Ĥ": 418,
      "ä¿": 419,
      "ment": 420,
      "ain": 421,
      "ant": 422,
      "è¿ĩ": 423,
      "ul": 424,
      "å¾Ĺ": 425,
      "éĻ": 426,
      "éģ": 427,
      "æ³": 428,
      "Ġå¥½": 429,
      "ge": 430,
      "un": 431,
      "åĩº": 432,
      "åľ°": 433,
      "å¯¹": 434,
      "ate": 435,
      "å½": 436,
      "çĿĢ": 437,
      "est": 438,
      "ess": 439,
      "Ġif": 440,
      "åŃĲ": 441,
      "Ġat": 442,
      "Ġpro": 443,
      "and": 444,
      "æĦ": 445,
      "oun": 446,
      "è¡Į": 447,
      "å¥½": 448,
      "å¤ļ": 449,
      "ol": 450,
      "ä¸ĭ": 451,
      "Ġcom": 452,
      "ri": 453,
      "Ġwor": 454,
      "Ġex": 455,
      "Ġv": 456,
      "éĩĮ": 457,
      "æ°": 458,
      "å®¶": 459,
      "çļĦç": 460,
      "Ġsu": 461,
      "çĶ¨": 462,
      "Ġ2": 463,
      "åĲĹ": 464,
      "ook": 465,
      "éĥ½": 466,
      "ç»ı": 467,
      "åİ»": 468,
      "Ġåľ": 469,
      "æİ": 470,
      "åıĳ": 471,
      "Ġby": 472,
      "ä»ĸä»¬": 473,
      "pp": 474,
      "th": 475,
      "Ġæľ": 476,
      "è°": 477,
      "åģ": 478,
      "ĠåĲ": 479,
      "ĠæĪĳä»¬": 480,
      "Ġor": 481,
      "äºĭ": 482,
      "æµ": 483,
      "èĩª": 484,
      "é¢": 485,
      "ive": 486,
      "Ġâ": 487,
      "ĠâĢ": 488,
      "ä¹Ł": 489,
      "çº": 490,
      "Ġsome": 491,
      "ab": 492,
      "äºİ": 493,
      "Ġè¿Ļ": 494,
      "Ġåľ¨": 495,
      "èĢĮ": 496,
      "ä¸Ģä¸ª": 497,
      "å±": 498,
      "åī": 499,
      "æ¬": 500,
      "Ġtr": 501,
      "åĵ": 502,
      "Ġok": 503,
      "çĲ": 504,
      "æĥ³": 505,
      "ood": 506,
      "è½": 507,
      "Ġman": 508,
      "Ġthey": 509,
      "Ġall": 510,
      "Ġfrom": 511,
      "Ġjust": 512,
      "Ġdon": 513,
      "æŀľ": 514,
      "Ġmy": 515,
      "æ¯": 516,
      "Ġokay": 517,
      "all": 518,
      "ĠãĢģ": 519,
      "çľĭ": 520,
      "Ł¥": 521,
      "Ġab": 522,
      "è¾": 523,
      "res": 524,
      "æĪĲ": 525,
      "Ġwhat": 526,
      "æ´": 527,
      "ity": 528,
      "ap": 529,
      "out": 530,
      "å¾Ī": 531,
      "art": 532,
      "Ġal": 533,
      "åĲ§": 534,
      "Ġlook": 535,
      "çŃ": 536,
      "Ġout": 537,
      "Ġget": 538,
      "çİ°": 539,
      "our": 540,
      "æ²¡": 541,
      "Ħ¶": 542,
      "è¿ĺ": 543,
      "qu": 544,
      "Ġle": 545,
      "Ġup": 546,
      "æĮ": 547,
      "ies": 548,
      "æĪĳä»¬": 549,
      "Ġus": 550,
      "å¼Ģ": 551,
      "fe": 552,
      "ort": 553,
      "end": 554,
      "mp": 555,
      "ä¹ĭ": 556,
      "éģĵ": 557,
      "ä½ľ": 558,
      "Ġma": 559,
      "Ġwill": 560,
      "æĸ¹": 561,
      "éĺ": 562,
      "os": 563,
      "ä»Ģ": 564,
      "çĤ": 565,
      "æł·": 566,
      "Ġsp": 567,
      "Ġ\"": 568,
      "åĢ": 569,
      "ĠåĪ": 570,
      "æĽ": 571,
      "Ġåı": 572,
      "red": 573,
      "è¢": 574,
      "è·": 575,
      "ard": 576,
      "åĲİ": 577,
      "one": 578,
      "ä»Ģä¹Ī": 579,
      "æ³ķ": 580,
      "èĢħ": 581,
      "Ġte": 582,
      "çĦ¶": 583,
      "ack": 584,
      "ç»Ļ": 585,
      "åŃ¦": 586,
      "ast": 587,
      "ong": 588,
      "Ġå°": 589,
      "Ġå¦Ĥ": 590,
      "Ġwhe": 591,
      "¾İ": 592,
      "Ġä¸į": 593,
      "ci": 594,
      "Ġpl": 595,
      "Ġkn": 596,
      "ie": 597,
      "åĬ¨": 598,
      "ally": 599,
      "um": 600,
      "Ġå¹": 601,
      "Ġhas": 602,
      "ä¾": 603,
      "èµ·": 604,
      "åŁ": 605,
      "åīį": 606,
      "Ġno": 607,
      "å¿ĥ": 608,
      "ç®": 609,
      "Ġthere": 610,
      "Ġé": 611,
      "å®ļ": 612,
      "Ġye": 613,
      "å°Ĩ": 614,
      "ck": 615,
      "åħ¬": 616,
      "ĠåĽ": 617,
      "åĬĽ": 618,
      "è¢«": 619,
      "Ġhis": 620,
      "ç½": 621,
      "è¿Ľ": 622,
      "æľĢ": 623,
      "åĪĨ": 624,
      "çĤ¹": 625,
      "éĿ¢": 626,
      "ren": 627,
      "Ġlo": 628,
      "if": 629,
      "è¶": 630,
      "Ġshe": 631,
      "æľº": 632,
      "ry": 633,
      "é¡": 634,
      "Ġone": 635,
      "çĪ": 636,
      "ä»İ": 637,
      "Ġgood": 638,
      "Ġlike": 639,
      "èĤ": 640,
      "Ġ:": 641,
      "å·¥": 642,
      "Ġint": 643,
      "æīĢ": 644,
      "çŁ¥": 645,
      "Ġgr": 646,
      "Ġpr": 647,
      "å§": 648,
      "el": 649,
      "ä¸ļ": 650,
      "Ġå¦Ĥæŀľ": 651,
      "åħ¶": 652,
      "ç«": 653,
      "der": 654,
      "éķ": 655,
      "åķ": 656,
      "æĦı": 657,
      "åıª": 658,
      "ure": 659,
      "Ġabout": 660,
      "ç§į": 661,
      "oug": 662,
      "æĸ¯": 663,
      "Ġknow": 664,
      "å¤©": 665,
      "Ġwould": 666,
      "ous": 667,
      "å¥¹": 668,
      "çĲĨ": 669,
      "Ġmore": 670,
      "Ġve": 671,
      "Ġar": 672,
      "iv": 673,
      "æĢ§": 674,
      "éĥ": 675,
      "king": 676,
      "åģļ": 677,
      "very": 678,
      "Ġtheir": 679,
      "ĠéĤ£": 680,
      "act": 681,
      "ag": 682,
      "Ġen": 683,
      "ud": 684,
      "ine": 685,
      "Ġoff": 686,
      "ect": 687,
      "ore": 688,
      "æģ": 689,
      "ä¸İ": 690,
      "Ġ9": 691,
      "ä¸»": 692,
      "Ġher": 693,
      "å¹´": 694,
      "è®©": 695,
      "æ±": 696,
      "éĹ´": 697,
      "Ġcomp": 698,
      "ind": 699,
      "Ġhim": 700,
      "æľ¬": 701,
      "å·²": 702,
      "Ġta": 703,
      "ĠåĲ¬": 704,
      "ound": 705,
      "æĸ°": 706,
      "å°ı": 707,
      "«ĺ": 708,
      "Ġè": 709,
      "Ġåħ": 710,
      "éĩį": 711,
      "åĪ©": 712,
      "å®ŀ": 713,
      "åĿ": 714,
      "éĥ¨": 715,
      "Ġco": 716,
      "ç©": 717,
      "æı": 718,
      "åı¯ä»¥": 719,
      "æĬĬ": 720,
      "ç³": 721,
      "Ġwho": 722,
      "Ġä»ĸ": 723,
      "çķ": 724,
      "em": 725,
      "åĲĮ": 726,
      "Ġpe": 727,
      "Ġæľī": 728,
      "Ġsa": 729,
      "æĽ´": 730,
      "ice": 731,
      "çĶµ": 732,
      "çŃī": 733,
      "æ¸": 734,
      "ĠåĽł": 735,
      "ime": 736,
      "Ġcl": 737,
      "è¯Ŀ": 738,
      "å£": 739,
      "Ġnew": 740,
      "é«ĺ": 741,
      "ther": 742,
      "åħ³": 743,
      "éľ": 744,
      "Ġå½": 745,
      "çī©": 746,
      "æĶ¿": 747,
      "hing": 748,
      "ç¾İ": 749,
      "è®¡": 750,
      "Ġag": 751,
      "age": 752,
      "Ġ5": 753,
      "Ġfe": 754,
      "éķ¿": 755,
      "åĬł": 756,
      "Ġoh": 757,
      "éĽ": 758,
      "¥¿": 759,
      "Ġbr": 760,
      "Ġthem": 761,
      "çļĦè": 762,
      "åºĶ": 763,
      "éĹ®": 764,
      "Ġæĺ": 765,
      "Ġgot": 766,
      "è¯¥": 767,
      "ä½ĵ": 768,
      "é£": 769,
      "ang": 770,
      "éĢļ": 771,
      "Ġwant": 772,
      "ç¤": 773,
      "æīĭ": 774,
      "åľº": 775,
      "æĻ": 776,
      "Ġhad": 777,
      "Ġwere": 778,
      "ame": 779,
      "ans": 780,
      "ä¿¡": 781,
      "éļ": 782,
      "æĺİ": 783,
      "Ġca": 784,
      "æŃ¤": 785,
      "Ġgu": 786,
      "Ġbeen": 787,
      "Ġå½ĵ": 788,
      "Ġam": 789,
      "ç¨": 790,
      "å¦Ĥ": 791,
      "reat": 792,
      "Ġexp": 793,
      "çŁ¥éģĵ": 794,
      "Ġad": 795,
      "æŃ£": 796,
      "Ġwa": 797,
      "æ²¡æľī": 798,
      "åĪ¶": 799,
      "å°Ķ": 800,
      "Ġany": 801,
      "å®ĥ": 802,
      "åħ¨": 803,
      "èµĦ": 804,
      "è§ģ": 805,
      "æĹł": 806,
      "ĠèĢĮ": 807,
      "äº§": 808,
      "åĳĺ": 809,
      "Ġnow": 810,
      "æį": 811,
      "Ġhere": 812,
      "ide": 813,
      "åĮĸ": 814,
      "çī¹": 815,
      "éĶ": 816,
      "å¤ĸ": 817,
      "use": 818,
      "Ġthan": 819,
      "è¡¨": 820,
      "ĠâĢľ": 821,
      "åıĬ": 822,
      "çľŁ": 823,
      "Ġright": 824,
      "ĠâĢĿ": 825,
      "éĴ": 826,
      "çĽ¸": 827,
      "èī": 828,
      "ance": 829,
      "ions": 830,
      "ven": 831,
      "è¥¿": 832,
      "Ħ¿": 833,
      "Ġå®": 834,
      "åº¦": 835,
      "ä¿Ŀ": 836,
      "å¸¸": 837,
      "å½ĵ": 838,
      "ich": 839,
      "ĠåĪ«": 840,
      "èģ": 841,
      "own": 842,
      "Ġchin": 843,
      "Ġ3": 844,
      "ace": 845,
      "æĥħ": 846,
      "Ġcont": 847,
      "å¢": 848,
      "è½¦": 849,
      "åĸ": 850,
      "å·±": 851,
      "åĽŀ": 852,
      "åı¯èĥ½": 853,
      "od": 854,
      "Ġmar": 855,
      "ount": 856,
      "Ġtime": 857,
      "åıĹ": 858,
      "Ġdis": 859,
      "ip": 860,
      "åĲĪ": 861,
      "Ġover": 862,
      "Ġpeop": 863,
      "Ġac": 864,
      "èĩªå·±": 865,
      "åĦ¿": 866,
      "ä¸ŃåĽ½": 867,
      "con": 868,
      "å¸Ĥ": 869,
      "Ġpeople": 870,
      "Ġyear": 871,
      "éĩĳ": 872,
      "è®¤": 873,
      "Ġå¹´": 874,
      "ep": 875,
      "Ġæī": 876,
      "Ġå¥¹": 877,
      "ays": 878,
      "æ¶": 879,
      "Ġother": 880,
      "iz": 881,
      "ase": 882,
      "ble": 883,
      "æ¬¡": 884,
      "ks": 885,
      "æľŁ": 886,
      "ough": 887,
      "Ġimp": 888,
      "æ¯Ķ": 889,
      "æĪĸ": 890,
      "Ġhow": 891,
      "Ġro": 892,
      "åħĭ": 893,
      "åı¸": 894,
      "Ġå¯": 895,
      "åıĺ": 896,
      "é©": 897,
      "Ġå¥½åĲ§": 898,
      "Ġwhen": 899,
      "Ġres": 900,
      "å¦": 901,
      "itt": 902,
      "æıĲ": 903,
      "ä½¿": 904,
      "è®¸": 905,
      "Ġpart": 906,
      "Ġå¤": 907,
      "Ġwait": 908,
      "ä¸įæĺ¯": 909,
      "ç¥": 910,
      "ign": 911,
      "Ġä½Ĩæĺ¯": 912,
      "Ġqu": 913,
      "ĠåĲ¬çĿĢ": 914,
      "é¢ĺ": 915,
      "ree": 916,
      "ä½į": 917,
      "Ġback": 918,
      "Ġits": 919,
      "ç¬": 920,
      "èĭ": 921,
      "Ġaf": 922,
      "Ġdid": 923,
      "èĥ": 924,
      "lo": 925,
      "æīĵ": 926,
      "Ġll": 927,
      "èĦ": 928,
      "able": 929,
      "Ġ;": 930,
      "ical": 931,
      "åĽł": 932,
      "åĨħ": 933,
      "å¥³": 934,
      "çĥ": 935,
      "ated": 936,
      "çĻ": 937,
      "åħ¥": 938,
      "ĠæĹ": 939,
      "è¿Ļä¸ª": 940,
      "ia": 941,
      "èµ°": 942,
      "ç³»": 943,
      "ç®¡": 944,
      "å»": 945,
      "Ġæĺ¯": 946,
      "Ġbec": 947,
      "Ġmake": 948,
      "Ġ4": 949,
      "çļĦäºº": 950,
      "ä»»": 951,
      "éľĢ": 952,
      "å·²ç»ı": 953,
      "èĬ": 954,
      "ç»ĵ": 955,
      "ĥı": 956,
      "çĶ±": 957,
      "Ġ8": 958,
      "Ġå°±": 959,
      "Ġour": 960,
      "ary": 961,
      "å®ī": 962,
      "è§£": 963,
      "èĪ": 964,
      "ass": 965,
      "Ġcould": 966,
      "omet": 967,
      "çł": 968,
      "Ġmany": 969,
      "Ġsee": 970,
      "ra": 971,
      "ult": 972,
      "æ°ĳ": 973,
      "ä¸ĢäºĽ": 974,
      "éĿŀ": 975,
      "çĸ": 976,
      "éħ": 977,
      "ue": 978,
      "ence": 979,
      "Ġfir": 980,
      "Ġ)": 981,
      "Ġ(": 982,
      "çģ": 983,
      "ial": 984,
      "ĠæĬ": 985,
      "ç´": 986,
      "pt": 987,
      "Ġneed": 988,
      "åºľ": 989,
      "Ġå¯¹": 990,
      "éĩı": 991,
      "åĲį": 992,
      "Ġlist": 993,
      "Ġinto": 994,
      "çĹ": 995,
      "æķ°": 996,
      "ä¸ĸ": 997,
      "Ġwhich": 998,
      "Ġthen": 999,
      "ä¸¤": 1000,
      "Ġcour": 1001,
      "ress": 1002,
      "ire": 1003,
      "ä»¶": 1004,
      "æ´»": 1005,
      "ose": 1006,
      "åĳĬ": 1007,
      "ru": 1008,
      "ings": 1009,
      "Ġsomet": 1010,
      "Ġåı¯": 1011,
      "Ġind": 1012,
      "Ġmay": 1013,
      "ber": 1014,
      "og": 1015,
      "Ġshould": 1016,
      "æ¡": 1017,
      "Ġä»ĸä»¬": 1018,
      "ä½łçļĦ": 1019,
      "Ġä¼": 1020,
      "ç±": 1021,
      "ink": 1022,
      "ĠåĽłä¸º": 1023,
      "vel": 1024,
      "orm": 1025,
      "åĲ¬": 1026,
      "ations": 1027,
      "èĲ": 1028,
      "º«": 1029,
      "Ġtw": 1030,
      "ak": 1031,
      "æĹ¥": 1032,
      "éĹ®é¢ĺ": 1033,
      "Ġapp": 1034,
      "å¤´": 1035,
      "Ġbu": 1036,
      "ä»£": 1037,
      "åħ¬åı¸": 1038,
      "Ġwork": 1039,
      "ä½ķ": 1040,
      "åĵģ": 1041,
      "Ġlet": 1042,
      "Ġpo": 1043,
      "Ġsc": 1044,
      "åĥı": 1045,
      "Ġper": 1046,
      "è£": 1047,
      "ç¦": 1048,
      "Ġunder": 1049,
      "å¹¶": 1050,
      "so": 1051,
      "Ġonly": 1052,
      "Ġ6": 1053,
      "Ġinc": 1054,
      "Ġpre": 1055,
      "åŁº": 1056,
      "åĮº": 1057,
      "æĭī": 1058,
      "ç¡": 1059,
      "Ġdown": 1060,
      "ors": 1061,
      "åĬ¡": 1062,
      "æĸĩ": 1063,
      "å¾·": 1064,
      "ade": 1065,
      "Ġä½łçļĦ": 1066,
      "Ġä»¥": 1067,
      "åĲĳ": 1068,
      "åĨį": 1069,
      "ning": 1070,
      "èİ": 1071,
      "ç»Ł": 1072,
      "ild": 1073,
      "Ġåĵ": 1074,
      "éĵ": 1075,
      "du": 1076,
      "ish": 1077,
      "Ġ7": 1078,
      "å¤ª": 1079,
      "æĦŁ": 1080,
      "na": 1081,
      "Ġbet": 1082,
      "åĢĻ": 1083,
      "éĢī": 1084,
      "å¸¦": 1085,
      "åĪ«": 1086,
      "ĠçŃ": 1087,
      "vern": 1088,
      "äº¤": 1089,
      "ä¸ľ": 1090,
      "ys": 1091,
      "èĢģ": 1092,
      "æĶ¾": 1093,
      "æĮģ": 1094,
      "ç¼": 1095,
      "Ġtoo": 1096,
      "çĽ®": 1097,
      "çĲĥ": 1098,
      "Ġcar": 1099,
      "æµİ": 1100,
      "æİ¥": 1101,
      "è®º": 1102,
      "å¤Ħ": 1103,
      "æ°´": 1104,
      "ick": 1105,
      "æī¾": 1106,
      "ite": 1107,
      "Ġgovern": 1108,
      "è¿Ĳ": 1109,
      "Ġevery": 1110,
      "éª": 1111,
      "ĠåĨ": 1112,
      "Ł³": 1113,
      "é¦": 1114,
      "äºļ": 1115,
      "lf": 1116,
      "Ġbl": 1117,
      "ah": 1118,
      "ving": 1119,
      "åŃ©": 1120,
      "other": 1121,
      "å°ĳ": 1122,
      "ition": 1123,
      "Ġcall": 1124,
      "çĭ": 1125,
      "ç»ıæµİ": 1126,
      "Ġåį": 1127,
      "Ġå¥½çļĦ": 1128,
      "è¯ī": 1129,
      "ĠçŃī": 1130,
      "å¼ı": 1131,
      "ä¸Ķ": 1132,
      "Ġlisten": 1133,
      "Ġcr": 1134,
      "ater": 1135,
      "åĳ¢": 1136,
      "per": 1137,
      "è®®": 1138,
      "èº«": 1139,
      "æľĽ": 1140,
      "Ġcomm": 1141,
      "å·¥ä½ľ": 1142,
      "å§ĭ": 1143,
      "é©¬": 1144,
      "ens": 1145,
      "ord": 1146,
      "Ġgive": 1147,
      "ub": 1148,
      "Ġrep": 1149,
      "ä»·": 1150,
      "Ġinv": 1151,
      "æł¼": 1152,
      "İä¹Ī": 1153,
      "å½±": 1154,
      "ff": 1155,
      "lic": 1156,
      "Ġfirst": 1157,
      "Ġsm": 1158,
      "è§ī": 1159,
      "ory": 1160,
      "Ġcome": 1161,
      "Ġtake": 1162,
      "å»º": 1163,
      "Ġpol": 1164,
      "éľĢè¦ģ": 1165,
      "æķĻ": 1166,
      "Ġsay": 1167,
      "wn": 1168,
      "æŃ»": 1169,
      "ach": 1170,
      "Ġcourse": 1171,
      "cial": 1172,
      "çķĮ": 1173,
      "Ġgovernment": 1174,
      "çĽ´": 1175,
      "åĩł": 1176,
      "ction": 1177,
      "Ġmost": 1178,
      "Ġåĳ": 1179,
      "Ġtwo": 1180,
      "æ»": 1181,
      "å°±æĺ¯": 1182,
      "Ġjo": 1183,
      "Ġalso": 1184,
      "Ġcount": 1185,
      "Ġfl": 1186,
      "Ġla": 1187,
      "Ġlong": 1188,
      "Ġway": 1189,
      "ç¨ĭ": 1190,
      "Ġbo": 1191,
      "Ġrec": 1192,
      "æ°Ķ": 1193,
      "è¿ĻäºĽ": 1194,
      "èį": 1195,
      "ĠæĬĬ": 1196,
      "we": 1197,
      "Ġå½ĵçĦ¶": 1198,
      "Ġche": 1199,
      "Ġchina": 1200,
      "ile": 1201,
      "åĨ³": 1202,
      "å±ķ": 1203,
      "è¯ģ": 1204,
      "å¹³": 1205,
      "éĢł": 1206,
      "Ġå¾": 1207,
      "ince": 1208,
      "ä»Ĭ": 1209,
      "Ġsaid": 1210,
      "ting": 1211,
      "åħĪ": 1212,
      "Ġwell": 1213,
      "Ġke": 1214,
      "åı£": 1215,
      "Ġeven": 1216,
      "å¤±": 1217,
      "tern": 1218,
      "Ġvery": 1219,
      "çİ°åľ¨": 1220,
      "Ġgreat": 1221,
      "Ġgoing": 1222,
      "Ġworld": 1223,
      "æĪĳçļĦ": 1224,
      "Ġspe": 1225,
      "ise": 1226,
      "å£«": 1227,
      "çĬ": 1228,
      "è¾¾": 1229,
      "Ġsomething": 1230,
      "æ£": 1231,
      "ĠæĪ": 1232,
      "Ġuh": 1233,
      "è®¾": 1234,
      "è±": 1235,
      "æĹ¶åĢĻ": 1236,
      "èī²": 1237,
      "çĪ±": 1238,
      "Ġagain": 1239,
      "Ġhel": 1240,
      "å¸®": 1241,
      "ç¤º": 1242,
      "ian": 1243,
      "Ġtal": 1244,
      "è·Ł": 1245,
      "Ġsy": 1246,
      "ves": 1247,
      "è¿Ļæł·": 1248,
      "Ġtell": 1249,
      "æ·": 1250,
      "Ġlitt": 1251,
      "å¿«": 1252,
      "Ġhig": 1253,
      "æĬ¥": 1254,
      "rent": 1255,
      "æ±Ĥ": 1256,
      "hed": 1257,
      "Ġacc": 1258,
      "Ġlittle": 1259,
      "æĶ¿åºľ": 1260,
      "æĶ¶": 1261,
      "ail": 1262,
      "èĩ³": 1263,
      "ä¹ī": 1264,
      "åĽ½å®¶": 1265,
      "ved": 1266,
      "å¿ħ": 1267,
      "ä¸ī": 1268,
      "Ġmin": 1269,
      "Ġwhere": 1270,
      "æĿĥ": 1271,
      "åķĨ": 1272,
      "Ġthese": 1273,
      "è·¯": 1274,
      "urn": 1275,
      "ä¸įä¼ļ": 1276,
      "æľį": 1277,
      "ĠçŃīçŃī": 1278,
      "are": 1279,
      "è¶Ĭ": 1280,
      "Ġhelp": 1281,
      "Ġmu": 1282,
      "åıį": 1283,
      "æŁ": 1284,
      "éĹ¨": 1285,
      "æĺĵ": 1286,
      "å®Į": 1287,
      "Ġthink": 1288,
      "ious": 1289,
      "de": 1290,
      "æľ¯": 1291,
      "ç¾İåĽ½": 1292,
      "ç«ĭ": 1293,
      "iss": 1294,
      "conom": 1295,
      "æģ¯": 1296,
      "æĪĺ": 1297,
      "Ġå¼": 1298,
      "ates": 1299,
      "ĠæĪĳåıª": 1300,
      "Ġser": 1301,
      "get": 1302,
      "æ¼": 1303,
      "æĤ": 1304,
      "è¿ĳ": 1305,
      "ft": 1306,
      "form": 1307,
      "Ġthr": 1308,
      "æĢ»": 1309,
      "Ġeconom": 1310,
      "Ġçİ": 1311,
      "åĶ": 1312,
      "æ²»": 1313,
      "ese": 1314,
      "åŀ": 1315,
      "Ġfin": 1316,
      "Ġçľ": 1317,
      "å¤ĩ": 1318,
      "å¯¼": 1319,
      "éļ¾": 1320,
      "ces": 1321,
      "Ġph": 1322,
      "Ġmon": 1323,
      "åıĸ": 1324,
      "Ġgen": 1325,
      "Ġfu": 1326,
      "æĹ¶éĹ´": 1327,
      "ict": 1328,
      "ather": 1329,
      "Ń¦": 1330,
      "è¯ķ": 1331,
      "Ġrel": 1332,
      "å¨": 1333,
      "Ġdoes": 1334,
      "Ġfo": 1335,
      "ç±»": 1336,
      "ä¸įèĥ½": 1337,
      "ody": 1338,
      "Ġlife": 1339,
      "åĪļ": 1340,
      "å¸ĥ": 1341,
      "les": 1342,
      "Ġact": 1343,
      "æµ·": 1344,
      "Ġcons": 1345,
      "å¼Ģå§ĭ": 1346,
      "Ġsince": 1347,
      "ĠæīĢ": 1348,
      "ç¦»": 1349,
      "ket": 1350,
      "åĪ°äºĨ": 1351,
      "ç©¶": 1352,
      "èģĶ": 1353,
      "åıĭ": 1354,
      "int": 1355,
      "Ġmuch": 1356,
      "æŁ¥": 1357,
      "ä½łä»¬": 1358,
      "è®°": 1359,
      "åķĬ": 1360,
      "äº²": 1361,
      "è´¹": 1362,
      "è®¤ä¸º": 1363,
      "way": 1364,
      "Ġwr": 1365,
      "ç²": 1366,
      "é»": 1367,
      "è°ĥ": 1368,
      "Ġyeah": 1369,
      "çļĦæĺ¯": 1370,
      "æĮĩ": 1371,
      "Ġreg": 1372,
      "æīį": 1373,
      "åįķ": 1374,
      "åĬ©": 1375,
      "åİŁ": 1376,
      "ady": 1377,
      "Ġdes": 1378,
      "Ġå¹¶": 1379,
      "å¹²": 1380,
      "pe": 1381,
      "ç»Ħ": 1382,
      "ents": 1383,
      "éĺŁ": 1384,
      "erm": 1385,
      "Ġear": 1386,
      "ool": 1387,
      "å·´": 1388,
      "Ġyears": 1389,
      "Ġhand": 1390,
      "ert": 1391,
      "è§Ĩ": 1392,
      "ç¡®": 1393,
      "ä½ı": 1394,
      "Ġgon": 1395,
      "av": 1396,
      "çļĦä¸Ģ": 1397,
      "å¢ŀ": 1398,
      "ily": 1399,
      "fect": 1400,
      "æĪ¿": 1401,
      "åĨĽ": 1402,
      "çº¦": 1403,
      "ty": 1404,
      "day": 1405,
      "æ¬¢": 1406,
      "cess": 1407,
      "èĻ": 1408,
      "ä¸ĸçķĮ": 1409,
      "fore": 1410,
      "æ¶Ī": 1411,
      "ower": 1412,
      "å¼º": 1413,
      "Ġatt": 1414,
      "Ġafter": 1415,
      "åĻ": 1416,
      "ä¹Ĳ": 1417,
      "Ġgonna": 1418,
      "éĶĻ": 1419,
      "å®ĺ": 1420,
      "Ġbus": 1421,
      "åıĪ": 1422,
      "ational": 1423,
      "å¸Į": 1424,
      "ĠæĢ": 1425,
      "Ġho": 1426,
      "Ġlast": 1427,
      "äºī": 1428,
      "Ġhapp": 1429,
      "æº": 1430,
      "Ġfun": 1431,
      "å¤Ł": 1432,
      "éĴ±": 1433,
      "ating": 1434,
      "Ġday": 1435,
      "åĩĨ": 1436,
      "ä¾Ľ": 1437,
      "Ġreally": 1438,
      "Ġdec": 1439,
      "æĢİä¹Ī": 1440,
      "Ġold": 1441,
      "èµ·æĿ¥": 1442,
      "è§Ĥ": 1443,
      "Ķç©¶": 1444,
      "Ġmr": 1445,
      "é£İ": 1446,
      "æĶ¹": 1447,
      "¨Ģ": 1448,
      "æĿ¡": 1449,
      "ç§ĳ": 1450,
      "æĬķ": 1451,
      "Ġstill": 1452,
      "Ġthose": 1453,
      "æµģ": 1454,
      "Ġrem": 1455,
      "self": 1456,
      "Ġå®ĥ": 1457,
      "è¿Ľè¡Į": 1458,
      "ds": 1459,
      "æľĪ": 1460,
      "Ġob": 1461,
      "è§Ħ": 1462,
      "ange": 1463,
      "ug": 1464,
      "ĠæľĢ": 1465,
      "åĸľ": 1466,
      "åĳ½": 1467,
      "æĭħ": 1468,
      "ause": 1469,
      "åĳ¨": 1470,
      "Ġä¸º": 1471,
      "ities": 1472,
      "åħĥ": 1473,
      "æ®": 1474,
      "ought": 1475,
      "é¢Ĩ": 1476,
      "Ġsuch": 1477,
      "å£°": 1478,
      "Ġä½łèĥ½": 1479,
      "vers": 1480,
      "è¾¹": 1481,
      "è®¸å¤ļ": 1482,
      "æį®": 1483,
      "Ġim": 1484,
      "Ġä¸Ģ": 1485,
      "çĻ½": 1486,
      "Ġban": 1487,
      "Ġ%": 1488,
      "ying": 1489,
      "æ¡Ī": 1490,
      "ĠåĨį": 1491,
      "Ġown": 1492,
      "çĶ·": 1493,
      "åĵį": 1494,
      "Ġmarket": 1495,
      "oss": 1496,
      "ä¼ł": 1497,
      "è¿ľ": 1498,
      "Ġæ¯": 1499,
      "ful": 1500,
      "Ġwhy": 1501,
      "Ġwar": 1502,
      "ied": 1503,
      "Ġcompan": 1504,
      "Ġcause": 1505,
      "Ġbel": 1506,
      "åħ°": 1507,
      "éĻħ": 1508,
      "è±¡": 1509,
      "å²": 1510,
      "è°¢": 1511,
      "olog": 1512,
      "ä»ĸçļĦ": 1513,
      "æĶ¯": 1514,
      "Ġæ²": 1515,
      "Ġbig": 1516,
      "è¯·": 1517,
      "thing": 1518,
      "è¨Ģ": 1519,
      "Ġsl": 1520,
      "åŃĺ": 1521,
      "å°¼": 1522,
      "Ġmade": 1523,
      "è°Ī": 1524,
      "Ġlove": 1525,
      "eric": 1526,
      "Ġpres": 1527,
      "é¡¹": 1528,
      "Ġbecause": 1529,
      "çļĦäºĭ": 1530,
      "Ġdif": 1531,
      "Ġbefore": 1532,
      "éĻ©": 1533,
      "Ġem": 1534,
      "ç½Ĺ": 1535,
      "ual": 1536,
      "ave": 1537,
      "Ġstr": 1538,
      "ced": 1539,
      "æĿĢ": 1540,
      "é¥": 1541,
      "åĻ¨": 1542,
      "Ġthrough": 1543,
      "Ġput": 1544,
      "æľª": 1545,
      "æĭ¿": 1546,
      "åĪĴ": 1547,
      "Ġwom": 1548,
      "è½¬": 1549,
      "ä¹¦": 1550,
      "æĳ": 1551,
      "ĠæīĢä»¥": 1552,
      "Ġent": 1553,
      "Ġpers": 1554,
      "ons": 1555,
      "åĪĩ": 1556,
      "Ġcap": 1557,
      "å½¢": 1558,
      "oney": 1559,
      "Ġfind": 1560,
      "éĢļè¿ĩ": 1561,
      "Ġhigh": 1562,
      "åĪĻ": 1563,
      "ath": 1564,
      "ç¬¬": 1565,
      "ouse": 1566,
      "å¼ķ": 1567,
      "ç®Ĺ": 1568,
      "Ġcent": 1569,
      "æĴ": 1570,
      "æĺŁ": 1571,
      "ĠçĽ": 1572,
      "åĩ»": 1573,
      "iness": 1574,
      "velop": 1575,
      "æ´²": 1576,
      "è¯Ń": 1577,
      "å¤į": 1578,
      "æĲ": 1579,
      "æŃ¢": 1580,
      "Ġins": 1581,
      "Ġameric": 1582,
      "è´¨": 1583,
      "ib": 1584,
      "Ġå¿": 1585,
      "amp": 1586,
      "æłĩ": 1587,
      "ħ§": 1588,
      "ä¸ľè¥¿": 1589,
      "Ġåĩ": 1590,
      "Ġshow": 1591,
      "ç©º": 1592,
      "åºĶè¯¥": 1593,
      "ç¥ŀ": 1594,
      "xt": 1595,
      "stem": 1596,
      "åĽ¾": 1597,
      "oth": 1598,
      "çİĩ": 1599,
      "çĹħ": 1600,
      "é¢Ħ": 1601,
      "åĨµ": 1602,
      "Ġä»İ": 1603,
      "åŃĹ": 1604,
      "Ġuse": 1605,
      "Ġstud": 1606,
      "åįģ": 1607,
      "Ġåģ": 1608,
      "Ġnever": 1609,
      "Ġdr": 1610,
      "Ġå·": 1611,
      "Ġsur": 1612,
      "atch": 1613,
      "Ġfam": 1614,
      "å¸Ĥåľº": 1615,
      "äºĮ": 1616,
      "Ġdevelop": 1617,
      "æļ": 1618,
      "çĮ": 1619,
      "åĮħ": 1620,
      "åħī": 1621,
      "éĻ¤": 1622,
      "Ġev": 1623,
      "åĲĥ": 1624,
      "Ġprodu": 1625,
      "åĭ": 1626,
      "Ġend": 1627,
      "è£ħ": 1628,
      "imes": 1629,
      "Ġçİ°": 1630,
      "åħ¶ä»ĸ": 1631,
      "Ġsystem": 1632,
      "ments": 1633,
      "ä»½": 1634,
      "åŃ©åŃĲ": 1635,
      "ç»Ń": 1636,
      "åĬŀ": 1637,
      "åħ·": 1638,
      "Ġstart": 1639,
      "å¡": 1640,
      "åŁİ": 1641,
      "ä¹İ": 1642,
      "ç§°": 1643,
      "Ġhome": 1644,
      "Ġfact": 1645,
      "Ġass": 1646,
      "éĤ£äºĽ": 1647,
      "ä½İ": 1648,
      "æĢĿ": 1649,
      "Ġele": 1650,
      "Ġsupp": 1651,
      "åĳĬè¯ī": 1652,
      "ç»´": 1653,
      "è¯Ĩ": 1654,
      "Ġeu": 1655,
      "Ġgir": 1656,
      "ä¹°": 1657,
      "ms": 1658,
      "Ġfore": 1659,
      "æĺ¾": 1660,
      "å©": 1661,
      "æ¸ħ": 1662,
      "æīĢæľī": 1663,
      "Ġthing": 1664,
      "èĭ±": 1665,
      "Ġinvest": 1666,
      "Ġchild": 1667,
      "æŃ¥": 1668,
      "å¤«": 1669,
      "åŀĭ": 1670,
      "åıĳçİ°": 1671,
      "ics": 1672,
      "li": 1673,
      "Ġnight": 1674,
      "çīĩ": 1675,
      "ç¢": 1676,
      "cy": 1677,
      "éĺ¿": 1678,
      "éĻ¢": 1679,
      "ĠåĽłæŃ¤": 1680,
      "å¸Ī": 1681,
      "Ġchinese": 1682,
      "å®¢": 1683,
      "als": 1684,
      "èĩ´": 1685,
      "æĻļ": 1686,
      "éĵ¶": 1687,
      "Ġç¾İ": 1688,
      "éĩįè¦ģ": 1689,
      "ä»»ä½ķ": 1690,
      "çĶŁæ´»": 1691,
      "oup": 1692,
      "è¿ĺæĺ¯": 1693,
      "Ġä¹Ł": 1694,
      "Ġwon": 1695,
      "èħ": 1696,
      "ject": 1697,
      "iend": 1698,
      "ç»ĻæĪĳ": 1699,
      "åıĳçĶŁ": 1700,
      "Ġreal": 1701,
      "Ġfriend": 1702,
      "åħ±": 1703,
      "Ġchar": 1704,
      "åľ¨è¿Ļ": 1705,
      "æŀģ": 1706,
      "ix": 1707,
      "å®³": 1708,
      "çª": 1709,
      "ĠæľĪ": 1710,
      "ä»¤": 1711,
      "æŀĦ": 1712,
      "è¿ĺæľī": 1713,
      "ĠéĤ£ä¹Ī": 1714,
      "å½±åĵį": 1715,
      "Ġmoney": 1716,
      "é¡»": 1717,
      "Ġinte": 1718,
      "Ġå¾Ī": 1719,
      "Ķ¿": 1720,
      "Ġå¦Ĥæŀľä½ł": 1721,
      "ative": 1722,
      "åĲĦ": 1723,
      "Ġgener": 1724,
      "Ġsomeone": 1725,
      "its": 1726,
      "åĵª": 1727,
      "æķ´": 1728,
      "åľ°æĸ¹": 1729,
      "ç½ĳ": 1730,
      "Ġsch": 1731,
      "ä»ħ": 1732,
      "ä¸Ģæł·": 1733,
      "æĬ¤": 1734,
      "ä¸Ģä¸ĭ": 1735,
      "Ġsec": 1736,
      "ç¤¾": 1737,
      "æķĪ": 1738,
      "çº¿": 1739,
      "ĭåıĭ": 1740,
      "Ġsim": 1741,
      "Ġple": 1742,
      "çļĦè¯Ŀ": 1743,
      "æ¯ı": 1744,
      "Ġop": 1745,
      "be": 1746,
      "åĸľæ¬¢": 1747,
      "Ġçľĭ": 1748,
      "ually": 1749,
      "Ġfar": 1750,
      "ä¾¿": 1751,
      "Ġform": 1752,
      "æĹ©": 1753,
      "é£Ł": 1754,
      "è¶³": 1755,
      "æ¨": 1756,
      "åĮ»": 1757,
      "éŁ³": 1758,
      "çļĦæĹ¶åĢĻ": 1759,
      "èĬ±": 1760,
      "Ġfound": 1761,
      "Ġplay": 1762,
      "Ġfeel": 1763,
      "åĢ¼": 1764,
      "å¦Ī": 1765,
      "Ġsub": 1766,
      "ä¸¾": 1767,
      "Ġbeing": 1768,
      "åį¡": 1769,
      "Ġkeep": 1770,
      "ible": 1771,
      "çĪ¸": 1772,
      "çŁ": 1773,
      "ä¸ĩ": 1774,
      "å®¹": 1775,
      "Ġhouse": 1776,
      "ward": 1777,
      "å¸ĮæľĽ": 1778,
      "Ġæ³": 1779,
      "ures": 1780,
      "èĬĤ": 1781,
      "uc": 1782,
      "Ġlaw": 1783,
      "oc": 1784,
      "hes": 1785,
      "Ġdep": 1786,
      "éĢŁ": 1787,
      "Ġinst": 1788,
      "æ¬§": 1789,
      "ute": 1790,
      "Ġmor": 1791,
      "è¿Ļä¹Ī": 1792,
      "éĽĨ": 1793,
      "Ġaround": 1794,
      "ism": 1795,
      "åıĳå±ķ": 1796,
      "ility": 1797,
      "Ġåĳĥ": 1798,
      "æ³¨": 1799,
      "Ġide": 1800,
      "Ġwithout": 1801,
      "æĸŃ": 1802,
      "Ġaway": 1803,
      "Ġbusiness": 1804,
      "rest": 1805,
      "ular": 1806,
      "gr": 1807,
      "Ġthree": 1808,
      "å¢ĥ": 1809,
      "Ġgirl": 1810,
      "Ġdidn": 1811,
      "äºĨä¸Ģ": 1812,
      "Ġgrow": 1813,
      "Ġset": 1814,
      "Ġmust": 1815,
      "åį´": 1816,
      "éħĴ": 1817,
      "åįİ": 1818,
      "æľĭåıĭ": 1819,
      "Ġplan": 1820,
      "å±Ģ": 1821,
      "Ġçİ°åľ¨": 1822,
      "Ġmet": 1823,
      "éĿŀå¸¸": 1824,
      "Ġtrans": 1825,
      "æºĲ": 1826,
      "ited": 1827,
      "èŃ¦": 1828,
      "åı«": 1829,
      "body": 1830,
      "æĬĢ": 1831,
      "å¾Ģ": 1832,
      "Ġoffic": 1833,
      "Ġlead": 1834,
      "Ġåĵ¦": 1835,
      "Ġkill": 1836,
      "Ġeuro": 1837,
      "Ġæĸ": 1838,
      "kes": 1839,
      "åħļ": 1840,
      "Ġloc": 1841,
      "å¾ĭ": 1842,
      "air": 1843,
      "æİ§": 1844,
      "Ġå¸": 1845,
      "ç¾": 1846,
      "å®¤": 1847,
      "æĪĲä¸º": 1848,
      "Ġgod": 1849,
      "çı": 1850,
      "çľ¼": 1851,
      "åħ´": 1852,
      "åĪĹ": 1853,
      "æĸ½": 1854,
      "Ġunt": 1855,
      "äººä»¬": 1856,
      "Ġcle": 1857,
      "è®¡åĪĴ": 1858,
      "Ġmed": 1859,
      "Ġz": 1860,
      "Ġimport": 1861,
      "éªĮ": 1862,
      "å¯Ĩ": 1863,
      "å¤§çļĦ": 1864,
      "åł": 1865,
      "Ġä½łä»¬": 1866,
      "ĠæĪĸ": 1867,
      "çłĶç©¶": 1868,
      "Ġæľīäºº": 1869,
      "ness": 1870,
      "ital": 1871,
      "æŀĹ": 1872,
      "ution": 1873,
      "Ġcor": 1874,
      "ident": 1875,
      "Ġdem": 1876,
      "è§īå¾Ĺ": 1877,
      "åĬŁ": 1878,
      "æĸĻ": 1879,
      "èĢĥ": 1880,
      "Ġsign": 1881,
      "çŃĸ": 1882,
      "çĶµè¯Ŀ": 1883,
      "Ġå¤§": 1884,
      "Ġjob": 1885,
      "led": 1886,
      "äººçļĦ": 1887,
      "Ġbetter": 1888,
      "èĮ": 1889,
      "Ġproble": 1890,
      "Ġret": 1891,
      "Ġrun": 1892,
      "ween": 1893,
      "æħ": 1894,
      "çģ«": 1895,
      "Ġperson": 1896,
      "å·ŀ": 1897,
      "èµĽ": 1898,
      "Ġmight": 1899,
      "Ġbetween": 1900,
      "å¼ł": 1901,
      "åĪĽ": 1902,
      "è¿Ļç§į": 1903,
      "Ġbelie": 1904,
      "Ġæ²¡": 1905,
      "Ġpar": 1906,
      "Ġthings": 1907,
      "éĵ¶è¡Į": 1908,
      "Ġtalk": 1909,
      "Ġpub": 1910,
      "ä¸Ģèµ·": 1911,
      "çħ§": 1912,
      "ä¼¤": 1913,
      "èİ·": 1914,
      "æ²¹": 1915,
      "Ġboth": 1916,
      "ä¼ģ": 1917,
      "éĤ£ä¸ª": 1918,
      "éĥ½æĺ¯": 1919,
      "Ġbas": 1920,
      "åĽ¢": 1921,
      "Ġhead": 1922,
      "Ġadd": 1923,
      "Ġstate": 1924,
      "çķĻ": 1925,
      "éĥ¨åĪĨ": 1926,
      "Ġcare": 1927,
      "Ġguys": 1928,
      "è°ģ": 1929,
      "ä¼¼": 1930,
      "hip": 1931,
      "åĺ": 1932,
      "Ġprov": 1933,
      "åį±": 1934,
      "Ġheard": 1935,
      "Ġce": 1936,
      "Ġeng": 1937,
      "æ¨¡": 1938,
      "Ļè®¡": 1939,
      "gg": 1940,
      "æĿ¥çļĦ": 1941,
      "ĠèĢĮä¸Ķ": 1942,
      "æ¢": 1943,
      "ices": 1944,
      "åĽĽ": 1945,
      "Ġhard": 1946,
      "åİĨ": 1947,
      "ars": 1948,
      "è´§": 1949,
      "æ»¡": 1950,
      "ç»Ī": 1951,
      "Ġnext": 1952,
      "é²": 1953,
      "ä¸Ģæ¬¡": 1954,
      "ĠæĪĳæĥ³": 1955,
      "çļĦæķ": 1956,
      "é¦ĸ": 1957,
      "çº§": 1958,
      "ĠåĴ": 1959,
      "Ġinter": 1960,
      "åĲ¦": 1961,
      "Ġdiffe": 1962,
      "Ġmain": 1963,
      "pect": 1964,
      "ric": 1965,
      "Ġinf": 1966,
      "è¶ħ": 1967,
      "Ġgiv": 1968,
      "åıĤ": 1969,
      "Ġdef": 1970,
      "land": 1971,
      "Ġcoll": 1972,
      "ond": 1973,
      "è´£": 1974,
      "æıĲä¾Ľ": 1975,
      "å¾Īå¤ļ": 1976,
      "å§Ĩ": 1977,
      "Ġschool": 1978,
      "ists": 1979,
      "Ġel": 1980,
      "ries": 1981,
      "Ġtom": 1982,
      "ĠæĿ": 1983,
      "Ġanother": 1984,
      "ä¸ĵ": 1985,
      "æ¬¾": 1986,
      "æ¸¸": 1987,
      "èĤ²": 1988,
      "åĩı": 1989,
      "èĳ": 1990,
      "å±±": 1991,
      "Ġpower": 1992,
      "Ġhum": 1993,
      "Ġwee": 1994,
      "Ġlot": 1995,
      "Ġstop": 1996,
      "ä»į": 1997,
      "ä¼Ĺ": 1998,
      "less": 1999,
      "æł¹": 2000,
      "ä¸ĢçĽ´": 2001,
      "ten": 2002,
      "Ġå¥³": 2003,
      "ways": 2004,
      "Ġintern": 2005,
      "åı°": 2006,
      "å¿ħé¡»": 2007,
      "Ġä¼Ļè®¡": 2008,
      "Ġsk": 2009,
      "ĠæĽ": 2010,
      "çİ¯": 2011,
      "Ġcountry": 2012,
      "Ġcur": 2013,
      "Ġlar": 2014,
      "ner": 2015,
      "Ġplace": 2016,
      "Ġfew": 2017,
      "èı": 2018,
      "ried": 2019,
      "è½»": 2020,
      "èĤ¡": 2021,
      "Ġtech": 2022,
      "æĭħå¿ĥ": 2023,
      "ters": 2024,
      "Ġwater": 2025,
      "éĻĲ": 2026,
      "Ġnum": 2027,
      "ific": 2028,
      "æł¡": 2029,
      "Ġed": 2030,
      "æĺ¯ä¸ª": 2031,
      "Ġturn": 2032,
      "¿Ģ": 2033,
      "Ġaut": 2034,
      "erg": 2035,
      "æŃ£åľ¨": 2036,
      "æĪ·": 2037,
      "è¡Ģ": 2038,
      "Ġsmall": 2039,
      "åįĹ": 2040,
      "èŀ": 2041,
      "Ġplease": 2042,
      "ç«Ļ": 2043,
      "Ġext": 2044,
      "gan": 2045,
      "éĩĩ": 2046,
      "Ġåħ¶": 2047,
      "æ¼Ķ": 2048,
      "å¯Ł": 2049,
      "æµĭ": 2050,
      "Ġbre": 2051,
      "uck": 2052,
      "ĠæŃ": 2053,
      "row": 2054,
      "ately": 2055,
      "éº": 2056,
      "Ġdisc": 2057,
      "Ġwhile": 2058,
      "Ġval": 2059,
      "åĽłä¸º": 2060,
      "åĮĹ": 2061,
      "ä¼ģä¸ļ": 2062,
      "é£ŀ": 2063,
      "ne": 2064,
      "è¿Ļä¸Ģ": 2065,
      "ä¸¥": 2066,
      "Ġused": 2067,
      "lud": 2068,
      "ä½¿çĶ¨": 2069,
      "Ġhear": 2070,
      "åĨĻ": 2071,
      "ç»Ŀ": 2072,
      "æ¥": 2073,
      "æİī": 2074,
      "å¯Į": 2075,
      "Ġpay": 2076,
      "ä¸Ģç§į": 2077,
      "Ġèĭ": 2078,
      "ger": 2079,
      "Ġemp": 2080,
      "æī¿": 2081,
      "ä¸»ä¹ī": 2082,
      "ä¾ĭ": 2083,
      "Ġhop": 2084,
      "çĽĬ": 2085,
      "åħ³ç³»": 2086,
      "llow": 2087,
      "åºķ": 2088,
      "Ġkid": 2089,
      "ffect": 2090,
      "ä¸įåĲĮ": 2091,
      "ĠæĹ¥": 2092,
      "¬¬": 2093,
      "Ġsame": 2094,
      "ĠçĦ¶": 2095,
      "äºĶ": 2096,
      "åĤ": 2097,
      "Ġfather": 2098,
      "æİ¨": 2099,
      "è¾ĥ": 2100,
      "å¾ħ": 2101,
      "çļĦæĬ": 2102,
      "cept": 2103,
      "çļĦæĥ": 2104,
      "Ġopen": 2105,
      "ç²¾": 2106,
      "Ġå¿«": 2107,
      "ç»Ĩ": 2108,
      "ash": 2109,
      "åĩºæĿ¥": 2110,
      "Ġconf": 2111,
      "Ġprot": 2112,
      "Ġpa": 2113,
      "è´¢": 2114,
      "ret": 2115,
      "pr": 2116,
      "æĸ¹éĿ¢": 2117,
      "çĪ¶": 2118,
      "Ġeffect": 2119,
      "ä¹ħ": 2120,
      "Ġrest": 2121,
      "ç»ĩ": 2122,
      "ç½®": 2123,
      "Ġdist": 2124,
      "Ġè¿Ļä¸ª": 2125,
      "ä»ĺ": 2126,
      "å¥ĩ": 2127,
      "Ġmonth": 2128,
      "æĦ¿": 2129,
      "Ġmen": 2130,
      "ĠæĪĳä¸į": 2131,
      "Ġå°ı": 2132,
      "ç´ł": 2133,
      "Ġalways": 2134,
      "å¨ģ": 2135,
      "çľĭåĪ°": 2136,
      "ç¥¨": 2137,
      "ss": 2138,
      "Ġwomen": 2139,
      "ets": 2140,
      "Ġless": 2141,
      "åįĩ": 2142,
      "Ġsure": 2143,
      "éĻį": 2144,
      "ling": 2145,
      "ç´§": 2146,
      "ale": 2147,
      "ready": 2148,
      "Ġuntil": 2149,
      "Ġask": 2150,
      "ç»§": 2151,
      "Ġä¸ŃåĽ½": 2152,
      "Ġä¸ĢäºĽ": 2153,
      "çİ©": 2154,
      "Ġalready": 2155,
      "æĢģ": 2156,
      "alth": 2157,
      "æ´¾": 2158,
      "Ġtechn": 2159,
      "èĦĳ": 2160,
      "ants": 2161,
      "Ġsw": 2162,
      "ä¸ŃçļĦ": 2163,
      "çĬ¯": 2164,
      "Ġdet": 2165,
      "uring": 2166,
      "Ġpolit": 2167,
      "ç»Ļä½ł": 2168,
      "Ġpri": 2169,
      "up": 2170,
      "åı²": 2171,
      "æ¿Ģ": 2172,
      "åĬ¿": 2173,
      "åİĭ": 2174,
      "å©ļ": 2175,
      "Ġris": 2176,
      "Ġè¦ģ": 2177,
      "ä¸»è¦ģ": 2178,
      "èĽ": 2179,
      "Ġmiss": 2180,
      "Ġfour": 2181,
      "Ġmean": 2182,
      "Ġè¿ĻäºĽ": 2183,
      "Ġnews": 2184,
      "éĺ²": 2185,
      "å¥½çļĦ": 2186,
      "çŁ³": 2187,
      "èŀį": 2188,
      "ä¹ł": 2189,
      "Ġcontro": 2190,
      "Ġcity": 2191,
      "Ġeas": 2192,
      "èĲ¥": 2193,
      "æĬķèµĦ": 2194,
      "Ġhappen": 2195,
      "Ġleft": 2196,
      "Ġfamily": 2197,
      "èĩªå·±çļĦ": 2198,
      "Ġgl": 2199,
      "éĢģ": 2200,
      "æ¯į": 2201,
      "Ġsecon": 2202,
      "æİĴ": 2203,
      "ĠåĮ": 2204,
      "Ġdoing": 2205,
      "Ġstand": 2206,
      "Ġcase": 2207,
      "çĽĳ": 2208,
      "èĥ½å¤Ł": 2209,
      "Ġagainst": 2210,
      "é¡¿": 2211,
      "ural": 2212,
      "Ġseem": 2213,
      "Ġthought": 2214,
      "åģľ": 2215,
      "æ·±": 2216,
      "Ġmove": 2217,
      "ock": 2218,
      "iew": 2219,
      "Ġart": 2220,
      "Ġä¼ļ": 2221,
      "å¥¥": 2222,
      "Ġindust": 2223,
      "Ġair": 2224,
      "ç¿": 2225,
      "Ġdri": 2226,
      "ĠæĻ": 2227,
      "æĭ©": 2228,
      "Ġleg": 2229,
      "åĿı": 2230,
      "è¯Ħ": 2231,
      "åľŁ": 2232,
      "æĺ¯åľ¨": 2233,
      "Ġchange": 2234,
      "Ġvis": 2235,
      "ä¼Ĭ": 2236,
      "å¹¿": 2237,
      "Ġkind": 2238,
      "stand": 2239,
      "Ġcame": 2240,
      "åľ°åĮº": 2241,
      "Ġhold": 2242,
      "çºª": 2243,
      "åı·": 2244,
      "åĳ³": 2245,
      "Ġcompany": 2246,
      "Ġimportant": 2247,
      "Ġmeet": 2248,
      "Ġanything": 2249,
      "ues": 2250,
      "ĠåŃ": 2251,
      "ç³»ç»Ł": 2252,
      "man": 2253,
      "æ®µ": 2254,
      "çĬ¶": 2255,
      "Ġbad": 2256,
      "Ġpublic": 2257,
      "è¿ŀ": 2258,
      "è®©æĪĳ": 2259,
      "Ġconc": 2260,
      "Ġinclud": 2261,
      "åħį": 2262,
      "Ġserv": 2263,
      "æĻ®": 2264,
      "ä¸¤ä¸ª": 2265,
      "ä¸ĬçļĦ": 2266,
      "æĭ¬": 2267,
      "Ġç¾İåĽ½": 2268,
      "ä¹ĭåīį": 2269,
      "Ġmat": 2270,
      "Ġland": 2271,
      "è§Ĵ": 2272,
      "ize": 2273,
      "è´Ł": 2274,
      "Ġmil": 2275,
      "Ġname": 2276,
      "çł´": 2277,
      "ract": 2278,
      "ä»¥åıĬ": 2279,
      "Ġbecome": 2280,
      "uss": 2281,
      "Ġbest": 2282,
      "ull": 2283,
      "ä¾Ŀ": 2284,
      "åĢº": 2285,
      "arch": 2286,
      "çº³": 2287,
      "rib": 2288,
      "ĠæĪĳåĪļ": 2289,
      "çľŁçļĦ": 2290,
      "çļĦæĦ": 2291,
      "éĢĤ": 2292,
      "Ġeach": 2293,
      "åºŃ": 2294,
      "Ġdoesn": 2295,
      "åį°": 2296,
      "èĴ": 2297,
      "Ġfree": 2298,
      "çĥŃ": 2299,
      "Ġeurope": 2300,
      "çĶļ": 2301,
      "å®īåħ¨": 2302,
      "Ġuni": 2303,
      "Ġmorning": 2304,
      "let": 2305,
      "Ġincre": 2306,
      "Ġglo": 2307,
      "Ġguy": 2308,
      "rop": 2309,
      "è´Ń": 2310,
      "Ġhu": 2311,
      "å®ĥä»¬": 2312,
      "Ġmem": 2313,
      "Ġcal": 2314,
      "Ġchang": 2315,
      "Ġprof": 2316,
      "éĢīæĭ©": 2317,
      "Ġbuild": 2318,
      "æĿ¥è¯´": 2319,
      "ç¤¾ä¼ļ": 2320,
      "az": 2321,
      "Ġinterest": 2322,
      "ye": 2323,
      "Ġchildren": 2324,
      "Ġdifferent": 2325,
      "Ġpass": 2326,
      "ç»Ħç»ĩ": 2327,
      "ology": 2328,
      "é¸": 2329,
      "èĲ½": 2330,
      "åįĬ": 2331,
      "Ġadv": 2332,
      "Ġprom": 2333,
      "Ġwal": 2334,
      "ĠæĪĳåĲ¬": 2335,
      "Ġever": 2336,
      "ç»ĵæŀľ": 2337,
      "Ġeconomic": 2338,
      "åĲ¸": 2339,
      "Ġåıª": 2340,
      "æĿ¥äºĨ": 2341,
      "ense": 2342,
      "Ġä¸įæĺ¯": 2343,
      "ains": 2344,
      "Ġgroup": 2345,
      "Ġlooking": 2346,
      "æĸ¹å¼ı": 2347,
      "çĭ¬": 2348,
      "Ġä¸ª": 2349,
      "è¡£": 2350,
      "ason": 2351,
      "ages": 2352,
      "ines": 2353,
      "Ġmind": 2354,
      "æŀª": 2355,
      "ĠçļĦ": 2356,
      "ertain": 2357,
      "Ġmom": 2358,
      "Ġbelieve": 2359,
      "Ġbeh": 2360,
      "Ġyes": 2361,
      "è¡¨ç¤º": 2362,
      "Ġroom": 2363,
      "ention": 2364,
      "å¾ĹåĪ°": 2365,
      "Ġéļ": 2366,
      "æĪĳè¯´": 2367,
      "åı¦": 2368,
      "å¦Ĥä½ķ": 2369,
      "Ġdire": 2370,
      "Ġbook": 2371,
      "çĽ¸ä¿¡": 2372,
      "æĹı": 2373,
      "éĢĢ": 2374,
      "éļı": 2375,
      "ared": 2376,
      "Ġshall": 2377,
      "Ġsecond": 2378,
      "Ġè¿Ļæĺ¯": 2379,
      "è®²": 2380,
      "Ġgetting": 2381,
      "ost": 2382,
      "åºĹ": 2383,
      "èģĮ": 2384,
      "èį¯": 2385,
      "Ġfinan": 2386,
      "çİĭ": 2387,
      "åħĪçĶŁ": 2388,
      "æŁĲ": 2389,
      "ĠåĲĮ": 2390,
      "Ķ¿åºľ": 2391,
      "Ġofficial": 2392,
      "Ġsays": 2393,
      "Ġpat": 2394,
      "hen": 2395,
      "Ġheart": 2396,
      "åįı": 2397,
      "ump": 2398,
      "Ġpoint": 2399,
      "ised": 2400,
      "Ġcheck": 2401,
      "ired": 2402,
      "Ġenough": 2403,
      "ctor": 2404,
      "å½ķ": 2405,
      "Ġref": 2406,
      "ĠæĪĳæľī": 2407,
      "Ġparty": 2408,
      "Ġmaking": 2409,
      "ä¹ĭéĹ´": 2410,
      "æķĳ": 2411,
      "ts": 2412,
      "ably": 2413,
      "çĵ": 2414,
      "Ġreport": 2415,
      "ene": 2416,
      "å±ħ": 2417,
      "Ġsit": 2418,
      "illion": 2419,
      "Ġquest": 2420,
      "bal": 2421,
      "ield": 2422,
      "éĶĢ": 2423,
      "pl": 2424,
      "Ġè®¸å¤ļ": 2425,
      "çĸĳ": 2426,
      "Ġwatch": 2427,
      "ç½ª": 2428,
      "çıŃ": 2429,
      "Ġgre": 2430,
      "ĠåĪ°": 2431,
      "ç®¡çĲĨ": 2432,
      "ä¿®": 2433,
      "Ġåķ": 2434,
      "æĽ¾": 2435,
      "å¸®åĬ©": 2436,
      "osed": 2437,
      "åŁŁ": 2438,
      "æĽ´å¤ļ": 2439,
      "å¿µ": 2440,
      "ä»ĸä»¬çļĦ": 2441,
      "Ġrese": 2442,
      "ç¬ĳ": 2443,
      "te": 2444,
      "ier": 2445,
      "æŀĲ": 2446,
      "ĠçĶ±": 2447,
      "è®¨": 2448,
      "å°±ä¼ļ": 2449,
      "Ġfull": 2450,
      "Ġidea": 2451,
      "Ġcalled": 2452,
      "Ġæİ": 2453,
      "Ġworry": 2454,
      "Ġnat": 2455,
      "åĨ³å®ļ": 2456,
      "ork": 2457,
      "Ġç§": 2458,
      "Ġsocial": 2459,
      "Ġfood": 2460,
      "è¿ĩåİ»": 2461,
      "ream": 2462,
      "ught": 2463,
      "ç§»": 2464,
      "åħ»": 2465,
      "å±Ĥ": 2466,
      "ized": 2467,
      "éĿ©": 2468,
      "Ġlight": 2469,
      "Ġinform": 2470,
      "Ġåİ": 2471,
      "åĽ´": 2472,
      "ä¸ĭæĿ¥": 2473,
      "Ġdone": 2474,
      "Ġread": 2475,
      "Ġforeign": 2476,
      "å¹¸": 2477,
      "Ġdays": 2478,
      "èĤ¯": 2479,
      "å·®": 2480,
      "ross": 2481,
      "éĨ": 2482,
      "Ġnothing": 2483,
      "fic": 2484,
      "Ġoften": 2485,
      "Ġbro": 2486,
      "ä¸ĢçĤ¹": 2487,
      "outh": 2488,
      "Ġsing": 2489,
      "Ġlooks": 2490,
      "Ġseen": 2491,
      "åĩºçİ°": 2492,
      "é»ĳ": 2493,
      "æ¹": 2494,
      "Ġweek": 2495,
      "éĤ£ä¹Ī": 2496,
      "ä¿¡æģ¯": 2497,
      "ç±³": 2498,
      "åĵ¥": 2499,
      "Ġorder": 2500,
      "æľįåĬ¡": 2501,
      "Ġsor": 2502,
      "Ġdevelopment": 2503,
      "Ġface": 2504,
      "ral": 2505,
      "Ġsol": 2506,
      "ä¼¦": 2507,
      "åĶ®": 2508,
      "æĪĸèĢħ": 2509,
      "çĻ¾": 2510,
      "æľīäºº": 2511,
      "Ġunderstand": 2512,
      "ĠåĬ": 2513,
      "Ġhuman": 2514,
      "Ġconst": 2515,
      "æĸ¹æ³ķ": 2516,
      "çĸĹ": 2517,
      "ç¦ı": 2518,
      "Ġèĩª": 2519,
      "ety": 2520,
      "è¿ĻéĩĮ": 2521,
      "ç»§ç»Ń": 2522,
      "sel": 2523,
      "Ġwin": 2524,
      "Ġlocal": 2525,
      "here": 2526,
      "åĿĲ": 2527,
      "Ġstay": 2528,
      "Ġæį": 2529,
      "Ġnor": 2530,
      "Ġterm": 2531,
      "å¼¹": 2532,
      "æĺ¯ä¸Ģä¸ª": 2533,
      "åŃĺåľ¨": 2534,
      "ken": 2535,
      "Ġnational": 2536,
      "ä¼Ļ": 2537,
      "åĩĨå¤ĩ": 2538,
      "ä¸´": 2539,
      "è¦ģæ±Ĥ": 2540,
      "Ġfollow": 2541,
      "Ġtoday": 2542,
      "Ġä½łçľĭ": 2543,
      "ering": 2544,
      "å°½": 2545,
      "Ġadm": 2546,
      "Ġä»¥åıĬ": 2547,
      "Ġelect": 2548,
      "Ġpop": 2549,
      "é¼": 2550,
      "Ġty": 2551,
      "Ġexper": 2552,
      "Ġjap": 2553,
      "Ġæł": 2554,
      "Ġhour": 2555,
      "æĬĢæľ¯": 2556,
      "Ġnumber": 2557,
      "çļĦæĢ": 2558,
      "Ġbar": 2559,
      "ned": 2560,
      "æĵ": 2561,
      "Ġdi": 2562,
      "åģĩ": 2563,
      "åŁİå¸Ĥ": 2564,
      "Ġposs": 2565,
      "è¯º": 2566,
      "Ġsix": 2567,
      "Ġpolic": 2568,
      "ç©¿": 2569,
      "Ġtrying": 2570,
      "å¢ŀéķ¿": 2571,
      "Ġcut": 2572,
      "Ġbank": 2573,
      "Ġste": 2574,
      "ä¸ªäºº": 2575,
      "ĠåĽłä¸ºæĪĳ": 2576,
      "éĿĻ": 2577,
      "ron": 2578,
      "Ġge": 2579,
      "ĠæĪĳä»¬éĥ½": 2580,
      "Ġrequ": 2581,
      "Ġcountries": 2582,
      "ä»Ĭå¤©": 2583,
      "åĨ²": 2584,
      "æī¾åĪ°": 2585,
      "éĩĬ": 2586,
      "Ġest": 2587,
      "Ġclass": 2588,
      "Ġjapan": 2589,
      "Ġæķ": 2590,
      "ng": 2591,
      "ä¸ºä»Ģä¹Ī": 2592,
      "orrow": 2593,
      "Ġthin": 2594,
      "å¼Ł": 2595,
      "é¢Ŀ": 2596,
      "ä¹ĭåĲİ": 2597,
      "æĿŁ": 2598,
      "ç¾¤": 2599,
      "ruct": 2600,
      "æĿ¿": 2601,
      "Ġra": 2602,
      "ç¦»å¼Ģ": 2603,
      "æĹłæ³ķ": 2604,
      "ä¸Ģå®ļ": 2605,
      "Ġdeal": 2606,
      "¤Ĳ": 2607,
      "å¤§åŃ¦": 2608,
      "ç´¢": 2609,
      "Ġåħ¨": 2610,
      "Ġeconomy": 2611,
      "çĳ": 2612,
      "Ġå¼Ģ": 2613,
      "ted": 2614,
      "Ġpur": 2615,
      "Ġexpl": 2616,
      "med": 2617,
      "Ġresp": 2618,
      "åĪ»": 2619,
      "åĽ°": 2620,
      "ĠåĨįè§ģ": 2621,
      "Ġwent": 2622,
      "æ£Ģ": 2623,
      "Ġshort": 2624,
      "å±ŀ": 2625,
      "çĶļèĩ³": 2626,
      "è¡Įä¸º": 2627,
      "ake": 2628,
      "Ġtoget": 2629,
      "Ġcost": 2630,
      "æĪĳä»¬çļĦ": 2631,
      "Ġhealth": 2632,
      "åĨľ": 2633,
      "é¦Ĩ": 2634,
      "Ġtogether": 2635,
      "Ġworking": 2636,
      "çļ®": 2637,
      "åıªæĺ¯": 2638,
      "æį¢": 2639,
      "èĻĳ": 2640,
      "Ġhal": 2641,
      "Ġcontrol": 2642,
      "çļĦæĶ": 2643,
      "Ġmid": 2644,
      "åĪ¤": 2645,
      "Ġleave": 2646,
      "Ġcontin": 2647,
      "ency": 2648,
      "Ġtold": 2649,
      "Ġopp": 2650,
      "Ġäºº": 2651,
      "Ġæĭ": 2652,
      "ically": 2653,
      "èĢ¶": 2654,
      "å°Ħ": 2655,
      "Ġfriends": 2656,
      "å¾®": 2657,
      "Ġoper": 2658,
      "ank": 2659,
      "çķ¥": 2660,
      "Ġæĸ°": 2661,
      "Ġlow": 2662,
      "Ġsorry": 2663,
      "Ġcompanies": 2664,
      "cc": 2665,
      "äºĭå®ŀ": 2666,
      "Ġproblem": 2667,
      "Ġæ±": 2668,
      "è§£åĨ³": 2669,
      "Ġhun": 2670,
      "è¯»": 2671,
      "ĠãĢĭ": 2672,
      "ĠãĢĬ": 2673,
      "åĵĪ": 2674,
      "Ġhist": 2675,
      "Ġmus": 2676,
      "çļĦæ°": 2677,
      "æŃĮ": 2678,
      "åı¤": 2679,
      "Ġtrad": 2680,
      "Ġum": 2681,
      "ient": 2682,
      "åħħ": 2683,
      "ç¨İ": 2684,
      "çĽŁ": 2685,
      "Ġfinancial": 2686,
      "ished": 2687,
      "èĹ": 2688,
      "ark": 2689,
      "è´Ŀ": 2690,
      "Ġsho": 2691,
      "Ġpartic": 2692,
      "Ġeverything": 2693,
      "Ġglobal": 2694,
      "orn": 2695,
      "ph": 2696,
      "åģ¥": 2697,
      "éĴŁ": 2698,
      "io": 2699,
      "èİ·å¾Ĺ": 2700,
      "ister": 2701,
      "Ġlive": 2702,
      "Ġfall": 2703,
      "æĪı": 2704,
      "Ġpresident": 2705,
      "Ġbit": 2706,
      "ury": 2707,
      "Ġiss": 2708,
      "æĥħåĨµ": 2709,
      "Ġtra": 2710,
      "Ġhot": 2711,
      "ision": 2712,
      "Ġsci": 2713,
      "åįļ": 2714,
      "åº·": 2715,
      "¯ä¸Ģ": 2716,
      "Ġlear": 2717,
      "çªģ": 2718,
      "Ġsal": 2719,
      "ç§ģ": 2720,
      "ä¼ĺ": 2721,
      "éĿł": 2722,
      "ined": 2723,
      "Ġfuck": 2724,
      "ĠæľīäºĽ": 2725,
      "br": 2726,
      "åĸĦ": 2727,
      "æģ¶": 2728,
      "æīĺ": 2729,
      "åįĸ": 2730,
      "Ġwanted": 2731,
      "ç¤¼": 2732,
      "Ġcol": 2733,
      "è·ĳ": 2734,
      "å¥½äºĨ": 2735,
      "Ġtimes": 2736,
      "Ġcommun": 2737,
      "éħį": 2738,
      "æ¤": 2739,
      "Ġproduct": 2740,
      "éĩĳèŀį": 2741,
      "æ³¢": 2742,
      "Ġhope": 2743,
      "Ġanal": 2744,
      "éĤ£éĩĮ": 2745,
      "é¤Ĳ": 2746,
      "å¸ģ": 2747,
      "Ġdad": 2748,
      "çĶ»": 2749,
      "Ġappe": 2750,
      "åħ¨çĲĥ": 2751,
      "æľºä¼ļ": 2752,
      "éĹ»": 2753,
      "Ġtest": 2754,
      "Ġamerica": 2755,
      "æĤ¨": 2756,
      "Ġmother": 2757,
      "è¿°": 2758,
      "éĽ·": 2759,
      "Ġè¯¥": 2760,
      "Ġequ": 2761,
      "Ġes": 2762,
      "ä¿ĿæĬ¤": 2763,
      "Ġcult": 2764,
      "Ġcoming": 2765,
      "Ġtook": 2766,
      "Ġæ¯Ķ": 2767,
      "æĺ¯ä¸į": 2768,
      "Ġmaj": 2769,
      "ĠæĹł": 2770,
      "rap": 2771,
      "æ¯Ĵ": 2772,
      "ending": 2773,
      "è¡Ĺ": 2774,
      "æĢķ": 2775,
      "åĪĨæŀĲ": 2776,
      "æĸ°çļĦ": 2777,
      "Ġç®": 2778,
      "Ġlevel": 2779,
      "Ġsometimes": 2780,
      "äº¤æĺĵ": 2781,
      "å²Ľ": 2782,
      "åį«": 2783,
      "äº§åĵģ": 2784,
      "è´¥": 2785,
      "çĿ¡": 2786,
      "Ġtax": 2787,
      "Ġnear": 2788,
      "çĨ": 2789,
      "Ġfre": 2790,
      "Ġda": 2791,
      "ä¸ºäºĨ": 2792,
      "åľ£": 2793,
      "å¦ĤæŃ¤": 2794,
      "éŃ": 2795,
      "Ġæ³ķ": 2796,
      "Ġ$": 2797,
      "Ġlarge": 2798,
      "ĠæĶ¿åºľ": 2799,
      "Ġinfl": 2800,
      "Ġä½łä¸į": 2801,
      "Ġä¸įè¿ĩ": 2802,
      "Ġè¯·": 2803,
      "è¯¯": 2804,
      "Ġinformation": 2805,
      "æĹħ": 2806,
      "Ġwrong": 2807,
      "Ġgerm": 2808,
      "æĭ¥": 2809,
      "å¿Ĺ": 2810,
      "gn": 2811,
      "Ġcertain": 2812,
      "Ġson": 2813,
      "Ġelse": 2814,
      "Ġdesign": 2815,
      "ĠæĻļ": 2816,
      "ä¸½": 2817,
      "èĽĭ": 2818,
      "è´·": 2819,
      "è®¾è®¡": 2820,
      "gin": 2821,
      "Ġusing": 2822,
      "æľºæŀĦ": 2823,
      "æĻ¯": 2824,
      "Ġsuc": 2825,
      "å¯»": 2826,
      "ortun": 2827,
      "ality": 2828,
      "Ġdead": 2829,
      "éģ¿": 2830,
      "½è½¦": 2831,
      "äº®": 2832,
      "äºĴ": 2833,
      "å®Įåħ¨": 2834,
      "Ġcapital": 2835,
      "ĠæĪĳçļĦ": 2836,
      "bers": 2837,
      "±¼": 2838,
      "åĢĴ": 2839,
      "ä»·æł¼": 2840,
      "Ġamerican": 2841,
      "å·¨": 2842,
      "è¶£": 2843,
      "Ġsomebody": 2844,
      "Ġhar": 2845,
      "Ġmod": 2846,
      "ization": 2847,
      "ĠæĪĳåıªæĥ³": 2848,
      "Ġbuy": 2849,
      "Ġdeb": 2850,
      "ĠæĢİä¹Ī": 2851,
      "æĪĲåĬŁ": 2852,
      "Ġtry": 2853,
      "ä¼¯": 2854,
      "Ġbye": 2855,
      "ives": 2856,
      "èĪ¹": 2857,
      "Ġfut": 2858,
      "Ġåı¯æĺ¯": 2859,
      "Ġgeneral": 2860,
      "æİ§åĪ¶": 2861,
      "åĽ½éĻħ": 2862,
      "Ġav": 2863,
      "æĿĤ": 2864,
      "ĠæĽ´": 2865,
      "èĥ½åĬĽ": 2866,
      "è°ĥæŁ¥": 2867,
      "Ġfil": 2868,
      "Ġéļı": 2869,
      "æī¹": 2870,
      "Ġä¸Ĭ": 2871,
      "lish": 2872,
      "é¾": 2873,
      "ĠçĪ": 2874,
      "Ġboy": 2875,
      "Ġid": 2876,
      "Ġæ¬": 2877,
      "Ġexpect": 2878,
      "åĩºäºĨ": 2879,
      "ided": 2880,
      "Ġsle": 2881,
      "è¿ª": 2882,
      "åĽŃ": 2883,
      "äº§çĶŁ": 2884,
      "Ġx": 2885,
      "çļĦæł": 2886,
      "ä¹Łæĺ¯": 2887,
      "ä½ľä¸º": 2888,
      "ä¹±": 2889,
      "ont": 2890,
      "Ġç»Ļ": 2891,
      "å§Ķ": 2892,
      "åĭĴ": 2893,
      "ç®Ģ": 2894,
      "Ġonce": 2895,
      "å¼Ħ": 2896,
      "çĶŁäº§": 2897,
      "Ġæ¯ı": 2898,
      "çļĦå¤§": 2899,
      "çļĦæĥħ": 2900,
      "å¿Ļ": 2901,
      "Ġfive": 2902,
      "è®©ä½ł": 2903,
      "ai": 2904,
      "Ġmanage": 2905,
      "Ġbab": 2906,
      "ĠåķĬ": 2907,
      "çİ¯å¢ĥ": 2908,
      "æĪĲäºĨ": 2909,
      "æī§": 2910,
      "ats": 2911,
      "pped": 2912,
      "Ġgiven": 2913,
      "æĺ¯åĲ¦": 2914,
      "æł¸": 2915,
      "ĠæĹ©": 2916,
      "Ġeff": 2917,
      "ians": 2918,
      "Ġå°Ĩ": 2919,
      "ton": 2920,
      "æ½": 2921,
      "Ġsimp": 2922,
      "Ġclear": 2923,
      "Ġfur": 2924,
      "åī§": 2925,
      "Ġresult": 2926,
      "aut": 2927,
      "è¿ĲåĬ¨": 2928,
      "é±¼": 2929,
      "ho": 2930,
      "ases": 2931,
      "Ġwithin": 2932,
      "Ġrecent": 2933,
      "Ġsun": 2934,
      "äºĭæĥħ": 2935,
      "iting": 2936,
      "äºĨåĲĹ": 2937,
      "Ġgrowth": 2938,
      "æİ¥åıĹ": 2939,
      "Ġwhole": 2940,
      "Ġunivers": 2941,
      "äººåĳĺ": 2942,
      "åĬ³": 2943,
      "åį³": 2944,
      "åı¯èĥ½ä¼ļ": 2945,
      "å®£": 2946,
      "Ġpress": 2947,
      "å¼Ĥ": 2948,
      "ĠæĢ»": 2949,
      "Ġyoung": 2950,
      "Ġorgan": 2951,
      "Ġsecur": 2952,
      "åº§": 2953,
      "ĠæĪĳå¾Ī": 2954,
      "Ġenv": 2955,
      "æķħ": 2956,
      "ä¸Ńå¿ĥ": 2957,
      "me": 2958,
      "ration": 2959,
      "Ġoffice": 2960,
      "Ġprocess": 2961,
      "aper": 2962,
      "ĠæĪĳåı¯ä»¥": 2963,
      "æĶ¿çŃĸ": 2964,
      "Ġinternational": 2965,
      "æĬ±": 2966,
      "éĤ£æł·": 2967,
      "ird": 2968,
      "Ġprotect": 2969,
      "Ġteam": 2970,
      "æĶ¹åıĺ": 2971,
      "Ġeduc": 2972,
      "Ġpain": 2973,
      "cing": 2974,
      "Ġbring": 2975,
      "Ġä½¿": 2976,
      "ä¹ĭä¸Ģ": 2977,
      "è¸": 2978,
      "åİŁåĽł": 2979,
      "ĠåĶ": 2980,
      "Ġlater": 2981,
      "Ġå¹¶ä¸Ķ": 2982,
      "Ġä½łçŁ¥éģĵ": 2983,
      "Ġpast": 2984,
      "Ġmajor": 2985,
      "è¡¥": 2986,
      "æ´»åĬ¨": 2987,
      "Ġlab": 2988,
      "Ġpriv": 2989,
      "Ġbody": 2990,
      "è¿½": 2991,
      "éģĩ": 2992,
      "orts": 2993,
      "Ġhalf": 2994,
      "Ġfight": 2995,
      "©åŃĲ": 2996,
      "Ġåº": 2997,
      "èİ±": 2998,
      "ä½ľçĶ¨": 2999,
      "ç¼º": 3000,
      "ä¸Ĭåİ»": 3001,
      "Ġæĺİ": 3002,
      "æĺ¯ä¸Ģ": 3003,
      "Ġyourself": 3004,
      "Ġswe": 3005,
      "ove": 3006,
      "tle": 3007,
      "Ġcreat": 3008,
      "Ġtop": 3009,
      "çļĦæ¯": 3010,
      "æĢª": 3011,
      "Ġpos": 3012,
      "èĨ": 3013,
      "Ġduring": 3014,
      "side": 3015,
      "Ġcann": 3016,
      "æĥ³è¦ģ": 3017,
      "ĠåĳĬ": 3018,
      "atic": 3019,
      "Ġmakes": 3020,
      "æĬĹ": 3021,
      "çŁŃ": 3022,
      "Ġvi": 3023,
      "è¡ĮåĬ¨": 3024,
      "Ġstrong": 3025,
      "å¥¹çļĦ": 3026,
      "Ġè°¢": 3027,
      "åİĤ": 3028,
      "ained": 3029,
      "çļĦçĪ": 3030,
      "Ġside": 3031,
      "Ġwind": 3032,
      "Ġoil": 3033,
      "ĠçĶ¨": 3034,
      "æ¬§æ´²": 3035,
      "Ġcond": 3036,
      "used": 3037,
      "é¡¾": 3038,
      "Ġothers": 3039,
      "èĩªçĶ±": 3040,
      "æĢ¥": 3041,
      "Ġearth": 3042,
      "åħŃ": 3043,
      "ç»ĥ": 3044,
      "Ġrev": 3045,
      "ote": 3046,
      "Ġdeath": 3047,
      "è¯¾": 3048,
      "ĠåĳĬè¯ī": 3049,
      "èĪ¬": 3050,
      "å¸Ŀ": 3051,
      "åŃ¦å®¶": 3052,
      "Ġpret": 3053,
      "err": 3054,
      "åĪĿ": 3055,
      "å¢ŀåĬł": 3056,
      "å®¡": 3057,
      "Ġstre": 3058,
      "æ£®": 3059,
      "äº¡": 3060,
      "åıĮ": 3061,
      "Ġåħ¬": 3062,
      "éĺ³": 3063,
      "Ġcre": 3064,
      "Ġfire": 3065,
      "most": 3066,
      "ä»¥æĿ¥": 3067,
      "åĿ¦": 3068,
      "ior": 3069,
      "åķ¦": 3070,
      "çļĦæľĢ": 3071,
      "èĲ¨": 3072,
      "ta": 3073,
      "Ġisn": 3074,
      "ama": 3075,
      "Ġill": 3076,
      "æ°¸": 3077,
      "åĬª": 3078,
      "Ġwoman": 3079,
      "æľīä¸Ģ": 3080,
      "Ġfail": 3081,
      "Ġimpro": 3082,
      "Ġhands": 3083,
      "Ġant": 3084,
      "Ġline": 3085,
      "aster": 3086,
      "å¹¶ä¸į": 3087,
      "Ġå®ĥä»¬": 3088,
      "Ġtreat": 3089,
      "çľĭçľĭ": 3090,
      "Ġann": 3091,
      "Ġyet": 3092,
      "Ġclose": 3093,
      "Ġindustry": 3094,
      "Ġsir": 3095,
      "Ġsaw": 3096,
      "Ġblood": 3097,
      "Ġhur": 3098,
      "åĨ·": 3099,
      "uff": 3100,
      "æĥĬ": 3101,
      "éĢļå¸¸": 3102,
      "hor": 3103,
      "éľ²": 3104,
      "èĳĹ": 3105,
      "Ġallow": 3106,
      "é¢Ĩå¯¼": 3107,
      "ĠæĮ": 3108,
      "ĠåĪĨ": 3109,
      "Ġfine": 3110,
      "Ġtaking": 3111,
      "æļ´": 3112,
      "æŀ¶": 3113,
      "Ġgerman": 3114,
      "Ġcompet": 3115,
      "çĽ®æłĩ": 3116,
      "é¦Ļ": 3117,
      "ĠåŃ©åŃĲ": 3118,
      "Ġfuture": 3119,
      "ĠåĽ½": 3120,
      "å®Ī": 3121,
      "ards": 3122,
      "åį±æľº": 3123,
      "æĢ»ç»Ł": 3124,
      "ged": 3125,
      "æ¸©": 3126,
      "æĶ¿æ²»": 3127,
      "ĠæĶ": 3128,
      "Ġwords": 3129,
      "æĶ¯æĮģ": 3130,
      "mm": 3131,
      "æĿ¾": 3132,
      "aining": 3133,
      "Ġè®©": 3134,
      "åİ»äºĨ": 3135,
      "Ġåģļ": 3136,
      "Ġprob": 3137,
      "ç»ľ": 3138,
      "åĸĿ": 3139,
      "å¾ģ": 3140,
      "Ġç¦": 3141,
      "ience": 3142,
      "çĥ¦": 3143,
      "èĭ±åĽ½": 3144,
      "gress": 3145,
      "åºı": 3146,
      "è¯į": 3147,
      "Ġmaybe": 3148,
      "éº»": 3149,
      "çļĦåľ°æĸ¹": 3150,
      "Ġproper": 3151,
      "ched": 3152,
      "çĹĽ": 3153,
      "selves": 3154,
      "å¤ľ": 3155,
      "æģ©": 3156,
      "Ġç¬¬": 3157,
      "emp": 3158,
      "Ġreturn": 3159,
      "ĠåĴĮ": 3160,
      "Ġlim": 3161,
      "ç«ŀ": 3162,
      "Ġreason": 3163,
      "ured": 3164,
      "Ġå¼Ĺ": 3165,
      "Ġnorth": 3166,
      "Ġexc": 3167,
      "Ġtalking": 3168,
      "Ġsupport": 3169,
      "Ġdam": 3170,
      "å°Ĩä¼ļ": 3171,
      "èĭ¦": 3172,
      "Ġpolitical": 3173,
      "Ġago": 3174,
      "å¦Ĥæŀľ": 3175,
      "Ġprop": 3176,
      "Ġtri": 3177,
      "Ġhaving": 3178,
      "Ġå°½": 3179,
      "èĤī": 3180,
      "å¤ĦçĲĨ": 3181,
      "ising": 3182,
      "å¥Ĺ": 3183,
      "ä»·åĢ¼": 3184,
      "å®Ŀ": 3185,
      "æĲŀ": 3186,
      "åİĨåı²": 3187,
      "ife": 3188,
      "ĠéĻ¤": 3189,
      "èĪŀ": 3190,
      "ĠæĪĳä¼ļ": 3191,
      "çļĦéĹ®é¢ĺ": 3192,
      "åĿĹ": 3193,
      "ä¹Łä¸į": 3194,
      "åĿļ": 3195,
      "aring": 3196,
      "utes": 3197,
      "æ´Ľ": 3198,
      "ç»ĵæĿŁ": 3199,
      "Ġsouth": 3200,
      "ä¿ĿæĮģ": 3201,
      "Ġprev": 3202,
      "Ġåį³": 3203,
      "æĢĢ": 3204,
      "æ²³": 3205,
      "Ġsuccess": 3206,
      "Ġsoon": 3207,
      "Ġpract": 3208,
      "æ²Ļ": 3209,
      "ä»¤äºº": 3210,
      "Ġä¸İ": 3211,
      "ä»ĭ": 3212,
      "Ġlost": 3213,
      "èĢĥèĻĳ": 3214,
      "åıĺå¾Ĺ": 3215,
      "çīĮ": 3216,
      "ä¿Ħ": 3217,
      "çĶµå½±": 3218,
      "iron": 3219,
      "ny": 3220,
      "Ġåı¯èĥ½": 3221,
      "ĠçĽ¸": 3222,
      "å¡Ķ": 3223,
      "èĹı": 3224,
      "ins": 3225,
      "çīĻ": 3226,
      "Ġæ´": 3227,
      "Ġtemp": 3228,
      "Ġfac": 3229,
      "Ġearly": 3230,
      "Ġmonths": 3231,
      "ional": 3232,
      "Ġpolicy": 3233,
      "Ġbeaut": 3234,
      "Ġè¿ĺæľī": 3235,
      "ination": 3236,
      "Ġforget": 3237,
      "è¿ĩç¨ĭ": 3238,
      "Ġtomorrow": 3239,
      "æĸĩåĮĸ": 3240,
      "łĶç©¶": 3241,
      "çľģ": 3242,
      "æĢ§çļĦ": 3243,
      "ç¾İåħĥ": 3244,
      "çº¢": 3245,
      "Ġalmost": 3246,
      "è¯´ä½ł": 3247,
      "ĠçľŁ": 3248,
      "Ġèĭ±": 3249,
      "¥ŀ": 3250,
      "Ġbreak": 3251,
      "Ġenviron": 3252,
      "çĽĽ": 3253,
      "oice": 3254,
      "Ġstates": 3255,
      "æħ¢": 3256,
      "äº¬": 3257,
      "åĲī": 3258,
      "Ġsell": 3259,
      "Ġnet": 3260,
      "Ġsent": 3261,
      "Ġey": 3262,
      "åıĹåĪ°": 3263,
      "æłĳ": 3264,
      "Ġsound": 3265,
      "ĠæĿ¥": 3266,
      "çļĦæ³": 3267,
      "ulation": 3268,
      "è¡¨çİ°": 3269,
      "Ġappro": 3270,
      "Ġrelations": 3271,
      "line": 3272,
      "æĦŁåĪ°": 3273,
      "æįŁ": 3274,
      "å¼ĥ": 3275,
      "ĠçĦ¶åĲİ": 3276,
      "Ġçº": 3277,
      "Ġfurther": 3278,
      "Ġofficials": 3279,
      "Ġrisk": 3280,
      "Ġä½Ĩä½ł": 3281,
      "æİ¢": 3282,
      "Ġbanks": 3283,
      "ither": 3284,
      "Ġliving": 3285,
      "Ġteac": 3286,
      "äº¿": 3287,
      "where": 3288,
      "ides": 3289,
      "Ġjud": 3290,
      "ç§¯": 3291,
      "Ġmess": 3292,
      "åŃ¦æł¡": 3293,
      "ĠèĢģ": 3294,
      "Ġable": 3295,
      "äº«": 3296,
      "èīº": 3297,
      "Ġå¥½åĲĹ": 3298,
      "loy": 3299,
      "ames": 3300,
      "Ġcop": 3301,
      "ison": 3302,
      "éĩįæĸ°": 3303,
      "åĬªåĬĽ": 3304,
      "Ġè¿ĺ": 3305,
      "Ġap": 3306,
      "co": 3307,
      "ä¸įåĪ°": 3308,
      "è¿·": 3309,
      "æŁĵ": 3310,
      "Ġsleep": 3311,
      "åĩłä¸ª": 3312,
      "Ġsn": 3313,
      "ew": 3314,
      "Ġæ°": 3315,
      "rence": 3316,
      "Ġproject": 3317,
      "è½®": 3318,
      "Ġspecial": 3319,
      "Ġsecurity": 3320,
      "ium": 3321,
      "İæł·": 3322,
      "åĲ«": 3323,
      "ush": 3324,
      "Ġarm": 3325,
      "ĠæĪĸèĢħ": 3326,
      "Ġunf": 3327,
      "Ġbrit": 3328,
      "ĠçĶ±äºİ": 3329,
      "Ġçī": 3330,
      "Ġleast": 3331,
      "Ġcell": 3332,
      "Ġphone": 3333,
      "éĻĦ": 3334,
      "Ġready": 3335,
      "ator": 3336,
      "Ġå·²": 3337,
      "Ġè¿Ļç§į": 3338,
      "Ġpost": 3339,
      "åĤ¨": 3340,
      "Ġmeans": 3341,
      "è·³": 3342,
      "ä¸ĸçºª": 3343,
      "Ġlea": 3344,
      "çļĦå°ı": 3345,
      "Ġcoun": 3346,
      "Ġocc": 3347,
      "çģµ": 3348,
      "å¸Ń": 3349,
      "æĺ¯æĪĳ": 3350,
      "çĶ·äºº": 3351,
      "den": 3352,
      "æ¥¼": 3353,
      "èµ°äºĨ": 3354,
      "çĪ¶äº²": 3355,
      "Ġthank": 3356,
      "çłģ": 3357,
      "èĮĥ": 3358,
      "Ġgame": 3359,
      "ç³Ł": 3360,
      "å¯¼èĩ´": 3361,
      "é¡¹çĽ®": 3362,
      "åĮħæĭ¬": 3363,
      "Ġenvironment": 3364,
      "idence": 3365,
      "Ġview": 3366,
      "els": 3367,
      "erv": 3368,
      "è¾ĵ": 3369,
      "çļĦæĦı": 3370,
      "çļĦä¸ľè¥¿": 3371,
      "è¿ĩæĿ¥": 3372,
      "èĪª": 3373,
      "åĳ¼": 3374,
      "Ġvar": 3375,
      "æľīåħ³": 3376,
      "ape": 3377,
      "gram": 3378,
      "æľ¨": 3379,
      "ä¸ĢæŃ¥": 3380,
      "æĹ¥æľ¬": 3381,
      "Ġstudy": 3382,
      "èĦ±": 3383,
      "åľ¨è¿ĻéĩĮ": 3384,
      "èĭı": 3385,
      "Ġminute": 3386,
      "Ġresearch": 3387,
      "Ġnon": 3388,
      "ä¸įè¦ģ": 3389,
      "Ġå¤©": 3390,
      "è°·": 3391,
      "æ¶Īæģ¯": 3392,
      "Ġcannot": 3393,
      "åĩºåİ»": 3394,
      "å®ĺåĳĺ": 3395,
      "ä¸¥éĩį": 3396,
      "ges": 3397,
      "å®¶åºŃ": 3398,
      "Ġquestion": 3399,
      "Ġenerg": 3400,
      "Ġir": 3401,
      "Ġbrother": 3402,
      "ances": 3403,
      "åŃ¦çĶŁ": 3404,
      "Ġsex": 3405,
      "Ġur": 3406,
      "æĿ¯": 3407,
      "Ġaccord": 3408,
      "æľĹ": 3409,
      "cle": 3410,
      "åºĬ": 3411,
      "è¿«": 3412,
      "é¥Ń": 3413,
      "ä¼ĳ": 3414,
      "Ġåħ³": 3415,
      "ĠåĲĮæĹ¶": 3416,
      "äºĨè§£": 3417,
      "éģĹ": 3418,
      "Ġæ²¡æľī": 3419,
      "Ġguess": 3420,
      "Ġfund": 3421,
      "que": 3422,
      "Ġè°¢è°¢": 3423,
      "ç§ĺ": 3424,
      "Ġå¤ļ": 3425,
      "Ġdom": 3426,
      "Ġlord": 3427,
      "Ġhit": 3428,
      "ĠåĪ«æĭħå¿ĥ": 3429,
      "æĸĹ": 3430,
      "Ġactually": 3431,
      "aps": 3432,
      "æĿ¥èĩª": 3433,
      "ember": 3434,
      "Ġauthor": 3435,
      "è®Ń": 3436,
      "éģŃ": 3437,
      "åĪ¶éĢł": 3438,
      "Ġincluding": 3439,
      "itive": 3440,
      "æĽ¼": 3441,
      "oy": 3442,
      "Ġcomplet": 3443,
      "Ġcred": 3444,
      "Ġmeas": 3445,
      "Ġcris": 3446,
      "Ġmanag": 3447,
      "åĽŀæĿ¥": 3448,
      "çļĦèĦ": 3449,
      "Ġrecord": 3450,
      "Ġaccount": 3451,
      "Ġä½Ĩè¿Ļ": 3452,
      "Ġdirect": 3453,
      "Ġä½łè¦ģ": 3454,
      "å¡ŀ": 3455,
      "æķĻèĤ²": 3456,
      "è½¯": 3457,
      "Ġsecret": 3458,
      "²ģ": 3459,
      "Ġåı¯ä»¥": 3460,
      "çĹĩ": 3461,
      "dle": 3462,
      "Ġgun": 3463,
      "Ġunited": 3464,
      "Ġpot": 3465,
      "Ġfront": 3466,
      "Ġcamp": 3467,
      "å¯¹äºİ": 3468,
      "æĺ¯ä»Ģä¹Ī": 3469,
      "Ġé©": 3470,
      "çŀ": 3471,
      "æĭ¥æľī": 3472,
      "åıĺåĮĸ": 3473,
      "Ġmanagement": 3474,
      "gest": 3475,
      "éĺ»": 3476,
      "Ġgrand": 3477,
      "é£İéĻ©": 3478,
      "itions": 3479,
      "Ġsuper": 3480,
      "å¼±": 3481,
      "æ±½è½¦": 3482,
      "Ġthough": 3483,
      "åı¥": 3484,
      "èĥĮ": 3485,
      "Ġbaby": 3486,
      "Ġdiv": 3487,
      "ĠæŃ¤": 3488,
      "acy": 3489,
      "æŃ¦": 3490,
      "è´¸": 3491,
      "Ġtechnology": 3492,
      "æ··": 3493,
      "Ġrul": 3494,
      "æ¥ļ": 3495,
      "åħµ": 3496,
      "å®¹æĺĵ": 3497,
      "Ġlikely": 3498,
      "ĠåŁ": 3499,
      "acter": 3500,
      "çļĦäºĭæĥħ": 3501,
      "è¿Ľåħ¥": 3502,
      "Ġä½Ĩä»ĸä»¬": 3503,
      "Ġprogram": 3504,
      "éĵģ": 3505,
      "Ġtrade": 3506,
      "çīĽ": 3507,
      "Ġwalk": 3508,
      "Ġwall": 3509,
      "æĺİçĻ½": 3510,
      "Ġthinking": 3511,
      "èµĦéĩĳ": 3512,
      "éĢłæĪĲ": 3513,
      "åįĥ": 3514,
      "æĮī": 3515,
      "å¥³äºº": 3516,
      "ä¸Ĭå¥½": 3517,
      "Ġpolice": 3518,
      "ĠåĢ": 3519,
      "Ġbur": 3520,
      "Ġdoor": 3521,
      "Ġwasn": 3522,
      "çĻ»": 3523,
      "Ġmilit": 3524,
      "uation": 3525,
      "è®¤è¯Ĩ": 3526,
      "Ġenergy": 3527,
      "çļĦæİ": 3528,
      "å¿ĺ": 3529,
      "Ġtown": 3530,
      "åĢŁ": 3531,
      "Ġhappened": 3532,
      "Ġquick": 3533,
      "Ġred": 3534,
      "Ġprice": 3535,
      "¤¾": 3536,
      "Ġluck": 3537,
      "Ġstep": 3538,
      "Ġeyes": 3539,
      "Ġself": 3540,
      "è®¿": 3541,
      "æŃī": 3542,
      "Ġbud": 3543,
      "ä»įçĦ¶": 3544,
      "Ġprobably": 3545,
      "sh": 3546,
      "Ġgold": 3547,
      "Ġsoci": 3548,
      "åħ³äºİ": 3549,
      "Ġproblems": 3550,
      "Ġfig": 3551,
      "ç«ł": 3552,
      "ä»Ĭå¹´": 3553,
      "Ġeat": 3554,
      "çļĦæµ": 3555,
      "Ġdemand": 3556,
      "è´µ": 3557,
      "Ġaddition": 3558,
      "Ġdog": 3559,
      "osp": 3560,
      "Ġhistory": 3561,
      "ĠçĽ´": 3562,
      "ever": 3563,
      "çŃ¾": 3564,
      "çŃĶ": 3565,
      "Ġincreas": 3566,
      "äºĨä¸Ģä¸ª": 3567,
      "ots": 3568,
      "ij": 3569,
      "ories": 3570,
      "¤å§Ĩ": 3571,
      "Ġmoder": 3572,
      "çĶŁåĳ½": 3573,
      "Ġæĥ": 3574,
      "Ġparent": 3575,
      "ered": 3576,
      "ä¼¼ä¹İ": 3577,
      "ocr": 3578,
      "Ġmeth": 3579,
      "Ġæµ": 3580,
      "Ġfed": 3581,
      "Ġlate": 3582,
      "æĺ¾ç¤º": 3583,
      "Ġcentral": 3584,
      "Ġans": 3585,
      "Ġking": 3586,
      "åŃ£": 3587,
      "æİª": 3588,
      "Ġä¸ĩ": 3589,
      "Ġbene": 3590,
      "èī¯": 3591,
      "æľĿ": 3592,
      "æ£Ĵ": 3593,
      "éĢĥ": 3594,
      "ane": 3595,
      "èĤ¯å®ļ": 3596,
      "Ġæĺ¯çļĦ": 3597,
      "ĠçĦ¶èĢĮ": 3598,
      "¬¼": 3599,
      "ouble": 3600,
      "Ġperform": 3601,
      "å¥¶": 3602,
      "é²ľ": 3603,
      "åª": 3604,
      "æĭį": 3605,
      "çĥĪ": 3606,
      "ĠåĵĪ": 3607,
      "Ġä¸Ń": 3608,
      "åįł": 3609,
      "æķ£": 3610,
      "èĥľ": 3611,
      "èµ¢": 3612,
      "æ¸¯": 3613,
      "ĠåĲİ": 3614,
      "åĲįåŃĹ": 3615,
      "iter": 3616,
      "å»ºç«ĭ": 3617,
      "inal": 3618,
      "Ġri": 3619,
      "Ġhy": 3620,
      "ming": 3621,
      "Ġdeep": 3622,
      "Ġgave": 3623,
      "Ġbased": 3624,
      "ider": 3625,
      "ateg": 3626,
      "å¤ļæķ°": 3627,
      "Ġwouldn": 3628,
      "Ġslow": 3629,
      "Ġhon": 3630,
      "çĽ®åīį": 3631,
      "åħ·æľī": 3632,
      "Ġgirls": 3633,
      "æľĢåĲİ": 3634,
      "Ġrather": 3635,
      "éĺ¶": 3636,
      "åģ¥åº·": 3637,
      "Ġcust": 3638,
      "äºĨæĪĳ": 3639,
      "Ġhours": 3640,
      "æĬĵ": 3641,
      "Ġlat": 3642,
      "æĽ´åĬł": 3643,
      "çĶµè§Ĩ": 3644,
      "Ġkids": 3645,
      "èįī": 3646,
      "åĨ°": 3647,
      "éĢı": 3648,
      "çļĦå½±åĵį": 3649,
      "ç¡Ģ": 3650,
      "ç¬Ķ": 3651,
      "ĠåĲ¬æĪĳè¯´": 3652,
      "ä»£è¡¨": 3653,
      "ĠâĢĶ": 3654,
      "çľŁæŃ£": 3655,
      "head": 3656,
      "Ġåģĩ": 3657,
      "åıªæľī": 3658,
      "Ġeducation": 3659,
      "ç¼©": 3660,
      "Ġimag": 3661,
      "Ġcir": 3662,
      "ĠæĪĳè¦ģ": 3663,
      "åĪº": 3664,
      "unch": 3665,
      "Ġservice": 3666,
      "ä¸ĢåĪĩ": 3667,
      "èµ¶": 3668,
      "Ġword": 3669,
      "ster": 3670,
      "é²ģ": 3671,
      "ones": 3672,
      "çīĪ": 3673,
      "Ġserious": 3674,
      "åĬ¨çī©": 3675,
      "å°ıæĹ¶": 3676,
      "ĠæĹ¢": 3677,
      "æĢİæł·": 3678,
      "Ġsugg": 3679,
      "Ġsuggest": 3680,
      "Ġkey": 3681,
      "Ġgreen": 3682,
      "çļĦç¬¬": 3683,
      "Ġsil": 3684,
      "Ġknown": 3685,
      "ĠéļıçĿĢ": 3686,
      "Ġshut": 3687,
      "Ġå²ģ": 3688,
      "raw": 3689,
      "åĪ©çĶ¨": 3690,
      "ç«¯": 3691,
      "éĿĴ": 3692,
      "åĦ¿åŃĲ": 3693,
      "éĩİ": 3694,
      "ä»¥åīį": 3695,
      "Ġalong": 3696,
      "éĹŃ": 3697,
      "Ġprices": 3698,
      "Ġlonger": 3699,
      "åĺĽ": 3700,
      "Ġaw": 3701,
      "Ġnice": 3702,
      "å¥³åŃ©": 3703,
      "app": 3704,
      "Ġcrisis": 3705,
      "äººæ°ĳ": 3706,
      "çº¸": 3707,
      "Ļ½": 3708,
      "åľ¨ä¸Ģèµ·": 3709,
      "éĨĴ": 3710,
      "åºĵ": 3711,
      "ç¦ģ": 3712,
      "Ġfield": 3713,
      "ief": 3714,
      "Ġamong": 3715,
      "æķ¦": 3716,
      "Ġactiv": 3717,
      "æĹ§": 3718,
      "åħ¸": 3719,
      "ilar": 3720,
      "Ġdev": 3721,
      "Ġdat": 3722,
      "ĠåĴ±": 3723,
      "çļĦä¸Ģä¸ª": 3724,
      "Ġgone": 3725,
      "ĠæĪĳçŁ¥éģĵ": 3726,
      "æľīäºĽ": 3727,
      "ators": 3728,
      "æĿĳ": 3729,
      "Ġmatter": 3730,
      "æĿ¥è¶Ĭ": 3731,
      "hers": 3732,
      "æĦıæĢĿ": 3733,
      "Ġå¾Īå¤ļ": 3734,
      "Ġtre": 3735,
      "by": 3736,
      "åŁºç¡Ģ": 3737,
      "ĠåĹ": 3738,
      "Ġattack": 3739,
      "çĽĸ": 3740,
      "istic": 3741,
      "å½Ĵ": 3742,
      "Ġä¸Ģä¸ª": 3743,
      "ĠåĲĦ": 3744,
      "çĥŁ": 3745,
      "Ġhappy": 3746,
      "åĪ©äºļ": 3747,
      "bs": 3748,
      "çĤ¸": 3749,
      "Ġblack": 3750,
      "è¯ģæĺİ": 3751,
      "Ġpresent": 3752,
      "æ´Ĺ": 3753,
      "æ¤į": 3754,
      "é¬¼": 3755,
      "Ġparticular": 3756,
      "Ġbuilding": 3757,
      "Ġdream": 3758,
      "work": 3759,
      "åŁºéĩĳ": 3760,
      "ä¼°": 3761,
      "Ġcomes": 3762,
      "Ġarg": 3763,
      "ç£": 3764,
      "ĠéĢļè¿ĩ": 3765,
      "è¶ĬæĿ¥è¶Ĭ": 3766,
      "Ġvict": 3767,
      "Ġarea": 3768,
      "éģį": 3769,
      "è§£éĩĬ": 3770,
      "Ġæ¬§": 3771,
      "sc": 3772,
      "çļĦæŃ": 3773,
      "å±ĭ": 3774,
      "çĭĹ": 3775,
      "ĠåĬł": 3776,
      "Ġé©¬": 3777,
      "æģĲ": 3778,
      "Ġalone": 3779,
      "Ġç©": 3780,
      "Ġroad": 3781,
      "Ġwan": 3782,
      "æĴŃ": 3783,
      "å¦ĩ": 3784,
      "æĦŁè§ī": 3785,
      "Ġchr": 3786,
      "æĻº": 3787,
      "åĳĬè¯īæĪĳ": 3788,
      "æĩ": 3789,
      "Ġbat": 3790,
      "ä¸įçŁ¥éģĵ": 3791,
      "Ġfa": 3792,
      "Ġvir": 3793,
      "Ġneeds": 3794,
      "Ġcla": 3795,
      "æ¸ħæ¥ļ": 3796,
      "rug": 3797,
      "dy": 3798,
      "ability": 3799,
      "Ġkilled": 3800,
      "å§Ĳ": 3801,
      "ç¨³": 3802,
      "ler": 3803,
      "è¿İ": 3804,
      "å´": 3805,
      "ä¸įéĶĻ": 3806,
      "ĠæľĢåĲİ": 3807,
      "Ġæīĵ": 3808,
      "Ġwife": 3809,
      "Ġredu": 3810,
      "Ġmarkets": 3811,
      "Ġvalue": 3812,
      "Ġfav": 3813,
      "åĪ¸": 3814,
      "band": 3815,
      "Ġhigher": 3816,
      "Ġbehind": 3817,
      "Ġprivate": 3818,
      "çĪ¸çĪ¸": 3819,
      "Ġbed": 3820,
      "Ġblo": 3821,
      "ĲĨ": 3822,
      "ç¯": 3823,
      "Ġcoup": 3824,
      "ature": 3825,
      "Ġstory": 3826,
      "ĠæĪĳä»¬å°±": 3827,
      "æĿĲ": 3828,
      "artment": 3829,
      "Ġcurrent": 3830,
      "çĪĨ": 3831,
      "åıĤåĬł": 3832,
      "Ġrad": 3833,
      "inist": 3834,
      "åĮ»çĶŁ": 3835,
      "ıĲ": 3836,
      "Ġmethod": 3837,
      "Ġuniversity": 3838,
      "æķ°æį®": 3839,
      "Ġvol": 3840,
      "ued": 3841,
      "Ġsold": 3842,
      "æ¯ģ": 3843,
      "çŃĳ": 3844,
      "Ġstarted": 3845,
      "Ġpossible": 3846,
      "çļĦæĮ": 3847,
      "Ġcolle": 3848,
      "ec": 3849,
      "Ġdest": 3850,
      "Ġç«": 3851,
      "Ġsimilar": 3852,
      "è´¸æĺĵ": 3853,
      "Ġten": 3854,
      "èĩªçĦ¶": 3855,
      "åħ¶å®ĥ": 3856,
      "Ġsever": 3857,
      "Ġoutside": 3858,
      "çĽ¸åħ³": 3859,
      "Ġpretty": 3860,
      "æī©": 3861,
      "Ġwants": 3862,
      "åĩłä¹İ": 3863,
      "åį±éĻ©": 3864,
      "æľīçĤ¹": 3865,
      "è¿ĩäºĨ": 3866,
      "Ġè¿Ļæł·": 3867,
      "Ġstreet": 3868,
      "aking": 3869,
      "ä¸įåı¯": 3870,
      "æ¢¦": 3871,
      "ises": 3872,
      "ä¼´": 3873,
      "Ġbegin": 3874,
      "äºĭå®ŀä¸Ĭ": 3875,
      "èĸ": 3876,
      "è¾Ĩ": 3877,
      "é¡¶": 3878,
      "Ġä¼Ļè®¡ä»¬": 3879,
      "çĳŀ": 3880,
      "çļĦæĸ°": 3881,
      "å¤®": 3882,
      "Ġå®ŀ": 3883,
      "äººç±»": 3884,
      "åłĤ": 3885,
      "èµĦæľ¬": 3886,
      "Ġfast": 3887,
      "éĻĨ": 3888,
      "Ġrece": 3889,
      "Ġdiffic": 3890,
      "igh": 3891,
      "ä¸Ŀ": 3892,
      "è¯´çļĦ": 3893,
      "Ġdifficult": 3894,
      "ç¡®å®ļ": 3895,
      "Ġansw": 3896,
      "ential": 3897,
      "Ġcam": 3898,
      "Ġhus": 3899,
      "Ġprin": 3900,
      "éĥ¨éĹ¨": 3901,
      "ä¸įæĥ³": 3902,
      "Ġaff": 3903,
      "æ´ĭ": 3904,
      "Ġåĩł": 3905,
      "zy": 3906,
      "Ġhaven": 3907,
      "Ġchance": 3908,
      "Ġtur": 3909,
      "æ¯Ľ": 3910,
      "Ġåİ»": 3911,
      "Ġwhether": 3912,
      "Ġwhite": 3913,
      "æıĲé«ĺ": 3914,
      "Ġlang": 3915,
      "Ġdoll": 3916,
      "Ġmodern": 3917,
      "ov": 3918,
      "like": 3919,
      "éª¨": 3920,
      "è¿¹": 3921,
      "Ġbir": 3922,
      "èĦļ": 3923,
      "Ġleaders": 3924,
      "Ġmilitary": 3925,
      "Ġhell": 3926,
      "ude": 3927,
      "Ġsat": 3928,
      "Ġpick": 3929,
      "åĽº": 3930,
      "ĠåħĪ": 3931,
      "ç³ķ": 3932,
      "èĥŀ": 3933,
      "æľªæĿ¥": 3934,
      "Ġå°½ç®¡": 3935,
      "Ġä»Ģä¹Ī": 3936,
      "ä½Ĩ": 3937,
      "ä¸įæĸŃ": 3938,
      "çĪ±çļĦ": 3939,
      "oid": 3940,
      "éĥ½ä¼ļ": 3941,
      "å»ºè®®": 3942,
      "cip": 3943,
      "Ġeveryone": 3944,
      "Ġrich": 3945,
      "éĻ·": 3946,
      "Ġinvestment": 3947,
      "Ġopt": 3948,
      "èµĦæºĲ": 3949,
      "çĩ": 3950,
      "æµª": 3951,
      "éĩĩåıĸ": 3952,
      "hy": 3953,
      "éĤ¦": 3954,
      "ä»¶äºĭ": 3955,
      "ĠæĪĳåıªæĺ¯": 3956,
      "Ġconcer": 3957,
      "Ġeuropean": 3958,
      "èľ": 3959,
      "Ġminutes": 3960,
      "Ġshare": 3961,
      "Ġacross": 3962,
      "è´§å¸ģ": 3963,
      "çļĦæĶ¿": 3964,
      "åĲĪä½ľ": 3965,
      "Ġcustom": 3966,
      "oub": 3967,
      "Ġfoot": 3968,
      "Ġtrust": 3969,
      "rench": 3970,
      "ĠÂ": 3971,
      "Ġsaying": 3972,
      "Ġground": 3973,
      "èĴĤ": 3974,
      "äºĪ": 3975,
      "æĺ¯ä½ł": 3976,
      "Ġdrug": 3977,
      "åªĴ": 3978,
      "Ġtaken": 3979,
      "çĽĺ": 3980,
      "æ³ķå¾ĭ": 3981,
      "Ġmot": 3982,
      "Ġæľ¬": 3983,
      "Ġmillion": 3984,
      "Ġmater": 3985,
      "å°ģ": 3986,
      "Ġadminist": 3987,
      "æŃ»äºĨ": 3988,
      "Ġshoot": 3989,
      "Ġenglish": 3990,
      "åįĪ": 3991,
      "Ġcomput": 3992,
      "uth": 3993,
      "åĶ±": 3994,
      "åĩıå°ĳ": 3995,
      "çļĦæĥħåĨµ": 3996,
      "å¹´è½»": 3997,
      "è£ģ": 3998,
      "å¦»": 3999,
      "Ġä½ľ": 4000,
      "é»Ħ": 4001,
      "ills": 4002,
      "Ġforce": 4003,
      "ified": 4004,
      "Ġagree": 4005,
      "å®¶ä¼Ļ": 4006,
      "Ġcommon": 4007,
      "iful": 4008,
      "Ġrele": 4009,
      "Ġenter": 4010,
      "cer": 4011,
      "éķĩ": 4012,
      "tain": 4013,
      "lect": 4014,
      "Ġimm": 4015,
      "æĪ¿åŃĲ": 4016,
      "Ġclean": 4017,
      "read": 4018,
      "aces": 4019,
      "åĬŀåħ¬": 4020,
      "ä¼łç»Ł": 4021,
      "Ġparents": 4022,
      "åĶ¯ä¸Ģ": 4023,
      "Ġseveral": 4024,
      "äºĭä»¶": 4025,
      "ĠåĮħ": 4026,
      "ä¹Ķ": 4027,
      "ç¼ĵ": 4028,
      "lex": 4029,
      "ament": 4030,
      "åĺ´": 4031,
      "å¾Īå¥½": 4032,
      "Ġeasy": 4033,
      "Ġthanks": 4034,
      "Ġviol": 4035,
      "Ġmount": 4036,
      "éĢĲ": 4037,
      "Ġflow": 4038,
      "Ġinvol": 4039,
      "èŃ¦å¯Ł": 4040,
      "æĦ¿æĦı": 4041,
      "Ġhusband": 4042,
      "Ġmass": 4043,
      "å¥ĸ": 4044,
      "è§Ħå®ļ": 4045,
      "æļĹ": 4046,
      "Ġcharacter": 4047,
      "ĠÂ·": 4048,
      "çļĦæĹ¶éĹ´": 4049,
      "èĭ¥": 4050,
      "ze": 4051,
      "Ġpaper": 4052,
      "fact": 4053,
      "å·´é©¬": 4054,
      "å»¶": 4055,
      "èĩ³å°ĳ": 4056,
      "å«": 4057,
      "Ġéķ": 4058,
      "Ġstudents": 4059,
      "ĠæŃ£": 4060,
      "Ġsus": 4061,
      "Ġreform": 4062,
      "Ġsmo": 4063,
      "æĢ»æĺ¯": 4064,
      "Ġpict": 4065,
      "Ġanyone": 4066,
      "è¡£æľį": 4067,
      "Ġpoor": 4068,
      "Ġcat": 4069,
      "åŁĥ": 4070,
      "å®ŀçİ°": 4071,
      "çļĦèģ": 4072,
      "ĠåĻ": 4073,
      "é¡º": 4074,
      "å§Ķåĳĺ": 4075,
      "Ġtou": 4076,
      "åħĦ": 4077,
      "æľĢè¿ĳ": 4078,
      "åģļçļĦ": 4079,
      "éļľ": 4080,
      "æķ´ä¸ª": 4081,
      "Ġthemselves": 4082,
      "Ġcredit": 4083,
      "Ġshit": 4084,
      "ĠåıĪ": 4085,
      "ä¸įå¾Ĺ": 4086,
      "sy": 4087,
      "ä¿ĥ": 4088,
      "Ġformer": 4089,
      "ç»¿": 4090,
      "æĶ»": 4091,
      "ä¼ļè®®": 4092,
      "Ġstock": 4093,
      "èģļ": 4094,
      "æĵį": 4095,
      "éķľ": 4096,
      "Ġlangu": 4097,
      "Ġton": 4098,
      "une": 4099,
      "åģ·": 4100,
      "ches": 4101,
      "äºĨä½ł": 4102,
      "Ġaccording": 4103,
      "Ġneg": 4104,
      "åĪ«äºº": 4105,
      "Ġå±": 4106,
      "cially": 4107,
      "éĶ®": 4108,
      "Ġtrue": 4109,
      "æįķ": 4110,
      "ruction": 4111,
      "æĺŁæľŁ": 4112,
      "oud": 4113,
      "éŁ³ä¹Ĳ": 4114,
      "ĠæĹ¢çĦ¶": 4115,
      "æĬ¥åĳĬ": 4116,
      "åŃ¦ä¹ł": 4117,
      "fer": 4118,
      "æĪĺäºī": 4119,
      "Ġdel": 4120,
      "Ġspace": 4121,
      "Ġseems": 4122,
      "Ġwanna": 4123,
      "Ġstuff": 4124,
      "çļĦçģ": 4125,
      "åĿĩ": 4126,
      "Ġpen": 4127,
      "Ġexist": 4128,
      "ĠæĪĳä»¬æĺ¯": 4129,
      "åĲĮæĹ¶": 4130,
      "Ġcomplete": 4131,
      "åıįå¯¹": 4132,
      "bo": 4133,
      "Ġenc": 4134,
      "itting": 4135,
      "Ġmusic": 4136,
      "è´·æ¬¾": 4137,
      "Ġcourt": 4138,
      "éº¦": 4139,
      "Ġtar": 4140,
      "Ġruss": 4141,
      "Ġwonder": 4142,
      "Ġemerg": 4143,
      "åīĤ": 4144,
      "çĭĤ": 4145,
      "cies": 4146,
      "olution": 4147,
      "Ġfoc": 4148,
      "Ġmoment": 4149,
      "Ġage": 4150,
      "éŁ": 4151,
      "Ġtot": 4152,
      "åľ¨åĵª": 4153,
      "çļĦçº": 4154,
      "Ġcirc": 4155,
      "Ġmiddle": 4156,
      "èĢ³": 4157,
      "éĩĮçļĦ": 4158,
      "é«ĺåħ´": 4159,
      "Ġinside": 4160,
      "Ġru": 4161,
      "ograp": 4162,
      "ijing": 4163,
      "Ġgotta": 4164,
      "Ġdemocr": 4165,
      "imate": 4166,
      "ĠéĽ": 4167,
      "ä¿ĿéĻ©": 4168,
      "Ġoffer": 4169,
      "Ġæİ¥": 4170,
      "omes": 4171,
      "èĵ": 4172,
      "ä»»åĬ¡": 4173,
      "çİĽ": 4174,
      "ee": 4175,
      "è°ĭ": 4176,
      "åĬŀæ³ķ": 4177,
      "ell": 4178,
      "Ġmeeting": 4179,
      "Ġremember": 4180,
      "Ġchrist": 4181,
      "èĦı": 4182,
      "iet": 4183,
      "Ġaren": 4184,
      "Ġshop": 4185,
      "Ġrespons": 4186,
      "Ġå·²ç»ı": 4187,
      "èµĦäº§": 4188,
      "Ġgas": 4189,
      "Ġå¯¹äºİ": 4190,
      "Ġconsum": 4191,
      "èıľ": 4192,
      "iod": 4193,
      "è´Łè´£": 4194,
      "Ġbeijing": 4195,
      "wards": 4196,
      "å¤ļå°ĳ": 4197,
      "ç¢°": 4198,
      "ĠåĻ¢": 4199,
      "Ġäººä»¬": 4200,
      "å¦Īå¦Ī": 4201,
      "ma": 4202,
      "Ġciv": 4203,
      "ç½ĳç»ľ": 4204,
      "port": 4205,
      "Ġåľ¨æĪĳ": 4206,
      "ä¸Ģä¸ªäºº": 4207,
      "æ±ĩ": 4208,
      "ä»ħä»ħ": 4209,
      "Ġbeautiful": 4210,
      "ĠæĪĳæĺ¯": 4211,
      "ĠæĪĳä»¬è¦ģ": 4212,
      "ĠæĪĳè§īå¾Ĺ": 4213,
      "Ġprofess": 4214,
      "Ġident": 4215,
      "Ġsea": 4216,
      "estern": 4217,
      "Ġones": 4218,
      "Ġsumm": 4219,
      "éĽ¨": 4220,
      "åıįåºĶ": 4221,
      "è¿Ļæł·çļĦ": 4222,
      "è´¢æĶ¿": 4223,
      "çĶŁçī©": 4224,
      "åİĭåĬĽ": 4225,
      "ended": 4226,
      "æ¸Ĳ": 4227,
      "Ġmaterial": 4228,
      "Ġmult": 4229,
      "Ġabs": 4230,
      "ĠæĪĳä¸įçŁ¥éģĵ": 4231,
      "Ġcontract": 4232,
      "çĽ´æİ¥": 4233,
      "Ġinstit": 4234,
      "ç®Ģåįķ": 4235,
      "Ġfrench": 4236,
      "åı³": 4237,
      "ä¸įèµ·": 4238,
      "Ġrelationship": 4239,
      "éĻħä¸Ĭ": 4240,
      "çĸ¯": 4241,
      "é»ĺ": 4242,
      "Ġworkers": 4243,
      "Ġsociety": 4244,
      "ç»ıå¸¸": 4245,
      "Ġdie": 4246,
      "æĸ¯åĿ¦": 4247,
      "åĪ¶åº¦": 4248,
      "åĽŀå®¶": 4249,
      "ĠæĪĳå¾Ĺ": 4250,
      "Ġrate": 4251,
      "anger": 4252,
      "Ġstrateg": 4253,
      "Ġexperience": 4254,
      "Ġinflu": 4255,
      "Ġdata": 4256,
      "Ġestab": 4257,
      "Ġthreat": 4258,
      "è¡¨æĺİ": 4259,
      "éĴĪ": 4260,
      "rupt": 4261,
      "Ġmur": 4262,
      "Ġç½": 4263,
      "è¡Įä¸ļ": 4264,
      "ç½Ĺæĸ¯": 4265,
      "Ġhuh": 4266,
      "Ġhor": 4267,
      "Ġbillion": 4268,
      "Ġpull": 4269,
      "ging": 4270,
      "åĳ³çĿĢ": 4271,
      "ç§ĳåŃ¦": 4272,
      "æľ«": 4273,
      "ological": 4274,
      "¡®": 4275,
      "Ġdebt": 4276,
      "¤¾ä¼ļ": 4277,
      "eral": 4278,
      "Ġdiscuss": 4279,
      "han": 4280,
      "æĽ²": 4281,
      "è®¡ç®Ĺ": 4282,
      "çĶ³": 4283,
      "ĠåĩĨ": 4284,
      "cent": 4285,
      "Ġä¸įä¼ļ": 4286,
      "par": 4287,
      "Ġsafe": 4288,
      "Ġinvestors": 4289,
      "Ġasked": 4290,
      "é¢ĳ": 4291,
      "Ġåį¡": 4292,
      "Ġæ¸": 4293,
      "ĠåĲį": 4294,
      "å¸¦æĿ¥": 4295,
      "æľīæķĪ": 4296,
      "æĮģç»Ń": 4297,
      "ĠæĻļå®ī": 4298,
      "ĠçĪ±": 4299,
      "ilt": 4300,
      "éľĢæ±Ĥ": 4301,
      "æĭĽ": 4302,
      "Ġä¸įç®¡": 4303,
      "èı²": 4304,
      "è¡¡": 4305,
      "è¯´äºĨ": 4306,
      "Ġcontr": 4307,
      "Ġå¾·": 4308,
      "è§Ħæ¨¡": 4309,
      "ffe": 4310,
      "Ġbrought": 4311,
      "ä¿Ŀè¯ģ": 4312,
      "Ġtradition": 4313,
      "Ġäº¿": 4314,
      "çľĭè§ģ": 4315,
      "æĽ¿": 4316,
      "éĽĩ": 4317,
      "æ¶Īè´¹": 4318,
      "çĵ¦": 4319,
      "çļĦç»ıæµİ": 4320,
      "Ġä¸ºäºĨ": 4321,
      "æĭĴ": 4322,
      "ç¬¬ä¸Ģ": 4323,
      "¶Ī": 4324,
      "æĮ¥": 4325,
      "åĲĮæł·": 4326,
      "ners": 4327,
      "Ġspir": 4328,
      "ĠåĹ¯": 4329,
      "Ġunlike": 4330,
      "Ġgrad": 4331,
      "Ġtele": 4332,
      "hic": 4333,
      "ä¸ĥ": 4334,
      "Ġmad": 4335,
      "ä¸Ī": 4336,
      "ĠåĿ": 4337,
      "æĪĲæľ¬": 4338,
      "aw": 4339,
      "Ġsense": 4340,
      "å·¦": 4341,
      "å³": 4342,
      "ä¹Łä¼ļ": 4343,
      "å»ºçŃĳ": 4344,
      "Ġflo": 4345,
      "Ġcra": 4346,
      "çľĭèµ·æĿ¥": 4347,
      "ibility": 4348,
      "Ġscient": 4349,
      "ç«¥": 4350,
      "åĪĽéĢł": 4351,
      "Ġcivil": 4352,
      "Ġbal": 4353,
      "éľĩ": 4354,
      "é£Łçī©": 4355,
      "Ġå¸Į": 4356,
      "Ġç¦»": 4357,
      "urs": 4358,
      "æľīä»Ģä¹Ī": 4359,
      "ç®±": 4360,
      "Ġanim": 4361,
      "Ġcrit": 4362,
      "Ġä¸ºä»Ģä¹Ī": 4363,
      "Ġball": 4364,
      "åŁºæľ¬": 4365,
      "åķĨä¸ļ": 4366,
      "Ġshot": 4367,
      "men": 4368,
      "åĩºçļĦ": 4369,
      "ç»ĵæŀĦ": 4370,
      "ources": 4371,
      "ission": 4372,
      "çĨŁ": 4373,
      "Ġgets": 4374,
      "èĥģ": 4375,
      "Ġlives": 4376,
      "Ġworth": 4377,
      "èħĬ": 4378,
      "Ġgrowing": 4379,
      "ä»¥ä¸º": 4380,
      "ked": 4381,
      "éĥ½ä¸į": 4382,
      "å®ĮæĪĲ": 4383,
      "lt": 4384,
      "Ġmag": 4385,
      "Ġåī": 4386,
      "Ġentire": 4387,
      "æ¹¾": 4388,
      "å§Ķåĳĺä¼ļ": 4389,
      "nect": 4390,
      "Ġlond": 4391,
      "Ġnorm": 4392,
      "Ġperiod": 4393,
      "Ġé«ĺ": 4394,
      "æĬµ": 4395,
      "åľ¨éĤ£": 4396,
      "Ġtruth": 4397,
      "å½ĵçĦ¶": 4398,
      "mb": 4399,
      "åħ«": 4400,
      "Ġhair": 4401,
      "æ°´å¹³": 4402,
      "æĿ¡ä»¶": 4403,
      "Ġlondon": 4404,
      "Ġworks": 4405,
      "Ġaccept": 4406,
      "å£°éŁ³": 4407,
      "å¾Ĵ": 4408,
      "éĤ®": 4409,
      "æ¯ĶèµĽ": 4410,
      "èª": 4411,
      "Ġbenef": 4412,
      "ä¸įäºĨ": 4413,
      "Ġåıĳ": 4414,
      "èµĸ": 4415,
      "æĴĴ": 4416,
      "Ġusually": 4417,
      "Ġåĵĩ": 4418,
      "çĭ±": 4419,
      "Ġinn": 4420,
      "è®¢": 4421,
      "å¤§éĩı": 4422,
      "åį°åº¦": 4423,
      "å¹ħ": 4424,
      "æĦıä¹ī": 4425,
      "Ġvisit": 4426,
      "å¼Ĺ": 4427,
      "Ġmach": 4428,
      "Ġbi": 4429,
      "è¯´è¯Ŀ": 4430,
      "èģĶç³»": 4431,
      "Ġmer": 4432,
      "éĩĮéĿ¢": 4433,
      "å½©": 4434,
      "éĿ¢ä¸´": 4435,
      "Ġmis": 4436,
      "Ġlower": 4437,
      "åĴĮä½ł": 4438,
      "åĳĢ": 4439,
      "Ġstri": 4440,
      "åī¯": 4441,
      "çģŃ": 4442,
      "Ġwestern": 4443,
      "è®¨è®º": 4444,
      "Ġeither": 4445,
      "åģļäºĨ": 4446,
      "ĠåĲĳ": 4447,
      "çĶµåŃĲ": 4448,
      "Ġevent": 4449,
      "éĶĻè¯¯": 4450,
      "Ġlu": 4451,
      "Ġeast": 4452,
      "ully": 4453,
      "æĸĩä»¶": 4454,
      "æ°¸è¿ľ": 4455,
      "Ġdin": 4456,
      "oming": 4457,
      "Ġren": 4458,
      "éļĲ": 4459,
      "ensive": 4460,
      "ift": 4461,
      "Ġspeak": 4462,
      "Ġgoes": 4463,
      "ample": 4464,
      "Ġupon": 4465,
      "ences": 4466,
      "çļĦæ¸": 4467,
      "Ġunfortun": 4468,
      "ĠåĮħæĭ¬": 4469,
      "ä¸Īå¤«": 4470,
      "è¿Ļæĺ¯": 4471,
      "åĽłç´ł": 4472,
      "ç«ŀäºī": 4473,
      "Ġwest": 4474,
      "éĢĶ": 4475,
      "è¯Ńè¨Ģ": 4476,
      "æİªæĸ½": 4477,
      "çĺ": 4478,
      "çļĦæķ°": 4479,
      "pping": 4480,
      "ĠæĪĳåı¯": 4481,
      "Ġå¥¥": 4482,
      "éĽħ": 4483,
      "aged": 4484,
      "å¦¹": 4485,
      "Ġclaim": 4486,
      "Ġloss": 4487,
      "ivid": 4488,
      "å®Ĺ": 4489,
      "è¶ħè¿ĩ": 4490,
      "mon": 4491,
      "ring": 4492,
      "rael": 4493,
      "çļĦç½": 4494,
      "Ġpie": 4495,
      "èī²åĪĹ": 4496,
      "è¢Ń": 4497,
      "Ġisland": 4498,
      "éĢīä¸¾": 4499,
      "Ġer": 4500,
      "Ġengine": 4501,
      "Ġmembers": 4502,
      "Ġculture": 4503,
      "Ġéķ¿": 4504,
      "æķ¢": 4505,
      "çļĦæ²": 4506,
      "éĽ¶": 4507,
      "èº": 4508,
      "Ġitself": 4509,
      "Ġquality": 4510,
      "Ġæĺ¯åĲĹ": 4511,
      "Ġphot": 4512,
      "Ġship": 4513,
      "Ġvill": 4514,
      "æľĢç»Ī": 4515,
      "é¾Ļ": 4516,
      "Ġfrank": 4517,
      "æĮĳ": 4518,
      "ä½Ľ": 4519,
      "ä¸ĬäºĨ": 4520,
      "Ġéĥ½": 4521,
      "æĪĲåĳĺ": 4522,
      "ughter": 4523,
      "medi": 4524,
      "æ²ī": 4525,
      "Ġcouldn": 4526,
      "Ġexch": 4527,
      "Ġespe": 4528,
      "Ġways": 4529,
      "æ»ĳ": 4530,
      "Ġisrael": 4531,
      "ç»Ĩèĥŀ": 4532,
      "Ġmist": 4533,
      "hold": 4534,
      "Ġthird": 4535,
      "Ġdoctor": 4536,
      "çī¹åĪ«": 4537,
      "rodu": 4538,
      "æĦıåĳ³çĿĢ": 4539,
      "Ġregul": 4540,
      "æīĵçĶµè¯Ŀ": 4541,
      "å¾·åĽ½": 4542,
      "è¯ļ": 4543,
      "ĠåºĶ": 4544,
      "Ġhowever": 4545,
      "æ¼Ĥ": 4546,
      "Ġport": 4547,
      "å·§": 4548,
      "Ġdisp": 4549,
      "Ġunless": 4550,
      "è¯ķåĽ¾": 4551,
      "é¢ĨåŁŁ": 4552,
      "Ġespecially": 4553,
      "æĦıè¯Ĩ": 4554,
      "ç¿»": 4555,
      "æ³¨æĦı": 4556,
      "å¼Ģåıĳ": 4557,
      "Ġrunning": 4558,
      "Ġmal": 4559,
      "èĴĻ": 4560,
      "åªĴä½ĵ": 4561,
      "Ġäºĭå®ŀä¸Ĭ": 4562,
      "ding": 4563,
      "ows": 4564,
      "å¥³æĢ§": 4565,
      "ressed": 4566,
      "æĶ¹éĿ©": 4567,
      "Ġexact": 4568,
      "æĤ£": 4569,
      "Ġcollect": 4570,
      "æł¹æľ¬": 4571,
      "ney": 4572,
      "Ġåĥı": 4573,
      "Ġcard": 4574,
      "Ġlearn": 4575,
      "Ġahead": 4576,
      "çļĦç¾İ": 4577,
      "Ġobama": 4578,
      "Ġanaly": 4579,
      "éģ¿åħį": 4580,
      "Ġmic": 4581,
      "Ġæ¯Ķå¦Ĥ": 4582,
      "ucle": 4583,
      "¹ģ": 4584,
      "Ġdesc": 4585,
      "Ġnatural": 4586,
      "æī§è¡Į": 4587,
      "Ġtried": 4588,
      "Ġæ±¤å§Ĩ": 4589,
      "Ġç¥ŀ": 4590,
      "çļĦåľ°": 4591,
      "Ġlos": 4592,
      "é£ŀæľº": 4593,
      "éĽª": 4594,
      "è´Ńä¹°": 4595,
      "åĲ¸å¼ķ": 4596,
      "Ġcomb": 4597,
      "æĪ¿éĹ´": 4598,
      "çļĦå·¥ä½ľ": 4599,
      "æİĪ": 4600,
      "åºĶçĶ¨": 4601,
      "ify": 4602,
      "Ġå°±æĺ¯": 4603,
      "Ġinvestig": 4604,
      "Ġproducts": 4605,
      "çľŁæĺ¯": 4606,
      "Ġfucking": 4607,
      "çĿ£": 4608,
      "Ġturned": 4609,
      "Ġèĥ½": 4610,
      "Ġkore": 4611,
      "è®°å½ķ": 4612,
      "Ġenj": 4613,
      "Ġcover": 4614,
      "Ġnecess": 4615,
      "Ġhosp": 4616,
      "è§¦": 4617,
      "éķ¿æľŁ": 4618,
      "å¿ħè¦ģ": 4619,
      "Ġforg": 4620,
      "Ġquite": 4621,
      "Ġgermany": 4622,
      "Ġåħ³äºİ": 4623,
      "Ġsend": 4624,
      "Ġpack": 4625,
      "Ġknew": 4626,
      "åĬĽéĩı": 4627,
      "Ġmodel": 4628,
      "åĬŀåħ¬å®¤": 4629,
      "åħ³æ³¨": 4630,
      "uit": 4631,
      "rew": 4632,
      "ä¿©": 4633,
      "èº«ä¸Ĭ": 4634,
      "Ġphys": 4635,
      "è¿Ŀ": 4636,
      "æ±ī": 4637,
      "æī°": 4638,
      "Ġhimself": 4639,
      "å°¼äºļ": 4640,
      "Ġæį¢": 4641,
      "Ġimprove": 4642,
      "Ġä¸ĭ": 4643,
      "Ġcash": 4644,
      "Ġmyself": 4645,
      "æ°ĳä¸»": 4646,
      "è´£ä»»": 4647,
      "Ġcold": 4648,
      "å¨ģèĥģ": 4649,
      "Ġexec": 4650,
      "æ£ĢæŁ¥": 4651,
      "Ġstruct": 4652,
      "Ġcertainly": 4653,
      "ands": 4654,
      "ients": 4655,
      "ä½Ļ": 4656,
      "Ġeye": 4657,
      "æİĮ": 4658,
      "Ġchanges": 4659,
      "¤åħ¶": 4660,
      "Ġåľ°": 4661,
      "äººå£«": 4662,
      "Ġèģ": 4663,
      "room": 4664,
      "Ġstra": 4665,
      "å½ĵåľ°": 4666,
      "uan": 4667,
      "oint": 4668,
      "Ġconv": 4669,
      "æľīä¸Ģä¸ª": 4670,
      "Ġapplic": 4671,
      "ä¸°": 4672,
      "Ġnucle": 4673,
      "è¿Ł": 4674,
      "æ²»çĸĹ": 4675,
      "Ġmedia": 4676,
      "ä¹Łè®¸": 4677,
      "Ġcorp": 4678,
      "æ¶²": 4679,
      "Ġsoft": 4680,
      "æĭľ": 4681,
      "é¼ĵ": 4682,
      "æľīåı¯èĥ½": 4683,
      "Ġä½łåľ¨": 4684,
      "ä»¥åĲİ": 4685,
      "Ġtelling": 4686,
      "Ġå·´": 4687,
      "Ġcy": 4688,
      "Ġsingle": 4689,
      "Ġunfortunately": 4690,
      "Ġbot": 4691,
      "æĹ¶ä»£": 4692,
      "æ¯Ķè¾ĥ": 4693,
      "è·Łä½ł": 4694,
      "ĠæĦ": 4695,
      "ç¨ĭåº¦": 4696,
      "èīºæľ¯": 4697,
      "ung": 4698,
      "çļĦèĥ": 4699,
      "åķ¡": 4700,
      "ival": 4701,
      "Ġlegal": 4702,
      "æĳ©": 4703,
      "Ġlock": 4704,
      "Ġcarry": 4705,
      "fully": 4706,
      "Ġè¯´": 4707,
      "éº»çĥ¦": 4708,
      "½çº¦": 4709,
      "Ġheav": 4710,
      "çļĦæĭ": 4711,
      "åĳĬè¯īä½ł": 4712,
      "åı¶": 4713,
      "Ġweak": 4714,
      "ç»ıåİĨ": 4715,
      "èĢĮè¨Ģ": 4716,
      "è¿Ľä¸ĢæŃ¥": 4717,
      "Ġfis": 4718,
      "Ġbecame": 4719,
      "çĲĨè§£": 4720,
      "æīĭæľº": 4721,
      "Ġmanu": 4722,
      "æīįèĥ½": 4723,
      "åĨĴ": 4724,
      "æĢİä¹Īæł·": 4725,
      "åİĮ": 4726,
      "Ġperfect": 4727,
      "èĦ¸": 4728,
      "cu": 4729,
      "Ġminister": 4730,
      "çĥ§": 4731,
      "Ġspeci": 4732,
      "Ġanswer": 4733,
      "Ġwhate": 4734,
      "ex": 4735,
      "è¡°": 4736,
      "èµŀ": 4737,
      "Ġareas": 4738,
      "çļĦçłĶç©¶": 4739,
      "Ġä¸įè¦ģ": 4740,
      "åĩºåı£": 4741,
      "Ġå¦": 4742,
      "èĢħçļĦ": 4743,
      "Ġå¤ª": 4744,
      "Ġwhatever": 4745,
      "åĬ±": 4746,
      "Ġstat": 4747,
      "æĺİæĺ¾": 4748,
      "éĶĢåĶ®": 4749,
      "Ġstar": 4750,
      "å¿§": 4751,
      "åıĺæĪĲ": 4752,
      "Ġé¦": 4753,
      "åĨħå®¹": 4754,
      "çģ¾": 4755,
      "è®©ä»ĸ": 4756,
      "bit": 4757,
      "ä¹Ŀ": 4758,
      "ĠåĪļ": 4759,
      "Ġtouch": 4760,
      "ä¸ļåĬ¡": 4761,
      "è¾¾åĪ°": 4762,
      "Ġäºİ": 4763,
      "çİ°ä»£": 4764,
      "éĩįè¦ģçļĦ": 4765,
      "to": 4766,
      "Ġpal": 4767,
      "ä¸Ģå®¶": 4768,
      "åŁ¹": 4769,
      "éŀ": 4770,
      "uses": 4771,
      "Ġforward": 4772,
      "å¤§å®¶": 4773,
      "åĲĦç§į": 4774,
      "Ġdrive": 4775,
      "ĠåĩĨå¤ĩ": 4776,
      "rict": 4777,
      "é½": 4778,
      "Ġchief": 4779,
      "éĥ½åľ¨": 4780,
      "Ġä¼Ĭ": 4781,
      "iment": 4782,
      "Ġrock": 4783,
      "è¯ģæį®": 4784,
      "Ġje": 4785,
      "Ġèĭ¥": 4786,
      "Ġpet": 4787,
      "æĹ¶æľŁ": 4788,
      "å·¥ç¨ĭ": 4789,
      "å¥½åĲĹ": 4790,
      "Ġobs": 4791,
      "éĻĲåĪ¶": 4792,
      "çĶµèĦĳ": 4793,
      "åĴĮåįİ": 4794,
      "Ġtravel": 4795,
      "Ġorig": 4796,
      "Ġfear": 4797,
      "Ġåħ¶ä¸Ń": 4798,
      "Ġjapanese": 4799,
      "Ġçī¹": 4800,
      "æĿ°": 4801,
      "Ġå®¶": 4802,
      "å¨ĺ": 4803,
      "çļĦéĤ£": 4804,
      "åĽ½åĨħ": 4805,
      "ç§Ł": 4806,
      "Ġrules": 4807,
      "åĴĮæĪĳ": 4808,
      "Ġlose": 4809,
      "²¾": 4810,
      "iding": 4811,
      "Ġterr": 4812,
      "Ġfort": 4813,
      "Ġworse": 4814,
      "è½½": 4815,
      "Ġgiving": 4816,
      "Ġindivid": 4817,
      "çĮ®": 4818,
      "Ġtyp": 4819,
      "Ġconnect": 4820,
      "Ġarri": 4821,
      "åĢºåĬ¡": 4822,
      "å®ŀéªĮ": 4823,
      "éĽĨåĽ¢": 4824,
      "Ġdise": 4825,
      "Ġobject": 4826,
      "Ġcouple": 4827,
      "æĬĺ": 4828,
      "eng": 4829,
      "ĠæĪĳæĬĬ": 4830,
      "Ġwashing": 4831,
      "ĠéĤ£ä¸ª": 4832,
      "åĲ¬åĪ°": 4833,
      "æĶ¶åħ¥": 4834,
      "Ġsuff": 4835,
      "Ġproperty": 4836,
      "çļĦæ³ķ": 4837,
      "ä¹ı": 4838,
      "Ġpeace": 4839,
      "ĠæĪĳåİ»": 4840,
      "Ġrates": 4841,
      "åįıè®®": 4842,
      "çĩĥ": 4843,
      "Ġgree": 4844,
      "Ġservices": 4845,
      "ä½ĵç³»": 4846,
      "ç¼ĸ": 4847,
      "Ġincreasing": 4848,
      "Ġstren": 4849,
      "ĸåķ¡": 4850,
      "Ġhang": 4851,
      "Ġmov": 4852,
      "ç»Ļä»ĸ": 4853,
      "Ġlanguage": 4854,
      "ç²¾ç¥ŀ": 4855,
      "é¸¡": 4856,
      "Ġbill": 4857,
      "oose": 4858,
      "Ġæīĭ": 4859,
      "Ġgovernments": 4860,
      "Ġanalys": 4861,
      "åĢ¾": 4862,
      "äºĨä»ĸ": 4863,
      "Ġprovide": 4864,
      "Ġinterv": 4865,
      "çĲĨè®º": 4866,
      "Ġpressure": 4867,
      "ili": 4868,
      "éħ¸": 4869,
      "çģ¯": 4870,
      "Ġimmedi": 4871,
      "Ġæį®": 4872,
      "Ġthous": 4873,
      "å¼ķèµ·": 4874,
      "Ġweeks": 4875,
      "åĳĺå·¥": 4876,
      "airs": 4877,
      "Ġmanufact": 4878,
      "Ġpred": 4879,
      "æ±¡": 4880,
      "Ġåĩº": 4881,
      "Ġjobs": 4882,
      "Ġbegan": 4883,
      "Ġåı¦": 4884,
      "æŃ»äº¡": 4885,
      "è¸ª": 4886,
      "çĿĽ": 4887,
      "Ġevening": 4888,
      "Ġå¥³å£«": 4889,
      "çļĦæĦŁ": 4890,
      "hern": 4891,
      "çĦ": 4892,
      "Ġpersonal": 4893,
      "ä¸ĵå®¶": 4894,
      "çļĦèº«": 4895,
      "Ġfirm": 4896,
      "Ġsweet": 4897,
      "çļĦç«": 4898,
      "Ġplant": 4899,
      "æĭĴç»Ŀ": 4900,
      "Ġwish": 4901,
      "Ġround": 4902,
      "Ġwaiting": 4903,
      "Ġæł¹": 4904,
      "Ġevidence": 4905,
      "çĶ°": 4906,
      "å¸®æĪĳ": 4907,
      "ç¢į": 4908,
      "ģè®¸": 4909,
      "ĠæĪĳå°±": 4910,
      "ä¸ºæŃ¢": 4911,
      "åįģåĪĨ": 4912,
      "éªĹ": 4913,
      "Ġju": 4914,
      "Ġsituation": 4915,
      "åİħ": 4916,
      "Ġsurpr": 4917,
      "allen": 4918,
      "ä¾µ": 4919,
      "æıı": 4920,
      "Ġtour": 4921,
      "ley": 4922,
      "å¥¹ä»¬": 4923,
      "èģĶåĲĪ": 4924,
      "èį£": 4925,
      "ä¸ģ": 4926,
      "å¾Īå¿«": 4927,
      "ban": 4928,
      "æĺ¯è°ģ": 4929,
      "æĸ¹æ¡Ī": 4930,
      "Ġsubject": 4931,
      "ery": 4932,
      "umb": 4933,
      "Ġafric": 4934,
      "æĳĦ": 4935,
      "Ġver": 4936,
      "æ¯«": 4937,
      "å°ļ": 4938,
      "é¹": 4939,
      "ä¸īä¸ª": 4940,
      "Ġfix": 4941,
      "å°Ŀ": 4942,
      "Ġach": 4943,
      "Ġrespect": 4944,
      "Ġstreng": 4945,
      "ä¸ĭçļĦ": 4946,
      "Ġspo": 4947,
      "Ġcentury": 4948,
      "Ġnuclear": 4949,
      "Ġfollowing": 4950,
      "ķèµĦ": 4951,
      "Ġincrease": 4952,
      "å¥³åĦ¿": 4953,
      "Ġindividual": 4954,
      "å²¸": 4955,
      "Ġnature": 4956,
      "Ġdanger": 4957,
      "ived": 4958,
      "ç³ĸ": 4959,
      "of": 4960,
      "ĠæĹ©ä¸Ĭå¥½": 4961,
      "Ġsimply": 4962,
      "Ġcross": 4963,
      "åľ¨æĪĳ": 4964,
      "æīİ": 4965,
      "ource": 4966,
      "Ġposition": 4967,
      "ä¿Ħç½Ĺæĸ¯": 4968,
      "Ġriver": 4969,
      "çħ": 4970,
      "Ġsen": 4971,
      "ires": 4972,
      "ening": 4973,
      "Ġsud": 4974,
      "akes": 4975,
      "Ġæĳ": 4976,
      "Ġproduction": 4977,
      "èĢ¶åĴĮåįİ": 4978,
      "ä¸ĭåİ»": 4979,
      "riend": 4980,
      "Ġwrite": 4981,
      "åıĤä¸İ": 4982,
      "ased": 4983,
      "æĩĤ": 4984,
      "éĶģ": 4985,
      "Ġbrain": 4986,
      "å®¢æĪ·": 4987,
      "çļĦæĸ¹å¼ı": 4988,
      "Ġdark": 4989,
      "äººéĥ½": 4990,
      "æ¸¸æĪı": 4991,
      "Ġéĺ¿": 4992,
      "erve": 4993,
      "çļĦçĲĨ": 4994,
      "Ġsignific": 4995,
      "Ġsales": 4996,
      "Ġang": 4997,
      "ä¸įåĨį": 4998,
      "ĠæĪĳçľĭ": 4999,
      "Ġhous": 5000,
      "Ġä¸įèĥ½": 5001,
      "é©¬ä¸Ĭ": 5002,
      "æī¿è®¤": 5003,
      "æĥ¯": 5004,
      "Ġq": 5005,
      "Ġfair": 5006,
      "è¿ħ": 5007,
      "Ġchallen": 5008,
      "è£Ĥ": 5009,
      "Ġprep": 5010,
      "Ġjour": 5011,
      "Ġneigh": 5012,
      "è¿ĻåĦ¿": 5013,
      "Ġabove": 5014,
      "Ġtheory": 5015,
      "èĻ«": 5016,
      "Ġæĥ³": 5017,
      "åģ¿": 5018,
      "ĠéĤ£äºĽ": 5019,
      "Ġneeded": 5020,
      "Ġneighb": 5021,
      "ball": 5022,
      "è¢ĭ": 5023,
      "åĲĮæĦı": 5024,
      "éĻĦè¿ĳ": 5025,
      "ively": 5026,
      "Ġsty": 5027,
      "ĠçĶļèĩ³": 5028,
      "ently": 5029,
      "ĠçĤ": 5030,
      "æģĭ": 5031,
      "åĪĨåŃĲ": 5032,
      "å·¥ä¸ļ": 5033,
      "Ġopportun": 5034,
      "Ġlooked": 5035,
      "èģĬ": 5036,
      "Ġrole": 5037,
      "ç¡®å®ŀ": 5038,
      "Ġattention": 5039,
      "è¶³å¤Ł": 5040,
      "aff": 5041,
      "ead": 5042,
      "ä¸¢": 5043,
      "Ġyork": 5044,
      "æ³ķåĽ½": 5045,
      "å®½": 5046,
      "ä¸ĭéĻį": 5047,
      "Ġrepres": 5048,
      "Ġsimple": 5049,
      "ax": 5050,
      "go": 5051,
      "çļĦä¸į": 5052,
      "Ġè¥¿": 5053,
      "æı´": 5054,
      "Ġdig": 5055,
      "çĶ¨äºİ": 5056,
      "ĠæĪĳæĿ¥": 5057,
      "å°Ĭ": 5058,
      "Ġè¿Ļä¸Ģ": 5059,
      "ĠçĽ®": 5060,
      "Ġtrouble": 5061,
      "åħ´è¶£": 5062,
      "çļĦæ°´": 5063,
      "Ġinternet": 5064,
      "ially": 5065,
      "Ġsqu": 5066,
      "ĠæıĲ": 5067,
      "Ġexample": 5068,
      "Ġsave": 5069,
      "èĥĢ": 5070,
      "æĸ°éĹ»": 5071,
      "åģı": 5072,
      "å¤įæĿĤ": 5073,
      "Ġissue": 5074,
      "Ġscience": 5075,
      "rie": 5076,
      "é¥®": 5077,
      "Ġä½łæĥ³": 5078,
      "Ġvot": 5079,
      "ç¡¬": 5080,
      "ĠæĪĲ": 5081,
      "Ġbag": 5082,
      "ä¸Ģä½į": 5083,
      "éĻįä½İ": 5084,
      "çļĦåĽ½å®¶": 5085,
      "çļĦçĹ": 5086,
      "æ¾": 5087,
      "æĳĨ": 5088,
      "Ġfarm": 5089,
      "more": 5090,
      "ä¸¹": 5091,
      "Ġheld": 5092,
      "Ġenterpr": 5093,
      "Ġtonight": 5094,
      "Ġrights": 5095,
      "Ġdied": 5096,
      "Ġå¤ĸ": 5097,
      "å»ºè®¾": 5098,
      "Ġhurt": 5099,
      "Ġè¢«": 5100,
      "ä¹Į": 5101,
      "åĪ°ä½ł": 5102,
      "ĠæĪĳä»¬è¿ĺ": 5103,
      "åĪĳ": 5104,
      "æ¦Ĥ": 5105,
      "æĪĳå°±": 5106,
      "Ġä½łçİ°åľ¨": 5107,
      "è´«": 5108,
      "Ġconsider": 5109,
      "è·Ŀ": 5110,
      "æĸ¯çī¹": 5111,
      "æĭīåħĭ": 5112,
      "ŁĲ": 5113,
      "èİ«": 5114,
      "æĺ¯åĽłä¸º": 5115,
      "åıªèĥ½": 5116,
      "Ġä»ĸçļĦ": 5117,
      "å¤±è´¥": 5118,
      "ä¼ļæľī": 5119,
      "éĽĦ": 5120,
      "Ġcreate": 5121,
      "Ġcomputer": 5122,
      "Ġfrance": 5123,
      "ĠåĪĻ": 5124,
      "Ġrob": 5125,
      "çĽ¸å½ĵ": 5126,
      "Ġbirth": 5127,
      "æ¼Ĥäº®": 5128,
      "Ġwed": 5129,
      "ĠåŃ¦": 5130,
      "lished": 5131,
      "éŃĶ": 5132,
      "ites": 5133,
      "Ġachie": 5134,
      "oring": 5135,
      "åħ³éĶ®": 5136,
      "ç¬¬äºĮ": 5137,
      "ened": 5138,
      "Ġpan": 5139,
      "çľ¼çĿĽ": 5140,
      "Ġæīį": 5141,
      "çļĦæĥ³": 5142,
      "ented": 5143,
      "Ġult": 5144,
      "åºŁ": 5145,
      "Ġdrink": 5146,
      "Ġå·¥": 5147,
      "Ġtarget": 5148,
      "æ¶¨": 5149,
      "å¤ļçļĦ": 5150,
      "æĶ¾åľ¨": 5151,
      "äºļæ´²": 5152,
      "Ġemb": 5153,
      "åħ¬åħ±": 5154,
      "Ġdepartment": 5155,
      "Ġquestions": 5156,
      "Ġaction": 5157,
      "è´´": 5158,
      "Ġdate": 5159,
      "è¡ĮçļĦ": 5160,
      "æĬķèµĦèĢħ": 5161,
      "Ġexchange": 5162,
      "ao": 5163,
      "yn": 5164,
      "Ġdraw": 5165,
      "è®¾å¤ĩ": 5166,
      "Ġord": 5167,
      "itted": 5168,
      "Ġindia": 5169,
      "ä¸įåľ¨": 5170,
      "å®ŀæĸ½": 5171,
      "è®°å¾Ĺ": 5172,
      "ç¹ģ": 5173,
      "å°¸": 5174,
      "äººåľ¨": 5175,
      "Ġlay": 5176,
      "åĲ¯": 5177,
      "æľĢå¥½": 5178,
      "æ¶ī": 5179,
      "Ġrequire": 5180,
      "æĹģ": 5181,
      "Ġdeterm": 5182,
      "Ġregion": 5183,
      "è§ĤçĤ¹": 5184,
      "æŀģäºĨ": 5185,
      "ĠæĤ": 5186,
      "å¹ķ": 5187,
      "ĠåĴ±ä»¬": 5188,
      "Ġden": 5189,
      "arc": 5190,
      "ĠåħĪçĶŁ": 5191,
      "Ġexam": 5192,
      "Ġaccess": 5193,
      "äºĳ": 5194,
      "Ġfirms": 5195,
      "Ġquickly": 5196,
      "Ġmine": 5197,
      "åħ¶ä¸Ń": 5198,
      "Ġimpact": 5199,
      "au": 5200,
      "Ġbull": 5201,
      "Ġimagine": 5202,
      "æľīä¸ª": 5203,
      "Ġpopular": 5204,
      "Ġarmy": 5205,
      "Ġhong": 5206,
      "Ġé£": 5207,
      "çĶ±äºİ": 5208,
      "Ġextra": 5209,
      "Ġcases": 5210,
      "åĬĽçļĦ": 5211,
      "che": 5212,
      "å¿Ĩ": 5213,
      "å¤ı": 5214,
      "é¸Ł": 5215,
      "Ġintell": 5216,
      "Ġhospital": 5217,
      "lin": 5218,
      "åºĨ": 5219,
      "Ġinstead": 5220,
      "Ġhuge": 5221,
      "ä¸Ģå¤©": 5222,
      "æĪ´": 5223,
      "Ġamount": 5224,
      "Ġprincip": 5225,
      "istan": 5226,
      "ī´": 5227,
      "Ġcatch": 5228,
      "Ġstru": 5229,
      "ification": 5230,
      "è¯ŀ": 5231,
      "Ġwit": 5232,
      "ĠåĲ¦": 5233,
      "æıĲåĩº": 5234,
      "aced": 5235,
      "Ġdaughter": 5236,
      "åĳĨ": 5237,
      "å°±èĥ½": 5238,
      "Ġæŀ": 5239,
      "ç¨ĭåºı": 5240,
      "Ġcool": 5241,
      "å®«": 5242,
      "éĢŁåº¦": 5243,
      "åĬŁèĥ½": 5244,
      "Ġsens": 5245,
      "è·ŁæĪĳ": 5246,
      "ression": 5247,
      "ç¨³å®ļ": 5248,
      "å¤§åĪ©": 5249,
      "ests": 5250,
      "éĿ¢å¯¹": 5251,
      "åĮ»éĻ¢": 5252,
      "ĠåĶ¯ä¸Ģ": 5253,
      "Ġspirit": 5254,
      "Ġpoll": 5255,
      "Ġcommer": 5256,
      "åħ°åħĭ": 5257,
      "Ġåģĩå¦Ĥ": 5258,
      "Ġdeli": 5259,
      "ĠæĪĳä»¬åľ¨": 5260,
      "ç»ĵå©ļ": 5261,
      "åħģè®¸": 5262,
      "Ġeight": 5263,
      "ĠèĢĮä¸įæĺ¯": 5264,
      "hu": 5265,
      "resh": 5266,
      "Ġannoun": 5267,
      "äºĨåĲ§": 5268,
      "¢å¤į": 5269,
      "Ġclos": 5270,
      "Ġé»": 5271,
      "come": 5272,
      "Ġtend": 5273,
      "çĸ¾": 5274,
      "æłĩåĩĨ": 5275,
      "çĮľ": 5276,
      "Ġfilm": 5277,
      "Ġfly": 5278,
      "æĶ¾å¼ĥ": 5279,
      "Ġwood": 5280,
      "ĠæĪĳè¯´": 5281,
      "soci": 5282,
      "Ġinsur": 5283,
      "Ġfat": 5284,
      "Ġrom": 5285,
      "æĢĴ": 5286,
      "Ġplans": 5287,
      "iang": 5288,
      "Ġsong": 5289,
      "å¸®ä½ł": 5290,
      "ilities": 5291,
      "Ġenjoy": 5292,
      "Ġrise": 5293,
      "åľ°çĲĥ": 5294,
      "è®©äºº": 5295,
      "Ġcurren": 5296,
      "rial": 5297,
      "åľ¨è¿ĻåĦ¿": 5298,
      "æĬĬå®ĥ": 5299,
      "Ġhost": 5300,
      "éĥ½æľī": 5301,
      "Ġbase": 5302,
      "æĬ¥éģĵ": 5303,
      "ublic": 5304,
      "æ¨¡å¼ı": 5305,
      "Ġice": 5306,
      "ä½³": 5307,
      "Ġboss": 5308,
      "ç»ıéªĮ": 5309,
      "èĤ¥": 5310,
      "¨æĦı": 5311,
      "æ¡£": 5312,
      "ĠåŃ©åŃĲä»¬": 5313,
      "å¦»åŃĲ": 5314,
      "Ġwashington": 5315,
      "Ġhey": 5316,
      "ç»ª": 5317,
      "å¾Īéļ¾": 5318,
      "è¿Ľåİ»": 5319,
      "Ġbox": 5320,
      "Ġfinal": 5321,
      "ä¹¡": 5322,
      "Ġran": 5323,
      "éĺ´": 5324,
      "å¹¶æ²¡æľī": 5325,
      "Ġpractice": 5326,
      "Ġliber": 5327,
      "Ġbroad": 5328,
      "cul": 5329,
      "å¾Ħ": 5330,
      "çĶ¨çļĦ": 5331,
      "Ġcenter": 5332,
      "ledge": 5333,
      "åľŁåľ°": 5334,
      "Ġexactly": 5335,
      "Ġfeeling": 5336,
      "Ġfocus": 5337,
      "è¶ĭ": 5338,
      "æīĵç®Ĺ": 5339,
      "Ġäº²": 5340,
      "amed": 5341,
      "ped": 5342,
      "Ġcalm": 5343,
      "Ġç®Ĺ": 5344,
      "Ġspend": 5345,
      "æ½ľ": 5346,
      "åĩĢ": 5347,
      "Ġrepublic": 5348,
      "å½¢æĪĲ": 5349,
      "gy": 5350,
      "Ġassoci": 5351,
      "åĮºåŁŁ": 5352,
      "ä¼Ł": 5353,
      "åĴĸåķ¡": 5354,
      "å°±åĥı": 5355,
      "è¾©": 5356,
      "å¹¿åĳĬ": 5357,
      "Ġç»ĵæŀľ": 5358,
      "çļĦæ´": 5359,
      "Ġanti": 5360,
      "Ġfavor": 5361,
      "oul": 5362,
      "Ġstraight": 5363,
      "het": 5364,
      "Ġcontinue": 5365,
      "Ġavoid": 5366,
      "çļĦæģ": 5367,
      "ession": 5368,
      "Ġintrodu": 5369,
      "Ġaffect": 5370,
      "çļĦæĻ": 5371,
      "è°İ": 5372,
      "çİ°å®ŀ": 5373,
      "åĬłåħ¥": 5374,
      "Ġmedic": 5375,
      "Ġemploy": 5376,
      "ä½įç½®": 5377,
      "ĠæĪĸè®¸": 5378,
      "çļĩ": 5379,
      "Ġboard": 5380,
      "Ġappear": 5381,
      "reme": 5382,
      "utions": 5383,
      "unk": 5384,
      "Ġfill": 5385,
      "cious": 5386,
      "å½¢å¼ı": 5387,
      "Ġknows": 5388,
      "Ġcamer": 5389,
      "lled": 5390,
      "çļĦèĭ": 5391,
      "elt": 5392,
      "Ġtype": 5393,
      "Ġess": 5394,
      "Ġæģ": 5395,
      "Ġpsy": 5396,
      "Ġä½łä¼ļ": 5397,
      "çļĦèĪ": 5398,
      "Ġsurv": 5399,
      "ps": 5400,
      "çļĦé«ĺ": 5401,
      "Ġexpert": 5402,
      "åĽ°éļ¾": 5403,
      "over": 5404,
      "Ġliter": 5405,
      "è®¯": 5406,
      "ference": 5407,
      "èĥ½æºĲ": 5408,
      "Ġsin": 5409,
      "è·Į": 5410,
      "æĻļä¸Ĭ": 5411,
      "com": 5412,
      "Ġä¸ĸçºª": 5413,
      "Ġç´": 5414,
      "æķĮ": 5415,
      "è§Ĥå¯Ł": 5416,
      "Ġä½ľä¸º": 5417,
      "Ġinit": 5418,
      "æĿĥåĪ©": 5419,
      "Ġblock": 5420,
      "Ġtraditional": 5421,
      "Ġspending": 5422,
      "æı¡": 5423,
      "Ġå¾·åĽ½": 5424,
      "Ġnation": 5425,
      "å¿į": 5426,
      "èĻļ": 5427,
      "ĠåĲ¦åĪĻ": 5428,
      "Ġanalysis": 5429,
      "ored": 5430,
      "åıĸå¾Ĺ": 5431,
      "çĪ¶æ¯į": 5432,
      "Ġfigure": 5433,
      "è¯¸": 5434,
      "Ġæī¾": 5435,
      "æ¬§åħĥ": 5436,
      "å®£å¸ĥ": 5437,
      "èĮĥåĽ´": 5438,
      "Ġresources": 5439,
      "Ġresults": 5440,
      "Ġcollege": 5441,
      "åĪĢ": 5442,
      "ä¸įè¿ĩ": 5443,
      "Ġrap": 5444,
      "Ġpaid": 5445,
      "Ġdue": 5446,
      "å®ĥçļĦ": 5447,
      "ä»ĬæĻļ": 5448,
      "Ġdocu": 5449,
      "Ġdecided": 5450,
      "Ġbon": 5451,
      "åīĬ": 5452,
      "å¢Ļ": 5453,
      "èİī": 5454,
      "iant": 5455,
      "Ġdoub": 5456,
      "ä¾ĽåºĶ": 5457,
      "æľīéĻĲ": 5458,
      "æŃ£å¸¸": 5459,
      "Ġemplo": 5460,
      "Ġæĺİå¤©": 5461,
      "Ġæµ·": 5462,
      "atory": 5463,
      "æ³Ľ": 5464,
      "åģļä»Ģä¹Ī": 5465,
      "æĲľ": 5466,
      "çŁ¿": 5467,
      "èĶ": 5468,
      "Ġchoice": 5469,
      "å°±è¦ģ": 5470,
      "Ġsudden": 5471,
      "Ġexecut": 5472,
      "mber": 5473,
      "Ġdisapp": 5474,
      "Ġgeor": 5475,
      "Ġtable": 5476,
      "Ġtakes": 5477,
      "ä¸ĵä¸ļ": 5478,
      "çļĦçĭ": 5479,
      "å¨ľ": 5480,
      "Ġbehav": 5481,
      "fort": 5482,
      "Ġain": 5483,
      "Ġcry": 5484,
      "lement": 5485,
      "Ġchanged": 5486,
      "Ġhol": 5487,
      "Ġvoice": 5488,
      "dred": 5489,
      "æĺ¯æľĢ": 5490,
      "Ġseven": 5491,
      "ns": 5492,
      "Ġter": 5493,
      "ç½²": 5494,
      "Ġlack": 5495,
      "Ġhundred": 5496,
      "Ġaud": 5497,
      "iday": 5498,
      "åĪ°åºķ": 5499,
      "æ¶¦": 5500,
      "çĶ²": 5501,
      "ä¹Łæľī": 5502,
      "ping": 5503,
      "ĠæĪĳåľ¨": 5504,
      "åŃĲéĩĮ": 5505,
      "Ġdecision": 5506,
      "Ġfish": 5507,
      "Ġlad": 5508,
      "å·¥åħ·": 5509,
      "Ġclot": 5510,
      "Ġbiggest": 5511,
      "æĺ¨": 5512,
      "Ġkong": 5513,
      "ç¬¦": 5514,
      "Ġdetail": 5515,
      "oon": 5516,
      "å®ľ": 5517,
      "lling": 5518,
      "éĻĪ": 5519,
      "ç½ļ": 5520,
      "å¤ªéĺ³": 5521,
      "ĠæĹłè®º": 5522,
      "Ġsort": 5523,
      "æ³¡": 5524,
      "éĤ»": 5525,
      "å¤ļäºĨ": 5526,
      "åĪ©çĽĬ": 5527,
      "å¤ĸåĽ½": 5528,
      "ceed": 5529,
      "Ġå°¤åħ¶": 5530,
      "Ġgoods": 5531,
      "æĬ±æŃī": 5532,
      "val": 5533,
      "èĥ¡": 5534,
      "Ġcities": 5535,
      "Ġéľ": 5536,
      "ç«Ł": 5537,
      "Ġeffects": 5538,
      "Ġdinner": 5539,
      "æ±ł": 5540,
      "æŃ£ç¡®": 5541,
      "Ġconstruction": 5542,
      "Ġrecently": 5543,
      "æľīçļĦ": 5544,
      "æĽ¾ç»ı": 5545,
      "iers": 5546,
      "Ġpercent": 5547,
      "å²ģ": 5548,
      "çļĦæĶ¯": 5549,
      "è¥¿æĸ¹": 5550,
      "ç´¯": 5551,
      "åĮĹäº¬": 5552,
      "æĽ´å¤ļçļĦ": 5553,
      "Ġlatest": 5554,
      "è¿ĺåľ¨": 5555,
      "Ġåħĭ": 5556,
      "åĢį": 5557,
      "Ġled": 5558,
      "und": 5559,
      "bon": 5560,
      "hood": 5561,
      "å®īæİĴ": 5562,
      "Ġbritain": 5563,
      "Ġæł¹æį®": 5564,
      "éļ¾ä»¥": 5565,
      "Ġwat": 5566,
      "ĠæĪĳåıªæĺ¯ä¸į": 5567,
      "è´¨éĩı": 5568,
      "haps": 5569,
      "çļĦæ¬": 5570,
      "æ²ĥ": 5571,
      "Ġrepl": 5572,
      "Ġattract": 5573,
      "åł¡": 5574,
      "æĺİå¤©": 5575,
      "èıĮ": 5576,
      "åį·": 5577,
      "çļĦæŀ": 5578,
      "Ġèī": 5579,
      "Ġpark": 5580,
      "Ġhotel": 5581,
      "çļĦæ¶Ī": 5582,
      "estic": 5583,
      "Ġstation": 5584,
      "for": 5585,
      "ä»ª": 5586,
      "Ġtrack": 5587,
      "æģ¢å¤į": 5588,
      "izing": 5589,
      "Ġquar": 5590,
      "æīĢæľīçļĦ": 5591,
      "å¯¹ä½ł": 5592,
      "Ġperhaps": 5593,
      "è¿ħéĢŁ": 5594,
      "ogn": 5595,
      "Ġbooks": 5596,
      "Ġwide": 5597,
      "æĮĤ": 5598,
      "Ġworked": 5599,
      "Ġrelated": 5600,
      "istics": 5601,
      "epend": 5602,
      "èī¾": 5603,
      "Ġåį´": 5604,
      "Ġfunction": 5605,
      "å¾ĭå¸Ī": 5606,
      "Ġgroups": 5607,
      "Ġfresh": 5608,
      "Ġexpected": 5609,
      "Ġcorpor": 5610,
      "Ġsan": 5611,
      "Ġfem": 5612,
      "Ġmarried": 5613,
      "ĠåĪ©": 5614,
      "Ġoppos": 5615,
      "Ġpsych": 5616,
      "hou": 5617,
      "ware": 5618,
      "Ġforces": 5619,
      "iously": 5620,
      "Ġmoving": 5621,
      "Ġèİ": 5622,
      "åĨįæ¬¡": 5623,
      "åıĳçĶŁäºĨ": 5624,
      "çļĦçĪ¶": 5625,
      "Ġbuilt": 5626,
      "verse": 5627,
      "æ¦": 5628,
      "çļĦä¸»è¦ģ": 5629,
      "Ġign": 5630,
      "ä¸įå¥½": 5631,
      "ä¸ĸçķĮä¸Ĭ": 5632,
      "tom": 5633,
      "Ġåĸ": 5634,
      "Ġlady": 5635,
      "Ġç±": 5636,
      "imin": 5637,
      "ç§Ģ": 5638,
      "è°ĵ": 5639,
      "Ġweap": 5640,
      "lier": 5641,
      "Ġmedical": 5642,
      "ĠæľīæĹ¶": 5643,
      "Ġspeed": 5644,
      "åı¦ä¸Ģ": 5645,
      "ä¹ĭéĹ´çļĦ": 5646,
      "Ġconditions": 5647,
      "Ġaust": 5648,
      "æ±Ĺ": 5649,
      "Ġplaying": 5650,
      "Ġspread": 5651,
      "å¥ĭ": 5652,
      "åħ¬åı¸çļĦ": 5653,
      "ç³Łç³ķ": 5654,
      "Ġsearch": 5655,
      "ume": 5656,
      "ç©·": 5657,
      "ĠæĪĳåĪļåĪļ": 5658,
      "Ġbritish": 5659,
      "è®Ńç»ĥ": 5660,
      "Ġsister": 5661,
      "Ġåı·": 5662,
      "Ġeverybody": 5663,
      "æ½®": 5664,
      "éĺµ": 5665,
      "Ġshouldn": 5666,
      "åĲĵ": 5667,
      "çĽ®çļĦ": 5668,
      "Ġital": 5669,
      "çĽĽé¡¿": 5670,
      "Ġleaving": 5671,
      "Ġec": 5672,
      "åħ±åĴĮ": 5673,
      "çŁ³æ²¹": 5674,
      "Ġut": 5675,
      "ached": 5676,
      "ĠèĬ": 5677,
      "ĠèĻ½": 5678,
      "å¯»æī¾": 5679,
      "Ġä½Ĩæĺ¯æĪĳ": 5680,
      "Ġcorre": 5681,
      "Ġchem": 5682,
      "Ġgreater": 5683,
      "éŀĭ": 5684,
      "Ġmill": 5685,
      "etic": 5686,
      "ĠåħŃ": 5687,
      "Ġelection": 5688,
      "è§ģè¿ĩ": 5689,
      "Ġremain": 5690,
      "åı¥è¯Ŀ": 5691,
      "èµĮ": 5692,
      "çł´åĿı": 5693,
      "æ¹ĸ": 5694,
      "å½»": 5695,
      "ä»İæĿ¥": 5696,
      "æ¬¢è¿İ": 5697,
      "chan": 5698,
      "å½ĵæĹ¶": 5699,
      "å¹¶ä¸įæĺ¯": 5700,
      "Ġpurp": 5701,
      "ĠåĳĬè¯īæĪĳ": 5702,
      "åĬ¨åĬĽ": 5703,
      "Ġç§ĳ": 5704,
      "Ġadministration": 5705,
      "Ġcook": 5706,
      "è´¦": 5707,
      "æĴŀ": 5708,
      "Ġreact": 5709,
      "Ġartic": 5710,
      "çĶ³è¯·": 5711,
      "light": 5712,
      "itten": 5713,
      "Ġcounter": 5714,
      "Ġdrop": 5715,
      "ä¸ĢèĪ¬": 5716,
      "Ġvide": 5717,
      "è¯Ĺ": 5718,
      "Ġä½ı": 5719,
      "çļĦçĪ±": 5720,
      "Ġ/": 5721,
      "vert": 5722,
      "åī©": 5723,
      "ä¸Ģå¹´": 5724,
      "Ġcompl": 5725,
      "Ġsaf": 5726,
      "äº§ä¸ļ": 5727,
      "åłĨ": 5728,
      "Ġåĳ¨": 5729,
      "ĠæĹ¥æľ¬": 5730,
      "Ġrain": 5731,
      "çľĭæĿ¥": 5732,
      "vere": 5733,
      "ä¸Ĭå¸Ŀ": 5734,
      "éĻª": 5735,
      "Ġtrain": 5736,
      "Ġvictim": 5737,
      "gle": 5738,
      "å·¥åİĤ": 5739,
      "åıĬåħ¶": 5740,
      "æ¡Į": 5741,
      "Ġesc": 5742,
      "verage": 5743,
      "éĺ»æŃ¢": 5744,
      "ä»¥èī²åĪĹ": 5745,
      "Ġpros": 5746,
      "æ°§": 5747,
      "æľŁéĹ´": 5748,
      "åħ±åĲĮ": 5749,
      "Ġperformance": 5750,
      "ĠçĤ¹": 5751,
      "ç±»ä¼¼": 5752,
      "æľºåĻ¨": 5753,
      "raft": 5754,
      "çļĦä¸»": 5755,
      "Ġobv": 5756,
      "ç¢İ": 5757,
      "æĬ½": 5758,
      "é£Łåĵģ": 5759,
      "Ġcele": 5760,
      "ä¸Ĭåįĩ": 5761,
      "Ġplaces": 5762,
      "Ġlog": 5763,
      "Ġsupposed": 5764,
      "å¤§å¤ļæķ°": 5765,
      "Ġlie": 5766,
      "Ġunion": 5767,
      "æ®ĭ": 5768,
      "çªĹ": 5769,
      "æŃ¦åĻ¨": 5770,
      "åľ¨äºİ": 5771,
      "å¤±åİ»": 5772,
      "Ġcosts": 5773,
      "ĠåŁº": 5774,
      "omb": 5775,
      "Ġfunds": 5776,
      "ä¹łæĥ¯": 5777,
      "Ġcommunic": 5778,
      "æĥ³è±¡": 5779,
      "åģļåĩº": 5780,
      "Ġletter": 5781,
      "çļĦæ±": 5782,
      "Ġgent": 5783,
      "ript": 5784,
      "Ġéĵ": 5785,
      "å¤Ħäºİ": 5786,
      "é¥°": 5787,
      "åĢºåĪ¸": 5788,
      "±ä¹Ĳ": 5789,
      "Ġyours": 5790,
      "ç²ī": 5791,
      "cil": 5792,
      "Ġä¾ĭ": 5793,
      "éĿ¢åīį": 5794,
      "Ġtai": 5795,
      "è¢Ńåĩ»": 5796,
      "aign": 5797,
      "è¯´ä»ĸ": 5798,
      "å¯¹æĪĳ": 5799,
      "Ġworried": 5800,
      "Ġå½ĵçĦ¶äºĨ": 5801,
      "Ġdut": 5802,
      "çĶ¨æĪ·": 5803,
      "Ġå¼Ģå§ĭ": 5804,
      "ä¸Ģä»½": 5805,
      "ä¼ļåĦ¿": 5806,
      "Ġpicture": 5807,
      "çļĦçĥ": 5808,
      "ç»ıçĲĨ": 5809,
      "Ġgoo": 5810,
      "Ġsepar": 5811,
      "è¿ĽæĿ¥": 5812,
      "Ġprison": 5813,
      "æĹ¢": 5814,
      "Ġindepend": 5815,
      "åķĨåĵģ": 5816,
      "åľĪ": 5817,
      "åħ¹": 5818,
      "icient": 5819,
      "åĩ¯": 5820,
      "Ġmob": 5821,
      "åŃ¦éĻ¢": 5822,
      "Ġrecogn": 5823,
      "çļĦæķĻ": 5824,
      "Ġglass": 5825,
      "è¹": 5826,
      "Ġdro": 5827,
      "éĩĩçĶ¨": 5828,
      "Ġcampaign": 5829,
      "Ġcelebr": 5830,
      "çĶľ": 5831,
      "æĬ¼": 5832,
      "iff": 5833,
      "é¼ł": 5834,
      "ä¸ªæľĪ": 5835,
      "Ġwriting": 5836,
      "Ġpun": 5837,
      "ä½łäºĨ": 5838,
      "Ġæľīä»Ģä¹Ī": 5839,
      "Ġindustrial": 5840,
      "Ġtraining": 5841,
      "Ġsupply": 5842,
      "Ġæ³ķåĽ½": 5843,
      "æ´ģ": 5844,
      "ä¸§": 5845,
      "ä¹ĺ": 5846,
      "Ġrid": 5847,
      "Ġknowledge": 5848,
      "ously": 5849,
      "Ġdan": 5850,
      "ades": 5851,
      "æ³°": 5852,
      "åĵ¦": 5853,
      "è°Īè°Ī": 5854,
      "Ġå¯¹åĲ§": 5855,
      "Ġåĵª": 5856,
      "Ġnearly": 5857,
      "Ġcars": 5858,
      "åĮ»çĸĹ": 5859,
      "çĭ¬ç«ĭ": 5860,
      "Ġfederal": 5861,
      "Ġinfluence": 5862,
      "Ġäºİæĺ¯": 5863,
      "Ġshows": 5864,
      "Ġgames": 5865,
      "Ġparts": 5866,
      "Ġgar": 5867,
      "å¿ĥçĲĨ": 5868,
      "Ġjoh": 5869,
      "ç§ĺå¯Ĩ": 5870,
      "Ġmechan": 5871,
      "æ´ŀ": 5872,
      "Ġincome": 5873,
      "åĨĽäºĭ": 5874,
      "Ġelectric": 5875,
      "å¤º": 5876,
      "Ġå½ĵæĹ¶": 5877,
      "çº½çº¦": 5878,
      "Ġlaws": 5879,
      "dom": 5880,
      "eg": 5881,
      "Ġavail": 5882,
      "åıĶ": 5883,
      "å¥½åĥı": 5884,
      "Ġnormal": 5885,
      "Ġemploye": 5886,
      "æ¯Ķäºļ": 5887,
      "æĬĬä»ĸ": 5888,
      "åĨĽéĺŁ": 5889,
      "ç´§å¼ł": 5890,
      "ĠçĽ´åĪ°": 5891,
      "è¿ĺè¦ģ": 5892,
      "Ġæł¼": 5893,
      "wan": 5894,
      "Ġcast": 5895,
      "Ġä½łæĺ¯": 5896,
      "æĮº": 5897,
      "Ġåıį": 5898,
      "éĿ¢çļĦ": 5899,
      "ä¼¤å®³": 5900,
      "Ġsystems": 5901,
      "Ġmeasures": 5902,
      "ha": 5903,
      "è¿Ļæ¬¡": 5904,
      "åŁºåĽł": 5905,
      "Ġåįİ": 5906,
      "Ġforest": 5907,
      "è¯´æĺİ": 5908,
      "æľĢå¤§": 5909,
      "Ġä¹Łè®¸": 5910,
      "åħĦå¼Ł": 5911,
      "çĬ¯ç½ª": 5912,
      "æĸ¹åĲĳ": 5913,
      "èĦī": 5914,
      "èĤ¡ç¥¨": 5915,
      "isions": 5916,
      "Ġonline": 5917,
      "riage": 5918,
      "Ġfeet": 5919,
      "çĬ¶åĨµ": 5920,
      "Ġdisease": 5921,
      "Ġasia": 5922,
      "ç»ıèĲ¥": 5923,
      "Ġability": 5924,
      "Ġå®ī": 5925,
      "Ġä¸¤": 5926,
      "Ġä½łåı¯ä»¥": 5927,
      "Ġuns": 5928,
      "Ġattemp": 5929,
      "ä¼¦æķ¦": 5930,
      "ĠèĢĮæĺ¯": 5931,
      "å¹¶ä¸Ķ": 5932,
      "è¯Ĭ": 5933,
      "å®¶äºº": 5934,
      "æīĭæľ¯": 5935,
      "Ġfunny": 5936,
      "Ġnecessary": 5937,
      "ĠèĻ½çĦ¶": 5938,
      "åĹ": 5939,
      "Ġsize": 5940,
      "ĠéĤ£ä½ł": 5941,
      "æļĸ": 5942,
      "Ġtight": 5943,
      "ining": 5944,
      "åĴĮåħ¶ä»ĸ": 5945,
      "Ġå¥¹ä»¬": 5946,
      "Ġpotential": 5947,
      "æĹ¦": 5948,
      "éĹª": 5949,
      "cient": 5950,
      "åĿļæĮģ": 5951,
      "è°·æŃĮ": 5952,
      "å°¾": 5953,
      "çĽĳç®¡": 5954,
      "çļĦåıĳå±ķ": 5955,
      "æĺ¥": 5956,
      "ç¥Ŀ": 5957,
      "Ġspecific": 5958,
      "Ġcit": 5959,
      "çĶ·åŃ©": 5960,
      "Ġä½łçĪ¶äº²": 5961,
      "åħ¨éĥ¨": 5962,
      "æ¼«": 5963,
      "çļĦèį": 5964,
      "Ġèĭ±åĽ½": 5965,
      "xic": 5966,
      "Ġfell": 5967,
      "æĶ¯ä»ĺ": 5968,
      "Ġissues": 5969,
      "å¾Īæľī": 5970,
      "Ġwhose": 5971,
      "åĽŀåĪ°": 5972,
      "é»İ": 5973,
      "ä½ľåĵģ": 5974,
      "Ġarch": 5975,
      "ç©ºéĹ´": 5976,
      "Ġinsurance": 5977,
      "æ¯ķ": 5978,
      "Ġç©¿": 5979,
      "ien": 5980,
      "Ġjack": 5981,
      "Ġè°ģ": 5982,
      "å¿«ä¹Ĳ": 5983,
      "é¾Ħ": 5984,
      "ä¸Ģåľº": 5985,
      "çļĦç©": 5986,
      "çļĦèĬ": 5987,
      "Ġlevels": 5988,
      "åľ¨ä½ł": 5989,
      "ĠéĤ£å°±": 5990,
      "Ġwatching": 5991,
      "æķħäºĭ": 5992,
      "ç¯ĩ": 5993,
      "Ġmaster": 5994,
      "è¿Ī": 5995,
      "å®¾": 5996,
      "æĸ¼": 5997,
      "èĢĮå·²": 5998,
      "Ġcoffe": 5999,
      "Ġreported": 6000,
      "Ġmicro": 6001,
      "åĪ°çļĦ": 6002,
      "Ġvehic": 6003,
      "key": 6004,
      "çĻĮ": 6005,
      "ç»ķ": 6006,
      "çī©è´¨": 6007,
      "Ġåģľ": 6008,
      "Ġfelt": 6009,
      "æĬ¢": 6010,
      "æĺł": 6011,
      "æķı": 6012,
      "åĪĨéĴŁ": 6013,
      "nel": 6014,
      "Ġè¿ĺæĺ¯": 6015,
      "ishing": 6016,
      "æĲ¬": 6017,
      "ĠçŁ¥": 6018,
      "Ġcongress": 6019,
      "æ¢ħ": 6020,
      "Ġep": 6021,
      "æĤ²": 6022,
      "Ġskin": 6023,
      "str": 6024,
      "Ġkept": 6025,
      "Ġburn": 6026,
      "å¿½": 6027,
      "istry": 6028,
      "Ġclub": 6029,
      "éļĶ": 6030,
      "Ġåĺ": 6031,
      "atives": 6032,
      "Ġeth": 6033,
      "Ġçĭ": 6034,
      "å°±åı¯ä»¥": 6035,
      "Ġphil": 6036,
      "è§ĦåĪĻ": 6037,
      "æŁĲäºĽ": 6038,
      "åĪºæ¿Ģ": 6039,
      "order": 6040,
      "ä¸įåı¯èĥ½": 6041,
      "Ġprogress": 6042,
      "Ġdecl": 6043,
      "å¥¥å·´é©¬": 6044,
      "ĠæĶ¾": 6045,
      "Ġstyle": 6046,
      "çļĦçĶŁæ´»": 6047,
      "çļĦæĽ": 6048,
      "åİ»å¹´": 6049,
      "Ġè¡Į": 6050,
      "Ġsignificant": 6051,
      "éŃĤ": 6052,
      "eness": 6053,
      "æĺ¯ä¸Ģç§į": 6054,
      "äººåı£": 6055,
      "Ġä½łçĪ¸çĪ¸": 6056,
      "è´¹çĶ¨": 6057,
      "ä¸¾è¡Į": 6058,
      "tion": 6059,
      "Ġexcept": 6060,
      "æĢĢçĸĳ": 6061,
      "Ġjump": 6062,
      "Ġfran": 6063,
      "å½¼": 6064,
      "Ġç¾İåħĥ": 6065,
      "Ġmessage": 6066,
      "Ġstaff": 6067,
      "ä¹ĭä¸Ń": 6068,
      "Ġdomestic": 6069,
      "æĭĸ": 6070,
      "ension": 6071,
      "åģľæŃ¢": 6072,
      "wor": 6073,
      "Ġange": 6074,
      "é©±": 6075,
      "Ġnetwork": 6076,
      "Ġteaching": 6077,
      "åĴĮå¹³": 6078,
      "èĥİ": 6079,
      "Ġsmart": 6080,
      "åı¦ä¸Ģä¸ª": 6081,
      "æĶ»åĩ»": 6082,
      "Ġmovie": 6083,
      "Ġinj": 6084,
      "æĢĸ": 6085,
      "é©¾": 6086,
      "Ġcrime": 6087,
      "ĠæĪĺ": 6088,
      "é¢Ħæµĭ": 6089,
      "Ġäº²çĪ±çļĦ": 6090,
      "Ġcrazy": 6091,
      "Ġsafety": 6092,
      "¡èĲ": 6093,
      "aries": 6094,
      "å®ŀéĻħ": 6095,
      "Ġcharge": 6096,
      "æµĭè¯ķ": 6097,
      "ĠçłĶç©¶": 6098,
      "Ġç®Ģ": 6099,
      "çļĦæĮĩ": 6100,
      "itch": 6101,
      "Ġè¿Ļä½į": 6102,
      "èº«ä½ĵ": 6103,
      "æī¿è¯º": 6104,
      "Ġåīį": 6105,
      "Ġsick": 6106,
      "çļĦç®": 6107,
      "gen": 6108,
      "ob": 6109,
      "Ġstore": 6110,
      "æľĢå¤§çļĦ": 6111,
      "Ġcoffee": 6112,
      "æĺ¯æľī": 6113,
      "enty": 6114,
      "æĽ´å¥½": 6115,
      "Ġå¥³äºº": 6116,
      "çļĦæĬ¥": 6117,
      "åŃķ": 6118,
      "Ġcaused": 6119,
      "iation": 6120,
      "Ġreach": 6121,
      "è¿ĺæ²¡": 6122,
      "åĮĸçļĦ": 6123,
      "çĿĢæĪĳ": 6124,
      "æĿĲæĸĻ": 6125,
      "Ġå®ŀéĻħä¸Ĭ": 6126,
      "Ġsite": 6127,
      "è§Ĵèī²": 6128,
      "ids": 6129,
      "Ġdress": 6130,
      "ĠéĻ¤éĿŀ": 6131,
      "Ġvarious": 6132,
      "ĠèģĶ": 6133,
      "Ġmouth": 6134,
      "å®ģ": 6135,
      "ä¼ļåľ¨": 6136,
      "è¡¨æ¼Ķ": 6137,
      "ĠåĲİæĿ¥": 6138,
      "Ġprotection": 6139,
      "Ġcontrast": 6140,
      "Ġtowards": 6141,
      "Ġfeed": 6142,
      "å¸ĮèħĬ": 6143,
      "åĭĩ": 6144,
      "ĠåĮ»": 6145,
      "Ġå¦Ī": 6146,
      "Ġæ·": 6147,
      "Ġchur": 6148,
      "å¦Ļ": 6149,
      "inary": 6150,
      "ctions": 6151,
      "è¾ĳ": 6152,
      "Ġboys": 6153,
      "ç§ĳæĬĢ": 6154,
      "Ġçİ°åľ¨ä½ł": 6155,
      "ker": 6156,
      "Ġpow": 6157,
      "Ġå°±åĥı": 6158,
      "Ġçľĭä¸Ĭåİ»": 6159,
      "çĦ¶åĲİ": 6160,
      "ĠåĪĨéĴŁ": 6161,
      "çļĦæµ·": 6162,
      "erc": 6163,
      "¹æŀľ": 6164,
      "æĪĸè®¸": 6165,
      "Ġèµ°": 6166,
      "Ġpath": 6167,
      "ç³»åĪĹ": 6168,
      "Ġcurrency": 6169,
      "mas": 6170,
      "Ġè¿ĻéĩĮ": 6171,
      "èµĦæĸĻ": 6172,
      "Ġbeat": 6173,
      "å¢¨": 6174,
      "Ġdeveloped": 6175,
      "ä½¿å¾Ĺ": 6176,
      "Ġsummer": 6177,
      "æī¬": 6178,
      "èĪĴ": 6179,
      "dered": 6180,
      "Ġlabor": 6181,
      "Ġcancer": 6182,
      "é«ĺçļĦ": 6183,
      "Ġcommand": 6184,
      "ä¾ĿçĦ¶": 6185,
      "æĢ¨": 6186,
      "æĳĩ": 6187,
      "vision": 6188,
      "Ġä½Ĩä»ĸ": 6189,
      "Ġlargest": 6190,
      "éĢĬ": 6191,
      "åĽŀåİ»": 6192,
      "Ġimage": 6193,
      "æļĤ": 6194,
      "iny": 6195,
      "Ġprovince": 6196,
      "ç§ģäºº": 6197,
      "Ġrussia": 6198,
      "æī«": 6199,
      "Ġtext": 6200,
      "å±ŀäºİ": 6201,
      "Ġurban": 6202,
      "Ġbudget": 6203,
      "Ġå»": 6204,
      "Ġprim": 6205,
      "Ġrelative": 6206,
      "Ġå°ĳ": 6207,
      "Ġterms": 6208,
      "Ġhall": 6209,
      "ç»©": 6210,
      "çļĦæ¡": 6211,
      "çĬ¹": 6212,
      "Ġå¿ħ": 6213,
      "åĢ¼å¾Ĺ": 6214,
      "ç»Ŀå¯¹": 6215,
      "åįģå¹´": 6216,
      "Ġheavy": 6217,
      "nal": 6218,
      "æĬĬä½ł": 6219,
      "åĦ¿ç«¥": 6220,
      "æ¶Īå¤±": 6221,
      "ky": 6222,
      "hib": 6223,
      "Ġé¡": 6224,
      "Ġsche": 6225,
      "æ®Ĭ": 6226,
      "æĿĢäºĨ": 6227,
      "Ġexplain": 6228,
      "Ġcompletely": 6229,
      "éĿŀæ´²": 6230,
      "ç¾Ĭ": 6231,
      "ĠæľīäºĽäºº": 6232,
      "Ġcompetition": 6233,
      "Ġinvolved": 6234,
      "cl": 6235,
      "usion": 6236,
      "åĬ²": 6237,
      "Ġç³": 6238,
      "amb": 6239,
      "Ġenem": 6240,
      "åĪ©çİĩ": 6241,
      "Ġfamous": 6242,
      "¡èĲĦ": 6243,
      "Ġaddress": 6244,
      "Ġtree": 6245,
      "ask": 6246,
      "å®ĩ": 6247,
      "åĤ»": 6248,
      "hai": 6249,
      "æľīæīĢ": 6250,
      "åĩ¶": 6251,
      "Ġspot": 6252,
      "ç¼ĺ": 6253,
      "Ġideas": 6254,
      "Ġbreat": 6255,
      "ä¸ĢæĿ¡": 6256,
      "çļĦç¡®": 6257,
      "å¿«éĢŁ": 6258,
      "å±ħæ°ĳ": 6259,
      "ĠæĪĳèĥ½": 6260,
      "Ġmarch": 6261,
      "çķĻä¸ĭ": 6262,
      "ł¢": 6263,
      "Ġcab": 6264,
      "èµ«": 6265,
      "çĪµ": 6266,
      "Ġwarm": 6267,
      "éĿ©åĳ½": 6268,
      "inated": 6269,
      "ä½ıåľ¨": 6270,
      "Ġfreed": 6271,
      "bed": 6272,
      "åĴĮä»ĸ": 6273,
      "Ġwild": 6274,
      "Ġancient": 6275,
      "çº·": 6276,
      "Ġindic": 6277,
      "å°Ĩåľ¨": 6278,
      "ä¸ĢçĽ´åľ¨": 6279,
      "Ġnumbers": 6280,
      "ä¸įåĲĮçļĦ": 6281,
      "Ġinterview": 6282,
      "ils": 6283,
      "æĪĴ": 6284,
      "ops": 6285,
      "Ġfinally": 6286,
      "è¿Ľè¡ĮäºĨ": 6287,
      "åĨ²çªģ": 6288,
      "Ġweight": 6289,
      "Ġimmediately": 6290,
      "è¾ŀ": 6291,
      "Ġresearc": 6292,
      "Ġhistor": 6293,
      "é¢Ĩå¯¼äºº": 6294,
      "æ©": 6295,
      "ony": 6296,
      "Ġåħ¨çĲĥ": 6297,
      "Ġsector": 6298,
      "çİ°è±¡": 6299,
      "å¼Ģå¿ĥ": 6300,
      "Ġhelped": 6301,
      "Ġthrow": 6302,
      "ç¿°": 6303,
      "åĥ": 6304,
      "Ġ&": 6305,
      "Ġwine": 6306,
      "ä½łåľ¨": 6307,
      "è¯¢": 6308,
      "Ġcand": 6309,
      "Ġpowerful": 6310,
      "Ġç»Ļä½ł": 6311,
      "Ġcontent": 6312,
      "Ġcondition": 6313,
      "ä¸įå¾Ĺä¸į": 6314,
      "Ġmatch": 6315,
      "Ġnations": 6316,
      "Ġgoal": 6317,
      "Ġdistrib": 6318,
      "idge": 6319,
      "åħĭæĸ¯": 6320,
      "ses": 6321,
      "astic": 6322,
      "Ġremains": 6323,
      "è±ª": 6324,
      "itor": 6325,
      "Ġseason": 6326,
      "ç»ıè¿ĩ": 6327,
      "Ġwilling": 6328,
      "å·¥äºº": 6329,
      "å¯Ħ": 6330,
      "Ġchair": 6331,
      "æĢĿæĥ³": 6332,
      "Ġfing": 6333,
      "æīĵå¼Ģ": 6334,
      "Ġrule": 6335,
      "èī²çļĦ": 6336,
      "èµ¢å¾Ĺ": 6337,
      "Ġç»ıæµİ": 6338,
      "Ġboo": 6339,
      "å®¶éĩĮ": 6340,
      "Ġç½Ĺ": 6341,
      "Ġnort": 6342,
      "æĺ¯ä¸įæĺ¯": 6343,
      "éĢ¼": 6344,
      "ĠåĽŀ": 6345,
      "Ġtotal": 6346,
      "Ġwang": 6347,
      "Ġmac": 6348,
      "Ġmoon": 6349,
      "Ġtv": 6350,
      "ç»į": 6351,
      "ç½ĳç«Ļ": 6352,
      "Ġæ°´": 6353,
      "Ġmoved": 6354,
      "äº«åıĹ": 6355,
      "éĺ¶æ®µ": 6356,
      "lly": 6357,
      "æľīå¤ļ": 6358,
      "åģ¶": 6359,
      "è®©æĪĳä»¬": 6360,
      "æĲŃ": 6361,
      "Ġshar": 6362,
      "Ġschools": 6363,
      "Ġinflation": 6364,
      "Ġrat": 6365,
      "äº¤éĢļ": 6366,
      "Ġdefin": 6367,
      "Ġdestro": 6368,
      "åİ¿": 6369,
      "åĿ¡": 6370,
      "Ġencour": 6371,
      "ĠæĤ¨": 6372,
      "Ġreve": 6373,
      "çļĦçŃ": 6374,
      "Ġwritten": 6375,
      "Ġrepresent": 6376,
      "çļĦæĸ¹æ³ķ": 6377,
      "ä»Ķ": 6378,
      "ĠæĪĳçľŁ": 6379,
      "ĠæĪĳä»¬å·²ç»ı": 6380,
      "Ġmachine": 6381,
      "ªæĺİ": 6382,
      "æĭŁ": 6383,
      "é©¶": 6384,
      "çıŃçīĻ": 6385,
      "æ¤įçī©": 6386,
      "rs": 6387,
      "å°º": 6388,
      "æ¯ıå¤©": 6389,
      "Ġlimited": 6390,
      "itable": 6391,
      "Ġwel": 6392,
      "å¾Īå¤§": 6393,
      "éģĵå¾·": 6394,
      "set": 6395,
      "Ġgard": 6396,
      "Ġsomewhere": 6397,
      "åħ¬å¼Ģ": 6398,
      "åĨħéĥ¨": 6399,
      "Ġmeaning": 6400,
      "Ġtemper": 6401,
      "overy": 6402,
      "åıĳå¸ĥ": 6403,
      "Ġäº¿ç¾İåħĥ": 6404,
      "Ġgoogle": 6405,
      "æĿ¥çľĭ": 6406,
      "Ġuncle": 6407,
      "åĲĪåĲĮ": 6408,
      "ä½įäºİ": 6409,
      "çļĦæĶ¿æ²»": 6410,
      "ĠåĲĥ": 6411,
      "éĺħ": 6412,
      "èļ": 6413,
      "çļĦç¥ŀ": 6414,
      "Ġarr": 6415,
      "Ġprevent": 6416,
      "åľĨ": 6417,
      "ĠæĪĳä¸įæĺ¯": 6418,
      "Ġä½łä¸įèĥ½": 6419,
      "å¤ĸäº¤": 6420,
      "Ġå¸ĥ": 6421,
      "Ġstrugg": 6422,
      "Ġä½łçľŁ": 6423,
      "è¯´ä»Ģä¹Ī": 6424,
      "æ±Ł": 6425,
      "Ġcalls": 6426,
      "ground": 6427,
      "Ġsky": 6428,
      "çļĦæ¯Ķ": 6429,
      "Ġavailable": 6430,
      "ä½łä»¬çļĦ": 6431,
      "Ġearlier": 6432,
      "é¢Ħç®Ĺ": 6433,
      "Ġrevolution": 6434,
      "Ġçī¹åĪ«": 6435,
      "å°Ŀè¯ķ": 6436,
      "Ġdepend": 6437,
      "Ġjan": 6438,
      "ä¹ĭä¸ĭ": 6439,
      "æĥħåĨµä¸ĭ": 6440,
      "Ġå¹´ä»£": 6441,
      "çĬ¶æĢģ": 6442,
      "Ġcommunity": 6443,
      "Ġåį³ä½¿": 6444,
      "itude": 6445,
      "Ġçģ": 6446,
      "èĩªæĪĳ": 6447,
      "åĽŀäºĭ": 6448,
      "åŃ¤": 6449,
      "åľ°ä½į": 6450,
      "çĽ¸å¯¹": 6451,
      "Ġquiet": 6452,
      "å°¿": 6453,
      "Ġçª": 6454,
      "Ġmarriage": 6455,
      "èİİ": 6456,
      "Ġamericans": 6457,
      "çħ§çīĩ": 6458,
      "çļĦæĶ¶": 6459,
      "ĠéĻ¤äºĨ": 6460,
      "Ġjudge": 6461,
      "è¾Ľ": 6462,
      "èĮ¶": 6463,
      "Ġextreme": 6464,
      "çªģçĦ¶": 6465,
      "çļĦæĥ³æ³ķ": 6466,
      "Ġsource": 6467,
      "çļĦç¨": 6468,
      "ä¹ĭå¤ĸ": 6469,
      "ĠæĹ¶": 6470,
      "å·¨å¤§": 6471,
      "ĠéĢļå¸¸": 6472,
      "Ġtick": 6473,
      "æķ¬": 6474,
      "è¿ĩç¨ĭä¸Ń": 6475,
      "Ġä¾ĭå¦Ĥ": 6476,
      "å¹»": 6477,
      "æĬĬæĪĳ": 6478,
      "Ġstage": 6479,
      "Ġrout": 6480,
      "Ġhappens": 6481,
      "Ġtaiwan": 6482,
      "ĠåĮĹ": 6483,
      "ina": 6484,
      "omm": 6485,
      "å¾Ĺå¾Ī": 6486,
      "Ġmagn": 6487,
      "åħ¨åĽ½": 6488,
      "Ġcontact": 6489,
      "Ġregard": 6490,
      "Ġbasic": 6491,
      "zz": 6492,
      "Ġvan": 6493,
      "Ġvac": 6494,
      "åŃ©åŃĲä»¬": 6495,
      "ik": 6496,
      "çŁ¥è¯Ĩ": 6497,
      "Ġborn": 6498,
      "idents": 6499,
      "æķ°åŃĹ": 6500,
      "Ġpopulation": 6501,
      "ç»ĳ": 6502,
      "Ġarrest": 6503,
      "Ġflight": 6504,
      "æĿĥåĬĽ": 6505,
      "æ¯įäº²": 6506,
      "cal": 6507,
      "Ġine": 6508,
      "Ġwealth": 6509,
      "çļĦåİŁåĽł": 6510,
      "æĽ´ä¸º": 6511,
      "çļĦèī": 6512,
      "Ġpiece": 6513,
      "Ġgentle": 6514,
      "åĨĮ": 6515,
      "ivity": 6516,
      "Ġtro": 6517,
      "Ġdyn": 6518,
      "iling": 6519,
      "çľŁå®ŀ": 6520,
      "Ġcreated": 6521,
      "bye": 6522,
      "lation": 6523,
      "Ġcup": 6524,
      "é¢Ĺ": 6525,
      "é¡µ": 6526,
      "è°ĥæķ´": 6527,
      "Ġoperation": 6528,
      "isation": 6529,
      "çĶ¨æĿ¥": 6530,
      "aging": 6531,
      "å»ī": 6532,
      "¡çĲĨ": 6533,
      "Ġå¦ĤæŀľæĪĳ": 6534,
      "éķ¿çļĦ": 6535,
      "è®¾æĸ½": 6536,
      "Ġparticularly": 6537,
      "å±ģ": 6538,
      "èģĶéĤ¦": 6539,
      "Ġä½łå¾Ĺ": 6540,
      "Ġexerc": 6541,
      "ĠéĴ": 6542,
      "åħħæ»¡": 6543,
      "Ġlearning": 6544,
      "ä¼ļçļĦ": 6545,
      "Ġgoodbye": 6546,
      "Ġopin": 6547,
      "å³°": 6548,
      "Ġvideo": 6549,
      "Ġtired": 6550,
      "Ġå½ĵåľ°": 6551,
      "Ġåį°": 6552,
      "ĠæĬĬä»ĸ": 6553,
      "Ġbasis": 6554,
      "çĵľ": 6555,
      "amm": 6556,
      "è®°èĢħ": 6557,
      "çĮ«": 6558,
      "Ġmanager": 6559,
      "Ġé¦ĸ": 6560,
      "ä¹³": 6561,
      "Ġcomplex": 6562,
      "ç³Ĭ": 6563,
      "éĴ¢": 6564,
      "é¦Ļæ¸¯": 6565,
      "Ġvirt": 6566,
      "æĺĤ": 6567,
      "æĺ¯å¯¹": 6568,
      "å¼ķåıĳ": 6569,
      "Ġä»İèĢĮ": 6570,
      "Ġsurf": 6571,
      "ç¢³": 6572,
      "éħĴåºĹ": 6573,
      "Ġraise": 6574,
      "lymp": 6575,
      "Ġrapid": 6576,
      "èĩªèº«": 6577,
      "ĠçĽ®åīį": 6578,
      "åıĳè¡¨": 6579,
      "Ġfuel": 6580,
      "èĭ±è¯Ń": 6581,
      "Ġleader": 6582,
      "Ġtrip": 6583,
      "Ġfloor": 6584,
      "è¯ĳ": 6585,
      "Ġcaught": 6586,
      "æ¡¥": 6587,
      "Ġintegr": 6588,
      "Ġtreatment": 6589,
      "ç£¨": 6590,
      "è¿Ķ": 6591,
      "æĪĺçķ¥": 6592,
      "é¥¼": 6593,
      "Ġolymp": 6594,
      "unt": 6595,
      "Ġéº": 6596,
      "å®ļçļĦ": 6597,
      "æĸĩç«ł": 6598,
      "Ġæ¬§æ´²": 6599,
      "Ġinnov": 6600,
      "uted": 6601,
      "Ġblue": 6602,
      "iction": 6603,
      "Ġcultural": 6604,
      "ä»ĭç»į": 6605,
      "aur": 6606,
      "è·¨": 6607,
      "ĠæķĻ": 6608,
      "æĮĩåĩº": 6609,
      "è½¯ä»¶": 6610,
      "Ġens": 6611,
      "Ġaverage": 6612,
      "éĹ¹": 6613,
      "ĠæĪĳåĲ¬è¯´ä½ł": 6614,
      "Ġstructure": 6615,
      "Ġtast": 6616,
      "Ġund": 6617,
      "éĢļçŁ¥": 6618,
      "Ġamb": 6619,
      "Ġå°±åľ¨": 6620,
      "Ġrelig": 6621,
      "Ġben": 6622,
      "Ġpush": 6623,
      "Ġcaptain": 6624,
      "æĹħè¡Į": 6625,
      "é½Ĳ": 6626,
      "just": 6627,
      "åĮ¹": 6628,
      "Ġcommercial": 6629,
      "Ġæļ": 6630,
      "ä¸Ģé¡¹": 6631,
      "æĿİ": 6632,
      "éĤ£ç§į": 6633,
      "Ġreading": 6634,
      "Ġcarbon": 6635,
      "Ġconstit": 6636,
      "è¯¾ç¨ĭ": 6637,
      "æ°ĳæĹı": 6638,
      "èĻİ": 6639,
      "Ġvers": 6640,
      "ä¸Ńå¤®": 6641,
      "æĥ§": 6642,
      "å§»": 6643,
      "ffic": 6644,
      "æŁĲç§į": 6645,
      "ä¸ŃåĽ½çļĦ": 6646,
      "Ġåıªè¦ģ": 6647,
      "ä¸įè¶³": 6648,
      "å¸®å¿Ļ": 6649,
      "èħĲ": 6650,
      "ech": 6651,
      "Ġborrow": 6652,
      "Ġå¥½åķĬ": 6653,
      "ĠéĤ£æĺ¯": 6654,
      "Ġcoast": 6655,
      "ĠåĨ·": 6656,
      "çļĦæķħ": 6657,
      "Ġlots": 6658,
      "Ġç¥": 6659,
      "åķ¥": 6660,
      "è®©ä»ĸä»¬": 6661,
      "åĨł": 6662,
      "å¤§éĥ¨åĪĨ": 6663,
      "ç¡®ä¿Ŀ": 6664,
      "å¾Ģå¾Ģ": 6665,
      "Ġenvironmental": 6666,
      "çļĦéĩįè¦ģ": 6667,
      "å¸ķ": 6668,
      "Ġdollar": 6669,
      "Ġsha": 6670,
      "éĵ¾": 6671,
      "Ġmountain": 6672,
      "uing": 6673,
      "ä¸įè§ģ": 6674,
      "Ġdeg": 6675,
      "Ġprime": 6676,
      "Ġscale": 6677,
      "Ġä»Ĭå¤©": 6678,
      "Ġaim": 6679,
      "reed": 6680,
      "ä»¿": 6681,
      "Ġspring": 6682,
      "ç©Ĩ": 6683,
      "è¡¨è¾¾": 6684,
      "Ġfrequ": 6685,
      "Ġkorea": 6686,
      "Ġinclude": 6687,
      "Ġiran": 6688,
      "Ġcas": 6689,
      "éĢĴ": 6690,
      "çļĦç¤¾ä¼ļ": 6691,
      "æĹ¥åŃĲ": 6692,
      "æĴ¤": 6693,
      "æł¹æį®": 6694,
      "çļĦæĬķèµĦ": 6695,
      "Ġwow": 6696,
      "ç»´æĮģ": 6697,
      "Ġnewsp": 6698,
      "Ġstrategy": 6699,
      "Ġmurder": 6700,
      "åı¬": 6701,
      "Ġallowed": 6702,
      "Ġç¦ı": 6703,
      "ls": 6704,
      "igr": 6705,
      "ables": 6706,
      "æķ°éĩı": 6707,
      "æĬķç¥¨": 6708,
      "ĠæĪĳå¸ĮæľĽ": 6709,
      "å¥ı": 6710,
      "æ¬²": 6711,
      "æī¹è¯Ħ": 6712,
      "Ġdamage": 6713,
      "çļĦåīį": 6714,
      "Ġtool": 6715,
      "çĸ«": 6716,
      "éĶĻäºĨ": 6717,
      "æĨ": 6718,
      "èĢĲ": 6719,
      "ĠåİŁ": 6720,
      "éŁ©": 6721,
      "Ġwitness": 6722,
      "Ġjohn": 6723,
      "ç»¼": 6724,
      "æ²¡äºĭ": 6725,
      "Ġleading": 6726,
      "ĠåĲĦä½į": 6727,
      "Ġjer": 6728,
      "Ġspent": 6729,
      "çļĦå¥½": 6730,
      "Ġstup": 6731,
      "è¿ĺæ²¡æľī": 6732,
      "çī¹æ®Ĭ": 6733,
      "ç»ĦæĪĲ": 6734,
      "Ġbey": 6735,
      "ague": 6736,
      "ike": 6737,
      "æĪĳä¼ļ": 6738,
      "èģĶçĽŁ": 6739,
      "Ġsuspect": 6740,
      "pper": 6741,
      "åı¯èĥ½æĺ¯": 6742,
      "Ġeffort": 6743,
      "Ġsitting": 6744,
      "ä¼į": 6745,
      "Ġå¥½å¥½": 6746,
      "Ġworst": 6747,
      "Ġresearchers": 6748,
      "Ġnut": 6749,
      "Ġalive": 6750,
      "èµļ": 6751,
      "å®³æĢķ": 6752,
      "æ¯«æĹł": 6753,
      "Ġcru": 6754,
      "Ġlt": 6755,
      "ä¸įçĶ¨": 6756,
      "å°ĸ": 6757,
      "çļĦçĬ": 6758,
      "Ġgenerally": 6759,
      "å¹¿æ³Ľ": 6760,
      "Ġadvant": 6761,
      "éļıçĿĢ": 6762,
      "Ġcells": 6763,
      "Ġachieve": 6764,
      "Ġtren": 6765,
      "omp": 6766,
      "Ġtea": 6767,
      "çļĦæ°ĳ": 6768,
      "Ġthousands": 6769,
      "æī®": 6770,
      "ä½łä¼ļ": 6771,
      "Ġhero": 6772,
      "duct": 6773,
      "Ġmort": 6774,
      "sec": 6775,
      "åİļ": 6776,
      "Ġresist": 6777,
      "Ġcommitt": 6778,
      "Ġflu": 6779,
      "Ġfreedom": 6780,
      "èł¢": 6781,
      "ĠæĪĳä¹Ł": 6782,
      "å¿ĥèĦı": 6783,
      "Ġclimate": 6784,
      "ä¿¡åı·": 6785,
      "å©Ĩ": 6786,
      "æĻ®éĢļ": 6787,
      "çļĦåĲĹ": 6788,
      "æĦĪ": 6789,
      "Ġcoal": 6790,
      "æīĭæ®µ": 6791,
      "Ġstandard": 6792,
      "Ġbeyond": 6793,
      "çļĦæ¼": 6794,
      "èį¡": 6795,
      "Ġdeveloping": 6796,
      "ĠæŃ¤å¤ĸ": 6797,
      "Ġsad": 6798,
      "ä¼¸": 6799,
      "ĠæĪĳéľĢè¦ģ": 6800,
      "eth": 6801,
      "Ġå®Ŀ": 6802,
      "åİŁåĪĻ": 6803,
      "æ¬§çĽŁ": 6804,
      "reci": 6805,
      "åĵŃ": 6806,
      "Ġä¼ł": 6807,
      "åĩłå¹´": 6808,
      "Ġlawy": 6809,
      "å¥ĩæĢª": 6810,
      "çĵ¶": 6811,
      "çĸ¾çĹħ": 6812,
      "æĪĳè¦ģ": 6813,
      "åĽ½çļĦ": 6814,
      "Ġconcept": 6815,
      "Ġæ³¨æĦı": 6816,
      "ç§¯æŀģ": 6817,
      "Ġafrica": 6818,
      "Ġbought": 6819,
      "ä¸ĢåĲį": 6820,
      "åħ¬ä¼Ĺ": 6821,
      "Ġemot": 6822,
      "èħ¿": 6823,
      "Ġplanning": 6824,
      "çŀ§": 6825,
      "ault": 6826,
      "Ġcoo": 6827,
      "èĢĹ": 6828,
      "éĥ¨éĺŁ": 6829,
      "Ġmissing": 6830,
      "Ġæ´Ľ": 6831,
      "ulf": 6832,
      "Ġå¥½æŀģäºĨ": 6833,
      "çī¹å¾ģ": 6834,
      "çĽĳçĭ±": 6835,
      "ç¼ºä¹ı": 6836,
      "æľ¬èº«": 6837,
      "Ġgives": 6838,
      "ä¾Ŀèµĸ": 6839,
      "Ġimplement": 6840,
      "Ġsurve": 6841,
      "Ġwindow": 6842,
      "Ġadop": 6843,
      "Ġestablish": 6844,
      "af": 6845,
      "éĥ½æ²¡": 6846,
      "ĠåĪ«è¿Ļæł·": 6847,
      "Ġaccident": 6848,
      "itation": 6849,
      "Ġrare": 6850,
      "çĶŁæĦı": 6851,
      "èĤ¤": 6852,
      "æģ¨": 6853,
      "ä¸»æĦı": 6854,
      "Ġagreement": 6855,
      "è¡°éĢĢ": 6856,
      "sequ": 6857,
      "æ³ķéĻ¢": 6858,
      "Ġèĥ": 6859,
      "aks": 6860,
      "Ġä¸įå¥½": 6861,
      "Ġæĭľ": 6862,
      "Ġå¼Ĺåħ°åħĭ": 6863,
      "Ġchoose": 6864,
      "Ġkiss": 6865,
      "å¯¹æīĭ": 6866,
      "Ġreduce": 6867,
      "Ġbeginning": 6868,
      "Ġstupid": 6869,
      "zhou": 6870,
      "Ġsout": 6871,
      "Ġber": 6872,
      "ĠæĪĳå·²ç»ı": 6873,
      "Ġdispl": 6874,
      "Ġtransport": 6875,
      "Ġcomfort": 6876,
      "å§ĳ": 6877,
      "Ġcustomers": 6878,
      "Ġmale": 6879,
      "æł¼åħ°": 6880,
      "è¿Ļä¹Īåģļ": 6881,
      "èŃ¦åĳĬ": 6882,
      "Ġapplication": 6883,
      "yal": 6884,
      "Ġç¨": 6885,
      "ç»Łæ²»": 6886,
      "å¡ĳ": 6887,
      "asons": 6888,
      "Ġguard": 6889,
      "çģ°": 6890,
      "Ġzone": 6891,
      "Ġdrugs": 6892,
      "åľ°äº§": 6893,
      "Ġdemon": 6894,
      "æ±¡æŁĵ": 6895,
      "ä¸įå¤ª": 6896,
      "using": 6897,
      "æľīäºĨ": 6898,
      "Ġæĸĩ": 6899,
      "Ġpromise": 6900,
      "å·¥èµĦ": 6901,
      "æĦıå¤§åĪ©": 6902,
      "éĥ¨éķ¿": 6903,
      "Ġcontrib": 6904,
      "éĢĲæ¸Ĳ": 6905,
      "Ġclothes": 6906,
      "Ġfruit": 6907,
      "Ġvillage": 6908,
      "ĠçŁ¥éģĵ": 6909,
      "Ġbigger": 6910,
      "éĻ·åħ¥": 6911,
      "Ġforced": 6912,
      "Ġcanad": 6913,
      "Ġcalling": 6914,
      "ĠæĽ¾": 6915,
      "Ġyester": 6916,
      "Ġactivity": 6917,
      "Ġdance": 6918,
      "ä½łèĥ½": 6919,
      "çĽĹ": 6920,
      "åĽ½å®¶çļĦ": 6921,
      "è°ĪåĪ¤": 6922,
      "Ġshowed": 6923,
      "è¶ĭåĬ¿": 6924,
      "Ġsuddenly": 6925,
      "arent": 6926,
      "åľ¾": 6927,
      "åºĶå½ĵ": 6928,
      "Ġpurch": 6929,
      "nes": 6930,
      "Ġè®©æĪĳ": 6931,
      "ĥåľ¾": 6932,
      "icks": 6933,
      "å¼ĢäºĨ": 6934,
      "Ġcolor": 6935,
      "å®ĹæķĻ": 6936,
      "Ġjune": 6937,
      "Ġä¼¼": 6938,
      "Ġassets": 6939,
      "cast": 6940,
      "ancy": 6941,
      "Ġanymore": 6942,
      "Ġdifference": 6943,
      "Ġbroke": 6944,
      "çļĦèģĮ": 6945,
      "atures": 6946,
      "çļĦæ·": 6947,
      "Ġparties": 6948,
      "æ·¡": 6949,
      "ç¬¬ä¸Ģæ¬¡": 6950,
      "äºĴèģĶ": 6951,
      "Ġä¸»": 6952,
      "Ġä»Ĭå¹´": 6953,
      "Ġfro": 6954,
      "Ġlink": 6955,
      "èµı": 6956,
      "ĠåĽĽ": 6957,
      "Ġcheap": 6958,
      "Ġparticip": 6959,
      "Ġfemale": 6960,
      "Ġhoney": 6961,
      "Ġå¼º": 6962,
      "Ġcapt": 6963,
      "Ġsnow": 6964,
      "iled": 6965,
      "åĮĸåŃ¦": 6966,
      "Ġcommission": 6967,
      "è¯ķéªĮ": 6968,
      "ĠæľĢç»Ī": 6969,
      "Ġsounds": 6970,
      "Ġchurch": 6971,
      "èµ¤": 6972,
      "Ġä½į": 6973,
      "çļĦç¼": 6974,
      "Ġæĺ¾": 6975,
      "çĻ¾ä¸ĩ": 6976,
      "Ġefforts": 6977,
      "Ġlucky": 6978,
      "Ġring": 6979,
      "ä¸ĬéĿ¢": 6980,
      "çİ°éĩĳ": 6981,
      "Ġsubst": 6982,
      "éĢĤåĲĪ": 6983,
      "Ġåıªæľī": 6984,
      "Ġcouncil": 6985,
      "Ġyesterday": 6986,
      "hest": 6987,
      "Ġreven": 6988,
      "Ġshang": 6989,
      "è¯´è¿ĩ": 6990,
      "ĠæĪĳä»¬åı¯ä»¥": 6991,
      "ä¿¡çĶ¨": 6992,
      "Ġpoints": 6993,
      "back": 6994,
      "å®Įç¾İ": 6995,
      "åĵªéĩĮ": 6996,
      "Ġautom": 6997,
      "Ġreb": 6998,
      "Ġæĸ¯": 6999,
      "Ġexperiment": 7000,
      "çļĦæĶ¯æĮģ": 7001,
      "Ġsand": 7002,
      "æ³½": 7003,
      "å°ıçļĦ": 7004,
      "Ġeasily": 7005,
      "Ġä»»ä½ķ": 7006,
      "åİī": 7007,
      "åĭĥ": 7008,
      "æ»¡è¶³": 7009,
      "Ġdistrict": 7010,
      "Ġmeasure": 7011,
      "äººåĴĮ": 7012,
      "Ġnobody": 7013,
      "Ġanyway": 7014,
      "èĢģæĿ¿": 7015,
      "Ġblow": 7016,
      "Ġreflect": 7017,
      "Ġopportunity": 7018,
      "Ġsoul": 7019,
      "åĲ¹": 7020,
      "Ġcounty": 7021,
      "Ġdrag": 7022,
      "è§Ĵåº¦": 7023,
      "Ġpromot": 7024,
      "éĨī": 7025,
      "Ġcircum": 7026,
      "Ġagency": 7027,
      "å¹¶éĿŀ": 7028,
      "Ġassist": 7029,
      "Ġrising": 7030,
      "çļĦæĦıæĢĿ": 7031,
      "arily": 7032,
      "ä¾§": 7033,
      "éªĳ": 7034,
      "è®°å¿Ĩ": 7035,
      "Ġapproach": 7036,
      "Ġcitiz": 7037,
      "æĹħæ¸¸": 7038,
      "ores": 7039,
      "uary": 7040,
      "è¯±": 7041,
      "æŃ£å¼ı": 7042,
      "éĺ¿æĭī": 7043,
      "Ġdouble": 7044,
      "Ġhate": 7045,
      "Ġç¤¾ä¼ļ": 7046,
      "ilies": 7047,
      "Ġdece": 7048,
      "çļĦç²¾": 7049,
      "å¼ĢæĶ¾": 7050,
      "åĽŀçŃĶ": 7051,
      "Ġacqu": 7052,
      "Ġregular": 7053,
      "çĶ·æĢ§": 7054,
      "Ġbalance": 7055,
      "æľīçĿĢ": 7056,
      "éģĵè·¯": 7057,
      "Ġbuying": 7058,
      "Ġjoint": 7059,
      "ĠæĪ¿": 7060,
      "çļĦæĬĢ": 7061,
      "irt": 7062,
      "è§Ī": 7063,
      "å¤´åıĳ": 7064,
      "Ġliqu": 7065,
      "Ġåı²": 7066,
      "æ»ļ": 7067,
      "Ġstrength": 7068,
      "Ġgeorge": 7069,
      "Ġlin": 7070,
      "å¤±ä¸ļ": 7071,
      "èªī": 7072,
      "Ġtill": 7073,
      "éĹ²": 7074,
      "Ġwaste": 7075,
      "ä¿¡ä»»": 7076,
      "Ġsmell": 7077,
      "éĽĨä¸Ń": 7078,
      "çļĦæķħäºĭ": 7079,
      "Ġlived": 7080,
      "Ġunp": 7081,
      "Ġgrab": 7082,
      "Ġå¦ĤæŀľæĪĳä»¬": 7083,
      "å¹´æĿ¥": 7084,
      "å¸¸å¸¸": 7085,
      "Ġcalif": 7086,
      "Ġdirector": 7087,
      "gar": 7088,
      "Ġinde": 7089,
      "Ġspeech": 7090,
      "Ġpolitics": 7091,
      "Ġbattle": 7092,
      "éĤ®ä»¶": 7093,
      "Ġcandid": 7094,
      "att": 7095,
      "Ġä½ĨæĪĳ": 7096,
      "éļĨ": 7097,
      "Ġåĵ¥": 7098,
      "Ġstarting": 7099,
      "Ġeffective": 7100,
      "Ġhorse": 7101,
      "èĿ": 7102,
      "æĹĭ": 7103,
      "çº¹": 7104,
      "Ġpattern": 7105,
      "çľł": 7106,
      "Ġproduce": 7107,
      "çļĦæĢ§": 7108,
      "Ġarticle": 7109,
      "å¸Ĳ": 7110,
      "Ġscre": 7111,
      "Ġexcuse": 7112,
      "Ġauthorities": 7113,
      "Ġdestroy": 7114,
      "ox": 7115,
      "æĬĳ": 7116,
      "åŃĲçļĦ": 7117,
      "Ġcorrect": 7118,
      "ä»°": 7119,
      "Ġplants": 7120,
      "Ġpolitic": 7121,
      "çļĦç¾İåĽ½": 7122,
      "Ġjournal": 7123,
      "åħ¬åĽŃ": 7124,
      "Ġä»¥åīį": 7125,
      "åĽ¢éĺŁ": 7126,
      "Ġcareer": 7127,
      "Ġequip": 7128,
      "Ġä¼¼ä¹İ": 7129,
      "ĠèĪ": 7130,
      "ä½ıäºĨ": 7131,
      "æĭ¿å¤§": 7132,
      "æ¯ıä¸ª": 7133,
      "çĳŁ": 7134,
      "å«Į": 7135,
      "ä¸Ģèĩ´": 7136,
      "éĤĢ": 7137,
      "åĪ©æ¶¦": 7138,
      "è¾¾æĪĲ": 7139,
      "ç§°ä¸º": 7140,
      "Ġfash": 7141,
      "è¦ģåİ»": 7142,
      "ä¹Łæ²¡": 7143,
      "Ġfinance": 7144,
      "ä¹Ķæ²»": 7145,
      "Ġweb": 7146,
      "åĲĪçĲĨ": 7147,
      "Ġå¹´çļĦ": 7148,
      "Ġpartner": 7149,
      "çĥĤ": 7150,
      "Ġbecomes": 7151,
      "Ġå¯¹ä¸įèµ·": 7152,
      "gypt": 7153,
      "Ġoce": 7154,
      "æīĶ": 7155,
      "ç»ĻæĪĳä»¬": 7156,
      "£äºĭ": 7157,
      "çĶŁæĢģ": 7158,
      "é¢ľ": 7159,
      "èĥĨ": 7160,
      "æİ¥è¿ĳ": 7161,
      "Ġmovement": 7162,
      "ä¿ĥè¿Ľ": 7163,
      "Ġegypt": 7164,
      "æľºåĪ¶": 7165,
      "Ġagreed": 7166,
      "æĢİä¹ĪåĬŀ": 7167,
      "Ġdrin": 7168,
      "ç§»æ°ĳ": 7169,
      "å¦ĩå¥³": 7170,
      "Ġphysical": 7171,
      "Ġira": 7172,
      "éħ·": 7173,
      "Ġsyn": 7174,
      "è´¢å¯Į": 7175,
      "Ġhonest": 7176,
      "èªĵ": 7177,
      "Ġintellig": 7178,
      "¦Ĩ": 7179,
      "ä¸ºä½ł": 7180,
      "Ġbecoming": 7181,
      "ç»ĵåĲĪ": 7182,
      "Ġdesp": 7183,
      "Ġstudies": 7184,
      "æī£": 7185,
      "è½¨": 7186,
      "è®©å¥¹": 7187,
      "ä½ĵçļĦ": 7188,
      "æĪĸæĺ¯": 7189,
      "Ġanimals": 7190,
      "Ġwear": 7191,
      "åĪ«çļĦ": 7192,
      "Ġpassed": 7193,
      "Ġselling": 7194,
      "Ġçº¦": 7195,
      "Ġfif": 7196,
      "åľ¨éĤ£éĩĮ": 7197,
      "çº¯": 7198,
      "Ġå¼ķ": 7199,
      "Ġolder": 7200,
      "é¢ĦæľŁ": 7201,
      "åĪĽæĸ°": 7202,
      "ä¼ĺåĬ¿": 7203,
      "ä¸įå¹¸": 7204,
      "adem": 7205,
      "Ġiron": 7206,
      "Ġä½łå°±": 7207,
      "å¿ł": 7208,
      "Ġå¾Ģ": 7209,
      "æĶ¹åĸĦ": 7210,
      "Ġmiles": 7211,
      "Ġchanging": 7212,
      "äºĴèģĶç½ĳ": 7213,
      "Ġaug": 7214,
      "åıĽ": 7215,
      "åĲµ": 7216,
      "imately": 7217,
      "æł·çļĦ": 7218,
      "Ġguar": 7219,
      "Ġstudent": 7220,
      "Ġgeneration": 7221,
      "Ġprojects": 7222,
      "Ġug": 7223,
      "Ġbrand": 7224,
      "ricult": 7225,
      "åľ¨ä¸ŃåĽ½": 7226,
      "è¿Ľåı£": 7227,
      "åĪ¶å®ļ": 7228,
      "Ġfool": 7229,
      "aded": 7230,
      "çĪ·": 7231,
      "Ġseeing": 7232,
      "Ġfamilies": 7233,
      "Ġdetect": 7234,
      "Ġoccur": 7235,
      "Ġwis": 7236,
      "anced": 7237,
      "åľ¨ä¸Ģ": 7238,
      "Ġdangerous": 7239,
      "arr": 7240,
      "ĠèŃ¦": 7241,
      "Ġagricult": 7242,
      "Ġbright": 7243,
      "å±ķç¤º": 7244,
      "Ġçľĭçľĭ": 7245,
      "ç§»åĬ¨": 7246,
      "èĵĿ": 7247,
      "Ġdip": 7248,
      "Ġeating": 7249,
      "éģµ": 7250,
      "ibly": 7251,
      "Ġrespon": 7252,
      "Ġfighting": 7253,
      "Ġpositive": 7254,
      "ĠæĮī": 7255,
      "Ġdollars": 7256,
      "rief": 7257,
      "åĬ«": 7258,
      "çī¢": 7259,
      "Ġæľª": 7260,
      "Ġseemed": 7261,
      "Ġleaves": 7262,
      "Ġunemp": 7263,
      "æĮ¯": 7264,
      "èģªæĺİ": 7265,
      "æ²¿": 7266,
      "Ġlaug": 7267,
      "æĹ©ä¸Ĭ": 7268,
      "çļĦæĥħåĨµä¸ĭ": 7269,
      "Ġscientists": 7270,
      "Ġéĩĳ": 7271,
      "Ġamaz": 7272,
      "Ġbusy": 7273,
      "overed": 7274,
      "vant": 7275,
      "çĮİ": 7276,
      "Ġfaith": 7277,
      "Ġmir": 7278,
      "aled": 7279,
      "éĻ¤äºĨ": 7280,
      "éĴĪå¯¹": 7281,
      "Ġcommittee": 7282,
      "å¹³è¡¡": 7283,
      "Ġjuly": 7284,
      "ä¸įå¤ļ": 7285,
      "å¯ĵ": 7286,
      "çļĦæĶ¹": 7287,
      "Ġfashion": 7288,
      "right": 7289,
      "ä¿Ĺ": 7290,
      "Ġvent": 7291,
      "æľĢå¥½çļĦ": 7292,
      "Ġfactory": 7293,
      "æģĲæĢĸ": 7294,
      "Ġterri": 7295,
      "Ġunemploy": 7296,
      "olute": 7297,
      "ç¬¬ä¸ī": 7298,
      "Ġholding": 7299,
      "Ġå¨": 7300,
      "Ġunderstanding": 7301,
      "åīĬåĩı": 7302,
      "è¢ĸ": 7303,
      "Ġacadem": 7304,
      "ä¼ĬæľĹ": 7305,
      "Ġcaliforn": 7306,
      "Ġç»´": 7307,
      "aling": 7308,
      "Ġegg": 7309,
      "Ġrail": 7310,
      "è¡ĮæĶ¿": 7311,
      "ĠâĢ¢": 7312,
      "æīĵåĩ»": 7313,
      "æŃ»çļĦ": 7314,
      "æ¼ı": 7315,
      "çļĦä¸ĢåĪĩ": 7316,
      "Ġreview": 7317,
      "Ġguarant": 7318,
      "Ġmut": 7319,
      "apers": 7320,
      "raid": 7321,
      "een": 7322,
      "mes": 7323,
      "èĤĮ": 7324,
      "å®ĺæĸ¹": 7325,
      "åıĳçİ°äºĨ": 7326,
      "Ġpurs": 7327,
      "Ġmix": 7328,
      "å¯¹æŃ¤": 7329,
      "å£®": 7330,
      "èįĴ": 7331,
      "ä¸įä»ħ": 7332,
      "çĽ¸åĲĮ": 7333,
      "è§Ĩä¸º": 7334,
      "Ġconflic": 7335,
      "Ġmember": 7336,
      "è²": 7337,
      "ental": 7338,
      "Ġbear": 7339,
      "åĲįçļĦ": 7340,
      "Ġapple": 7341,
      "Ġcrow": 7342,
      "Ġcooper": 7343,
      "Ġéĥ": 7344,
      "æľĢé«ĺ": 7345,
      "idered": 7346,
      "Ġbenefits": 7347,
      "çļĦç©º": 7348,
      "cks": 7349,
      "Ġsmaller": 7350,
      "éĥ½æ²¡æľī": 7351,
      "agn": 7352,
      "åĸ·": 7353,
      "Ġpatients": 7354,
      "ç¦ģæŃ¢": 7355,
      "Ġjew": 7356,
      "çļĦä¸Ģéĥ¨åĪĨ": 7357,
      "Ġdriving": 7358,
      "Ġincreased": 7359,
      "Ġsoldiers": 7360,
      "éĩįå¤§": 7361,
      "è¥¿åĵ¥": 7362,
      "ä¿Ŀå®Ī": 7363,
      "Ġperm": 7364,
      "Ġterror": 7365,
      "Ġå¢": 7366,
      "çĶŁçļĦ": 7367,
      "antic": 7368,
      "å°Ķæĸ¯": 7369,
      "æİīäºĨ": 7370,
      "Ġconfir": 7371,
      "å©ļå§»": 7372,
      "Ġsight": 7373,
      "Ġlic": 7374,
      "çļĦæĶ¿åºľ": 7375,
      "åŀĥåľ¾": 7376,
      "Ġteacher": 7377,
      "Ġitem": 7378,
      "èį·": 7379,
      "Ġèĩªä»İ": 7380,
      "mar": 7381,
      "çļĦä¸ĢäºĽ": 7382,
      "ä½łæĺ¯": 7383,
      "è¯¦": 7384,
      "road": 7385,
      "Ġä»ĸè¯´": 7386,
      "å£ģ": 7387,
      "Ġrestaur": 7388,
      "Ġwalking": 7389,
      "ĠåĽ½éĻħ": 7390,
      "Ġdirectly": 7391,
      "èĸĦ": 7392,
      "æ¶Īè´¹èĢħ": 7393,
      "Ġpus": 7394,
      "Ġappreci": 7395,
      "Ġilleg": 7396,
      "æĮĳæĪĺ": 7397,
      "Ġheat": 7398,
      "åĿĢ": 7399,
      "Ġconserv": 7400,
      "é¢Ħè®¡": 7401,
      "Ġtraffic": 7402,
      "æľĿé²ľ": 7403,
      "Ġiraq": 7404,
      "Ġafraid": 7405,
      "åı¦å¤ĸ": 7406,
      "Ġvari": 7407,
      "my": 7408,
      "Ġlines": 7409,
      "å¥½å¥½": 7410,
      "ĠåĲī": 7411,
      "Ġhighly": 7412,
      "Ġdav": 7413,
      "åĲ»": 7414,
      "èĥ½éĩı": 7415,
      "Ġpartners": 7416,
      "old": 7417,
      "Ġç¼": 7418,
      "ĠåĽłä¸ºæĪĳä»¬": 7419,
      "çļĦæ°Ķ": 7420,
      "Ġemployees": 7421,
      "Ġæ£": 7422,
      "Ġweather": 7423,
      "ĠæľĢè¿ĳ": 7424,
      "Ġwinter": 7425,
      "Ġsuccessful": 7426,
      "çļĦèĦ¸": 7427,
      "Ġtim": 7428,
      "çļĦéĤ£ä¸ª": 7429,
      "Ġmark": 7430,
      "aked": 7431,
      "Ġsymp": 7432,
      "Ġç»Ļä»ĸ": 7433,
      "Ġå»º": 7434,
      "lom": 7435,
      "Ġexpand": 7436,
      "åĳ¨åĽ´": 7437,
      "é£ŀè¡Į": 7438,
      "å¯Įæ±Ĺ": 7439,
      "çļĦæĢĿ": 7440,
      "æįŁå¤±": 7441,
      "å§ĵ": 7442,
      "ounds": 7443,
      "Ġexpensive": 7444,
      "Ġeconomies": 7445,
      "Ġcritic": 7446,
      "è·Ŀç¦»": 7447,
      "arm": 7448,
      "æĬĽ": 7449,
      "Ġçİĭ": 7450,
      "Ġhung": 7451,
      "Ġauthority": 7452,
      "ä½ĵèĤ²": 7453,
      "æķĻåŃ¦": 7454,
      "Ġpleas": 7455,
      "åľ£è¯ŀ": 7456,
      "¢¦": 7457,
      "Ġfit": 7458,
      "Ġchemical": 7459,
      "Ġrepe": 7460,
      "Ġapr": 7461,
      "ä¹Łåľ¨": 7462,
      "æ°ĶåĢĻ": 7463,
      "Ġstanding": 7464,
      "Ġsoftware": 7465,
      "å°¸ä½ĵ": 7466,
      "Ġbomb": 7467,
      "æĺ¯çĶ±": 7468,
      "æĿī": 7469,
      "å¾ª": 7470,
      "åĩºåĶ®": 7471,
      "ä¸ĭäºĨ": 7472,
      "æ®ĸ": 7473,
      "è®¨åİĮ": 7474,
      "å¯»æ±Ĥ": 7475,
      "Ġåħ¬åı¸": 7476,
      "Ġhonor": 7477,
      "ä¸Ģåıª": 7478,
      "æľīè¶£": 7479,
      "ä»Ģä¹Īäºĭ": 7480,
      "ctors": 7481,
      "iles": 7482,
      "è¿Ľå±ķ": 7483,
      "æīĢä»¥": 7484,
      "ç¥ŀç»ı": 7485,
      "aven": 7486,
      "Ġä½İ": 7487,
      "Ġå¥½æ¶Īæģ¯": 7488,
      "akers": 7489,
      "Ġprem": 7490,
      "èį¯çī©": 7491,
      "è¿Ļäºĭ": 7492,
      "ips": 7493,
      "å¼ºçĥĪ": 7494,
      "å´©": 7495,
      "Ġoct": 7496,
      "Ġrange": 7497,
      "éľį": 7498,
      "Ġconsidered": 7499,
      "Ġod": 7500,
      "ä¸įå¤Ł": 7501,
      "Ġvote": 7502,
      "çĲĨçĶ±": 7503,
      "Ġofficer": 7504,
      "Ġannounced": 7505,
      "Ġç±³": 7506,
      "åľ¨ä¸Ģä¸ª": 7507,
      "åħ³å¿ĥ": 7508,
      "åĵģçīĮ": 7509,
      "è¯Ħè®º": 7510,
      "Ġactivities": 7511,
      "Ġå®Ŀè´Ŀ": 7512,
      "Ġä¸ĸçķĮ": 7513,
      "Ġå¥½åķ¦": 7514,
      "å¦®": 7515,
      "Ġskills": 7516,
      "ĠæĽ¼": 7517,
      "Ġbroken": 7518,
      "åĨľä¸ļ": 7519,
      "Ġä½¿çĶ¨": 7520,
      "è°ĭæĿĢ": 7521,
      "Ġbehavior": 7522,
      "the": 7523,
      "è¯´æĪĳ": 7524,
      "Ġusers": 7525,
      "Ġspl": 7526,
      "å²©": 7527,
      "Ġinteresting": 7528,
      "Ġradio": 7529,
      "Ġshanghai": 7530,
      "çļĦæłĩ": 7531,
      "çļĦç¥": 7532,
      "èĢĮä¸Ķ": 7533,
      "åĲİéĿ¢": 7534,
      "Ġscene": 7535,
      "Ġhandle": 7536,
      "Ġpolicies": 7537,
      "èĪªç©º": 7538,
      "Ġgreece": 7539,
      "Ġequipment": 7540,
      "Ġbure": 7541,
      "çľĭçĿĢ": 7542,
      "Ġå°±è¿Ļæł·": 7543,
      "Ġbusinesses": 7544,
      "èĨľ": 7545,
      "çļĦèģĶ": 7546,
      "Ġnegot": 7547,
      "Ġbond": 7548,
      "Ġchan": 7549,
      "åıĳåĩº": 7550,
      "èĢħä»¬": 7551,
      "æī¾åĪ°äºĨ": 7552,
      "ä»ĭæĦı": 7553,
      "Ġmethods": 7554,
      "Ġhousing": 7555,
      "ä¸ĳ": 7556,
      "çļĦæľºä¼ļ": 7557,
      "rep": 7558,
      "æĥĳ": 7559,
      "æīĢè°ĵ": 7560,
      "Ġveget": 7561,
      "èģĶåĤ¨": 7562,
      "Ġdamn": 7563,
      "Ġpropos": 7564,
      "Ġsusp": 7565,
      "è®¡ç®Ĺæľº": 7566,
      "Ġåı¦å¤ĸ": 7567,
      "Ġresponse": 7568,
      "Ġplanet": 7569,
      "Ġopening": 7570,
      "Ġmission": 7571,
      "èĸª": 7572,
      "Ġstick": 7573,
      "èĩªåĬ¨": 7574,
      "è±Ĩ": 7575,
      "æĶ¶åĪ°": 7576,
      "åĳ½ä»¤": 7577,
      "Ġnames": 7578,
      "æĮ¤": 7579,
      "æıŃ": 7580,
      "Ġreceived": 7581,
      "Ġbenefit": 7582,
      "Ġdoubt": 7583,
      "çļĦå¤©": 7584,
      "aint": 7585,
      "æĥħç»ª": 7586,
      "Ġfactors": 7587,
      "ĠæĪĳåĲ¬åĪ°": 7588,
      "Ġfiscal": 7589,
      "Ġble": 7590,
      "Ġdry": 7591,
      "sts": 7592,
      "Ġå¥¶": 7593,
      "å°±ä¸ļ": 7594,
      "ĠèĲ": 7595,
      "çĹĽèĭ¦": 7596,
      "çĶĺ": 7597,
      "ĠæĪĳä»¬ä¼ļ": 7598,
      "åºĶå¯¹": 7599,
      "Ġapply": 7600,
      "çŃĸçķ¥": 7601,
      "Ġast": 7602,
      "Ġmention": 7603,
      "æĹ¥çĽĬ": 7604,
      "åıĸæ¶Ī": 7605,
      "Ġå¸Ĥ": 7606,
      "çļĦæĢ»": 7607,
      "Ġfailure": 7608,
      "çĪĨçĤ¸": 7609,
      "Ġopinion": 7610,
      "Ġhi": 7611,
      "Ġstim": 7612,
      "Ġcode": 7613,
      "Ġä¸»è¦ģ": 7614,
      "Ġshock": 7615,
      "ope": 7616,
      "æľºåľº": 7617,
      "Ġministry": 7618,
      "éĤ£åĦ¿": 7619,
      "æľ¬ä¹¦": 7620,
      "å¸¦çĿĢ": 7621,
      "æī¹åĩĨ": 7622,
      "Ġflowers": 7623,
      "Ġpurpose": 7624,
      "Ġthus": 7625,
      "Ġçĥ": 7626,
      "åį¢": 7627,
      "åĬ¨æľº": 7628,
      "æĪĺæĸĹ": 7629,
      "æĪĳåľ¨": 7630,
      "éĢīæ°ĳ": 7631,
      "Ġsecretary": 7632,
      "æ¾³": 7633,
      "çļĦèĭ±": 7634,
      "ship": 7635,
      "è·µ": 7636,
      "Ġnav": 7637,
      "è¿Ļé¡¹": 7638,
      "Ġstress": 7639,
      "åĽ½ä¼ļ": 7640,
      "æ¨¡åŀĭ": 7641,
      "çļĦç«ŀ": 7642,
      "æııè¿°": 7643,
      "è²Į": 7644,
      "Ġfile": 7645,
      "Ġcorrupt": 7646,
      "Ġstopped": 7647,
      "è¯Ħä¼°": 7648,
      "Ġelectron": 7649,
      "ĠæĺİçĻ½": 7650,
      "ç»¼åĲĪ": 7651,
      "æĹĹ": 7652,
      "åħ¬å¸ĥ": 7653,
      "ä¿¡å¿ĥ": 7654,
      "åĪļåĪļ": 7655,
      "ç§ĳåŃ¦å®¶": 7656,
      "åĵªåĦ¿": 7657,
      "Ġtechni": 7658,
      "Ġtelevision": 7659,
      "Ġsharp": 7660,
      "Ġox": 7661,
      "æĺ¯ä¸ºäºĨ": 7662,
      "ĠæĪĳæ²¡": 7663,
      "éĩĮæĸ¯": 7664,
      "Ġbelow": 7665,
      "Ġmemory": 7666,
      "å¹¸è¿Ĳ": 7667,
      "Ġå°¤åħ¶æĺ¯": 7668,
      "ole": 7669,
      "Ġborder": 7670,
      "Ġç¡®": 7671,
      "å°±åľ¨": 7672,
      "å°ıå¿ĥ": 7673,
      "Ġä¼¦": 7674,
      "è®®åĳĺ": 7675,
      "ĠæĬĬä½ł": 7676,
      "èĮ¨": 7677,
      "ä¸¥æł¼": 7678,
      "Ġfailed": 7679,
      "Ġtrees": 7680,
      "çĴ": 7681,
      "Ġrace": 7682,
      "Ġèį": 7683,
      "Ġå¸ĮæľĽ": 7684,
      "Ġcalifornia": 7685,
      "å¤§çº¦": 7686,
      "Ġtruck": 7687,
      "ĠæľĪä»½": 7688,
      "Ġaustral": 7689,
      "ĠåĨ·éĿĻ": 7690,
      "Ġfaster": 7691,
      "åĬ©äºİ": 7692,
      "Ġhealthy": 7693,
      "è¿ģ": 7694,
      "ä»ĸåľ¨": 7695,
      "åºĦ": 7696,
      "ä¸Ĭæ¶¨": 7697,
      "ĠåĪĩ": 7698,
      "å¹´åīį": 7699,
      "Ġlegis": 7700,
      "Ġpatient": 7701,
      "ĠæĦı": 7702,
      "Ġtoward": 7703,
      "Ġchap": 7704,
      "æıĴ": 7705,
      "Ġafg": 7706,
      "ties": 7707,
      "Ġuk": 7708,
      "Ġconduct": 7709,
      "Ġæĺ¯åķĬ": 7710,
      "èĢģå¸Ī": 7711,
      "Ġearn": 7712,
      "æķĪæŀľ": 7713,
      "Ġeasier": 7714,
      "èģĮä¸ļ": 7715,
      "Ġä¸ī": 7716,
      "Ġwu": 7717,
      "Ġbod": 7718,
      "Ġnine": 7719,
      "åĮĻ": 7720,
      "æ³³": 7721,
      "å°ıå§Ĳ": 7722,
      "åıĹå®³": 7723,
      "Ġfourth": 7724,
      "Ġrequired": 7725,
      "Ġæķ´": 7726,
      "chen": 7727,
      "Ġpage": 7728,
      "å¤§éĻĨ": 7729,
      "Ġconvers": 7730,
      "æµ®": 7731,
      "çİ°åľº": 7732,
      "èĭ¹æŀľ": 7733,
      "Ġflat": 7734,
      "Ġprofessional": 7735,
      "gu": 7736,
      "asion": 7737,
      "çłĶ": 7738,
      "Ġå¥³åŃ©": 7739,
      "iced": 7740,
      "å¾Ĺå¤ļ": 7741,
      "Ġprove": 7742,
      "çĹħäºº": 7743,
      "å·¨å¤§çļĦ": 7744,
      "Ġincreasingly": 7745,
      "lies": 7746,
      "Ġnovel": 7747,
      "æģ°": 7748,
      "Ġbran": 7749,
      "Ġsubs": 7750,
      "Ġdaily": 7751,
      "Ġwedding": 7752,
      "Ġms": 7753,
      "Ġmart": 7754,
      "Ġchick": 7755,
      "ä¸°å¯Į": 7756,
      "Ġä¸įå¥½æĦıæĢĿ": 7757,
      "¨¡": 7758,
      "´åĦ¿": 7759,
      "Ġreasons": 7760,
      "Ġseat": 7761,
      "Ġcrim": 7762,
      "Ġmistake": 7763,
      "éĥ½è¦ģ": 7764,
      "Ġnorthern": 7765,
      "Ġweren": 7766,
      "çĶŁæ°Ķ": 7767,
      "çĤİ": 7768,
      "Ġåħ±": 7769,
      "åĬ³åĬ¨": 7770,
      "æī©å¤§": 7771,
      "Ġmaterials": 7772,
      "Ġabsolute": 7773,
      "Ġquarter": 7774,
      "è¦Ĩ": 7775,
      "å¤ªå¤ļ": 7776,
      "Ġcere": 7777,
      "Ġtrading": 7778,
      "Ġchristmas": 7779,
      "ĠåĲ¸": 7780,
      "è§ģåĪ°": 7781,
      "è£¤": 7782,
      "åŁºçĿ£": 7783,
      "pir": 7784,
      "Ġnone": 7785,
      "Ġunc": 7786,
      "çļĦçĸ": 7787,
      "Ġè¿Ļæ¬¡": 7788,
      "Ġglad": 7789,
      "Ġafford": 7790,
      "çĦ¦": 7791,
      "å®Ļ": 7792,
      "æľīå¾Īå¤ļ": 7793,
      "åĲİçļĦ": 7794,
      "èĥ¶": 7795,
      "Ġprec": 7796,
      "è½¬ç§»": 7797,
      "åħįè´¹": 7798,
      "Ġstatus": 7799,
      "Ġoriginal": 7800,
      "Ġå¥¥å·´é©¬": 7801,
      "å¤§åŀĭ": 7802,
      "Ġfriday": 7803,
      "è·ĥ": 7804,
      "æ³ķåºŃ": 7805,
      "æī¿æĭħ": 7806,
      "Ġlabour": 7807,
      "åŁĥåıĬ": 7808,
      "son": 7809,
      "Ġå§": 7810,
      "Ġfred": 7811,
      "Ġunit": 7812,
      "Ġindian": 7813,
      "Ġreality": 7814,
      "Ġviolence": 7815,
      "æĢľ": 7816,
      "Ġchamp": 7817,
      "å¹²ä»Ģä¹Ī": 7818,
      "Ġjanuary": 7819,
      "æĪĳæĥ³": 7820,
      "åĨ¬": 7821,
      "èĤł": 7822,
      "Ġclosed": 7823,
      "çĽ¸äºĴ": 7824,
      "Ġå¥¹çļĦ": 7825,
      "Ġkilling": 7826,
      "æ¢¯": 7827,
      "Ġresponsible": 7828,
      "lig": 7829,
      "lam": 7830,
      "Ġgal": 7831,
      "åĳĪ": 7832,
      "æĻ¨": 7833,
      "åıĹä¼¤": 7834,
      "å£«åħµ": 7835,
      "ä¸»ä¹īèĢħ": 7836,
      "çİ©ç¬ĳ": 7837,
      "Ġmedicine": 7838,
      "Ġsac": 7839,
      "Ġsuit": 7840,
      "æĢ§æģĭ": 7841,
      "Ġå¸¦": 7842,
      "åľ¨åĵªéĩĮ": 7843,
      "Ġç¦»å¼Ģ": 7844,
      "Ġexperts": 7845,
      "ä¹Łæ²¡æľī": 7846,
      "çº¦ä¼ļ": 7847,
      "Ġtransform": 7848,
      "Ġstandards": 7849,
      "tered": 7850,
      "ä¼ĳæģ¯": 7851,
      "æĹ¶çļĦ": 7852,
      "è°±": 7853,
      "æ¬º": 7854,
      "Ġjoin": 7855,
      "æĻ®éģį": 7856,
      "ç¥ĸ": 7857,
      "Ġflood": 7858,
      "è·¯ä¸Ĭ": 7859,
      "å½¢è±¡": 7860,
      "Ġå¤§å®¶": 7861,
      "å¹¸ç¦ı": 7862,
      "çļĦç½ĳ": 7863,
      "ĠæŁĲ": 7864,
      "Ġyield": 7865,
      "åľ¨ä»ĸ": 7866,
      "å¿ĺäºĨ": 7867,
      "Ġhyd": 7868,
      "down": 7869,
      "èĩŃ": 7870,
      "æİ©": 7871,
      "Ġevents": 7872,
      "Ġprior": 7873,
      "Ġenterprise": 7874,
      "ulate": 7875,
      "Ġscen": 7876,
      "Ġlunch": 7877,
      "çľĭä¸Ĭåİ»": 7878,
      "Ġseries": 7879,
      "Ġmrs": 7880,
      "Ġtransfer": 7881,
      "Ġreports": 7882,
      "åĢ¾åĲĳ": 7883,
      "çļĦæĦŁè§ī": 7884,
      "hel": 7885,
      "éĢ®": 7886,
      "çĲ´": 7887,
      "èī°": 7888,
      "åĽŀæĬ¥": 7889,
      "å¤®è¡Į": 7890,
      "éļľç¢į": 7891,
      "kers": 7892,
      "äºķ": 7893,
      "Ġmobile": 7894,
      "Ġtit": 7895,
      "acity": 7896,
      "ä¸ŃéĹ´": 7897,
      "Ġsav": 7898,
      "Ġdriver": 7899,
      "ç»¿èī²": 7900,
      "Ġinvestigation": 7901,
      "Ġafghan": 7902,
      "craft": 7903,
      "åĨ»": 7904,
      "ĠåĲĪ": 7905,
      "åī²": 7906,
      "çļĦè£": 7907,
      "Ġorganization": 7908,
      "äºĽä»Ģä¹Ī": 7909,
      "æ³Ħ": 7910,
      "Ġowners": 7911,
      "Ġåıªæĺ¯": 7912,
      "Ġadministr": 7913,
      "Ġscientific": 7914,
      "Ġdescrib": 7915,
      "Ġpredict": 7916,
      "Ġå¦Ĥä»Ĭ": 7917,
      "Ġarab": 7918,
      "Ġgreatest": 7919,
      "ç¿¼": 7920,
      "å¼Łå¼Ł": 7921,
      "Ġgarden": 7922,
      "Ġjes": 7923,
      "çŃ¹": 7924,
      "ç»Ļå¥¹": 7925,
      "Ġoffering": 7926,
      "å®ŀéĻħä¸Ĭ": 7927,
      "Ġexport": 7928,
      "æµªè´¹": 7929,
      "Ġanimal": 7930,
      "Ġeventually": 7931,
      "fied": 7932,
      "Ġwearing": 7933,
      "ĠæľīæĹ¶åĢĻ": 7934,
      "Ġappoint": 7935,
      "ä»£ä»·": 7936,
      "Ġsettle": 7937,
      "Ġprofit": 7938,
      "umption": 7939,
      "Ġforgot": 7940,
      "ä»İæľª": 7941,
      "åĲĮäºĭ": 7942,
      "Ġæ³°": 7943,
      "é¼ĵåĬ±": 7944,
      "Ġapril": 7945,
      "è®¼": 7946,
      "Ġevil": 7947,
      "Ġkeeping": 7948,
      "ĠæĮĩ": 7949,
      "è®¿éĹ®": 7950,
      "ĠéĿŀå¸¸": 7951,
      "Ġasking": 7952,
      "æĦī": 7953,
      "ç»ĻäºĨ": 7954,
      "Ġinterested": 7955,
      "ĠæĻļä¸Ĭå¥½": 7956,
      "Ġanybody": 7957,
      "å¤ĸéĿ¢": 7958,
      "äºĭä¸ļ": 7959,
      "apt": 7960,
      "èĤ¿": 7961,
      "Ġå½ĵæĪĳ": 7962,
      "èĦĤ": 7963,
      "bing": 7964,
      "inct": 7965,
      "ĠåĲ¬è¯´": 7966,
      "Ġadvert": 7967,
      "æĭīæĸ¯": 7968,
      "Ġlake": 7969,
      "çĮª": 7970,
      "wise": 7971,
      "èķ": 7972,
      "ä½łè¦ģ": 7973,
      "Ġä½łæĢİä¹Ī": 7974,
      "Ġlibr": 7975,
      "Ġéħ": 7976,
      "Ġplane": 7977,
      "Ġåį°åº¦": 7978,
      "¸çĪ¸": 7979,
      "çļĦå¯¹": 7980,
      "çī²": 7981,
      "éĴ¥": 7982,
      "Ġcrack": 7983,
      "è®®ä¼ļ": 7984,
      "åĩłå¤©": 7985,
      "Ġconsumers": 7986,
      "çļĦæĽ´": 7987,
      "Ġå¦Īå¦Ī": 7988,
      "æĥľ": 7989,
      "å®¶æĹı": 7990,
      "Ġtherefore": 7991,
      "Ġarms": 7992,
      "Ġbelong": 7993,
      "Ġtreas": 7994,
      "Ġdisappe": 7995,
      "Ġjustice": 7996,
      "çħ§é¡¾": 7997,
      "Ġprovided": 7998,
      "çļĦæ¯ı": 7999,
      "éĤĢè¯·": 8000,
      "friend": 8001,
      "ii": 8002,
      "Ġalth": 8003,
      "Ġowned": 8004,
      "Ġinspect": 8005,
      "Ġadvice": 8006,
      "Ġtow": 8007,
      "åĪ°è¾¾": 8008,
      "Ġmeant": 8009,
      "Ġmexic": 8010,
      "åĩºçīĪ": 8011,
      "ç»Īäºİ": 8012,
      "ius": 8013,
      "åĪĨä¹ĭä¸Ģ": 8014,
      "Ġqual": 8015,
      "æ»©": 8016,
      "Ġcareful": 8017,
      "éĩĬæĶ¾": 8018,
      "å¤§èĦĳ": 8019,
      "Ġadjust": 8020,
      "Ġrespond": 8021,
      "å§ĳå¨ĺ": 8022,
      "wood": 8023,
      "Ġnote": 8024,
      "ä¿±ä¹Ĳ": 8025,
      "çºµ": 8026,
      "åĪ¶ä½ľ": 8027,
      "Ġfault": 8028,
      "äº¤æµģ": 8029,
      "æ°§åĮĸ": 8030,
      "éī´": 8031,
      "ä½©": 8032,
      "æĺ¯æĪĳä»¬": 8033,
      "ä¸Ģå¼ł": 8034,
      "äºĭæķħ": 8035,
      "å¤ĸçļĦ": 8036,
      "åĲĪæ³ķ": 8037,
      "Ġcorporate": 8038,
      "åĴ±": 8039,
      "è¿ĩçļĦ": 8040,
      "å¾Īå°ĳ": 8041,
      "Ġsports": 8042,
      "ç»ĻäºĪ": 8043,
      "åĬłå¼º": 8044,
      "éĿŀæ³ķ": 8045,
      "itely": 8046,
      "Ġapart": 8047,
      "Ġalthough": 8048,
      "ĠéĢļ": 8049,
      "Ġpig": 8050,
      "Ġshi": 8051,
      "æĥ³åĪ°": 8052,
      "Ġmail": 8053,
      "Ġwelcome": 8054,
      "æĿ¥æºĲ": 8055,
      "åİ¨": 8056,
      "Ġgrant": 8057,
      "Ġæ²ĥ": 8058,
      "åħ¶ä»ĸäºº": 8059,
      "Ġå¾Īå¥½": 8060,
      "Ġplayed": 8061,
      "Ġä¸įæĺ¯åĲĹ": 8062,
      "é¼»": 8063,
      "åį³å°Ĩ": 8064,
      "ä¿±ä¹Ĳéĥ¨": 8065,
      "Ġè¿Ļå°±æĺ¯": 8066,
      "éĺģ": 8067,
      "åŁĭ": 8068,
      "åĲįåįķ": 8069,
      "lfriend": 8070,
      "ĠæĬĬå®ĥ": 8071,
      "Ġcamera": 8072,
      "åı¯æĢķ": 8073,
      "å°ıåŃ©": 8074,
      "æħ§": 8075,
      "ä¸įå¯¹": 8076,
      "ading": 8077,
      "æ³¥": 8078,
      "ç¨į": 8079,
      "Ġrelax": 8080,
      "Ġslight": 8081,
      "Ġdirection": 8082,
      "Ġæķ°": 8083,
      "éģĩåĪ°": 8084,
      "aches": 8085,
      "Ġkit": 8086,
      "Ġadded": 8087,
      "èµĶ": 8088,
      "çļĦæį": 8089,
      "çĮĽ": 8090,
      "Ġgirlfriend": 8091,
      "Ġfully": 8092,
      "ç»ĵæĿŁäºĨ": 8093,
      "icking": 8094,
      "ĠæĪĳè®¤ä¸º": 8095,
      "Ġspr": 8096,
      "æįĲ": 8097,
      "æĬķåħ¥": 8098,
      "çļĦçĹħ": 8099,
      "Ġä¼¦æķ¦": 8100,
      "Ġfle": 8101,
      "Ġfol": 8102,
      "äººçī©": 8103,
      "Ġstars": 8104,
      "è¿ĲçĶ¨": 8105,
      "çļĦæŃ»": 8106,
      "æľīéĻĲåħ¬åı¸": 8107,
      "Ġcriminal": 8108,
      "åĩ¡": 8109,
      "cell": 8110,
      "æ²¡äºº": 8111,
      "åģļæ³ķ": 8112,
      "æ¸´": 8113,
      "ĠæĪĳä»¬éĥ½çŁ¥éģĵ": 8114,
      "Ġdesigned": 8115,
      "Ġbottom": 8116,
      "Ġbath": 8117,
      "ĠæĪĳçľŁçļĦ": 8118,
      "Ġcontain": 8119,
      "éĺ¿å¯Įæ±Ĺ": 8120,
      "çŁ¶": 8121,
      "Ġunique": 8122,
      "Ġemerging": 8123,
      "Ġbonds": 8124,
      "Ġocean": 8125,
      "lim": 8126,
      "é¥¿": 8127,
      "Ġaid": 8128,
      "æĿĨ": 8129,
      "Ġdefic": 8130,
      "Ġæİ¥ä¸ĭæĿ¥": 8131,
      "åħ±åĴĮåħļ": 8132,
      "Ġnegoti": 8133,
      "ae": 8134,
      "etary": 8135,
      "æ¬ł": 8136,
      "è¿ĺä¼ļ": 8137,
      "çĸ¼": 8138,
      "Ġprefer": 8139,
      "ç»Łä¸Ģ": 8140,
      "Ġspecies": 8141,
      "çļĦä¸Ģç§į": 8142,
      "Ġdemocratic": 8143,
      "Ġresponsibility": 8144,
      "Ġgiant": 8145,
      "åŃĶ": 8146,
      "ender": 8147,
      "iveness": 8148,
      "Ġscr": 8149,
      "æĶ¶çĽĬ": 8150,
      "Ġended": 8151,
      "Ġoccup": 8152,
      "Ġride": 8153,
      "æĪĲç«ĭ": 8154,
      "è¿ĽäºĨ": 8155,
      "ä¿Ŀéļľ": 8156,
      "çĸ²": 8157,
      "Ġsust": 8158,
      "åħ¶å®ŀ": 8159,
      "Ġstatement": 8160,
      "ino": 8161,
      "Ġband": 8162,
      "åĩºçİ°åľ¨": 8163,
      "rences": 8164,
      "Ġwake": 8165,
      "è¯īè®¼": 8166,
      "Ġbanking": 8167,
      "æĳ¸": 8168,
      "Ġforever": 8169,
      "å¤«äºº": 8170,
      "æıĲä¾ĽäºĨ": 8171,
      "Ġweapons": 8172,
      "Ġä½łåºĶè¯¥": 8173,
      "çī§": 8174,
      "Ġengland": 8175,
      "Ġsurface": 8176,
      "hem": 8177,
      "Ġmand": 8178,
      "Ġseed": 8179,
      "çİī": 8180,
      "Ġexpress": 8181,
      "Ġdiss": 8182,
      "Ġfinish": 8183,
      "Ġshoes": 8184,
      "Ġaugust": 8185,
      "ams": 8186,
      "Ġboat": 8187,
      "Ġfinished": 8188,
      "Ġå¿«çĤ¹": 8189,
      "éĺ¶çº§": 8190,
      "Ġestablished": 8191,
      "Ġchallenge": 8192,
      "asing": 8193,
      "Ġet": 8194,
      "å¥³å£«": 8195,
      "åĥıæĺ¯": 8196,
      "æİ¨åĬ¨": 8197,
      "Ġswim": 8198,
      "Ġsatis": 8199,
      "ä¸Ģæ®µ": 8200,
      "åĩŃ": 8201,
      "iving": 8202,
      "ĠæĪ´": 8203,
      "Ġlimit": 8204,
      "ĠæĪĳä»¬éľĢè¦ģ": 8205,
      "Ġrecomm": 8206,
      "è§ĦåĪĴ": 8207,
      "è½¬åıĺ": 8208,
      "la": 8209,
      "æĿ¥åĪ°": 8210,
      "çĶŁéķ¿": 8211,
      "Ġproced": 8212,
      "è¿Ļä¸ĢçĤ¹": 8213,
      "åį«çĶŁ": 8214,
      "Ġéº¦": 8215,
      "Ġäºļ": 8216,
      "reg": 8217,
      "aching": 8218,
      "å¯¹ä»ĸ": 8219,
      "ends": 8220,
      "Ġå¿ĥ": 8221,
      "ĠèĢĮä¸ĶæĪĳä»¬": 8222,
      "Ġopened": 8223,
      "Ġsolution": 8224,
      "Ġappears": 8225,
      "æĺ¯æĪĳçļĦ": 8226,
      "è¿Ļä»¶äºĭ": 8227,
      "æĺİç¡®": 8228,
      "è¥¿çıŃçīĻ": 8229,
      "ç±į": 8230,
      "è¿Ĳè¡Į": 8231,
      "ç²Ĵ": 8232,
      "Ġputting": 8233,
      "Ġsolar": 8234,
      "Ġthinks": 8235,
      "Ġlearned": 8236,
      "Ġlosing": 8237,
      "ey": 8238,
      "ayed": 8239,
      "fered": 8240,
      "æ±¤å§Ĩ": 8241,
      "ĠèĦ": 8242,
      "æĿĤå¿Ĺ": 8243,
      "Ġwonderful": 8244,
      "çļĦæ´»": 8245,
      "Ġcircumst": 8246,
      "Ġtough": 8247,
      "äºĨä¸ª": 8248,
      "Ġcentre": 8249,
      "Ġboyfriend": 8250,
      "Ġadvantage": 8251,
      "çĪ±ä½ł": 8252,
      "iest": 8253,
      "æĹ¶åĪ»": 8254,
      "åıĳæĮ¥": 8255,
      "ä¸»å¸Ń": 8256,
      "èĪį": 8257,
      "Ġtalks": 8258,
      "Ġéļ¾": 8259,
      "çĿ¡è§ī": 8260,
      "Ġhill": 8261,
      "åĪ·": 8262,
      "åľ¨åľ°": 8263,
      "æĥ³æ³ķ": 8264,
      "Ġdocument": 8265,
      "çļĦç»ĵæŀľ": 8266,
      "çĽ¾": 8267,
      "è¾Ī": 8268,
      "Ġloved": 8269,
      "åŁºåľ°": 8270,
      "é£İæł¼": 8271,
      "Ġlarger": 8272,
      "ä¼Ĭæĭīåħĭ": 8273,
      "ropri": 8274,
      "Ġfundament": 8275,
      "Ġå¹³": 8276,
      "ç¨£": 8277,
      "è¿Ĳè¾ĵ": 8278,
      "æķĻæİĪ": 8279,
      "iot": 8280,
      "Ġæ»": 8281,
      "Ġmeat": 8282,
      "çĤ¼": 8283,
      "asty": 8284,
      "Ġcarried": 8285,
      "èĢ¶ç¨£": 8286,
      "Ġemergency": 8287,
      "Ġpoliticians": 8288,
      "ä¸įéľĢè¦ģ": 8289,
      "Ġblind": 8290,
      "Ġconcent": 8291,
      "çĨĬ": 8292,
      "æ¬§åħĥåĮº": 8293,
      "æĿīçŁ¶": 8294,
      "xi": 8295,
      "çļĦåħ³ç³»": 8296,
      "å¤¹": 8297,
      "ç»ĺ": 8298,
      "ä¼ļè¢«": 8299,
      "å¤§åĪ©äºļ": 8300,
      "éģ¥": 8301,
      "Ġaltern": 8302,
      "osis": 8303,
      "Ġcompar": 8304,
      "ç¡®è®¤": 8305,
      "äºīè®®": 8306,
      "æ¯ıå¹´": 8307,
      "Ġsigns": 8308,
      "è¿ŀæİ¥": 8309,
      "æ¹¿": 8310,
      "åħħåĪĨ": 8311,
      "Ġmuse": 8312,
      "åĲĲ": 8313,
      "èµĭ": 8314,
      "è¿ĩåº¦": 8315,
      "åŃĲä¸Ĭ": 8316,
      "Ġloans": 8317,
      "æĵ¦": 8318,
      "Ġconsumer": 8319,
      "Ġgradu": 8320,
      "æĥł": 8321,
      "Ġlying": 8322,
      "Ġneither": 8323,
      "antly": 8324,
      "Ġrussian": 8325,
      "Ġmanufacture": 8326,
      "ĠäºĮ": 8327,
      "åħ¬å¯ĵ": 8328,
      "Ġspeaking": 8329,
      "åįĹéĥ¨": 8330,
      "éĢĢä¼ĳ": 8331,
      "hens": 8332,
      "åĩłä¸ªæľĪ": 8333,
      "çļĦçĥŃ": 8334,
      "rom": 8335,
      "Ġkick": 8336,
      "åħ³éĹŃ": 8337,
      "Ġroll": 8338,
      "Ġquant": 8339,
      "æĦŁè°¢": 8340,
      "Ġmonday": 8341,
      "åĽ¾ä¹¦": 8342,
      "åı°æ¹¾": 8343,
      "è¯Ħä»·": 8344,
      "Ġtotally": 8345,
      "Ġpu": 8346,
      "asc": 8347,
      "æĪĳäºĨ": 8348,
      "Ġmere": 8349,
      "ä¹Łä¸įä¼ļ": 8350,
      "æĮĸ": 8351,
      "Ġprint": 8352,
      "å°ıç»Ħ": 8353,
      "Ġå®ĺ": 8354,
      "å¹²åĺĽ": 8355,
      "Ġpublished": 8356,
      "èĳ¡èĲĦ": 8357,
      "Ġmanufacturing": 8358,
      "Ġenemy": 8359,
      "Ġsouthern": 8360,
      "house": 8361,
      "Ġshift": 8362,
      "Ġlif": 8363,
      "æĸ¯åħ°": 8364,
      "æĵįä½ľ": 8365,
      "Ġdiplom": 8366,
      "nam": 8367,
      "Ġsom": 8368,
      "æĺ¯å¾Ī": 8369,
      "Ġå½ĵä½ł": 8370,
      "Ġå¯¹åĲĹ": 8371,
      "ĠåĪ°äºĨ": 8372,
      "Ġcharacteristics": 8373,
      "Ġnegative": 8374,
      "Ġultimately": 8375,
      "iency": 8376,
      "Ġsept": 8377,
      "çļĦçħ§": 8378,
      "å¡«": 8379,
      "Ġmultip": 8380,
      "Ġarrived": 8381,
      "æ¯ķä¸ļ": 8382,
      "Ġåĺ¿": 8383,
      "ĠæĪĳçİ°åľ¨": 8384,
      "Ġnotice": 8385,
      "äºĭåĬ¡": 8386,
      "æıĲåįĩ": 8387,
      "å£°æĺİ": 8388,
      "å½»åºķ": 8389,
      "Ġbound": 8390,
      "Ġä½łä¸įæĺ¯": 8391,
      "éĢ»": 8392,
      "çĶŁåŃĺ": 8393,
      "çĽ¸æ¯Ķ": 8394,
      "å¹³åĿĩ": 8395,
      "Ġä¸ªæľĪ": 8396,
      "çľŁæŃ£çļĦ": 8397,
      "Ġpak": 8398,
      "åħ¬å¹³": 8399,
      "å°Ķå¾·": 8400,
      "Ġfinding": 8401,
      "å±ı": 8402,
      "è¿ĺèĥ½": 8403,
      "éĹ®é¢ĺçļĦ": 8404,
      "Ġturning": 8405,
      "ĠåĮ»çĶŁ": 8406,
      "Ġç»ĻæĪĳ": 8407,
      "Ġguang": 8408,
      "Ġbitch": 8409,
      "Ġinstitutions": 8410,
      "irty": 8411,
      "çļĦæıĲ": 8412,
      "Ġeval": 8413,
      "åįİçĽĽé¡¿": 8414,
      "Ġunto": 8415,
      "éĢĤåºĶ": 8416,
      "Ġbeauty": 8417,
      "Ġliquid": 8418,
      "ulated": 8419,
      "æ³ķæ¡Ī": 8420,
      "Ġadult": 8421,
      "Ġdepos": 8422,
      "çıį": 8423,
      "æĸ¹éĿ¢çļĦ": 8424,
      "Ġfollowed": 8425,
      "çİ»": 8426,
      "åĲĪéĢĤ": 8427,
      "èº«ä»½": 8428,
      "Ġå¾Ĺ": 8429,
      "æĭ¿åĪ°": 8430,
      "Ġè®¸å¤ļäºº": 8431,
      "Ġfalling": 8432,
      "Ġmagic": 8433,
      "Ġdar": 8434,
      "ä»ĸå¦Ī": 8435,
      "Ġç²¾": 8436,
      "çļĦæ¢¦": 8437,
      "çĽĲ": 8438,
      "åĩºæĿ¥çļĦ": 8439,
      "æ¬£": 8440,
      "æĦıè§ģ": 8441,
      "åģļåĪ°": 8442,
      "ĠæīĢæľī": 8443,
      "įäº²": 8444,
      "osop": 8445,
      "åĬ¨ä½ľ": 8446,
      "å£¤": 8447,
      "è¡¨éĿ¢": 8448,
      "åĮĹéĥ¨": 8449,
      "å¥¥è¿Ĳ": 8450,
      "å¿ĺè®°": 8451,
      "Ġsenior": 8452,
      "çļĦåŃ©åŃĲ": 8453,
      "è¯´æ³ķ": 8454,
      "Ġclim": 8455,
      "çļĦäººä»¬": 8456,
      "èĵĦ": 8457,
      "Ġladies": 8458,
      "çĴĥ": 8459,
      "çļĦåŁºç¡Ģ": 8460,
      "æŃ§": 8461,
      "Ġmel": 8462,
      "ä¿¡è´·": 8463,
      "Ġmoral": 8464,
      "Ġclearly": 8465,
      "Ġcopy": 8466,
      "åĳ¼åĲ¸": 8467,
      "Ġexercise": 8468,
      "Ġshr": 8469,
      "Ġimposs": 8470,
      "æŁľ": 8471,
      "Ġå¿«èµ°": 8472,
      "Ġrequest": 8473,
      "åįļå£«": 8474,
      "Ġsunday": 8475,
      "Ġä½łçŁ¥éģĵåĲĹ": 8476,
      "ç¨ĭåº¦ä¸Ĭ": 8477,
      "å®ļäºĨ": 8478,
      "è¶³çĲĥ": 8479,
      "ĠæĿ°": 8480,
      "Ġraised": 8481,
      "ç£ģ": 8482,
      "Ġindeed": 8483,
      "Ġconsequ": 8484,
      "Ġmax": 8485,
      "ĠéĤ£å°±æĺ¯": 8486,
      "æĤī": 8487,
      "æīįæĺ¯": 8488,
      "Ġæĭī": 8489,
      "Ġobvious": 8490,
      "Ġcitizens": 8491,
      "ä½łæĥ³": 8492,
      "å®ª": 8493,
      "Ġtru": 8494,
      "Ġå°±ä¼ļ": 8495,
      "ç²Ĺ": 8496,
      "çĹħæ¯Ĵ": 8497,
      "ä¼Ļä¼´": 8498,
      "Ġleadership": 8499,
      "ĠéľĢ": 8500,
      "Ġçªģ": 8501,
      "Ġbow": 8502,
      "åħ½": 8503,
      "vered": 8504,
      "å¸½": 8505,
      "çļĦæŁĲ": 8506,
      "æµĵ": 8507,
      "Ġä»ĸåľ¨": 8508,
      "Ġmostly": 8509,
      "Ġdecide": 8510,
      "Ġmainly": 8511,
      "èĳ£äºĭ": 8512,
      "çļĦåħ¬åı¸": 8513,
      "Ġyang": 8514,
      "Ġheaven": 8515,
      "èĢĮä¸įæĺ¯": 8516,
      "æ¶Ĥ": 8517,
      "Ġrecovery": 8518,
      "æ·»": 8519,
      "èº²": 8520,
      "ĠæŁ¥": 8521,
      "Ġreached": 8522,
      "Ġwhom": 8523,
      "Ġsoil": 8524,
      "Ġasian": 8525,
      "èĥ¸": 8526,
      "Ġrecession": 8527,
      "è§Ĥä¼Ĺ": 8528,
      "åĿĲåľ¨": 8529,
      "Ġèī¾": 8530,
      "Ġphilosop": 8531,
      "å¢¨è¥¿åĵ¥": 8532,
      "Ġunemployment": 8533,
      "Ġjesus": 8534,
      "oned": 8535,
      "Ġstone": 8536,
      "åĵ²": 8537,
      "æĮ¡": 8538,
      "ĠåĪĽ": 8539,
      "åĽłæŃ¤": 8540,
      "Ġzh": 8541,
      "Ġä¸ĢäºĽäºº": 8542,
      "çļĦæł·": 8543,
      "çļĦæķ°æį®": 8544,
      "æĦıè¯ĨåĪ°": 8545,
      "Ġè®º": 8546,
      "è°¨": 8547,
      "éķ¿æĹ¶éĹ´": 8548,
      "å°Ķè¡Ĺ": 8549,
      "Ġoverse": 8550,
      "åŁºæĸ¯åĿ¦": 8551,
      "å¤±æľĽ": 8552,
      "è¯ķçĿĢ": 8553,
      "Ġæ±Ĥ": 8554,
      "å·Ŀ": 8555,
      "Ġcho": 8556,
      "è·Łä»ĸ": 8557,
      "ç¾İåĽ½äºº": 8558,
      "Ġpaying": 8559,
      "éĺ²æŃ¢": 8560,
      "Ġdavid": 8561,
      "è¿Ļåľº": 8562,
      "åħ¬æ°ĳ": 8563,
      "ç½¢": 8564,
      "å®ŀåľ¨": 8565,
      "çļĦæ³ķå¾ĭ": 8566,
      "ĠçĲĨ": 8567,
      "è´¡": 8568,
      "ä»Ģä¹ĪæĹ¶åĢĻ": 8569,
      "ipe": 8570,
      "Ġtwice": 8571,
      "Ġcorner": 8572,
      "çļ®èĤ¤": 8573,
      "Ġfortun": 8574,
      "¤éħĴ": 8575,
      "ä»ĩ": 8576,
      "Ġgy": 8577,
      "arian": 8578,
      "ä¸įåĸľæ¬¢": 8579,
      "åĨħçļĦ": 8580,
      "Ġscrew": 8581,
      "åįķä½į": 8582,
      "æºĥ": 8583,
      "Ġshowing": 8584,
      "æ¢°": 8585,
      "çļĦæ¼Ķ": 8586,
      "Ġå¨ģ": 8587,
      "wh": 8588,
      "ĺè¦ģ": 8589,
      "encies": 8590,
      "å¥ī": 8591,
      "Ġproud": 8592,
      "èĩ³äºİ": 8593,
      "è§Ĩé¢ĳ": 8594,
      "Ġsolid": 8595,
      "orters": 8596,
      "è¿Ļä½į": 8597,
      "ä¹Łåı¯ä»¥": 8598,
      "å¼Ģæŀª": 8599,
      "ĠåıĹ": 8600,
      "æĶ¿åºľçļĦ": 8601,
      "Ġparli": 8602,
      "æ°ĳä¸»åħļ": 8603,
      "Ġoffered": 8604,
      "Ġåľ¨æĪĳä»¬": 8605,
      "rene": 8606,
      "çļĦèħ": 8607,
      "å½ĵåīį": 8608,
      "Ġblame": 8609,
      "Ġsurr": 8610,
      "æĬĹè®®": 8611,
      "Ġprevious": 8612,
      "Ġopposition": 8613,
      "Ġä½łä¸ºä»Ģä¹Ī": 8614,
      "æĦ¤": 8615,
      "Ġknock": 8616,
      "å¼ºè°ĥ": 8617,
      "Ġargu": 8618,
      "ograph": 8619,
      "éĴ¥åĮĻ": 8620,
      "orary": 8621,
      "Ġgh": 8622,
      "ĠæĪĳè¯¥": 8623,
      "çĽĪ": 8624,
      "å®¶çļĦ": 8625,
      "Ġbraz": 8626,
      "cons": 8627,
      "Ġapartment": 8628,
      "Ġpakistan": 8629,
      "book": 8630,
      "Ġstories": 8631,
      "Ġselect": 8632,
      "Ġven": 8633,
      "ĠæĪĳåĲ¬è¯´": 8634,
      "è¿½æ±Ĥ": 8635,
      "åĪ¶éĢłåķĨ": 8636,
      "Ġæį¢åı¥è¯Ŀ": 8637,
      "Ġmuseum": 8638,
      "how": 8639,
      "lied": 8640,
      "Ġfal": 8641,
      "iger": 8642,
      "å¹¼": 8643,
      "æĢ§åĴĮ": 8644,
      "æħİ": 8645,
      "Ġempty": 8646,
      "Ġinterests": 8647,
      "Ġindependent": 8648,
      "iance": 8649,
      "zen": 8650,
      "Ġgang": 8651,
      "Ġabroad": 8652,
      "Ġcomplic": 8653,
      "æĪ¿åľ°äº§": 8654,
      "åĿıäºĨ": 8655,
      "Ġç«ĭ": 8656,
      "ä¸Ģä»¶": 8657,
      "Ġstorm": 8658,
      "æĪĪ": 8659,
      "å¯¹æĸ¹": 8660,
      "éĥ½èĥ½": 8661,
      "çıł": 8662,
      "Ġharm": 8663,
      "çļĦçģµ": 8664,
      "Ġorders": 8665,
      "Ġgrass": 8666,
      "éĴ»": 8667,
      "Ġpregn": 8668,
      "æĸĩåŃ¦": 8669,
      "Ġcapacity": 8670,
      "Ġproduced": 8671,
      "Ġrisks": 8672,
      "Ġenterprises": 8673,
      "hol": 8674,
      "put": 8675,
      "Ġåħį": 8676,
      "Ġimper": 8677,
      "Ġlux": 8678,
      "çļĦå¿ĥ": 8679,
      "çļĦèĢģ": 8680,
      "Ġgift": 8681,
      "Ġéī´": 8682,
      "åıªè¦ģ": 8683,
      "è¯ģåĪ¸": 8684,
      "åĮħåĲ«": 8685,
      "ĠåķĨ": 8686,
      "çļĦæł¸": 8687,
      "force": 8688,
      "Ġitaly": 8689,
      "Ġç«Ļ": 8690,
      "çļĦæĶ¿çŃĸ": 8691,
      "éŁ¦": 8692,
      "Ġangry": 8693,
      "å®ĩå®Ļ": 8694,
      "Ġèĩ³å°ĳ": 8695,
      "Ġcert": 8696,
      "å°±ä¸į": 8697,
      "éĩĳå±ŀ": 8698,
      "Ġourselves": 8699,
      "èĬĤçĽ®": 8700,
      "pective": 8701,
      "Ġoperations": 8702,
      "çļĦæ¸¸": 8703,
      "do": 8704,
      "æĺ¯ä»ĸ": 8705,
      "å±Ĭ": 8706,
      "Ġbridge": 8707,
      "åı¯èĥ½æĢ§": 8708,
      "èĪ°": 8709,
      "Ġlocated": 8710,
      "Ġtaxes": 8711,
      "æļ´åĬĽ": 8712,
      "çĸ¯çĭĤ": 8713,
      "å½¼æŃ¤": 8714,
      "æĺ¯æĢİä¹Ī": 8715,
      "ä¸ĢæĿ¯": 8716,
      "Ġlies": 8717,
      "ä½ľåĩº": 8718,
      "å¤ªå¤ª": 8719,
      "ĠåĨħ": 8720,
      "Ġlaun": 8721,
      "ä¼łæĴŃ": 8722,
      "Ġharder": 8723,
      "è¿Ļä¸ĢåĪĩ": 8724,
      "è´¢äº§": 8725,
      "ober": 8726,
      "erves": 8727,
      "Ġhide": 8728,
      "Ġä½Ĩåľ¨": 8729,
      "Ġåľ¨ä¸ŃåĽ½": 8730,
      "Ġmyster": 8731,
      "å¼Ģè½¦": 8732,
      "Ġlaunch": 8733,
      "Ġæ°ĳ": 8734,
      "çļĦæ¶Īæģ¯": 8735,
      "Ġå¿ħé¡»": 8736,
      "æľīæĹ¶": 8737,
      "å¹´é¾Ħ": 8738,
      "Ġsymb": 8739,
      "Ġconfidence": 8740,
      "ä¸įå®ī": 8741,
      "Ġhen": 8742,
      "Ġunable": 8743,
      "çļĦèº«ä½ĵ": 8744,
      "çļĦçĪ¶äº²": 8745,
      "Ġåĵ¥ä»¬": 8746,
      "Ġoctober": 8747,
      "inate": 8748,
      "ĠæĪĳåºĶè¯¥": 8749,
      "åĽ½çİĭ": 8750,
      "Ġliver": 8751,
      "å®ŀè·µ": 8752,
      "ç½Ĺé©¬": 8753,
      "æĹ©æľŁ": 8754,
      "ĠçĽ¸ä¿¡": 8755,
      "Ġmanagers": 8756,
      "Ġtask": 8757,
      "Ġbeg": 8758,
      "çĶ¨äºĨ": 8759,
      "Ġmary": 8760,
      "æĦŁæŁĵ": 8761,
      "Ġlistening": 8762,
      "åĤ²": 8763,
      "Ġpictures": 8764,
      "Ġprinciple": 8765,
      "Ġdegree": 8766,
      "Ġlift": 8767,
      "ula": 8768,
      "èĩªè¡Į": 8769,
      "åĿĽ": 8770,
      "ç¾İåĽ½çļĦ": 8771,
      "Ġregist": 8772,
      "Ġä¸ĢèĪ¬": 8773,
      "ĠåĲĮæł·": 8774,
      "éģŃåıĹ": 8775,
      "Ġexisting": 8776,
      "Ġéĥ¨": 8777,
      "Ĳĥ": 8778,
      "çļĦå£°éŁ³": 8779,
      "Ġder": 8780,
      "æľµ": 8781,
      "acing": 8782,
      "èĢĢ": 8783,
      "Ġåĩ¯": 8784,
      "Ġmajority": 8785,
      "Ġéĵ¶": 8786,
      "ashed": 8787,
      "éĤ£æĹ¶": 8788,
      "èĤº": 8789,
      "Ġinternal": 8790,
      "èĨ¨": 8791,
      "Ġpowers": 8792,
      "å°ĺ": 8793,
      "ĠçĮ": 8794,
      "illed": 8795,
      "æĥ¨": 8796,
      "Ġconference": 8797,
      "Ġseek": 8798,
      "Ġhighest": 8799,
      "Ġserve": 8800,
      "æ¯ıä¸ªäºº": 8801,
      "è¶ħçº§": 8802,
      "Ġtroops": 8803,
      "ç§ĭ": 8804,
      "çĽ¸ä¼¼": 8805,
      "ĠæĬĬä½łçļĦ": 8806,
      "æĬ¥çº¸": 8807,
      "å£°ç§°": 8808,
      "å¹¸çļĦæĺ¯": 8809,
      "é¡¾å®¢": 8810,
      "Ġdemonstr": 8811,
      "Ġparliament": 8812,
      "bb": 8813,
      "Ġnan": 8814,
      "çļĦç´": 8815,
      "Ġnove": 8816,
      "å°Ĩåħ¶": 8817,
      "çł¸": 8818,
      "Ġæ³¢": 8819,
      "é¦ĸæ¬¡": 8820,
      "å©ļç¤¼": 8821,
      "Ġçī¹åĪ«æĺ¯": 8822,
      "Ļ¾": 8823,
      "åıĻ": 8824,
      "ä¾¿å®ľ": 8825,
      "Ġä¸Ĭå¸Ŀ": 8826,
      "Ġseriously": 8827,
      "çĲ³": 8828,
      "æķĻåłĤ": 8829,
      "æĢĿèĢĥ": 8830,
      "Ġbrazil": 8831,
      "Ġsevere": 8832,
      "åĭ¤": 8833,
      "Ġtalked": 8834,
      "Ġdefense": 8835,
      "Ġåĩłä¹İ": 8836,
      "Ġrelatively": 8837,
      "ä¸ĭéĿ¢": 8838,
      "Ġcauses": 8839,
      "æĶ¶è´Ń": 8840,
      "æ¤ħ": 8841,
      "ĠåĪ¶": 8842,
      "Ġå®Į": 8843,
      "Ġapparent": 8844,
      "å®ĮäºĨ": 8845,
      "æľĪä»½": 8846,
      "Ġmilk": 8847,
      "Ġvoters": 8848,
      "Ġensure": 8849,
      "Ġlou": 8850,
      "Ġhat": 8851,
      "action": 8852,
      "åıįæĺł": 8853,
      "Ġimpossible": 8854,
      "ded": 8855,
      "è¯ģå®ŀ": 8856,
      "Ġdepart": 8857,
      "Ġparis": 8858,
      "ç»ĨèĬĤ": 8859,
      "Ġæį¢åı¥è¯Ŀè¯´": 8860,
      "çĽĴ": 8861,
      "ĠåĪ«ç¢°": 8862,
      "å¸¦æĿ¥çļĦ": 8863,
      "åĽ¢ä½ĵ": 8864,
      "ĠçľŁçļĦ": 8865,
      "çļĦèĦļ": 8866,
      "iliar": 8867,
      "Ġduty": 8868,
      "æ²«": 8869,
      "ç¤¼çī©": 8870,
      "Ġprepared": 8871,
      "Ġdecember": 8872,
      "Ġbare": 8873,
      "æ²¡ä»Ģä¹Ī": 8874,
      "éĩįçĤ¹": 8875,
      "æ´¾å¯¹": 8876,
      "ä¼°è®¡": 8877,
      "Ġreplace": 8878,
      "Ġillegal": 8879,
      "çļĦè¡Įä¸º": 8880,
      "eless": 8881,
      "ç»Łè®¡": 8882,
      "è®®éĻ¢": 8883,
      "åĽĽä¸ª": 8884,
      "Ġdreams": 8885,
      "Ġsale": 8886,
      "itect": 8887,
      "Ġweird": 8888,
      "ä¸Ĭæµ·": 8889,
      "Ġå¹¸": 8890,
      "Ġhasn": 8891,
      "Ġclient": 8892,
      "Ġdistance": 8893,
      "ĠæĢİä¹ĪäºĨ": 8894,
      "Ġconcerned": 8895,
      "Ġmillions": 8896,
      "Ġsurround": 8897,
      "Ġnovember": 8898,
      "Ġè°·æŃĮ": 8899,
      "Ġfired": 8900,
      "Ġgay": 8901,
      "ĠæĪĳåıĪ": 8902,
      "çĶŁæĹ¥": 8903,
      "Ġplenty": 8904,
      "èµ·äºĨ": 8905,
      "å¤©çĦ¶": 8906,
      "çľŁçĽ¸": 8907,
      "Ġå¤±": 8908,
      "åķĨåºĹ": 8909,
      "çªĥ": 8910,
      "èĤ¡å¸Ĥ": 8911,
      "Ġrestrict": 8912,
      "Ġstreets": 8913,
      "ĠæĶ¹": 8914,
      "çļĦä¸ŃåĽ½": 8915,
      "Ġforms": 8916,
      "éĥģ": 8917,
      "å°ıè¯´": 8918,
      "è®¸åı¯": 8919,
      "ĠæĬĬæĪĳ": 8920,
      "Ġwarning": 8921,
      "æĬ±æĢ¨": 8922,
      "Ġç¬¬ä¸Ģ": 8923,
      "ç¬¦åĲĪ": 8924,
      "éĺ¿æĭīä¼¯": 8925,
      "Ġing": 8926,
      "Ġlone": 8927,
      "åį§": 8928,
      "å¥½å¤Ħ": 8929,
      "Ġæĺ¯åĲ§": 8930,
      "Ġhelping": 8931,
      "Ġregional": 8932,
      "Ġmaintain": 8933,
      "ography": 8934,
      "Ġarchitect": 8935,
      "Ġfest": 8936,
      "å¤§å¹ħ": 8937,
      "çļĦçŁ": 8938,
      "ĠæĪĳä»¬æľī": 8939,
      "ä¿ĿçķĻ": 8940,
      "è¿Ļä¸ªéĹ®é¢ĺ": 8941,
      "æ¨ª": 8942,
      "åłª": 8943,
      "uous": 8944,
      "Ġdu": 8945,
      "Ġdial": 8946,
      "å½¹": 8947,
      "Ġaftern": 8948,
      "Ġfoundation": 8949,
      "Ġeastern": 8950,
      "Ġcreating": 8951,
      "ä¼ı": 8952,
      "Ġgrown": 8953,
      "Ġfeb": 8954,
      "Ġå¯Į": 8955,
      "åĨ³çŃĸ": 8956,
      "Ġconsult": 8957,
      "å¤įèĭı": 8958,
      "Ġplayers": 8959,
      "Ġsigned": 8960,
      "åı·çłģ": 8961,
      "éĩĳèŀįåį±æľº": 8962,
      "Ġå¸ĮèħĬ": 8963,
      "Ġjail": 8964,
      "éĤ£è¾¹": 8965,
      "Ġä½Ĩä½łä»¬": 8966,
      "Ġbush": 8967,
      "gery": 8968,
      "Ġdemocracy": 8969,
      "Ġhouses": 8970,
      "Ġiniti": 8971,
      "éĺħè¯»": 8972,
      "Ġgain": 8973,
      "Ġcomment": 8974,
      "Ġplat": 8975,
      "èĤ©": 8976,
      "Ġè®©æĪĳä»¬": 8977,
      "Ġconcern": 8978,
      "æ¶īåıĬ": 8979,
      "Ġboost": 8980,
      "çļĦä¿¡æģ¯": 8981,
      "æĺ¯ä»İ": 8982,
      "å»ºéĢł": 8983,
      "åħ´å¥ĭ": 8984,
      "æħĪ": 8985,
      "hua": 8986,
      "uries": 8987,
      "Ġaspect": 8988,
      "å¾ĹåĪ°äºĨ": 8989,
      "ç¾İä¸½": 8990,
      "çī¹çĤ¹": 8991,
      "Ġresc": 8992,
      "Ġwrote": 8993,
      "æŁĲä¸ª": 8994,
      "Ġslowly": 8995,
      "Ġä¸Ķ": 8996,
      "erved": 8997,
      "æ²Ł": 8998,
      "Ġdear": 8999,
      "è®¾ç½®": 9000,
      "Ġå¸®": 9001,
      "Ġmagaz": 9002,
      "Ġdeliver": 9003,
      "Ġbrief": 9004,
      "æĥ¹": 9005,
      "umn": 9006,
      "Ġindex": 9007,
      "Ġfigures": 9008,
      "Ġdetails": 9009,
      "æĦīå¿«": 9010,
      "çļĦä¸ĸçķĮ": 9011,
      "Ġgather": 9012,
      "æĪĳæĺ¯": 9013,
      "Ġrub": 9014,
      "å¯¿": 9015,
      "aped": 9016,
      "ç»Ļä»ĸä»¬": 9017,
      "æĸ¯ç§ĳ": 9018,
      "é©»": 9019,
      "Ġminim": 9020,
      "Ġbuildings": 9021,
      "Ġsexual": 9022,
      "å®¿": 9023,
      "æĪª": 9024,
      "Ġrural": 9025,
      "çĹ´": 9026,
      "çĽ´åĪ°": 9027,
      "Ġhappening": 9028,
      "Ġreceive": 9029,
      "Ġexecutive": 9030,
      "äº¦": 9031,
      "Ġfan": 9032,
      "ä¹ĭå¤Ħ": 9033,
      "å¿ĥçļĦ": 9034,
      "å°Ķåħ°": 9035,
      "Ġå¼Ħ": 9036,
      "Ġdogs": 9037,
      "çļĦç¬¬ä¸Ģ": 9038,
      "çĪĨåıĳ": 9039,
      "ä»ħä»ħæĺ¯": 9040,
      "çħ¤": 9041,
      "gage": 9042,
      "nic": 9043,
      "Ġpool": 9044,
      "å¹´çļĦ": 9045,
      "çķª": 9046,
      "æĽ´å¥½çļĦ": 9047,
      "Ġcommit": 9048,
      "å©´åĦ¿": 9049,
      "æĬĵä½ı": 9050,
      "Ġbid": 9051,
      "è§ģçļĦ": 9052,
      "æĹ©å°±": 9053,
      "è¿¹è±¡": 9054,
      "Ġoptim": 9055,
      "Ġrough": 9056,
      "å¯Ĵ": 9057,
      "å°ĨåĨĽ": 9058,
      "æĽ´å¤§": 9059,
      "Ġå¯¼": 9060,
      "éħ¬": 9061,
      "éĩıçļĦ": 9062,
      "Ġä»¥ä¾¿": 9063,
      "Ġuseful": 9064,
      "åĪ¤æĸŃ": 9065,
      "Ġéķ¿å®ĺ": 9066,
      "çĩĥæĸĻ": 9067,
      "Ġfixed": 9068,
      "Ġhomes": 9069,
      "åĲĽ": 9070,
      "Ġå¹²": 9071,
      "Ġlocation": 9072,
      "èĢĥè¯ķ": 9073,
      "Ġcanada": 9074,
      "Ġsymbol": 9075,
      "oration": 9076,
      "Ġyuan": 9077,
      "ä½łå°±": 9078,
      "æĪĳèĥ½": 9079,
      "ston": 9080,
      "æĭĨ": 9081,
      "è¿ĽæŃ¥": 9082,
      "èĬ¬": 9083,
      "é¢Ĩè¢ĸ": 9084,
      "æĴĳ": 9085,
      "Ġtrial": 9086,
      "åľ°çļĦ": 9087,
      "Ġèĳ": 9088,
      "åĨľæ°ĳ": 9089,
      "Ġdaddy": 9090,
      "Ġsatur": 9091,
      "Ġbirthday": 9092,
      "Ġscreen": 9093,
      "Ġislam": 9094,
      "ä¼ļä¸Ĭ": 9095,
      "çļĦç¬": 9096,
      "cket": 9097,
      "Ġstrange": 9098,
      "Ġcuts": 9099,
      "has": 9100,
      "äºĨä¸ĢäºĽ": 9101,
      "Ġä½łçĪ¸": 9102,
      "åĩºçĶŁ": 9103,
      "ago": 9104,
      "Ġchen": 9105,
      "Ġliberal": 9106,
      "Ġfinger": 9107,
      "Ġnewspaper": 9108,
      "ios": 9109,
      "åĪĬ": 9110,
      "ä½łä¸į": 9111,
      "åĪĨä¹ĭ": 9112,
      "æ´»çĿĢ": 9113,
      "æİ¥è§¦": 9114,
      "èº«è¾¹": 9115,
      "Ġinstall": 9116,
      "ĠåĽ½å®¶": 9117,
      "Ġfootball": 9118,
      "æĢ»çĲĨ": 9119,
      "Ġanalyz": 9120,
      "é½¿": 9121,
      "Ġgreek": 9122,
      "Ġattempt": 9123,
      "çļĦæĪĲ": 9124,
      "Ġä½łåı¯": 9125,
      "iring": 9126,
      "ulous": 9127,
      "çĪ¬": 9128,
      "Ġæĳĺè¦ģ": 9129,
      "é©¾é©¶": 9130,
      "èĨ¨èĥĢ": 9131,
      "night": 9132,
      "ä¸įå°ĳ": 9133,
      "Ġexplos": 9134,
      "Ġsubsid": 9135,
      "ero": 9136,
      "Ġshape": 9137,
      "Ġasse": 9138,
      "Ġteachers": 9139,
      "çļĦçģ«": 9140,
      "mony": 9141,
      "Ġafternoon": 9142,
      "ees": 9143,
      "Ġdim": 9144,
      "çļĦæ£": 9145,
      "æ¸¡": 9146,
      "æ¡ĳ": 9147,
      "æ¼ł": 9148,
      "åľ¨éĤ£åĦ¿": 9149,
      "Ġconstitution": 9150,
      "lus": 9151,
      "ä¸įè¡Į": 9152,
      "Ġhearing": 9153,
      "ĠæĦŁ": 9154,
      "çļĦæĬĢæľ¯": 9155,
      "Ġyouth": 9156,
      "Ġä½Ĩçİ°åľ¨": 9157,
      "ours": 9158,
      "Ġåı¤": 9159,
      "åıĹæ¬¢è¿İ": 9160,
      "åĢĻéĢī": 9161,
      "ĠæĶ¶": 9162,
      "Ġsurprise": 9163,
      "Ġéī´äºİ": 9164,
      "Ġå¡": 9165,
      "å¥´": 9166,
      "ç¥Ń": 9167,
      "ç±»åŀĭ": 9168,
      "ç¤¾åĮº": 9169,
      "Ġestim": 9170,
      "ipped": 9171,
      "rast": 9172,
      "åĩºåıĳ": 9173,
      "ques": 9174,
      "å¼ĢæĶ¯": 9175,
      "çŃīçĿĢ": 9176,
      "çŁ¥éģĵä½ł": 9177,
      "ĠåįĹ": 9178,
      "æµģåĬ¨": 9179,
      "éģŃåĪ°": 9180,
      "çļĦç½ª": 9181,
      "Ġthousand": 9182,
      "åĲİæŀľ": 9183,
      "æģĴ": 9184,
      "éĢļèĥĢ": 9185,
      "Ġrose": 9186,
      "Ġcommod": 9187,
      "åĳ¨æľ«": 9188,
      "Ġeffic": 9189,
      "Ġdivor": 9190,
      "çļĦçĽ®æłĩ": 9191,
      "ĠåĤ": 9192,
      "å¤¸": 9193,
      "éĤª": 9194,
      "èĩĤ": 9195,
      "æĭĶ": 9196,
      "Ġfeatures": 9197,
      "éĵº": 9198,
      "è¯ķè¯ķ": 9199,
      "Ġsteps": 9200,
      "Ġanalysts": 9201,
      "Ġbail": 9202,
      "Ġnamed": 9203,
      "Ġhabit": 9204,
      "Ġliu": 9205,
      "åĲĮæĢ§æģĭ": 9206,
      "çī©é¦Ĩ": 9207,
      "è¿Ļæł·åģļ": 9208,
      "issions": 9209,
      "Ġfeelings": 9210,
      "Ġhousehold": 9211,
      "çºªå¿µ": 9212,
      "Ġfaces": 9213,
      "Ġsmoking": 9214,
      "ĠèĢ¶åĴĮåįİ": 9215,
      "Ġtun": 9216,
      "æľīåĪ©": 9217,
      "Ġwebs": 9218,
      "Ġrice": 9219,
      "å¯¸": 9220,
      "æ±½": 9221,
      "Ġjoy": 9222,
      "çĶ·åŃĲ": 9223,
      "Ġheads": 9224,
      "å·®å¼Ĥ": 9225,
      "Ġamazing": 9226,
      "Ġå¥¶å¥¶": 9227,
      "Ġlit": 9228,
      "åĪ°å¤Ħ": 9229,
      "Ġsaved": 9230,
      "Ġconsumption": 9231,
      "çº¦ç¿°": 9232,
      "åħ±äº§": 9233,
      "Ġturns": 9234,
      "å·¦åı³": 9235,
      "ok": 9236,
      "Ġ`": 9237,
      "äººæķ°": 9238,
      "åı¯ä»¥åľ¨": 9239,
      "å¦Ĥä»Ĭ": 9240,
      "Ġconscious": 9241,
      "Ġdesk": 9242,
      "èĻ½": 9243,
      "ç¬¬ä¸Ģä¸ª": 9244,
      "åħ·ä½ĵ": 9245,
      "è´¢åĬ¡": 9246,
      "ç´§æĢ¥": 9247,
      "å®£ä¼ł": 9248,
      "Ġhundreds": 9249,
      "works": 9250,
      "Ġgall": 9251,
      "æī¯": 9252,
      "Ġshown": 9253,
      "Ġspect": 9254,
      "Ġanywhere": 9255,
      "æľŁå¾ħ": 9256,
      "å¹²åĩĢ": 9257,
      "Ġlargely": 9258,
      "æľīä¸Ģå¤©": 9259,
      "Ġreturned": 9260,
      "èľľ": 9261,
      "Ġengineering": 9262,
      "åºĨç¥Ŀ": 9263,
      "Ġintelligence": 9264,
      "éĢ®æįķ": 9265,
      "Ġcircumstances": 9266,
      "Ġbeach": 9267,
      "Ġrot": 9268,
      "çļĦæļ": 9269,
      "ä¸ĭä¸Ģ": 9270,
      "è°ħ": 9271,
      "Ġå°¼": 9272,
      "æĺ¾å¾Ĺ": 9273,
      "è´§çī©": 9274,
      "Ġestate": 9275,
      "æĮīçħ§": 9276,
      "Ġera": 9277,
      "Ġsquare": 9278,
      "Ġdocuments": 9279,
      "Ġæĭľæīĺ": 9280,
      "Ġerr": 9281,
      "ä»İæ²¡": 9282,
      "Ġmonetary": 9283,
      "å¸ĤåľºçļĦ": 9284,
      "æ»¡æĦı": 9285,
      "Ġcommunist": 9286,
      "Ġlawyer": 9287,
      "Ġåľ¨ç¾İåĽ½": 9288,
      "èģĺ": 9289,
      "èĭĹ": 9290,
      "æĤĶ": 9291,
      "Ġsetting": 9292,
      "Ġtechnical": 9293,
      "ĠæĿ¥èĩª": 9294,
      "Ġhyp": 9295,
      "å¹´è½»äºº": 9296,
      "Ġdistribution": 9297,
      "çİ»çĴĥ": 9298,
      "ein": 9299,
      "å·¡": 9300,
      "è¿ĩäºİ": 9301,
      "çľĭæ³ķ": 9302,
      "Ġå¹¿": 9303,
      "åķ¤éħĴ": 9304,
      "å¢ĵ": 9305,
      "å°ĳæķ°": 9306,
      "ç»ıæµİå¢ŀéķ¿": 9307,
      "ä¸Ģå®ļè¦ģ": 9308,
      "Ġcontinued": 9309,
      "ĠçĪ¸çĪ¸": 9310,
      "Ġreleased": 9311,
      "Ġcore": 9312,
      "åľ¨ç¾İåĽ½": 9313,
      "ä¸Ĭå¸Ĥ": 9314,
      "åĽ½æľī": 9315,
      "Ġvision": 9316,
      "åį°è±¡": 9317,
      "Ġrelease": 9318,
      "board": 9319,
      "Ġtaste": 9320,
      "çļĦæīĭ": 9321,
      "Ġpil": 9322,
      "å®ı": 9323,
      "ĠæĪĳä¸įä¼ļ": 9324,
      "è¾±": 9325,
      "fection": 9326,
      "Ġå¥¹ä¼ļ": 9327,
      "å¸¦æĿ¥äºĨ": 9328,
      "Ġinsist": 9329,
      "Ġweekend": 9330,
      "Ġkorean": 9331,
      "¯æķĳ": 9332,
      "Ġwound": 9333,
      "Ġreject": 9334,
      "Ġteach": 9335,
      "ĠæĺŁ": 9336,
      "æĦŁåħ´è¶£": 9337,
      "å±ķå¼Ģ": 9338,
      "Ġdecisions": 9339,
      "Ġrealize": 9340,
      "Ġinstru": 9341,
      "çĺ¤": 9342,
      "å®ŀéªĮå®¤": 9343,
      "Ġmechanism": 9344,
      "Ġtrend": 9345,
      "Ġneck": 9346,
      "Ġlosses": 9347,
      "Ġneighbor": 9348,
      "Ġsam": 9349,
      "æĿľ": 9350,
      "è´ª": 9351,
      "å¤§äºĨ": 9352,
      "çīµ": 9353,
      "tery": 9354,
      "ä¸¤ç§į": 9355,
      "åŁºäºİ": 9356,
      "Ġbelieved": 9357,
      "åŁ¹åħ»": 9358,
      "Ġseptember": 9359,
      "Ġè¿ĳ": 9360,
      "Ġmood": 9361,
      "Ġä½ĵ": 9362,
      "åı¯çĪ±": 9363,
      "çļĦèŃ¦": 9364,
      "ä¿¡ä»°": 9365,
      "ternal": 9366,
      "äºīè®º": 9367,
      "Ġå°ıæĹ¶": 9368,
      "Ġairport": 9369,
      "Ġmatters": 9370,
      "Ġargue": 9371,
      "Ġfilled": 9372,
      "çļĦèĬ±": 9373,
      "Ġextremely": 9374,
      "ģåº¦": 9375,
      "çļĦé£İéĻ©": 9376,
      "Ġcart": 9377,
      "èµł": 9378,
      "åİ»æī¾": 9379,
      "è¥¿äºļ": 9380,
      "åĽŀæĿ¥äºĨ": 9381,
      "è¯·æ±Ĥ": 9382,
      "ç¾ŀ": 9383,
      "çģ«è½¦": 9384,
      "Ġé£İ": 9385,
      "æĺ¨å¤©": 9386,
      "ham": 9387,
      "æ§": 9388,
      "Ġdump": 9389,
      "ribe": 9390,
      "çºł": 9391,
      "éģĵæŃī": 9392,
      "æľŁæľĽ": 9393,
      "Ġminor": 9394,
      "ä»»ä½ķäºº": 9395,
      "Ġdiscovered": 9396,
      "Ġbodies": 9397,
      "rated": 9398,
      "Ġori": 9399,
      "Ġrein": 9400,
      "æĸ¥": 9401,
      "Ġsem": 9402,
      "Ġå¦Ĥæŀľä¸į": 9403,
      "åĬłåĿ¡": 9404,
      "Ġotherwise": 9405,
      "ç«ĭåį³": 9406,
      "Ġæ²¡éĶĻ": 9407,
      "æİĴæĶ¾": 9408,
      "Ġequity": 9409,
      "çļĦæµģ": 9410,
      "Ġconcerns": 9411,
      "Ġconflict": 9412,
      "ä»ĸäºº": 9413,
      "Ġclin": 9414,
      "Ġclock": 9415,
      "Ġagent": 9416,
      "æĮĩæķ°": 9417,
      "æķĪçİĩ": 9418,
      "ĠæĻ®": 9419,
      "åıĮæĸ¹": 9420,
      "Ġtruly": 9421,
      "Ġè·Ł": 9422,
      "idden": 9423,
      "ocol": 9424,
      "Ġretail": 9425,
      "æı´åĬ©": 9426,
      "Ġdropped": 9427,
      "Ġfant": 9428,
      "ä¸įä¹ħ": 9429,
      "ä¸Ĭæľī": 9430,
      "åıĳè¡Į": 9431,
      "ç®Ń": 9432,
      "å®ļä¹ī": 9433,
      "izes": 9434,
      "Ġcharges": 9435,
      "çķĻåľ¨": 9436,
      "Ġefficient": 9437,
      "Ġsilver": 9438,
[...]
