{
  "version": "1.0",
  "truncation": null,
  "padding": null,
  "added_tokens": [
    {
      "id": 0,
      "content": "[PAD]",
      "single_word": false,
      "lstrip": false,
      "rstrip": false,
      "normalized": false,
      "special": true
    },
    {
      "id": 1,
      "content": "[UNK]",
      "single_word": false,
      "lstrip": false,
      "rstrip": false,
      "normalized": false,
      "special": true
    },
    {
      "id": 2,
      "content": "[BOS]",
      "single_word": false,
      "lstrip": false,
      "rstrip": false,
      "normalized": false,
      "special": true
    },
    {
      "id": 3,
      "content": "[EOS]",
      "single_word": false,
      "lstrip": false,
      "rstrip": false,
      "normalized": false,
      "special": true
    }
  ],
  "normalizer": {
    "type": "Sequence",
    "normalizers": [
      {
        "type": "NFKC"
      },
      {
        "type": "StripAccents"
      },
      {
        "type": "NFD"
      },
      {
        "type": "Lowercase"
      }
    ]
  },
  "pre_tokenizer": {
    "type": "Sequence",
    "pretokenizers": [
      {
        "type": "Whitespace"
      },
      {
        "type": "Punctuation",
        "behavior": "Isolated"
      },
      {
        "type": "Digits",
        "individual_digits": true
      },
      {
        "type": "ByteLevel",
        "add_prefix_space": true,
        "trim_offsets": true,
        "use_regex": true
      }
    ]
  },
  "post_processor": {
    "type": "TemplateProcessing",
    "single": [
      {
        "SpecialToken": {
          "id": "[BOS]",
          "type_id": 0
        }
      },
      {
        "Sequence": {
          "id": "A",
          "type_id": 0
        }
      },
      {
        "SpecialToken": {
          "id": "[EOS]",
          "type_id": 0
        }
      }
    ],
    "pair": [
      {
        "SpecialToken": {
          "id": "[BOS]",
          "type_id": 0
        }
      },
      {
        "Sequence": {
          "id": "A",
          "type_id": 0
        }
      },
      {
        "SpecialToken": {
          "id": "[EOS]",
          "type_id": 0
        }
      },
      {
        "SpecialToken": {
          "id": "[BOS]",
          "type_id": 0
        }
      },
      {
        "Sequence": {
          "id": "B",
          "type_id": 0
        }
      },
      {
        "SpecialToken": {
          "id": "[EOS]",
          "type_id": 0
        }
      }
    ],
    "special_tokens": {
      "[BOS]": {
        "id": "[BOS]",
        "ids": [
          2
        ],
        "tokens": [
          "[BOS]"
        ]
      },
      "[EOS]": {
        "id": "[EOS]",
        "ids": [
          3
        ],
        "tokens": [
          "[EOS]"
        ]
      }
    }
  },
  "decoder": {
    "type": "ByteLevel",
    "add_prefix_space": true,
    "trim_offsets": true,
    "use_regex": true
  },
  "model": {
    "type": "BPE",
    "dropout": null,
    "unk_token": "[UNK]",
    "continuing_subword_prefix": null,
    "end_of_word_suffix": null,
    "fuse_unk": false,
    "byte_fallback": false,
    "vocab": {
      "[PAD]": 0,
      "[UNK]": 1,
      "[BOS]": 2,
      "[EOS]": 3,
      "!": 4,
      "\"": 5,
      "#": 6,
      "$": 7,
      "%": 8,
      "&": 9,
      "'": 10,
      "(": 11,
      ")": 12,
      "*": 13,
      "+": 14,
      ",": 15,
      "-": 16,
      ".": 17,
      "/": 18,
      "0": 19,
      "1": 20,
      "2": 21,
      "3": 22,
      "4": 23,
      "5": 24,
      "6": 25,
      "7": 26,
      "8": 27,
      "9": 28,
      ":": 29,
      ";": 30,
      "<": 31,
      "=": 32,
      ">": 33,
      "?": 34,
      "@": 35,
      "[": 36,
      "\\": 37,
      "]": 38,
      "^": 39,
      "_": 40,
      "`": 41,
      "b": 42,
      "c": 43,
      "e": 44,
      "f": 45,
      "i": 46,
      "l": 47,
      "m": 48,
      "n": 49,
      "o": 50,
      "t": 51,
      "u": 52,
      "v": 53,
      "w": 54,
      "{": 55,
      "|": 56,
      "}": 57,
      "~": 58,
      "¡": 59,
      "¢": 60,
      "£": 61,
      "¤": 62,
      "¥": 63,
      "¦": 64,
      "§": 65,
      "¨": 66,
      "©": 67,
      "ª": 68,
      "«": 69,
      "¬": 70,
      "®": 71,
      "¯": 72,
      "°": 73,
      "±": 74,
      "²": 75,
      "³": 76,
      "´": 77,
      "µ": 78,
      "¶": 79,
      "·": 80,
      "¸": 81,
      "¹": 82,
      "º": 83,
      "»": 84,
      "¼": 85,
      "½": 86,
      "¾": 87,
      "¿": 88,
      "Â": 89,
      "Ã": 90,
      "Ë": 91,
      "Ì": 92,
      "Î": 93,
      "Ï": 94,
      "Ð": 95,
      "Ñ": 96,
      "â": 97,
      "ã": 98,
      "ä": 99,
      "å": 100,
      "æ": 101,
      "ç": 102,
      "è": 103,
      "é": 104,
      "ï": 105,
      "ð": 106,
      "Ġ": 107,
      "ġ": 108,
      "Ģ": 109,
      "ģ": 110,
      "Ĥ": 111,
      "ĥ": 112,
      "Ħ": 113,
      "ħ": 114,
      "Ĩ": 115,
      "ĩ": 116,
      "Ī": 117,
      "ī": 118,
      "Ĭ": 119,
      "ĭ": 120,
      "Į": 121,
      "į": 122,
      "İ": 123,
      "ı": 124,
      "Ĳ": 125,
      "ĳ": 126,
      "Ĵ": 127,
      "ĵ": 128,
      "Ķ": 129,
      "ķ": 130,
      "ĸ": 131,
      "Ĺ": 132,
      "ĺ": 133,
      "Ļ": 134,
      "ļ": 135,
      "Ľ": 136,
      "ľ": 137,
      "Ŀ": 138,
      "ŀ": 139,
      "Ł": 140,
      "ł": 141,
      "Ń": 142,
      "Ġå": 143,
      "Ġæ": 144,
      "Ġä": 145,
      "Ġç": 146,
      "Ġã": 147,
      "ĠãĢ": 148,
      "Ġè": 149,
      "ĠãĢĤ": 150,
      "Ġä¸": 151,
      "ļĦ": 152,
      "ĠçļĦ": 153,
      "ĠæĪ": 154,
      "Ġ,": 155,
      "Ġé": 156,
      "ĠæĪĳ": 157,
      "Ġä½": 158,
      "Ġäº": 159,
      "ä¸": 160,
      "Ġä»": 161,
      "Ġä½ł": 162,
      "ä»": 163,
      "ĺ¯": 164,
      "Ġè¿": 165,
      "ĠäºĨ": 166,
      "Ġåı": 167,
      "äº": 168,
      "Ġä¸į": 169,
      "Ġ?": 170,
      "ĠåĲ": 171,
      "ľ¨": 172,
      "Ġä¸Ģ": 173,
      "ä»¬": 174,
      "Ġä»ĸ": 175,
      "Ġå¥": 176,
      "Ġæĺ¯": 177,
      "Ġæľ": 178,
      "Ġåľ¨": 179,
      "Ġè¿Ļ": 180,
      "Ġå°": 181,
      "ä¹": 182,
      "æľ": 183,
      "åĪ": 184,
      "ĥ½": 185,
      "Ġå¤": 186,
      "å¤": 187,
      "Ġåħ": 188,
      "æĺ¯": 189,
      "Ġæī": 190,
      "å®": 191,
      "Ġå®": 192,
      "è¯": 193,
      "ĠåĪ": 194,
      "ä¸ª": 195,
      "¼ļ": 196,
      "Ŀ¥": 197,
      "ä¹Ī": 198,
      "¦ģ": 199,
      "Ġå¾": 200,
      "Ġè¯": 201,
      "Ġä¹": 202,
      "åħ": 203,
      "ĠæĪĳä»¬": 204,
      "Ġæľī": 205,
      "åı": 206,
      "åŃ": 207,
      "Ġå°±": 208,
      "åĬ": 209,
      "ĠæĹ": 210,
      "Ġç»": 211,
      "Ġè®": 212,
      "ĠæĬ": 213,
      "ä½": 214,
      "ĠåĴ": 215,
      "ĠåĽ": 216,
      "ĠéĤ": 217,
      "çĶ": 218,
      "Ġå¥¹": 219,
      "ĠçĶ": 220,
      "Ġå¥½": 221,
      "äºº": 222,
      "ĠéĤ£": 223,
      "Ġæ²": 224,
      "Ġçľ": 225,
      "ĠåĴĮ": 226,
      "Ġåı¯": 227,
      "ç»": 228,
      "Ġå¯": 229,
      "Ġ!": 230,
      "åĲ": 231,
      "İ»": 232,
      "æĿ¥": 233,
      "æľī": 234,
      "è¿": 235,
      "æĸ": 236,
      "åĽ": 237,
      "ĥ³": 238,
      "å¾": 239,
      "æł": 240,
      "Ģä¹Ī": 241,
      "éĩ": 242,
      "Ġåĩ": 243,
      "Ġäºº": 244,
      "Ł¥": 245,
      "Ġæ²¡": 246,
      "Ġåį": 247,
      "ä¸º": 248,
      "Ġå¹": 249,
      "ĠåĲĹ": 250,
      "Ġå¾Ī": 251,
      "Ġå·": 252,
      "éģ": 253,
      "åĪ°": 254,
      "ĠåĨ": 255,
      "Ġå¯¹": 256,
      "è¦ģ": 257,
      "è®": 258,
      "Ġåĳ": 259,
      "Ġè¯´": 260,
      "Ġåģ": 261,
      "ä¼ļ": 262,
      "Ġå¸": 263,
      "Ġä½Ĩ": 264,
      "åŃĲ": 265,
      "éģĵ": 266,
      "åº": 267,
      "ĠæĢ": 268,
      "Ġéĥ½": 269,
      "æŀ": 270,
      "å°": 271,
      "Ġä¼ļ": 272,
      "Ġå¼": 273,
      "ĿĢ": 274,
      "Ġå¦": 275,
      "Ġä¸Ĭ": 276,
      "èĥ½": 277,
      "Ġæĥ³": 278,
      "ĠèĢ": 279,
      "å¼": 280,
      "Ġä¹Ł": 281,
      "å¸": 282,
      "Ġä»ĸä»¬": 283,
      "Ġå½": 284,
      "Ġèµ": 285,
      "ĠçŁ¥": 286,
      "ä»¥": 287,
      "Ġéĩ": 288,
      "ĠæĶ": 289,
      "Ġä»Ģä¹Ī": 290,
      "Ġè§": 291,
      "Ġè¦ģ": 292,
      "æĹ": 293,
      "Ġæĸ": 294,
      "ľ°": 295,
      "ĠçŁ¥éģĵ": 296,
      "Ġè¿ĺ": 297,
      "Ġä¸º": 298,
      "èµ": 299,
      "Ġä¸Ń": 300,
      "è§": 301,
      "Ġä¸Ģä¸ª": 302,
      "æŃ": 303,
      "è¡": 304,
      "Ġåİ»": 305,
      "Ġçľĭ": 306,
      "çī": 307,
      "Ġèĩ": 308,
      "å¥": 309,
      "æĢ": 310,
      "İ°": 311,
      "æł·": 312,
      "å¿": 313,
      "äºĽ": 314,
      "ĠæĬĬ": 315,
      "ĠéĢ": 316,
      "ĠåĲ§": 317,
      "å·": 318,
      "Ġå¿": 319,
      "å¾Ĺ": 320,
      "Ġå¤§": 321,
      "éĹ": 322,
      "Ġä¼": 323,
      "Ġæĭ": 324,
      "Ġæ¯": 325,
      "ĠçĽ": 326,
      "ĠæĿ¥": 327,
      "ĠæĹ¶": 328,
      "åĽ½": 329,
      "ĠæŃ": 330,
      "æī": 331,
      "åľ¨": 332,
      "Ġåģļ": 333,
      "Ĥ¹": 334,
      "åĩ": 335,
      "åĳ": 336,
      "çĶŁ": 337,
      "Ġåĵ": 338,
      "èĢ": 339,
      "æĪ": 340,
      "æ¬": 341,
      "Ġå¦Ĥ": 342,
      "éĩĮ": 343,
      "Ġæķ": 344,
      "Ħı": 345,
      "Ġèĩª": 346,
      "Ġåķ": 347,
      "ä¸Ĭ": 348,
      "ĠåŃ": 349,
      "Ġè¡": 350,
      "ç§": 351,
      "åį": 352,
      "ĠæīĢ": 353,
      "³ķ": 354,
      "Ġåıª": 355,
      "ĠãĢģ": 356,
      "Ġèĥ½": 357,
      "Ġâ": 358,
      "ĠâĢ": 359,
      "Ġä¿": 360,
      "Ġè¿ĩ": 361,
      "Ħ¿": 362,
      "Ħ¶": 363,
      "Ġå½ĵ": 364,
      "ĠåĬ": 365,
      "è¿ĩ": 366,
      "ĠåĪ°": 367,
      "ä¸į": 368,
      "æŀľ": 369,
      "Ġæİ": 370,
      "Ġåľ°": 371,
      "Ġåıĳ": 372,
      "å®¶": 373,
      "Ġ0": 374,
      "Ľ´": 375,
      "Ġä»¥": 376,
      "Ġå®ĥ": 377,
      "è´": 378,
      "éĿ": 379,
      "å¯": 380,
      "īį": 381,
      "Ġè°": 382,
      "ĠåĽł": 383,
      "ĠæľĢ": 384,
      "Ġ.": 385,
      "å¹": 386,
      "Ġåĩº": 387,
      "æĿ": 388,
      "Ġç»Ļ": 389,
      "éĻ": 390,
      "çĤ¹": 391,
      "Ġè¢": 392,
      "Ġåº": 393,
      "Ġå¾Ĺ": 394,
      "å®ļ": 395,
      "è¡Į": 396,
      "Ġè®©": 397,
      "Ġåı¯ä»¥": 398,
      "Ġäºĭ": 399,
      "éĢ": 400,
      "åĨ": 401,
      "çĲ": 402,
      "Ġä¸įæĺ¯": 403,
      "Ġè·": 404,
      "Ġæĺ": 405,
      "Ġæ²¡æľī": 406,
      "æĺ": 407,
      "ĠåĪ«": 408,
      "åĮ": 409,
      "Ġä»İ": 410,
      "ä¸ĭ": 411,
      "ĠéĹ": 412,
      "Ġå¼Ģ": 413,
      "Ġè¢«": 414,
      "ä¼": 415,
      "Ġå¤ļ": 416,
      "Ġå°ı": 417,
      "å¥½": 418,
      "æķ": 419,
      "å¤©": 420,
      "äºİ": 421,
      "Ġä¸ª": 422,
      "æĭ": 423,
      "æĹ¶": 424,
      "ĠèĢĮ": 425,
      "Ġä¹ĭ": 426,
      "Ġè´": 427,
      "ĠçľŁ": 428,
      "åİ»": 429,
      "çĦ¶": 430,
      "çº": 431,
      "Ġçİ°": 432,
      "ĠåĮ": 433,
      "ä¸Ģ": 434,
      "Ġåĸ": 435,
      "¾İ": 436,
      "ĠæĢİ": 437,
      "æ°": 438,
      "ĠæĮ": 439,
      "Ġå¦Ĥæŀľ": 440,
      "çĶ¨": 441,
      "æĸ¯": 442,
      "Ġå·²": 443,
      "èĢħ": 444,
      "Ġä½łä»¬": 445,
      "éĹ´": 446,
      "è¯Ŀ": 447,
      "Ġ-": 448,
      "åĢ": 449,
      "Ġè¿Ļä¸ª": 450,
      "è¾": 451,
      "ĠåķĬ": 452,
      "ç»ı": 453,
      "ĥı": 454,
      "å¦": 455,
      "èµ·": 456,
      "ĠçĪ": 457,
      "Ġ1": 458,
      "ĥħ": 459,
      "ĠåĽłä¸º": 460,
      "æ´": 461,
      "ä½ľ": 462,
      "åĩº": 463,
      "ĠéĿ": 464,
      "å¿ĥ": 465,
      "Ġåħ¶": 466,
      "å¤§": 467,
      "Ġç§": 468,
      "¥¿": 469,
      "è½": 470,
      "ĠçĿĢ": 471,
      "åĬĽ": 472,
      "ç§į": 473,
      "å±": 474,
      "æ³ķ": 475,
      "ĠæĽ´": 476,
      "Ġä¸ĭ": 477,
      "«ĺ": 478,
      "äºĨ": 479,
      "Ġæīĵ": 480,
      "åĦ¿": 481,
      "åĵ": 482,
      "Ġå°Ĩ": 483,
      "å·±": 484,
      "ĠæĢİä¹Ī": 485,
      "çĽ": 486,
      "æĦı": 487,
      "äºĭ": 488,
      "éĿ¢": 489,
      "ĠåĲ¬": 490,
      "é¢": 491,
      "Ġèĩªå·±": 492,
      "è°": 493,
      "åĬ¨": 494,
      "åĲİ": 495,
      "ĥ¨": 496,
      "Ġéľ": 497,
      "ĠåĽŀ": 498,
      "ĠæĪĸ": 499,
      "å§": 500,
      "åľ": 501,
      "ĠåĨį": 502,
      "ĠçŃ": 503,
      "ĠéĩĮ": 504,
      "Ġçī": 505,
      "Ġæı": 506,
      "å¤ļ": 507,
      "ç®": 508,
      "ĠçĶŁ": 509,
      "ķ¿": 510,
      "æµ": 511,
      "Ġåħ¬": 512,
      "Ġåı¯èĥ½": 513,
      "ĦŁ": 514,
      "ĠæĹł": 515,
      "Ġæ°": 516,
      "ä¿": 517,
      "é¡": 518,
      "Ġæī¾": 519,
      "Ġå·¥": 520,
      "Ġç¾İ": 521,
      "Ġåİ": 522,
      "Ġæµ": 523,
      "Ġå·²ç»ı": 524,
      "Ġæł": 525,
      "ä»Ģä¹Ī": 526,
      "Ġè¿Ľ": 527,
      "Ġçİ°åľ¨": 528,
      "Ġå¹¶": 529,
      "åīį": 530,
      "Ġåĳ¢": 531,
      "æ¬¡": 532,
      "æİ": 533,
      "Ġä¸İ": 534,
      "Ġè½": 535,
      "å¹´": 536,
      "å°Ķ": 537,
      "çİ°": 538,
      "å½": 539,
      "ĠæĪĲ": 540,
      "ĠéĹ®": 541,
      "ĠéľĢ": 542,
      "åŃ¦": 543,
      "Ġä½Ĩæĺ¯": 544,
      "Ġä¸¤": 545,
      "çļĦ": 546,
      "Ġçº": 547,
      "Ġéĺ": 548,
      "æĸ¹": 549,
      "æ²": 550,
      "Ġ2": 551,
      "æĬ": 552,
      "çľ": 553,
      "çĲĨ": 554,
      "Ġå¥³": 555,
      "è¯ī": 556,
      "ĠåºĶ": 557,
      "ä¸ļ": 558,
      "çĿĢ": 559,
      "ĠåĳĬ": 560,
      "Ġæ´": 561,
      "Ġè®¤": 562,
      "Ġå¤ª": 563,
      "æĢ§": 564,
      "çī©": 565,
      "Ġæĸ°": 566,
      "ĠæŃ£": 567,
      "ĠçĽ¸": 568,
      "ç½": 569,
      "æĥ³": 570,
      "è¯´": 571,
      "Ġè¿Ļæł·": 572,
      "Ġä¸įä¼ļ": 573,
      "ĠåŁ": 574,
      "Ġé«ĺ": 575,
      "æģ": 576,
      "Ġå¹´": 577,
      "ĠæĿ": 578,
      "Ġåĥı": 579,
      "Ġå°±æĺ¯": 580,
      "ĠæıĲ": 581,
      "åĢĻ": 582,
      "Ġç¬": 583,
      "åľº": 584,
      "Ġæ¸": 585,
      "Ġè§ī": 586,
      "ĠåĳĬè¯ī": 587,
      "æĪĲ": 588,
      "ĠåĽ½": 589,
      "æĻ": 590,
      "Ġç»ı": 591,
      "Ġæ¯Ķ": 592,
      "Ġèµ°": 593,
      "è¥¿": 594,
      "æĶ": 595,
      "Ġè§īå¾Ĺ": 596,
      "èĩ": 597,
      "ĠéľĢè¦ģ": 598,
      "ĠçĶµ": 599,
      "æľº": 600,
      "Ġè¿ĻäºĽ": 601,
      "ĠçĶ¨": 602,
      "å£": 603,
      "Ġè·Ł": 604,
      "Ġåĵª": 605,
      "çĪ": 606,
      "Ġå±": 607,
      "é¢ĺ": 608,
      "åĳĺ": 609,
      "º«": 610,
      "Ġé¢": 611,
      "å¸¸": 612,
      "ĠâĢľ": 613,
      "ĠåĲİ": 614,
      "å¼Ģ": 615,
      "Ġåħ³": 616,
      "ĠéĻ": 617,
      "çķ": 618,
      "ĠåħĪ": 619,
      "æ±": 620,
      "Ġä¸ºä»Ģä¹Ī": 621,
      "ĠæĦŁ": 622,
      "Ġä¸įèĥ½": 623,
      "æĥħ": 624,
      "éĥ¨": 625,
      "åĪ©": 626,
      "³»": 627,
      "ç«": 628,
      "åħĭ": 629,
      "ĠâĢĿ": 630,
      "åĪĨ": 631,
      "ä¾": 632,
      "Ġä¿Ŀ": 633,
      "ĠçŃī": 634,
      "Ġéĩį": 635,
      "ä½ķ": 636,
      "Ġå¸®": 637,
      "ĠåĿ": 638,
      "Ġéļ": 639,
      "è¯¥": 640,
      "ĠåĲĮ": 641,
      "Ġåĩł": 642,
      "æ¯": 643,
      "æľ¬": 644,
      "Ġå¿«": 645,
      "Ġé£": 646,
      "ĠèĤ": 647,
      "Ġä»Ĭ": 648,
      "è§ģ": 649,
      "Ļ½": 650,
      "è½¦": 651,
      "¦»": 652,
      "Ġå¸¦": 653,
      "æīĭ": 654,
      "éĺ": 655,
      "Ġèĭ": 656,
      "Ġåĸľ": 657,
      "éĶ": 658,
      "©¬": 659,
      "ĠåĪĨ": 660,
      "æ¬¢": 661,
      "åº¦": 662,
      "æĮ": 663,
      "Ġå¹²": 664,
      "Ġéģ": 665,
      "åľ°": 666,
      "Ġä¾": 667,
      "Ġè¾": 668,
      "Ġå®¶": 669,
      "Ġèģ": 670,
      "ç©": 671,
      "Ġæ¯ı": 672,
      "Ġæĺİ": 673,
      "Ġç©": 674,
      "ä½ĵ": 675,
      "Ġçİ": 676,
      "Ġç®": 677,
      "ä»¶": 678,
      "Ġä¸ľ": 679,
      "ä¸Ń": 680,
      "èĤ": 681,
      "Ġæĸ¹": 682,
      "ĠæĻ": 683,
      "Ġæ³": 684,
      "ĠæĹ¶åĢĻ": 685,
      "ĠæĦı": 686,
      "çŃ": 687,
      "ĠåıĪ": 688,
      "Ġå·¥ä½ľ": 689,
      "Ġçł": 690,
      "çī¹": 691,
      "Ġåıªæĺ¯": 692,
      "Ġè¶": 693,
      "ĠæīĢä»¥": 694,
      "©åŃĲ": 695,
      "ĠæĢ»": 696,
      "Ġåĺ": 697,
      "Ġåĸľæ¬¢": 698,
      "èī": 699,
      "æľĽ": 700,
      "Ġåīį": 701,
      "åİ": 702,
      "ĠéĹ®é¢ĺ": 703,
      "Ġæģ": 704,
      "ä¿¡": 705,
      "Ġç½": 706,
      "ä½į": 707,
      "ĠåŃ¦": 708,
      "ĠéĴ": 709,
      "ĠèĢģ": 710,
      "åĮĸ": 711,
      "ĠæĶ¾": 712,
      "Ġç»ĵ": 713,
      "å®ŀ": 714,
      "Ġå¤©": 715,
      "åħ¥": 716,
      "Ġåħ¨": 717,
      "Ġä½¿": 718,
      "Ġå®ī": 719,
      "æŃ¤": 720,
      "Ġè¡Į": 721,
      "å§ĭ": 722,
      "ĠéĢļ": 723,
      "Ġèµ·": 724,
      "éķ¿": 725,
      "Ġè¿ĻéĩĮ": 726,
      "Ġè¿Ļä¹Ī": 727,
      "ĠæĶ¿": 728,
      "ĠåĹ": 729,
      "Ġä»¬": 730,
      "Ġç«": 731,
      "Ġéħ": 732,
      "åı¸": 733,
      "Ġä½ľ": 734,
      "Ġå®Į": 735,
      "æį": 736,
      "Ġè¡¨": 737,
      "¡®": 738,
      "Ġæīĭ": 739,
      "ĠæŃ»": 740,
      "ĠåºĶè¯¥": 741,
      "ĠåŃ©åŃĲ": 742,
      "Ġè¯¥": 743,
      "ç¤": 744,
      "Ġæ¬": 745,
      "è·": 746,
      "å¤ĩ": 747,
      "Ł³": 748,
      "Ġä¸Ģç": 749,
      "åĿ": 750,
      "Ġç¬¬": 751,
      "Ġæİ¥": 752,
      "æĺİ": 753,
      "çİ": 754,
      "ĠåĢ": 755,
      "åĬ¡": 756,
      "Ġå®ŀ": 757,
      "æľŁ": 758,
      "ç®¡": 759,
      "ĠæīĢæľī": 760,
      "Ġä¸ŃåĽ½": 761,
      "Ġä¸»": 762,
      "Ġæŀ": 763,
      "Ġå¼Ģå§ĭ": 764,
      "è¶": 765,
      "éĴ": 766,
      "å¤´": 767,
      "ç¨": 768,
      "Ġç¾İåĽ½": 769,
      "è®¡": 770,
      "ĠéĿŀ": 771,
      "åĬł": 772,
      "ĠéĽ": 773,
      "çĥ": 774,
      "Ġ:": 775,
      "éĩı": 776,
      "å¯¹": 777,
      "Ġä»»": 778,
      "ĠçĲ": 779,
      "Ġæīį": 780,
      "Ġè®¤ä¸º": 781,
      "ĠèĪ": 782,
      "Ġä¸ĢäºĽ": 783,
      "ĠèĦ": 784,
      "åıĭ": 785,
      "ç³»": 786,
      "åıĳ": 787,
      "Ġä¸ľè¥¿": 788,
      "å°ĳ": 789,
      "Ġå¸Į": 790,
      "åħ¨": 791,
      "Ġçī¹": 792,
      "ç¥": 793,
      "åĵģ": 794,
      "ĠæĤ": 795,
      "ĠæĪĳè¦ģ": 796,
      "Ġæ³ķ": 797,
      "Ġæľº": 798,
      "Ġå½ĵçĦ¶": 799,
      "Ġ5": 800,
      "ĠæĲ": 801,
      "Ġæį": 802,
      "»º": 803,
      "Ġåıĺ": 804,
      "æ¡": 805,
      "Ġç¦»": 806,
      "ĠéĤ£ä¸ª": 807,
      "æĭī": 808,
      "Ġåĵ¦": 809,
      "è®º": 810,
      "Ġå¿ħ": 811,
      "ĠåĲĥ": 812,
      "Ġæľ¬": 813,
      "Ġç¥": 814,
      "æ´»": 815,
      "çĹ": 816,
      "Ġä¸Ģæł·": 817,
      "æ³": 818,
      "Ġä¿¡": 819,
      "çľĭ": 820,
      "Ġæĭ¿": 821,
      "çķĮ": 822,
      "çĸ": 823,
      "åĲĪ": 824,
      "ĠåıĹ": 825,
      "Ġæ¶": 826,
      "Ġæ·": 827,
      "åĪ¶": 828,
      "Ġæ±": 829,
      "éĽ": 830,
      "ĠåĨħ": 831,
      "åĲĮ": 832,
      "ĠæĹ¥": 833,
      "ĠåĬł": 834,
      "ĠçĪ±": 835,
      "åıĹ": 836,
      "Ġçĥ": 837,
      "è®¸": 838,
      "Ġä¸ĸ": 839,
      "éħ": 840,
      "å¼ı": 841,
      "ä»ĸ": 842,
      "Ġä¸Ģèµ·": 843,
      "Ġèĥ": 844,
      "å£«": 845,
      "Ġè°ģ": 846,
      "çĲĥ": 847,
      "èī²": 848,
      "Ġè¿ĺæĺ¯": 849,
      "å¦Ī": 850,
      "å¤ĸ": 851,
      "ĠçĤ¹": 852,
      "Ġçģ": 853,
      "Ń¦": 854,
      "ç»Ł": 855,
      "ç´": 856,
      "èĥ": 857,
      "ĠèĬ": 858,
      "ĠåİŁ": 859,
      "Ġä¸ī": 860,
      "æ°Ķ": 861,
      "Ġå¤ĸ": 862,
      "ç±": 863,
      "ĠéĶ": 864,
      "èĬ": 865,
      "Ġå¿ĥ": 866,
      "ĠæĹ©": 867,
      "æľ¯": 868,
      "ĠåĩĨ": 869,
      "Ġåľ": 870,
      "å¾·": 871,
      "Ġåı«": 872,
      "æ¸": 873,
      "ĠçľŁçļĦ": 874,
      "Ġå¦Ī": 875,
      "åŁ": 876,
      "éļ": 877,
      "Ġ3": 878,
      "Ġçĭ": 879,
      "ĠæķĻ": 880,
      "Ġè§ģ": 881,
      "è®®": 882,
      "æģ¯": 883,
      "ĠåĲĳ": 884,
      "ĠæĮĩ": 885,
      "æł¼": 886,
      "Ġè®°": 887,
      "ĠéĤ£äºĽ": 888,
      "åħ³": 889,
      "Ġåħ¶ä»ĸ": 890,
      "Ġæĥħ": 891,
      "Ġèº«": 892,
      "ĠåħĪçĶŁ": 893,
      "èĦ": 894,
      "ĠçľĭåĪ°": 895,
      "èĲ": 896,
      "Ġä¸įè¿ĩ": 897,
      "åıĬ": 898,
      "ĠæĹ¶éĹ´": 899,
      "åĪĩ": 900,
      "Ġåıį": 901,
      "æĮģ": 902,
      "£ħ": 903,
      "Ġåħ¬åı¸": 904,
      "è§ī": 905,
      "éĶĻ": 906,
      "ĭåıĭ": 907,
      "ĠçĶ·": 908,
      "åĲį": 909,
      "Ġ9": 910,
      "Ġç²": 911,
      "èĪ": 912,
      "åı£": 913,
      "Ġèĭ±": 914,
      "éª": 915,
      "Ġå¢": 916,
      "ĠåŁº": 917,
      "æ±Ĥ": 918,
      "ĠéĤ£ä¹Ī": 919,
      "Ġéķ¿": 920,
      "ĠæĶ¶": 921,
      "ĠæĽ": 922,
      "è¾¹": 923,
      "Ġå¸ĮæľĽ": 924,
      "ä¸»": 925,
      "è±": 926,
      "åºľ": 927,
      "Ġäº¤": 928,
      "Ġç¤": 929,
      "åĮº": 930,
      "ĠæĪ¿": 931,
      "Ġå¤±": 932,
      "ĠåĮ»": 933,
      "åĽł": 934,
      "Ġé©¬": 935,
      "ĠçłĶ": 936,
      "Ġè¿Ļç§į": 937,
      "ç©¶": 938,
      "æµİ": 939,
      "ħ§": 940,
      "ç¤º": 941,
      "æĻļ": 942,
      "æŁ¥": 943,
      "Ġåľ°æĸ¹": 944,
      "Ġä¸įæĥ³": 945,
      "ĠèŃ¦": 946,
      "Ġå»º": 947,
      "Ġéĵ": 948,
      "åĬ©": 949,
      "ĠæĿĢ": 950,
      "¨Ģ": 951,
      "æĺĵ": 952,
      "ä¸Ķ": 953,
      "æ°ĳ": 954,
      "Ġè§£": 955,
      "çģ": 956,
      "äº§": 957,
      "Ġåĺ¿": 958,
      "Ġåıĳçİ°": 959,
      "Ļ¨": 960,
      "è§£": 961,
      "ĠçĹ": 962,
      "Ġä¸ĢçĽ´": 963,
      "ĠéĢī": 964,
      "Ġä»Ĭå¤©": 965,
      "ĠåĲį": 966,
      "çĻ½": 967,
      "Ġä»»ä½ķ": 968,
      "Ġèİ": 969,
      "éĩĳ": 970,
      "ĠåĩĨå¤ĩ": 971,
      "ä¹ī": 972,
      "çĪ±": 973,
      "Ġä¸ºäºĨ": 974,
      "Ġé¡": 975,
      "è¯Ĩ": 976,
      "ĠçĲĨ": 977,
      "éĹ¨": 978,
      "ĠæĬķ": 979,
      "Ġè¿ĺæľī": 980,
      "æĢĿ": 981,
      "ĠçłĶç©¶": 982,
      "ĠåĶ": 983,
      "Ġæ°´": 984,
      "ĠåıĳçĶŁ": 985,
      "Ġçĸ": 986,
      "ç¨ĭ": 987,
      "Ġæķ°": 988,
      "åĥı": 989,
      "Ġæĳ": 990,
      "çĶµ": 991,
      "ĠåĹ¯": 992,
      "Ġèī": 993,
      "Ġå®ĥä»¬": 994,
      "Ġ4": 995,
      "Ġé¦": 996,
      "Ġé»": 997,
      "å¦Ĥ": 998,
      "Ġç¡®": 999,
      "Ġæµ·": 1000,
      "å¤Ł": 1001,
      "Ġä¸Ģä¸ĭ": 1002,
      "çĭ": 1003,
      "ŀĭ": 1004,
      "è¿Ľ": 1005,
      "ĠæľĪ": 1006,
      "Ġåį´": 1007,
      "ĠåĽ½å®¶": 1008,
      "Ġç»ıæµİ": 1009,
      "Ġæ£": 1010,
      "ĠçĦ¶": 1011,
      "Ġçķ": 1012,
      "å¸Ī": 1013,
      "ä¹İ": 1014,
      "ĠæĶ¹": 1015,
      "ĠçļĦè¯Ŀ": 1016,
      "éĻ©": 1017,
      "ĠçĽ®": 1018,
      "Ġæī¾åĪ°": 1019,
      "æīĢ": 1020,
      "èģ": 1021,
      "Ġä¸Ģå®ļ": 1022,
      "é£": 1023,
      "è´¹": 1024,
      "é¡»": 1025,
      "ĠåĪļ": 1026,
      "è¿ĳ": 1027,
      "Ġç¼": 1028,
      "ĠåĮħ": 1029,
      "ä»£": 1030,
      "åķ": 1031,
      "Ġæĸĩ": 1032,
      "Ġäºĭæĥħ": 1033,
      "ĠæĬ¥": 1034,
      "éĺŁ": 1035,
      "ĠæŁ": 1036,
      "åĪ«": 1037,
      "ĠéĿ¢": 1038,
      "Ġè½¦": 1039,
      "è·¯": 1040,
      "æ¶": 1041,
      "å¸Ĥ": 1042,
      "ä½ı": 1043,
      "ĠçĶ±": 1044,
      "Ġæ´»": 1045,
      "²ģ": 1046,
      "ĠåĲĪ": 1047,
      "Ġåī": 1048,
      "åĻ¨": 1049,
      "¼Ķ": 1050,
      "Ġç´": 1051,
      "äºļ": 1052,
      "å¤Ħ": 1053,
      "èĢĮ": 1054,
      "èµĦ": 1055,
      "Ġè®¾": 1056,
      "ĠéħĴ": 1057,
      "Ġæ¶Ī": 1058,
      "å¤«": 1059,
      "Ġä¸ĢåĪĩ": 1060,
      "Ġå¿ħé¡»": 1061,
      "Ġå¾Īå¤ļ": 1062,
      "Ġä¸ĸçķĮ": 1063,
      "Ġè®¡": 1064,
      "æ£": 1065,
      "åºĶ": 1066,
      "åħ¬": 1067,
      "è°¢": 1068,
      "Ġè¿Ľè¡Į": 1069,
      "Ġèµ·æĿ¥": 1070,
      "æį®": 1071,
      "ĠéĿŀå¸¸": 1072,
      "ĠéĴ±": 1073,
      "ä¹Ĳ": 1074,
      "èº«": 1075,
      "èİ": 1076,
      "ç¬": 1077,
      "æŃ»": 1078,
      "éĩį": 1079,
      "ĠèµĦ": 1080,
      "ä¾Ľ": 1081,
      "ĠæĪĸèĢħ": 1082,
      "çīĩ": 1083,
      "éĻ¢": 1084,
      "Ġç¨": 1085,
      "éĻħ": 1086,
      "Ġæľĭåıĭ": 1087,
      "Ġä¹Ī": 1088,
      "Ġèį": 1089,
      "Ġå°½": 1090,
      "æľį": 1091,
      "Ġå¤Ħ": 1092,
      "Ġæ¸ħ": 1093,
      "äº²": 1094,
      "Ġè°Ī": 1095,
      "Ġè¯·": 1096,
      "å®¤": 1097,
      "ĠåĬ¨": 1098,
      "åĩ»": 1099,
      "Ġåģľ": 1100,
      "Ġæķ´": 1101,
      "ĠçĬ": 1102,
      "è¨Ģ": 1103,
      "ĠçĽ¸ä¿¡": 1104,
      "Ġå¸Ĥ": 1105,
      "ĠæĤ¨": 1106,
      "ĠåĪ©": 1107,
      "åŃĹ": 1108,
      "åĳ½": 1109,
      "å°¼": 1110,
      "Ġäºİ": 1111,
      "åĨµ": 1112,
      "Ġæĭħ": 1113,
      "å±ķ": 1114,
      "Ġä¸įè¦ģ": 1115,
      "Ġä¸ĢçĤ¹": 1116,
      "æ»": 1117,
      "è±¡": 1118,
      "åģ": 1119,
      "è§Ĩ": 1120,
      "æķ°": 1121,
      "æŃ¢": 1122,
      "Ġéĺ¿": 1123,
      "ĠçĶŁæ´»": 1124,
      "ç»Ń": 1125,
      "ĠåıĤ": 1126,
      "ĠèģĶ": 1127,
      "å¢": 1128,
      "Ġæ¡": 1129,
      "å¼ł": 1130,
      "åºĹ": 1131,
      "èį": 1132,
      "Ġæĥ³è¦ģ": 1133,
      "ĠåĪ¶": 1134,
      "Ġ8": 1135,
      "å®³": 1136,
      "Ġç¦»å¼Ģ": 1137,
      "ç®Ĺ": 1138,
      "©ļ": 1139,
      "æ°´": 1140,
      "ĠæĬ±": 1141,
      "ĠåĻ": 1142,
      "æ²»": 1143,
      "Ġå¦Īå¦Ī": 1144,
      "ĠæıĲä¾Ľ": 1145,
      "å¨": 1146,
      "Ġè¯ģ": 1147,
      "Ġä¸¤ä¸ª": 1148,
      "Ġä¼ł": 1149,
      "ĠåıĬ": 1150,
      "¤Ĳ": 1151,
      "åħ°": 1152,
      "Ġäº§": 1153,
      "æ¡Ī": 1154,
      "ĠåĲĦ": 1155,
      "ĠåĬŀ": 1156,
      "æĥ": 1157,
      "å·¥": 1158,
      "Ġåı¦": 1159,
      "Ġå¤´": 1160,
      "åĪĴ": 1161,
      "ĠæĶ¯": 1162,
      "ä»½": 1163,
      "ĠåĨ³": 1164,
      "èĻ": 1165,
      "ĠçĪ¶": 1166,
      "Ġå¼º": 1167,
      "åı¯": 1168,
      "Ġæ»": 1169,
      "æĿ¡": 1170,
      "ĠåĩºæĿ¥": 1171,
      "åĳĬ": 1172,
      "Ġ6": 1173,
      "ĠæĪĳä¼ļ": 1174,
      "æĶ¿": 1175,
      "Ġè¥¿": 1176,
      "æĬ¤": 1177,
      "Ġä¸Ģç§į": 1178,
      "Ġä¸Ģæ¬¡": 1179,
      "Ġç©¿": 1180,
      "Ġè¿Ĳ": 1181,
      "Ġå§": 1182,
      "åŃ©": 1183,
      "Ġéļ¾": 1184,
      "èĩª": 1185,
      "éĢł": 1186,
      "ĠçĽ´": 1187,
      "ç«ĭ": 1188,
      "æ®": 1189,
      "Ġä¹°": 1190,
      "Ġéĩįè¦ģ": 1191,
      "çŁ¥": 1192,
      "åıĺ": 1193,
      "é©¬": 1194,
      "çĬ": 1195,
      "ä¹ĭ": 1196,
      "é¦": 1197,
      "ĠæĻļ": 1198,
      "Ġéª": 1199,
      "Ġå½±": 1200,
      "Ġéĩĳ": 1201,
      "Ġå£": 1202,
      "ç¾İ": 1203,
      "Ġåį¡": 1204,
      "æĸ°": 1205,
      "è¾¾": 1206,
      "åĵį": 1207,
      "é¥": 1208,
      "Ġç¥ŀ": 1209,
      "Ġå¹³": 1210,
      "ĠæĴ": 1211,
      "åħ´": 1212,
      "Ġçª": 1213,
      "åĽŀ": 1214,
      "ç±»": 1215,
      "Ġ\"": 1216,
      "å¯Ł": 1217,
      "ĠæĪĺ": 1218,
      "Ġ7": 1219,
      "å¿«": 1220,
      "Ġå®¢": 1221,
      "ĠçķĻ": 1222,
      "Ġä½ı": 1223,
      "Ġ(": 1224,
      "Ġ)": 1225,
      "æŃī": 1226,
      "Ġæľīäºº": 1227,
      "æĹ¥": 1228,
      "ç»Ļ": 1229,
      "Ġå¢ŀ": 1230,
      "ĠæĶ¿åºľ": 1231,
      "èĭ": 1232,
      "ĠçĮ": 1233,
      "ĠåĻ¢": 1234,
      "åĴ": 1235,
      "Ġè°ĥ": 1236,
      "è¯ģ": 1237,
      "Ġå·´": 1238,
      "Ġé¢Ħ": 1239,
      "Ġä»¥åıĬ": 1240,
      "Ġç®¡": 1241,
      "è¯ķ": 1242,
      "Ġå¨": 1243,
      "é«ĺ": 1244,
      "æŃ¥": 1245,
      "ĠæĪĲä¸º": 1246,
      "åħ¶": 1247,
      "Ġéĥ¨": 1248,
      "Ġè¿ĻåĦ¿": 1249,
      "Ġç§ĳ": 1250,
      "Ġçİ©": 1251,
      "ĠèĲ": 1252,
      "Ġäº²": 1253,
      "æ¥": 1254,
      "Ġç¬¬ä¸Ģ": 1255,
      "ĠæĦŁè§ī": 1256,
      "åħĥ": 1257,
      "æº": 1258,
      "Ġä¹ĭåīį": 1259,
      "Ġæ¬§": 1260,
      "Ġåį³": 1261,
      "ĠåĽŀæĿ¥": 1262,
      "çº¿": 1263,
      "ç¼": 1264,
      "Ġé¢Ĩ": 1265,
      "åįķ": 1266,
      "æİī": 1267,
      "Ġç²¾": 1268,
      "æŃ£": 1269,
      "æĿĥ": 1270,
      "Ġåıªæľī": 1271,
      "Ġ;": 1272,
      "Ġäººä»¬": 1273,
      "ĠåķĨ": 1274,
      "ĠæŃ£åľ¨": 1275,
      "éªĮ": 1276,
      "åī": 1277,
      "åĲĳ": 1278,
      "æ´²": 1279,
      "åŀĭ": 1280,
      "Ġçľĭçľĭ": 1281,
      "å¸ĥ": 1282,
      "Ġæļ": 1283,
      "Ġå¸ĥ": 1284,
      "ĠéĢļè¿ĩ": 1285,
      "Ġè¿Ļæĺ¯": 1286,
      "ĠæĺİçĻ½": 1287,
      "Ġè½¬": 1288,
      "æĪ¿": 1289,
      "Ġç¤¾": 1290,
      "Ġåįģ": 1291,
      "å®ĺ": 1292,
      "Ġéº": 1293,
      "æ¯Ķ": 1294,
      "Ġä½ĵ": 1295,
      "Ľĭ": 1296,
      "å½ĵ": 1297,
      "ä»»": 1298,
      "Ġæ³¨": 1299,
      "Ġä¸ĵ": 1300,
      "ĠåĸĿ": 1301,
      "ĠåĦ¿": 1302,
      "Ġç±": 1303,
      "æĸĩ": 1304,
      "Ġå¾ĹåĪ°": 1305,
      "çł": 1306,
      "Ġæĭī": 1307,
      "¿Ģ": 1308,
      "ĠåĿĲ": 1309,
      "è¡¨": 1310,
      "åĸ": 1311,
      "ç½Ĺ": 1312,
      "éļ¾": 1313,
      "Ŀ¡": 1314,
      "Ġé£İ": 1315,
      "¨¡": 1316,
      "Ġæł¹": 1317,
      "å°ı": 1318,
      "Ġéļı": 1319,
      "åł": 1320,
      "çŃī": 1321,
      "çº¦": 1322,
      "Ġä»¥ä¸º": 1323,
      "æĸĻ": 1324,
      "ĠåĨĻ": 1325,
      "ĠæŃ¤": 1326,
      "Ġç©º": 1327,
      "èĩ³": 1328,
      "ĠæľīçĤ¹": 1329,
      "è¿ľ": 1330,
      "Ġçº¦": 1331,
      "åĨħ": 1332,
      "åĨ³": 1333,
      "æĦŁ": 1334,
      "Ġè®¸": 1335,
      "Ġæĭħå¿ĥ": 1336,
      "Ġåĳ¨": 1337,
      "Ġæľª": 1338,
      "ĠéĤ£éĩĮ": 1339,
      "Ġä¼Ļ": 1340,
      "å¤ª": 1341,
      "Ġå¼ķ": 1342,
      "Ġè¶ħ": 1343,
      "Ġæĺ¾": 1344,
      "Ġç»Ħ": 1345,
      "ä½¿": 1346,
      "æĹł": 1347,
      "Ġæĥ": 1348,
      "ĠéĶĻ": 1349,
      "Ġè°¢": 1350,
      "Ġè®¡åĪĴ": 1351,
      "èµĽ": 1352,
      "åħī": 1353,
      "Ġå½±åĵį": 1354,
      "ä»·": 1355,
      "ĠçĦ¶åĲİ": 1356,
      "èµ°": 1357,
      "Ġçħ§": 1358,
      "ĠéĤ£æł·": 1359,
      "ĠèĬ±": 1360,
      "Ġåħĭ": 1361,
      "ĠæĢ§": 1362,
      "Ġæľį": 1363,
      "æĸŃ": 1364,
      "çĽ®": 1365,
      "ıŃ": 1366,
      "éĴ±": 1367,
      "Ġä»į": 1368,
      "Ġè¯ķ": 1369,
      "ĠåŁİ": 1370,
      "çº§": 1371,
      "å¹³": 1372,
      "ĠèĤ¯": 1373,
      "Ġå¦Ĥä½ķ": 1374,
      "Ġæİ¨": 1375,
      "Ġé£ŀ": 1376,
      "ĠèĢĮä¸Ķ": 1377,
      "Ġå¾·": 1378,
      "Ġèĩ³": 1379,
      "è´¨": 1380,
      "äºī": 1381,
      "éľ": 1382,
      "æŀĹ": 1383,
      "æĢķ": 1384,
      "ĠæĬ±æŃī": 1385,
      "æł¡": 1386,
      "ĠåĽĽ": 1387,
      "çİĩ": 1388,
      "åĳ¨": 1389,
      "åºķ": 1390,
      "Ļ¾": 1391,
      "åĺ": 1392,
      "ĠæĥħåĨµ": 1393,
      "Ġç»§": 1394,
      "è£ħ": 1395,
      "ä¸įæĺ¯": 1396,
      "ĠçĶµè¯Ŀ": 1397,
      "ĠæľĢåĲİ": 1398,
      "Ġå¥¥": 1399,
      "Ġæī¿": 1400,
      "Ġæ¸¸": 1401,
      "¶è¡Į": 1402,
      "æĺŁ": 1403,
      "ĠçĽĳ": 1404,
      "çĶ±": 1405,
      "çĹħ": 1406,
      "åĶ": 1407,
      "ĠæĽ¾": 1408,
      "åıĸ": 1409,
      "ä¼Ļ": 1410,
      "Ġå®īåħ¨": 1411,
      "ĠæŁĲ": 1412,
      "Ġæµģ": 1413,
      "ĠæĿ¥è¯´": 1414,
      "å¯¼": 1415,
      "Ġè§Ħ": 1416,
      "èħ": 1417,
      "ĠçĪ¸": 1418,
      "ĠåĪĽ": 1419,
      "éĢŁ": 1420,
      "Ġç®Ģ": 1421,
      "Ġåĳĥ": 1422,
      "ĠçĥŃ": 1423,
      "ä¹¦": 1424,
      "æĭ©": 1425,
      "ĠåŃĺ": 1426,
      "ĠæĲŀ": 1427,
      "ä¹ħ": 1428,
      "Ġå®Įåħ¨": 1429,
      "ĠçĿ¡": 1430,
      "å¯Ĩ": 1431,
      "è¿Ĳ": 1432,
      "Ġä¼Ļè®¡": 1433,
      "çĽ¸": 1434,
      "Ġè¿ĩåİ»": 1435,
      "å®ī": 1436,
      "èĬĤ": 1437,
      "Ġçľ¼": 1438,
      "å½±": 1439,
      "ĠéĢģ": 1440,
      "åĭ": 1441,
      "Ġæĸ¯": 1442,
      "åºŃ": 1443,
      "éĢļ": 1444,
      "æĭ¬": 1445,
      "çĪ¸": 1446,
      "ç¡®": 1447,
      "å±Ģ": 1448,
      "æķĻ": 1449,
      "Ġå¸®åĬ©": 1450,
      "èµ·æĿ¥": 1451,
      "éĴŁ": 1452,
      "Ġé¦ĸ": 1453,
      "åĳ³": 1454,
      "éŁ³": 1455,
      "å¢ĥ": 1456,
      "æĬ¥": 1457,
      "Ġåıĳå±ķ": 1458,
      "Ġä»·": 1459,
      "Ġé»ĳ": 1460,
      "ĠæĬĢ": 1461,
      "ĠåĨ³å®ļ": 1462,
      "Ġå¼Ħ": 1463,
      "è¯Ń": 1464,
      "Ġä»¥åīį": 1465,
      "Ġä½¿çĶ¨": 1466,
      "åĽ¾": 1467,
      "ĠåĮħæĭ¬": 1468,
      "åĲ¦": 1469,
      "Ġè§Ĥ": 1470,
      "é¤Ĳ": 1471,
      "æĿĢ": 1472,
      "é¡¿": 1473,
      "Ġè·¯": 1474,
      "å·´": 1475,
      "åĪļ": 1476,
      "Ġå¸Ĥåľº": 1477,
      "Ġå¥³äºº": 1478,
      "ç½®": 1479,
      "æĪĺ": 1480,
      "ĠæĺŁ": 1481,
      "ç¢": 1482,
      "Ġä¸įéĶĻ": 1483,
      "æīĺ": 1484,
      "ĠçĻ½": 1485,
      "éĹ®": 1486,
      "åĨĽ": 1487,
      "Ġä¼Ĭ": 1488,
      "èĤ²": 1489,
      "ĠçĹħ": 1490,
      "æİ¥": 1491,
      "Ġåįķ": 1492,
      "å¥³": 1493,
      "Ġä¼¤": 1494,
      "ĠæĹłæ³ķ": 1495,
      "Ġåħ±": 1496,
      "Ġç½ĳ": 1497,
      "Ġè®¸å¤ļ": 1498,
      "Ġå¡": 1499,
      "æĪ·": 1500,
      "Ġè¶Ĭ": 1501,
      "æ²¡": 1502,
      "å¾ħ": 1503,
      "Ġéģĵ": 1504,
      "Ġæ¢": 1505,
      "Ġä»£": 1506,
      "çĤ": 1507,
      "Ġé¥": 1508,
      "Ġä½ľä¸º": 1509,
      "é¡¹": 1510,
      "å£°": 1511,
      "ĠåĨĽ": 1512,
      "Ġç´§": 1513,
      "Ġåį±": 1514,
      "æı": 1515,
      "éħĴ": 1516,
      "ĠæĬĵ": 1517,
      "Ġè°¢è°¢": 1518,
      "å¼Ł": 1519,
      "æºĲ": 1520,
      "äºĮ": 1521,
      "å¸Ŀ": 1522,
      "ç¬ĳ": 1523,
      "æŀĦ": 1524,
      "Ġå¯¹äºİ": 1525,
      "æĸ½": 1526,
      "Ġèİ·": 1527,
      "ĠåĲ¸": 1528,
      "æĶ¾": 1529,
      "å§Ĩ": 1530,
      "¦ı": 1531,
      "è¶£": 1532,
      "Ġåıĸ": 1533,
      "æŁ": 1534,
      "Ġçģ«": 1535,
      "åı°": 1536,
      "ç¥ŀ": 1537,
      "Ġåĩºçİ°": 1538,
      "ĠèĢĥ": 1539,
      "Ġä¹ĭåĲİ": 1540,
      "èĩ´": 1541,
      "Ġä¸¥": 1542,
      "ĠæľĢå¥½": 1543,
      "Ġåı¯æĺ¯": 1544,
      "æĤ": 1545,
      "å©ļ": 1546,
      "Ġå£°": 1547,
      "ĠçĶļ": 1548,
      "æīį": 1549,
      "Ġåį°": 1550,
      "Ġæ°ĳ": 1551,
      "Ġå½¢": 1552,
      "ç¥¨": 1553,
      "Ġä¹Łè®¸": 1554,
      "Ġåģĩ": 1555,
      "ç©º": 1556,
      "éĢī": 1557,
      "Ġç»§ç»Ń": 1558,
      "Ġä¸įåĲĮ": 1559,
      "Ġå°ıæĹ¶": 1560,
      "æľĪ": 1561,
      "æħ": 1562,
      "ĠåĤ": 1563,
      "æłĩ": 1564,
      "ĠæĪĳèĥ½": 1565,
      "ĠèĤ¯å®ļ": 1566,
      "ĠéĢīæĭ©": 1567,
      "Ġé£Ł": 1568,
      "ĠæĬķèµĦ": 1569,
      "ĠåĮĹ": 1570,
      "è£": 1571,
      "å²": 1572,
      "ĠæĪĳæĿ¥": 1573,
      "ģä¸ļ": 1574,
      "Ġåħ³äºİ": 1575,
      "Ġè¾¾": 1576,
      "ĠçŁ": 1577,
      "éĵ": 1578,
      "ä¼¤": 1579,
      "Ġæ·±": 1580,
      "ç¦»": 1581,
      "è°Ī": 1582,
      "ĠæĦıæĢĿ": 1583,
      "åĪĻ": 1584,
      "å¤į": 1585,
      "ĠçĪ¶äº²": 1586,
      "æĽ": 1587,
      "Ġç¤¾ä¼ļ": 1588,
      "Ġè¿ŀ": 1589,
      "å¡": 1590,
      "åĢ¼": 1591,
      "è®¤": 1592,
      "æ®µ": 1593,
      "ļ®": 1594,
      "è´£": 1595,
      "ä¸ĭæĿ¥": 1596,
      "Ġæ£Ģ": 1597,
      "åı·": 1598,
      "Ġç½Ĺ": 1599,
      "èĽĭ": 1600,
      "Ġå®Ŀ": 1601,
      "å¸¦": 1602,
      "Ġä½į": 1603,
      "å¤±": 1604,
      "ĠåĵĪ": 1605,
      "Ġåķ¦": 1606,
      "Ġæİ§": 1607,
      "Ġè®¤è¯Ĩ": 1608,
      "ĠéħĴåºĹ": 1609,
      "çĿ": 1610,
      "æĿ¿": 1611,
      "Ġä½İ": 1612,
      "æµģ": 1613,
      "ĠæĢİä¹Īæł·": 1614,
      "å·ŀ": 1615,
      "ĠåĪ«äºº": 1616,
      "å¾ĭ": 1617,
      "ä»ħ": 1618,
      "åĬŁ": 1619,
      "Ġåħ³ç³»": 1620,
      "ç»ĩ": 1621,
      "ç§ĳ": 1622,
      "ĠåĲ¬åĪ°": 1623,
      "ĠçľŁæĺ¯": 1624,
      "ĠæĢ»æĺ¯": 1625,
      "æ¬¾": 1626,
      "ĠåĮ»çĶŁ": 1627,
      "Ġæ°Ķ": 1628,
      "åĩĨ": 1629,
      "å®¢": 1630,
      "Ġç»´": 1631,
      "Ġéĵ¶è¡Į": 1632,
      "éĨ": 1633,
      "Ġç³»": 1634,
      "çıŃ": 1635,
      "Ġè®¨": 1636,
      "ĠæĹħ": 1637,
      "åħ·": 1638,
      "Ġæĺ¯ä¸įæĺ¯": 1639,
      "Ġèĥ½å¤Ł": 1640,
      "Ġå¥½åĥı": 1641,
      "æ¢": 1642,
      "æ²¹": 1643,
      "éĿĻ": 1644,
      "Ġä¸ĩ": 1645,
      "ä¾¿": 1646,
      "Ġå¨ģ": 1647,
      "Ġæ¼Ķ": 1648,
      "èı": 1649,
      "ä¸ĸ": 1650,
      "ĠæĦ¿": 1651,
      "Ġæ··": 1652,
      "Ġä»¤": 1653,
      "Ġå·®": 1654,
      "ĠæĻ®": 1655,
      "Ġæ°¸": 1656,
      "Ġå½ĵæĹ¶": 1657,
      "äº¤": 1658,
      "Ġè£ħ": 1659,
      "çĸĹ": 1660,
      "Ġç¢": 1661,
      "Ġéĩĩ": 1662,
      "ç´ł": 1663,
      "Ġä¼¼": 1664,
      "Ġå¯¼": 1665,
      "æŀĲ": 1666,
      "Ġåĩºåİ»": 1667,
      "ĠåĹ¨": 1668,
      "ĠåĦ¿åŃĲ": 1669,
      "Ġè¦ģæ±Ĥ": 1670,
      "Ġåľ£": 1671,
      "ĠåıĮ": 1672,
      "æķĪ": 1673,
      "Ġå¤į": 1674,
      "ĠäºĨè§£": 1675,
      "Ġäºļ": 1676,
      "Ġæľºä¼ļ": 1677,
      "é¦Ĩ": 1678,
      "åĴĮ": 1679,
      "ĠçĶļèĩ³": 1680,
      "Ġèĳ": 1681,
      "æĢģ": 1682,
      "Ġè¿ľ": 1683,
      "å¿µ": 1684,
      "æ¥ļ": 1685,
      "ĠçĶ·äºº": 1686,
      "èĦĳ": 1687,
      "Ġé«ĺåħ´": 1688,
      "åħļ": 1689,
      "æĿŁ": 1690,
      "çŃĸ": 1691,
      "Ġè®²": 1692,
      "è®°": 1693,
      "ĠåĵªéĩĮ": 1694,
      "Ġåı·": 1695,
      "ĠæľŁ": 1696,
      "Ġä»ĬæĻļ": 1697,
      "ĠåĲĮæĹ¶": 1698,
      "Ġç»Ŀ": 1699,
      "Ġç§°": 1700,
      "¾¤": 1701,
      "Ġä¸Ĭå¸Ŀ": 1702,
      "Ġæĸ¹å¼ı": 1703,
      "æĪĳ": 1704,
      "Ġ%": 1705,
      "åħĪ": 1706,
      "Ġç³": 1707,
      "Ġæİ¥åıĹ": 1708,
      "ä¿Ŀ": 1709,
      "ĠæľīäºĽ": 1710,
      "Ġæ¼": 1711,
      "çĸĳ": 1712,
      "ĠçĪ¸çĪ¸": 1713,
      "çĽĬ": 1714,
      "é»": 1715,
      "Ġç»ĵæŀľ": 1716,
      "åįģ": 1717,
      "èĬ±": 1718,
      "ä¹ł": 1719,
      "é£İ": 1720,
      "Ġæĺ¯åĲ¦": 1721,
      "ĠæģĲ": 1722,
      "æ¼Ķ": 1723,
      "Ġæķĳ": 1724,
      "ĠçŃīçŃī": 1725,
      "å¼¹": 1726,
      "Ġæŀª": 1727,
      "Ġä¾Ŀ": 1728,
      "åķĨ": 1729,
      "Ġè¿ĩæĿ¥": 1730,
      "Ġæ´¾": 1731,
      "ŀį": 1732,
      "Ġçĭ¬": 1733,
      "Ġæĸ¹æ³ķ": 1734,
      "åĪ»": 1735,
      "Ġæłĩ": 1736,
      "åįİ": 1737,
      "Ġè·ĳ": 1738,
      "ä¼Ĺ": 1739,
      "Ġè®°å¾Ĺ": 1740,
      "çº³": 1741,
      "Ġæ¨¡": 1742,
      "Ġä¹ĭéĹ´": 1743,
      "Ġåĭ": 1744,
      "Ġæĭ¥": 1745,
      "èĻĳ": 1746,
      "Ġç«Ļ": 1747,
      "ĠæĮī": 1748,
      "ĠèĮ": 1749,
      "åĵ¥": 1750,
      "Ġå¹¿": 1751,
      "Ġè¡Ģ": 1752,
      "Ġå¤ļå°ĳ": 1753,
      "Ġçİ¯": 1754,
      "å¾Ģ": 1755,
      "äº®": 1756,
      "Ġåĩłä¸ª": 1757,
      "ĠæĿ¡": 1758,
      "ĠäºĶ": 1759,
      "Ġè¡¨ç¤º": 1760,
      "ĠèŃ¦å¯Ł": 1761,
      "Ġä¼ģä¸ļ": 1762,
      "Ġçľĭèµ·æĿ¥": 1763,
      "Ġçł´": 1764,
      "ĠæľįåĬ¡": 1765,
      "Ġå®¹": 1766,
      "ĠåĲįåŃĹ": 1767,
      "æ¯į": 1768,
      "ĠæĬĢæľ¯": 1769,
      "ĠæĶ¹åıĺ": 1770,
      "èĴ": 1771,
      "ĠåĽłæŃ¤": 1772,
      "ĠåĨ·": 1773,
      "è´Ŀ": 1774,
      "Ġæĭľ": 1775,
      "ĠåĴ±": 1776,
      "Ġå¥¹ä»¬": 1777,
      "Ġè´Ł": 1778,
      "è½»": 1779,
      "åĪĹ": 1780,
      "Ġåħ·": 1781,
      "±¼": 1782,
      "ä¸ĩ": 1783,
      "åĬ¿": 1784,
      "è¶³": 1785,
      "Ġçªģ": 1786,
      "Ġä¿ĿæĬ¤": 1787,
      "¬¼": 1788,
      "Ġæ¿Ģ": 1789,
      "Ġæİ§åĪ¶": 1790,
      "Ġä¼ĺ": 1791,
      "Ġèĭ±åĽ½": 1792,
      "Ġå¤§å®¶": 1793,
      "Ġæİ¢": 1794,
      "Ġæ³¨æĦı": 1795,
      "Ġä¾¿": 1796,
      "Ġåĩı": 1797,
      "ĠæĦ": 1798,
      "Ġå¦ĤæŃ¤": 1799,
      "ĠçĤ": 1800,
      "Ġæŀģ": 1801,
      "è§Ĥ": 1802,
      "çĶµè¯Ŀ": 1803,
      "Ĺı": 1804,
      "Ġå°ĳ": 1805,
      "Ġç®¡çĲĨ": 1806,
      "ä¸»ä¹ī": 1807,
      "è¢": 1808,
      "ĠåİŁåĽł": 1809,
      "èĮ": 1810,
      "ä¸½": 1811,
      "Ġçľĭè§ģ": 1812,
      "æ»¡": 1813,
      "éĤ": 1814,
      "æĹı": 1815,
      "ĠéĻ¤": 1816,
      "ĠæĶ¯æĮģ": 1817,
      "ĠåŃĺåľ¨": 1818,
      "ĠÂ": 1819,
      "å¥ĩ": 1820,
      "Ġä¸įå¥½": 1821,
      "Ġæĺ¨": 1822,
      "çĮ": 1823,
      "åĽŃ": 1824,
      "ĠåįĹ": 1825,
      "ĠÂ·": 1826,
      "æ·": 1827,
      "Ġä¸¾": 1828,
      "Ġçī©": 1829,
      "Ġè´¢": 1830,
      "çĬ¯": 1831,
      "ĠæĪĸè®¸": 1832,
      "Ġåħī": 1833,
      "ĠéĽĨ": 1834,
      "Ġæķħ": 1835,
      "Ġåģ·": 1836,
      "Ġè·³": 1837,
      "æŀª": 1838,
      "ĠæŁ¥": 1839,
      "Ġå°½ç®¡": 1840,
      "Ġä½łå¥½": 1841,
      "Ġè§£åĨ³": 1842,
      "åı²": 1843,
      "ĠåĽŀå®¶": 1844,
      "åŁŁ": 1845,
      "ĠåŃ¦æł¡": 1846,
      "Ġå¾Ģ": 1847,
      "ĠéĢł": 1848,
      "ĠäºĮ": 1849,
      "ĠåĪĨæŀĲ": 1850,
      "Ġèħ": 1851,
      "Ġç«ĭ": 1852,
      "Ġçĸ¯": 1853,
      "åĬŀ": 1854,
      "éĩĬ": 1855,
      "è®¾": 1856,
      "ĠæĦŁåĪ°": 1857,
      "è¶Ĭ": 1858,
      "Ġå²ģ": 1859,
      "Ġåħį": 1860,
      "ç½ª": 1861,
      "åŁº": 1862,
      "Ġè¿½": 1863,
      "åĽ¢": 1864,
      "Ġæĸ¹éĿ¢": 1865,
      "Ġå¥ĩ": 1866,
      "Ġé©": 1867,
      "Ġæĵ": 1868,
      "Ġæķ´ä¸ª": 1869,
      "çºª": 1870,
      "çģ«": 1871,
      "åĿı": 1872,
      "Ġæ³¢": 1873,
      "ĠæĶ¿æ²»": 1874,
      "ç¿": 1875,
      "æµ·": 1876,
      "Ġåİĭ": 1877,
      "ĠåĶ¯": 1878,
      "ĠæĢİæł·": 1879,
      "Ġé¸": 1880,
      "Ġå¹¶ä¸Ķ": 1881,
      "ĠæĿĥ": 1882,
      "éķ": 1883,
      "ĠåĮº": 1884,
      "å·²": 1885,
      "çĥ¦": 1886,
      "Ġæĺİå¤©": 1887,
      "Ġä¸»è¦ģ": 1888,
      "å®¹": 1889,
      "Ġåįı": 1890,
      "ĠéĢĤ": 1891,
      "Ġä¿¡æģ¯": 1892,
      "ç´¢": 1893,
      "æĳ": 1894,
      "ĠæĢ»ç»Ł": 1895,
      "éĥ¨åĪĨ": 1896,
      "Ġç³»ç»Ł": 1897,
      "Ġä¸įç®¡": 1898,
      "è°ĥ": 1899,
      "Ġå¤ĦçĲĨ": 1900,
      "ĠåĨ²": 1901,
      "æĢª": 1902,
      "éĻ¤": 1903,
      "Ġå¿ĺ": 1904,
      "Ġæ²»": 1905,
      "Ġç§ģ": 1906,
      "ĠåŁİå¸Ĥ": 1907,
      "Ġä¿®": 1908,
      "Ġè¯´è¯Ŀ": 1909,
      "Ġä¹¦": 1910,
      "ĠæĢĢ": 1911,
      "æĦ¿": 1912,
      "ĠæİĴ": 1913,
      "å½ķ": 1914,
      "Ġåħ¶ä¸Ń": 1915,
      "Ġç«ŀ": 1916,
      "Ġæ²¡äºĭ": 1917,
      "ç±³": 1918,
      "æĪı": 1919,
      "Ġåı£": 1920,
      "Ġæ¯ıä¸ª": 1921,
      "ç»´": 1922,
      "ĠæĢĿ": 1923,
      "ĠåĿļ": 1924,
      "æĴ": 1925,
      "ĠçĬ¯": 1926,
      "åĿĹ": 1927,
      "Ġæĭį": 1928,
      "ç³": 1929,
      "èģĶ": 1930,
      "è´¥": 1931,
      "ĠåıĤåĬł": 1932,
      "åĽ´": 1933,
      "»åŃĲ": 1934,
      "Ġå¾®": 1935,
      "ĠèĥĮ": 1936,
      "ĠæĪĲåĬŁ": 1937,
      "Ġè°ĥæŁ¥": 1938,
      "Ġå¸¸": 1939,
      "èĲ½": 1940,
      "Ġåįļ": 1941,
      "ĠåİĨ": 1942,
      "Ġåħħ": 1943,
      "Ġå®ļ": 1944,
      "ĠæĪ¿éĹ´": 1945,
      "Ġå¥³åŃ©": 1946,
      "åºĬ": 1947,
      "æļ": 1948,
      "ĠæľīæĹ¶": 1949,
      "Ġç»ĵæĿŁ": 1950,
      "éĿŀ": 1951,
      "ĠåĵªåĦ¿": 1952,
      "åį¡": 1953,
      "ä»ĺ": 1954,
      "Ġéħį": 1955,
      "Ġå®ŀéĻħ": 1956,
      "æĸ¯çī¹": 1957,
      "Ġè¡£": 1958,
      "ĠåĬª": 1959,
      "Ġè±": 1960,
      "æŀģ": 1961,
      "ĠåĨ°": 1962,
      "Ġæ¯į": 1963,
      "Ġåı¤": 1964,
      "ĠéĹ¨": 1965,
      "ä¸ī": 1966,
      "æµĭ": 1967,
      "ç²": 1968,
      "Ġæ»¡": 1969,
      "Ġæ´Ĺ": 1970,
      "Ġå®ĺ": 1971,
      "Ġè£": 1972,
      "çĵ": 1973,
      "Ġä¹Ĳ": 1974,
      "åĮħ": 1975,
      "çľŁ": 1976,
      "Ġç±»": 1977,
      "Ġç»Ħç»ĩ": 1978,
      "Ġå¿«çĤ¹": 1979,
      "è¡Ģ": 1980,
      "ĠæĹ¥æľ¬": 1981,
      "Ġåĩłä¹İ": 1982,
      "Ġæ®": 1983,
      "Ġæį¢": 1984,
      "Ġèµ¶": 1985,
      "ç«Ļ": 1986,
      "ä»¤": 1987,
      "è¿°": 1988,
      "Ġç®Ĺ": 1989,
      "Ġç§į": 1990,
      "Ġéº»": 1991,
      "çħ§": 1992,
      "ĠåĨľ": 1993,
      "Ħå¼Ł": 1994,
      "ĠéĢĥ": 1995,
      "çŁ": 1996,
      "Ġå¸¦æĿ¥": 1997,
      "Ġè¯Ħ": 1998,
      "Ġèµ¢": 1999,
      "ĳŀ": 2000,
      "ĩĤ": 2001,
      "çľ¼": 2002,
      "Ġå®¶åºŃ": 2003,
      "å±Ĥ": 2004,
      "Ġæģ¶": 2005,
      "ĠåĽ¾": 2006,
      "Ġåįİ": 2007,
      "åķ¡": 2008,
      "ĠæĦ¿æĦı": 2009,
      "Ġä¸įçĶ¨": 2010,
      "å¼ĥ": 2011,
      "Ġåįĸ": 2012,
      "ĠäºĽ": 2013,
      "æģ©": 2014,
      "ĠåĶ¯ä¸Ģ": 2015,
      "Ġä¸įåĪ°": 2016,
      "ä¸įèµ·": 2017,
      "Ġä¸Ģä½į": 2018,
      "ĠåĬªåĬĽ": 2019,
      "Ġåľ°åĮº": 2020,
      "Ġèİ·å¾Ĺ": 2021,
      "æ¼": 2022,
      "ç»Ħ": 2023,
      "ĠåįĬ": 2024,
      "é¥Ń": 2025,
      "Ġæ´»åĬ¨": 2026,
      "ĠåĽ½éĻħ": 2027,
      "åħ»": 2028,
      "ĠèĢħ": 2029,
      "Ġä¸Ģå¤©": 2030,
      "å½¢": 2031,
      "Ġæ¸ħæ¥ļ": 2032,
      "Ġè´Ŀ": 2033,
      "Ġæ²Ļ": 2034,
      "å±±": 2035,
      "Ġäºĭå®ŀ": 2036,
      "æ£Ĵ": 2037,
      "Ġåģ¥": 2038,
      "Ġå¥½å¥½": 2039,
      "ĠéŁ³": 2040,
      "ĠæīĵçĶµè¯Ŀ": 2041,
      "Ġæĭ¥æľī": 2042,
      "Ġåħ¥": 2043,
      "Ġé¦Ļ": 2044,
      "Ġæ¬§æ´²": 2045,
      "Ġæł¹æľ¬": 2046,
      "Ġå®³": 2047,
      "Ġä¼ĳ": 2048,
      "ç»Ī": 2049,
      "Ġè®¾è®¡": 2050,
      "éĹ»": 2051,
      "ĠåħĦå¼Ł": 2052,
      "Ġæ¡Ī": 2053,
      "æŀ¶": 2054,
      "åŃĺ": 2055,
      "æĿ¯": 2056,
      "Ġæħ": 2057,
      "Ġé©¬ä¸Ĭ": 2058,
      "äº¡": 2059,
      "Ġä¸ªäºº": 2060,
      "ĸåķ¡": 2061,
      "Ġèį¯": 2062,
      "Ġä»İæĿ¥": 2063,
      "ç§°": 2064,
      "Ġå·¨": 2065,
      "ĠçĨ": 2066,
      "ĠèģĮ": 2067,
      "æĹ¶éĹ´": 2068,
      "Ġæĺ¯åĽł": 2069,
      "Ġæĺ¯åĽłä¸º": 2070,
      "æİ§": 2071,
      "ĠåĳĢ": 2072,
      "Ġä¼¼ä¹İ": 2073,
      "è¡£": 2074,
      "Ġå±±": 2075,
      "ç»ĵ": 2076,
      "ĠéĤ£åĦ¿": 2077,
      "ĠåĢĴ": 2078,
      "çª": 2079,
      "ĠæĮģ": 2080,
      "Ġæł¼": 2081,
      "Ġè¡Įä¸º": 2082,
      "ĠåĲ¬è¯´": 2083,
      "ç»ĥ": 2084,
      "èĲ¥": 2085,
      "Ġå°¤": 2086,
      "Ġæł¸": 2087,
      "Ġçī¹åĪ«": 2088,
      "Ġåħ¨çĲĥ": 2089,
      "ĠçľŁæŃ£": 2090,
      "æ³¨": 2091,
      "ĠæĮº": 2092,
      "Ġç¡®å®ļ": 2093,
      "æĻ¯": 2094,
      "Ġåĵ¥": 2095,
      "Ġè¶³": 2096,
      "æĿ¾": 2097,
      "å¼º": 2098,
      "åİĨ": 2099,
      "å¿Ĺ": 2100,
      "ĠéŁ": 2101,
      "å°Ħ": 2102,
      "ĠåĪĻ": 2103,
      "ĠèĤ¡": 2104,
      "ä¼¦": 2105,
      "Ġæľīåħ³": 2106,
      "Ġåıĺå¾Ĺ": 2107,
      "ĠçĶ±äºİ": 2108,
      "Ġæ°¸è¿ľ": 2109,
      "Ġå¤§åŃ¦": 2110,
      "ĠæĿ°": 2111,
      "åįĩ": 2112,
      "å¯Į": 2113,
      "åıª": 2114,
      "è¸": 2115,
      "Ġä¹Ķ": 2116,
      "Ġç»Ĩ": 2117,
      "ĠèĩªçĶ±": 2118,
      "çİ©": 2119,
      "è¿ª": 2120,
      "æķ¢": 2121,
      "Ġåĳ½": 2122,
      "Ġäºī": 2123,
      "æĶ¶": 2124,
      "åĺĽ": 2125,
      "Ġç§»": 2126,
      "åĶ®": 2127,
      "ĠåľŁ": 2128,
      "Ġå¯»": 2129,
      "²ľ": 2130,
      "ĠåĮĸ": 2131,
      "Ġä»ħ": 2132,
      "Ġæ¯ĶèµĽ": 2133,
      "ĠéĻĦ": 2134,
      "ĠéĩĮéĿ¢": 2135,
      "èİ±": 2136,
      "ç¤¼": 2137,
      "ĠåĿı": 2138,
      "æ¸ħ": 2139,
      "Ġç§ĳåŃ¦": 2140,
      "Ġäº«": 2141,
      "ĠçĶµå½±": 2142,
      "ĠæĺŁæľŁ": 2143,
      "Ġå¹´è½»": 2144,
      "å¥Ĺ": 2145,
      "Ġå®¹æĺĵ": 2146,
      "ĠæĪ¿åŃĲ": 2147,
      "Ġå®£": 2148,
      "ĠåŃ¦çĶŁ": 2149,
      "Ġè¡¨çİ°": 2150,
      "Ļ»": 2151,
      "Ġè¯Ŀ": 2152,
      "Ġæ±½": 2153,
      "ĠèĬĤ": 2154,
      "Ġä¿Ŀè¯ģ": 2155,
      "èį¯": 2156,
      "ĠåºĬ": 2157,
      "Ġç»Ī": 2158,
      "åĭĴ": 2159,
      "ĠèĢĥèĻĳ": 2160,
      "Ġè§Ĩ": 2161,
      "æİĴ": 2162,
      "Ġçº¢": 2163,
      "ĠåĴĸåķ¡": 2164,
      "ĠåİĨåı²": 2165,
      "ĠéĹ´": 2166,
      "ĠæĿ¥èĩª": 2167,
      "ĠçĦ¶èĢĮ": 2168,
      "é£Ł": 2169,
      "èĭ¦": 2170,
      "è¯º": 2171,
      "ç®±": 2172,
      "æ¯Ĵ": 2173,
      "Ġå®Ŀè´Ŀ": 2174,
      "Ġäº¤æĺĵ": 2175,
      "Ġéķ": 2176,
      "çķ¥": 2177,
      "ĠèĦĳ": 2178,
      "é¾": 2179,
      "æ£®": 2180,
      "Ġå°¼": 2181,
      "åħ±": 2182,
      "ĠèĪ¹": 2183,
      "Ġåĩ¯": 2184,
      "æł¹": 2185,
      "å¿Ļ": 2186,
      "Ġå¤±åİ»": 2187,
      "Ġä¿ĿæĮģ": 2188,
      "Ġè¿ĳ": 2189,
      "ĠçĽ®åīį": 2190,
      "ĠéĢĢ": 2191,
      "Ġèº«ä¸Ĭ": 2192,
      "ĠçĶŁåĳ½": 2193,
      "çłģ": 2194,
      "Ġç¤¼": 2195,
      "åº§": 2196,
      "Ġå¹²åĺĽ": 2197,
      "å§Ĳ": 2198,
      "Ġæ½": 2199,
      "Ġè´§": 2200,
      "ĠèĦ¸": 2201,
      "ç»Ŀ": 2202,
      "ĠçĲĥ": 2203,
      "Ġåıªè¦ģ": 2204,
      "ĠæĥĬ": 2205,
      "ĠæľĢè¿ĳ": 2206,
      "Ġéĩįæĸ°": 2207,
      "Ġéĺ²": 2208,
      "ĠæĻļä¸Ĭ": 2209,
      "Ġèı": 2210,
      "Ġä»¤äºº": 2211,
      "Ġè¡ĮåĬ¨": 2212,
      "Ġè¡Ĺ": 2213,
      "æĶ¿åºľ": 2214,
      "Ġè§Ĵ": 2215,
      "Ġå¥³åĦ¿": 2216,
      "Ġæ³ķå¾ĭ": 2217,
      "ĠæĪ´": 2218,
      "Ġäº§çĶŁ": 2219,
      "ĠåıĹåĪ°": 2220,
      "Ġè½»": 2221,
      "ç½ĳ": 2222,
      "ĠåĬŀåħ¬": 2223,
      "Ġè¿Ľåħ¥": 2224,
      "Ġå«": 2225,
      "Ġæļ´": 2226,
      "Ġæł·": 2227,
      "Ġå©ļ": 2228,
      "åħ¬åı¸": 2229,
      "ä»İ": 2230,
      "Ġèĥ½åĬĽ": 2231,
      "æľª": 2232,
      "éĻĲ": 2233,
      "ĠæķĪ": 2234,
      "æ´¾": 2235,
      "ĠåĽ°": 2236,
      "ä¹±": 2237,
      "èª": 2238,
      "Ġåıªèĥ½": 2239,
      "ĠçŁ³": 2240,
      "Ġå¹¸": 2241,
      "ĠçĽ®æłĩ": 2242,
      "è¯·": 2243,
      "Ġæĭľæīĺ": 2244,
      "Ġå¾ħ": 2245,
      "çĭ±": 2246,
      "Ġå±ķ": 2247,
      "Ġè¿ĲåĬ¨": 2248,
      "Ġä»¥åĲİ": 2249,
      "çĬ¶": 2250,
      "ĠåĬŀæ³ķ": 2251,
      "å°±": 2252,
      "ĠçĭĹ": 2253,
      "Ġæ¸©": 2254,
      "åº·": 2255,
      "Ġåį±éĻ©": 2256,
      "Ĥäº®": 2257,
      "è¯¯": 2258,
      "ĠæŃ¦": 2259,
      "éĥ½": 2260,
      "æķĳ": 2261,
      "ĠåĪļåĪļ": 2262,
      "Ġç±³": 2263,
      "Ġåĥıæĺ¯": 2264,
      "Ġå±ħ": 2265,
      "å¹²": 2266,
      "èĢģ": 2267,
      "ĠåıĺæĪĲ": 2268,
      "Ġä»ĺ": 2269,
      "Ġåį³ä½¿": 2270,
      "Ġè§£éĩĬ": 2271,
      "ĠåĢŁ": 2272,
      "Ġèī¾": 2273,
      "ä¼¯": 2274,
      "Ġæ¢¦": 2275,
      "Ġå®ĮæĪĲ": 2276,
      "ç¡": 2277,
      "åįĬ": 2278,
      "Ġéĺ»": 2279,
      "éĽĨ": 2280,
      "æĺ¾": 2281,
      "ä»Ĭ": 2282,
      "Ġæīįèĥ½": 2283,
      "Ġåħ´": 2284,
      "Ġæī§": 2285,
      "èŀį": 2286,
      "å»º": 2287,
      "æķ´": 2288,
      "ĠçŃĶ": 2289,
      "ĠåĪ°åºķ": 2290,
      "Ġç¨ĭ": 2291,
      "Ġæµĭ": 2292,
      "Ġèĩ³å°ĳ": 2293,
      "Ġé¼": 2294,
      "Ġäººç±»": 2295,
      "é©": 2296,
      "Ġæ¯ıå¤©": 2297,
      "ĠèĻ½": 2298,
      "Ġè§ģåĪ°": 2299,
      "ĠåĬĽ": 2300,
      "åĲ§": 2301,
      "ĠçŁŃ": 2302,
      "çŁ³": 2303,
      "é¡¾": 2304,
      "æ¹": 2305,
      "åĨį": 2306,
      "éĢĤ": 2307,
      "ä½ł": 2308,
      "èģĮ": 2309,
      "Ġä¸¢": 2310,
      "ç¦ı": 2311,
      "Ġçļ®": 2312,
      "ĠéŃ": 2313,
      "Ġå¼Ĺ": 2314,
      "ĠéĻį": 2315,
      "Ġç¬¬äºĮ": 2316,
      "Ġä»įçĦ¶": 2317,
      "Ġå¦»åŃĲ": 2318,
      "æŃĮ": 2319,
      "Ġç§ĺ": 2320,
      "ĠæĹ©ä¸Ĭ": 2321,
      "ĠèĪĴ": 2322,
      "Ġé¡¹": 2323,
      "Ġä¾Ľ": 2324,
      "åłĤ": 2325,
      "èĨ": 2326,
      "è½¬": 2327,
      "Ġä¸ĭæĿ¥": 2328,
      "èĴĤ": 2329,
      "ĠåħŃ": 2330,
      "Ġçİ¯å¢ĥ": 2331,
      "Ġä¸Ģå®¶": 2332,
      "Ġæ¯Ĵ": 2333,
      "Ġç¼º": 2334,
      "ĠæĬ¥åĳĬ": 2335,
      "å¼ķ": 2336,
      "Ġå®¡": 2337,
      "åĲ¬": 2338,
      "åį«": 2339,
      "Ġå¢ŀéķ¿": 2340,
      "é¸": 2341,
      "ç³ķ": 2342,
      "Ġè¡£æľį": 2343,
      "ĠãĢĭ": 2344,
      "Ġæķħäºĭ": 2345,
      "ĠãĢĬ": 2346,
      "ĠèĪŀ": 2347,
      "åĸĦ": 2348,
      "Ġè¯ģæĺİ": 2349,
      "Ġå°±è¦ģ": 2350,
      "Ġä¾ĭ": 2351,
      "ĠåĺĽ": 2352,
      "å¤ľ": 2353,
      "åºı": 2354,
      "Ġå¯¼èĩ´": 2355,
      "ĠäºĴ": 2356,
      "Ġæ¯įäº²": 2357,
      "ĠåĽ¢": 2358,
      "ç»Ĩ": 2359,
      "ĠåĳĨ": 2360,
      "Ġå¿Ļ": 2361,
      "Ġæķ°æį®": 2362,
      "ĠçĬ¶": 2363,
      "ä¾ĭ": 2364,
      "ĠåĲ¦": 2365,
      "ç»ľ": 2366,
      "è¾Ĩ": 2367,
      "ĠçĽ´æİ¥": 2368,
      "ĠæĮĳ": 2369,
      "ĠåĪ©çĶ¨": 2370,
      "ĠéĿł": 2371,
      "Ġéĥ¨åĪĨ": 2372,
      "¤į": 2373,
      "Ġä¸įå¾Ĺ": 2374,
      "ĠæľĢå¤§": 2375,
      "ĠæľªæĿ¥": 2376,
      "Ġçŀ": 2377,
      "Ġè¯Ń": 2378,
      "åī§": 2379,
      "å¸ģ": 2380,
      "Ġå·¦": 2381,
      "ĠèģĶç³»": 2382,
      "ĠåĴ±ä»¬": 2383,
      "ä¸Ĭåİ»": 2384,
      "Ġå®¶ä¼Ļ": 2385,
      "ä¸ľ": 2386,
      "ĠåŃĲ": 2387,
      "ĠæĩĤ": 2388,
      "è¸ª": 2389,
      "çĥŁ": 2390,
      "é²ģ": 2391,
      "ĠéĺŁ": 2392,
      "Ġå¾Īå¿«": 2393,
      "ĠåĽŀåİ»": 2394,
      "Ġå»ºè®®": 2395,
      "éĽ·": 2396,
      "ä¼¼": 2397,
      "ĠéģĹ": 2398,
      "Ġå²": 2399,
      "ĠæĢª": 2400,
      "ĠåĲĮæł·": 2401,
      "Ġä¸Ńå¿ĥ": 2402,
      "æ¶Ī": 2403,
      "Ġåŀ": 2404,
      "æ¸¸": 2405,
      "Ġä¸¥éĩį": 2406,
      "Ġäº²çĪ±": 2407,
      "ĠèĢ¶": 2408,
      "è§Ħ": 2409,
      "Ġè¿Ļæ¬¡": 2410,
      "Ġå¾ĭ": 2411,
      "éĨĴ": 2412,
      "Ġä¿Ħ": 2413,
      "Ġç®Ģåįķ": 2414,
      "çīĮ": 2415,
      "ĠåĽŀåĪ°": 2416,
      "çİĭ": 2417,
      "Ġéĩĳèŀį": 2418,
      "Ġæ²»çĸĹ": 2419,
      "ĠåĢº": 2420,
      "Ġå¹²ä»Ģä¹Ī": 2421,
      "Ġç¿": 2422,
      "ĠèĻ": 2423,
      "ĠéĢłæĪĲ": 2424,
      "ĠçĶµè§Ĩ": 2425,
      "ĠçĹĽ": 2426,
      "ĠæĸĩåĮĸ": 2427,
      "ĠèĴ": 2428,
      "å®ĥ": 2429,
      "ĠçĶŁäº§": 2430,
      "ä¸¾": 2431,
      "ĠæıĲåĩº": 2432,
      "ĠçŃ¾": 2433,
      "Ġèīº": 2434,
      "é¬¼": 2435,
      "è´§": 2436,
      "Ġè¿Ļä¸Ģ": 2437,
      "Ġç½ª": 2438,
      "ĠæĹ¢": 2439,
      "Ġç¡®å®ŀ": 2440,
      "ĠåĪļæīį": 2441,
      "Ġå¤«": 2442,
      "Ġæ£ĢæŁ¥": 2443,
      "Ġè¿ĩç¨ĭ": 2444,
      "çĻ¾": 2445,
      "Ġä¹ĭä¸Ģ": 2446,
      "ä½İ": 2447,
      "åįĹ": 2448,
      "è¾ĥ": 2449,
      "Ġç³Ł": 2450,
      "ĠçĻ¾": 2451,
      "éĿ©": 2452,
      "Ġæİī": 2453,
      "ĠæĶ¾åľ¨": 2454,
      "Ġç²¾ç¥ŀ": 2455,
      "ĠæĽ´å¥½": 2456,
      "æĸĹ": 2457,
      "Ġäº§åĵģ": 2458,
      "æŁĵ": 2459,
      "¦Ĥ": 2460,
      "Ġçº½": 2461,
      "Ġçİĭ": 2462,
      "Ġä»·åĢ¼": 2463,
      "Ġæ±½è½¦": 2464,
      "èĪŀ": 2465,
      "ĠçĶ»": 2466,
      "åĪ¤": 2467,
      "Ġå¢ŀåĬł": 2468,
      "Ġä¸ļ": 2469,
      "ĠåĪĩ": 2470,
      "åħį": 2471,
      "ĠæĦıåĳ³": 2472,
      "Ġéº»çĥ¦": 2473,
      "ĠçīĽ": 2474,
      "Ġå¯¹ä¸įèµ·": 2475,
      "Ġéº¦": 2476,
      "èĦı": 2477,
      "Ġæ´Ľ": 2478,
      "çĽŁ": 2479,
      "æĶ¯": 2480,
      "Ġé¢Ĩå¯¼": 2481,
      "åħµ": 2482,
      "åŁİ": 2483,
      "ĠçĪ¶æ¯į": 2484,
      "Ġè¯»": 2485,
      "ĠéŁ³ä¹Ĳ": 2486,
      "ĠèĻ½çĦ¶": 2487,
      "Ġä¸įåĨį": 2488,
      "ĠæĶ¿çŃĸ": 2489,
      "Ġä»ĭ": 2490,
      "Ġè¾ĥ": 2491,
      "Ġåħ·æľī": 2492,
      "ĠéĤ£ç§į": 2493,
      "Ġæį®": 2494,
      "å»": 2495,
      "ĠåĪ«çļĦ": 2496,
      "éŃ": 2497,
      "åĿ¦": 2498,
      "Ġåį°åº¦": 2499,
      "Ġè´¹": 2500,
      "ĠæĹłè®º": 2501,
      "Ġå®ŀéĻħä¸Ĭ": 2502,
      "ĠæķĻèĤ²": 2503,
      "Ġç¬ĳ": 2504,
      "ĠæĬĹ": 2505,
      "ĠçĪĨ": 2506,
      "Ġå¯Ĩ": 2507,
      "èĪ¬": 2508,
      "Ġä¸įäºĨ": 2509,
      "ĠæľĢç»Ī": 2510,
      "é±¼": 2511,
      "Ġç»ĵå©ļ": 2512,
      "èĳ": 2513,
      "ĠçĲĨè§£": 2514,
      "ĠçľĭçĿĢ": 2515,
      "ĠåĮ»éĻ¢": 2516,
      "æĮĩ": 2517,
      "Ġèĭı": 2518,
      "Ġè¾¹": 2519,
      "ĠåŃ¦ä¹ł": 2520,
      "æ¿Ģ": 2521,
      "¼å¾Ĺ": 2522,
      "ä¸´": 2523,
      "Ġè´Ń": 2524,
      "æĦıæĢĿ": 2525,
      "Ġèº": 2526,
      "ĠåĲĮæĦı": 2527,
      "ĠèĦ±": 2528,
      "Ġä¸īä¸ª": 2529,
      "åı¥": 2530,
      "Ġå¥³å£«": 2531,
      "åİħ": 2532,
      "Ġèīºæľ¯": 2533,
      "ĠåĪ¶éĢł": 2534,
      "Ġå»ºç«ĭ": 2535,
      "çĹĩ": 2536,
      "Ġåı°": 2537,
      "Ġå¾ĭå¸Ī": 2538,
      "èĲ¨": 2539,
      "Ġè¿·": 2540,
      "ĠéĢļå¸¸": 2541,
      "å®Ī": 2542,
      "ĠåĶ±": 2543,
      "é²ľ": 2544,
      "Ġåħ¶å®ĥ": 2545,
      "ĠæĽ´åĬł": 2546,
      "åĪĨéĴŁ": 2547,
      "ĠåĲī": 2548,
      "Ġå§Ķ": 2549,
      "Ġä¸ĢåĲį": 2550,
      "èĹı": 2551,
      "Ġä¸Ī": 2552,
      "Ġæº": 2553,
      "Ġå°¤åħ¶": 2554,
      "ĠæįŁ": 2555,
      "çķĻ": 2556,
      "ĠåĬ³": 2557,
      "ĠåĬŀåħ¬å®¤": 2558,
      "äº¬": 2559,
      "Ġåħ¶å®ŀ": 2560,
      "Ġåħįè´¹": 2561,
      "æ¥¼": 2562,
      "Ġå¯Į": 2563,
      "Ġè°Īè°Ī": 2564,
      "Ġåı²": 2565,
      "éľ²": 2566,
      "Ġä¸Īå¤«": 2567,
      "åĤ": 2568,
      "Ġæĺ¾ç¤º": 2569,
      "Ġè¿ĺè¦ģ": 2570,
      "çĽ´": 2571,
      "ĠèĢĮå·²": 2572,
      "Ġè¯¾": 2573,
      "Ġè¦ģæĺ¯": 2574,
      "Ġè´Łè´£": 2575,
      "Ġåĩ¶": 2576,
      "Ġåĳ¼": 2577,
      "ĠåĸĤ": 2578,
      "Ġä¿©": 2579,
      "Ġå®³æĢķ": 2580,
      "Ġåįł": 2581,
      "ç«ł": 2582,
      "ĠåŁĥ": 2583,
      "Ġæīĵç®Ĺ": 2584,
      "ĠæľĿ": 2585,
      "æ³¢": 2586,
      "Ġå£°éŁ³": 2587,
      "Ġéģĩ": 2588,
      "æ²¡æľī": 2589,
      "Ġæľīæ²¡æľī": 2590,
      "ĠâĢĶ": 2591,
      "Ġæ¯Ķè¾ĥ": 2592,
      "ĠæŃ»äº¡": 2593,
      "Ġä»·æł¼": 2594,
      "Ġçľĭä¸Ĭåİ»": 2595,
      "ĠçªģçĦ¶": 2596,
      "Ġæ¬¢": 2597,
      "Ġèº«ä½ĵ": 2598,
      "Ġä¸Ģåľº": 2599,
      "ĠæĦıåĳ³çĿĢ": 2600,
      "æľĭåıĭ": 2601,
      "Ġåķ¥": 2602,
      "è§Ĵ": 2603,
      "éģį": 2604,
      "Ġç»ıå¸¸": 2605,
      "Ġä¸ĢæĿ¡": 2606,
      "ĠéģŃ": 2607,
      "Ġæ±Ĥ": 2608,
      "Ġé¤Ĳ": 2609,
      "ĠæĪĺäºī": 2610,
      "Ġä½ľçĶ¨": 2611,
      "ç´§": 2612,
      "éº": 2613,
      "å¨ĺ": 2614,
      "Ġä¸įè¡Į": 2615,
      "çĥĪ": 2616,
      "Ġæłĳ": 2617,
      "æį¢": 2618,
      "æī°": 2619,
      "Ġä¸įåı¯": 2620,
      "å©": 2621,
      "Ġçħ§çīĩ": 2622,
      "Ġæī¿è®¤": 2623,
      "Ġåı¦å¤ĸ": 2624,
      "Ġç¢°": 2625,
      "Ġåģ¥åº·": 2626,
      "æľĹ": 2627,
      "çīĻ": 2628,
      "Ġä»»åĬ¡": 2629,
      "Ġç¦ı": 2630,
      "Ġåıįå¯¹": 2631,
      "Ġæĺİæĺ¾": 2632,
      "Ġé»Ħ": 2633,
      "ĠèĪª": 2634,
      "ĠåĬ¨çī©": 2635,
      "å²Ľ": 2636,
      "Ġä»Ĭå¹´": 2637,
      "ĠæĴĴ": 2638,
      "Ġä¸įä»ħ": 2639,
      "ĠåĨĴ": 2640,
      "Ġä¸Ģå¼ł": 2641,
      "Ġä¸Ģä»½": 2642,
      "Ġçģµ": 2643,
      "ĠæĭĴ": 2644,
      "Ġäººæ°ĳ": 2645,
      "Ġæ³°": 2646,
      "Ġè¯ģæį®": 2647,
      "Ġçº¿": 2648,
      "åİĮ": 2649,
      "ĠåĨįè§ģ": 2650,
      "Ġä¸ĬéĿ¢": 2651,
      "Ġæī¹": 2652,
      "Ġåĵģ": 2653,
      "Ġå¤§å¤ļ": 2654,
      "å¸Ń": 2655,
      "Ġä»£è¡¨": 2656,
      "ä¸İ": 2657,
      "æĬĢ": 2658,
      "è®©": 2659,
      "Ġé¡¹çĽ®": 2660,
      "ĠéļĲ": 2661,
      "Ġåľº": 2662,
      "Ġä»ĸå¦Ī": 2663,
      "Ġäººåĳĺ": 2664,
      "Ġé£Łçī©": 2665,
      "é¼": 2666,
      "åįĥ": 2667,
      "Ġä¼łç»Ł": 2668,
      "ĠæĬ½": 2669,
      "ĠåĪº": 2670,
      "Ġå°¸": 2671,
      "Ġç»Ł": 2672,
      "ĠåĲĪä½ľ": 2673,
      "çŃĳ": 2674,
      "ĠæĢ¥": 2675,
      "Ġæ¯«": 2676,
      "åıį": 2677,
      "Ġé£ŀæľº": 2678,
      "Ġæ²¡ä»Ģä¹Ī": 2679,
      "Ġä¸Ģä»¶": 2680,
      "çĿĽ": 2681,
      "å¡Ķ": 2682,
      "äºĶ": 2683,
      "èĥŀ": 2684,
      "Ġæ²¡éĶĻ": 2685,
      "çŃĶ": 2686,
      "æ¨¡": 2687,
      "ĠèĦļ": 2688,
      "éĺ³": 2689,
      "Ġéģ¿": 2690,
      "ĠèĩªçĦ¶": 2691,
      "ĠæĽ¾ç»ı": 2692,
      "Ġæ¶Īæģ¯": 2693,
      "èĤī": 2694,
      "Ġå¤Ł": 2695,
      "Ġå®ŀéªĮ": 2696,
      "Ġå±ŀ": 2697,
      "Ġç¡": 2698,
      "ĠæľºæŀĦ": 2699,
      "ĠåĬŁ": 2700,
      "ł¢": 2701,
      "Ġæĥ³æ³ķ": 2702,
      "å¨ľ": 2703,
      "Ġé£İéĻ©": 2704,
      "å¥¶": 2705,
      "Ġæģ©": 2706,
      "Ġè¿Ļä»¶": 2707,
      "æ´Ľ": 2708,
      "Ġä¸įæĸŃ": 2709,
      "ĠéĻĦè¿ĳ": 2710,
      "Ġåİ»å¹´": 2711,
      "åĩºæĿ¥": 2712,
      "æĹ©": 2713,
      "Ġä¼¤å®³": 2714,
      "å±ħ": 2715,
      "Ġè¶ĬæĿ¥": 2716,
      "ä¸Ŀ": 2717,
      "Ġè¶ĬæĿ¥è¶Ĭ": 2718,
      "èĤ¡": 2719,
      "Ġä»ĸå¦ĪçļĦ": 2720,
      "å¤§åĪ©": 2721,
      "Ġè¡¥": 2722,
      "Ġåº¦": 2723,
      "Ġä¸ĢèĪ¬": 2724,
      "çĨ": 2725,
      "Ġçº½çº¦": 2726,
      "çĽĽ": 2727,
      "èĢĥ": 2728,
      "è¿İ": 2729,
      "æĻ®": 2730,
      "éĶĢ": 2731,
      "åİĤ": 2732,
      "Ġè®°å½ķ": 2733,
      "ĠçĲĨè®º": 2734,
      "åįĪ": 2735,
      "ĠåĲĵ": 2736,
      "ĠæŃĮ": 2737,
      "Ġæ¼Ĥäº®": 2738,
      "Ġç´§å¼ł": 2739,
      "é¢Ŀ": 2740,
      "Ġé¡º": 2741,
      "Ġåĳĺ": 2742,
      "å¦¹": 2743,
      "Ġäº«åıĹ": 2744,
      "Ġå®¶éĩĮ": 2745,
      "çĹĽ": 2746,
      "ç¾¤": 2747,
      "Ġä¸Ģä¼ļ": 2748,
      "Ġæ¥": 2749,
      "ä¹°": 2750,
      "Ġç¨³": 2751,
      "ĠèĲ¥": 2752,
      "éĺ²": 2753,
      "Ġä¼ļè®®": 2754,
      "æĿĤ": 2755,
      "è¯į": 2756,
      "Ġå°Ŀ": 2757,
      "Ġæł¹æį®": 2758,
      "ĠæĲľ": 2759,
      "Ġä¸Ģå¹´": 2760,
      "ĠæĬ¢": 2761,
      "æĢ¥": 2762,
      "Ġå¾·åĽ½": 2763,
      "Ġæµª": 2764,
      "Ġå¼Ģå¿ĥ": 2765,
      "æī¾": 2766,
      "ĠæĭĴç»Ŀ": 2767,
      "Ġä¸Ģåıª": 2768,
      "ĠèĮĥ": 2769,
      "Ġä¼¦": 2770,
      "Ġè¿ĽæĿ¥": 2771,
      "Ġè®¨è®º": 2772,
      "ĠæĲ¬": 2773,
      "ä¹Ł": 2774,
      "Ġåħ¶ä»ĸäºº": 2775,
      "Ġå½ĵåľ°": 2776,
      "Ġçĵ": 2777,
      "éħį": 2778,
      "ĠçĮľ": 2779,
      "Ġç«ŀäºī": 2780,
      "Ġèģļ": 2781,
      "ĠæıĲé«ĺ": 2782,
      "ĠéĶĻè¯¯": 2783,
      "Ġçı": 2784,
      "Ġéĩİ": 2785,
      "ĠæĶ¾å¼ĥ": 2786,
      "ĠåĲĦç§į": 2787,
      "Ġæ¶Īè´¹": 2788,
      "Ġæ³ķåĽ½": 2789,
      "å¼±": 2790,
      "Ġè¿Ľåİ»": 2791,
      "Ġåł": 2792,
      "èĪ¹": 2793,
      "çĥŃ": 2794,
      "Ġç¦ģ": 2795,
      "Ġå¥ĩæĢª": 2796,
      "ĠæĬµ": 2797,
      "Ġè¸": 2798,
      "è°İ": 2799,
      "ĠçĽ®çļĦ": 2800,
      "ĠæĽ¿": 2801,
      "Ġæĵį": 2802,
      "ĠæĢİä¹ĪåĬŀ": 2803,
      "Ġæ½ľ": 2804,
      "Ġå¿ħè¦ģ": 2805,
      "Ġå»ºçŃĳ": 2806,
      "Ġæĸ°éĹ»": 2807,
      "ªĴ": 2808,
      "èĥģ": 2809,
      "ç¨İ": 2810,
      "Ġç½ĳç»ľ": 2811,
      "Ġç»ıåİĨ": 2812,
      "Ġå¼ł": 2813,
      "ĠæīĶ": 2814,
      "Ġè´£": 2815,
      "ĠæĭĽ": 2816,
      "å¿ħ": 2817,
      "ĠçķĻä¸ĭ": 2818,
      "ĠåĤ»": 2819,
      "Ġç¾İåħĥ": 2820,
      "Ġèİ«": 2821,
      "ĠåĪĽéĢł": 2822,
      "å¼Ĥ": 2823,
      "ĠåŁºæľ¬": 2824,
      "Ġåħģ": 2825,
      "Ġå¥³æĢ§": 2826,
      "Ġæ¯Ķå¦Ĥ": 2827,
      "ĠçĽ¸åħ³": 2828,
      "ä¼ł": 2829,
      "ĠåİĭåĬĽ": 2830,
      "ç«¯": 2831,
      "ĠéĿĴ": 2832,
      "åĲĹ": 2833,
      "å®Ŀ": 2834,
      "ç¡Ģ": 2835,
      "Ġçº¦ä¼ļ": 2836,
      "Ġæ¸¸æĪı": 2837,
      "Ġç§ĺå¯Ĩ": 2838,
      "Ġç¾": 2839,
      "æħ¢": 2840,
      "çĭĤ": 2841,
      "Ġè®¨åİĮ": 2842,
      "Ġæ¯Ľ": 2843,
      "Ġè®®": 2844,
      "å¨ģ": 2845,
      "ĠéĶĢ": 2846,
      "Ġè°ĭ": 2847,
      "ĠæĪĳåĪļ": 2848,
      "çģµ": 2849,
      "Ġèĥ¡": 2850,
      "Ġæľīè¶£": 2851,
      "éĻį": 2852,
      "åºĵ": 2853,
      "çļ®": 2854,
      "å¥½äºĨ": 2855,
      "Ġæł·åŃĲ": 2856,
      "ĠæĬ¤": 2857,
      "Ġå»": 2858,
      "ç¢į": 2859,
      "å±ŀ": 2860,
      "è¯»": 2861,
      "ĠæīĢæľīäºº": 2862,
      "Ġäºĭä»¶": 2863,
      "ĠæĦıä¹ī": 2864,
      "Ġçľ¼çĿĽ": 2865,
      "æĽ¼": 2866,
      "Ġä½ķ": 2867,
      "è¿¹": 2868,
      "å¿Ĩ": 2869,
      "ĠéļıçĿĢ": 2870,
      "Ġåħģè®¸": 2871,
      "ĠæĶ»": 2872,
      "Ġå°Ĩä¼ļ": 2873,
      "æįķ": 2874,
      "çº¸": 2875,
      "ĠçĻ»": 2876,
      "åģĩ": 2877,
      "æıĲ": 2878,
      "Ġè¶ħè¿ĩ": 2879,
      "ĠåĲ¸å¼ķ": 2880,
      "ĠæĪĸæĺ¯": 2881,
      "ĠæĹ©é¤Ĳ": 2882,
      "æģ¶": 2883,
      "Ġå®ŀçİ°": 2884,
      "çĶ»": 2885,
      "ĠéĽ·": 2886,
      "Ġå©": 2887,
      "Ġå®½": 2888,
      "Ġæī©": 2889,
      "Ġæ¯ģ": 2890,
      "Ġä¸Ģé¡¹": 2891,
      "Ġå¤ªå¥½äºĨ": 2892,
      "æĹ¦": 2893,
      "Ġå¨ģèĥģ": 2894,
      "Ġèĩ´": 2895,
      "åĢĴ": 2896,
      "çł´": 2897,
      "Ġæ¥¼": 2898,
      "Ġå´": 2899,
      "ĠèĲ¨": 2900,
      "ĠæĿĤ": 2901,
      "æ´ĭ": 2902,
      "Ġå®¢æĪ·": 2903,
      "åīĤ": 2904,
      "éĶ®": 2905,
      "åħ³ç³»": 2906,
      "ĠèĲ½": 2907,
      "ĠèģĶåĲĪ": 2908,
      "Ġæľīä¸ª": 2909,
      "ĠæĦıè¯Ĩ": 2910,
      "Ġè®º": 2911,
      "Ġå¤§å¤ļæķ°": 2912,
      "Ġèľ": 2913,
      "èªĵ": 2914,
      "æķħ": 2915,
      "ĠåĨįä¹Ł": 2916,
      "Ġå°¸ä½ĵ": 2917,
      "Ġçº³": 2918,
      "èİī": 2919,
      "åįĸ": 2920,
      "åĽĽ": 2921,
      "Ġæīĺ": 2922,
      "ĠåıįåºĶ": 2923,
      "ĠåıĺåĮĸ": 2924,
      "è¢ĭ": 2925,
      "åľŁ": 2926,
      "Ġæīĭæľº": 2927,
      "Ġå½ķ": 2928,
      "Ġçĳŀ": 2929,
      "Ġåį«": 2930,
      "Ġçİ°ä»£": 2931,
      "Ġåħ¨éĥ¨": 2932,
      "ĠåķĨä¸ļ": 2933,
      "ĠåŁºç¡Ģ": 2934,
      "ĠéĻĲ": 2935,
      "ªæĺİ": 2936,
      "å¾Ĵ": 2937,
      "Ġå¤§éĩı": 2938,
      "ĠéŁ¦": 2939,
      "Ġè´¨": 2940,
      "ĠéªĹ": 2941,
      "Ġå¤ľ": 2942,
      "Ġå¤ĸéĿ¢": 2943,
      "Ġå®īæİĴ": 2944,
      "ĠæľīæķĪ": 2945,
      "Ġæ¹": 2946,
      "Ġæĸĩä»¶": 2947,
      "å·´é©¬": 2948,
      "ĠåĪĨéĴŁ": 2949,
      "Ġç¿»": 2950,
      "Ġè¯ķåĽ¾": 2951,
      "Ġæĺ¨æĻļ": 2952,
      "Ġåľ°çĲĥ": 2953,
      "Ġå±ĭ": 2954,
      "Ġæīĵå¼Ģ": 2955,
      "ä¸įäºĨ": 2956,
      "åİĭ": 2957,
      "ĠåĿĲåľ¨": 2958,
      "ĠéĨ": 2959,
      "Ġä¼ĳæģ¯": 2960,
      "Ġå®¢æĪ¿": 2961,
      "ĠéĻª": 2962,
      "åĪ¸": 2963,
      "Ġæĥ³è±¡": 2964,
      "Ġèĵ": 2965,
      "åĺ´": 2966,
      "Ġç»Ŀå¯¹": 2967,
      "Ġä¿ĿéĻ©": 2968,
      "ĠéŃĶ": 2969,
      "çĽĺ": 2970,
      "Ġä»İæ²¡": 2971,
      "ĠçĽ¸å½ĵ": 2972,
      "Ġå¥¶": 2973,
      "ĠèĽĭ": 2974,
      "Ġæĺ¨å¤©": 2975,
      "ĠæĦŁè°¢": 2976,
      "Ġå¾Īå¤§": 2977,
      "Ġå·¨å¤§": 2978,
      "ĠåĲİéĿ¢": 2979,
      "Ġåįĥ": 2980,
      "Ġç³Łç³ķ": 2981,
      "å°Ĩ": 2982,
      "Ġå®¢äºº": 2983,
      "å¾ģ": 2984,
      "Ġå®ĺåĳĺ": 2985,
      "Ġä¸´": 2986,
      "Ġåģļåĩº": 2987,
      "ĠçĤ¸": 2988,
      "ĠåĪĹ": 2989,
      "Ġåħ«": 2990,
      "çĳ": 2991,
      "Ġçļ": 2992,
      "Ġç¬¬ä¸Ģæ¬¡": 2993,
      "ĠåįĪ": 2994,
      "Ġå¤±è´¥": 2995,
      "Ġå±Ģ": 2996,
      "ĠæĲŃ": 2997,
      "åĵĪ": 2998,
      "Ġç¼ĸ": 2999,
      "Ġä»¥æĿ¥": 3000,
      "Ġåĩıå°ĳ": 3001,
      "ä¼Ĭ": 3002,
      "Ġéĩĩåıĸ": 3003,
      "Ġå¼ķèµ·": 3004,
      "æķ¦": 3005,
      "Ġèģªæĺİ": 3006,
      "Ġä¸įå¾Ĺä¸į": 3007,
      "ĠéĤ£è¾¹": 3008,
      "çĭ¬": 3009,
      "Ġä»ĸä¼ļ": 3010,
      "Ġä¸ĸçºª": 3011,
      "Ġä½įç½®": 3012,
      "æ¸¯": 3013,
      "Ġå½Ĵ": 3014,
      "Ġè±¡": 3015,
      "Ġéĺ»æŃ¢": 3016,
      "Ġå¸®å¿Ļ": 3017,
      "ªæĸ½": 3018,
      "ĠèµĦéĩĳ": 3019,
      "ĠåĲ«": 3020,
      "Ġè§Ħå®ļ": 3021,
      "åĲī": 3022,
      "ĠåĪĿ": 3023,
      "Ġæħ¢": 3024,
      "Ġä¼¯": 3025,
      "ĩĥ": 3026,
      "Ġå¥¥å·´é©¬": 3027,
      "Ġç§¯": 3028,
      "ĠåĬłåħ¥": 3029,
      "Ġå¼Ĥ": 3030,
      "¸æĺĵ": 3031,
      "Ġéķ¿å®ĺ": 3032,
      "åĸľ": 3033,
      "Ġä½įäºİ": 3034,
      "æĴŃ": 3035,
      "Ġåı¸": 3036,
      "Ġæ²¹": 3037,
      "Ġåı³": 3038,
      "ĠæĻº": 3039,
      "åŃ£": 3040,
      "Ġå¤ı": 3041,
      "Ġæĭĸ": 3042,
      "Ġæ°ĳä¸»": 3043,
      "éĢģ": 3044,
      "ĠæŃ£å¸¸": 3045,
      "ç¾İåħĥ": 3046,
      "éĤ¦": 3047,
      "ĠåıĤä¸İ": 3048,
      "Ġå®Įç¾İ": 3049,
      "Ġéĵģ": 3050,
      "Ġå¥Ĺ": 3051,
      "Ġè¡¨æĺİ": 3052,
      "ĠæİĮ": 3053,
      "å²ģ": 3054,
      "ĠæĮģç»Ń": 3055,
      "Ġç¬¬ä¸ī": 3056,
      "ĠçĶŁçī©": 3057,
      "Ġè®Ń": 3058,
      "Ġå°ıå¿ĥ": 3059,
      "ĠéĽĩ": 3060,
      "Ġæĭ¿åĪ°": 3061,
      "Ġå¡Ķ": 3062,
      "ĠåĨ·éĿĻ": 3063,
      "ĠåŃĹ": 3064,
      "ç«¥": 3065,
      "Ġå®¶äºº": 3066,
      "Ġåħ³éĶ®": 3067,
      "å¹¸": 3068,
      "Ġå¡ŀ": 3069,
      "ĠæĳĨ": 3070,
      "ĠæłĩåĩĨ": 3071,
      "ĠéĻ¤äºĨ": 3072,
      "Ġåįĩ": 3073,
      "Ġåĩºåı£": 3074,
      "ĠåĿļæĮģ": 3075,
      "Ġä¸°": 3076,
      "ĠéĿ¢å¯¹": 3077,
      "ĠåŃ¤": 3078,
      "å®Į": 3079,
      "Ġä»»ä½ķäºº": 3080,
      "Ġé¸¡": 3081,
      "Ġå°ıå§Ĳ": 3082,
      "ä¼´": 3083,
      "éĢĢ": 3084,
      "Ġæ¡ĪåŃĲ": 3085,
      "Ġè¶³å¤Ł": 3086,
      "Ġæ±¤": 3087,
      "ĠåºĶçĶ¨": 3088,
      "ĠéĢı": 3089,
      "ĠåįģåĪĨ": 3090,
      "ĠåĢ¼å¾Ĺ": 3091,
      "æľ«": 3092,
      "Ġèĸ": 3093,
      "ĠåĲİæĿ¥": 3094,
      "ĠçªĹ": 3095,
      "Ġä¸įè¯¥": 3096,
      "Ġä¸ĭåİ»": 3097,
      "Ġç§ģäºº": 3098,
      "Ġç©ºéĹ´": 3099,
      "éļľ": 3100,
      "åŃ¦å®¶": 3101,
      "Ġè¡¨æ¼Ķ": 3102,
      "å©Ĩ": 3103,
      "ĠçĶ³": 3104,
      "Ġè¾ĵ": 3105,
      "åĽŀäºĭ": 3106,
      "ĠåģľæŃ¢": 3107,
      "ĠåĽŀçŃĶ": 3108,
      "åħ¸": 3109,
      "çĽĸ": 3110,
      "ĠæļĹ": 3111,
      "Ġäº¿": 3112,
      "Ġæĳ©": 3113,
      "Ġå°Ĭ": 3114,
      "Ġæīĭæľ¯": 3115,
      "Ġåĳĺå·¥": 3116,
      "åı«": 3117,
      "åĲĥ": 3118,
      "ĠåĨįæ¬¡": 3119,
      "ĠéĴĪ": 3120,
      "Ġåħ»": 3121,
      "ĠæĹ§": 3122,
      "æķ£": 3123,
      "±ä¹Ĳ": 3124,
      "Ġä¸ĥ": 3125,
      "ĠçĽ´åĪ°": 3126,
      "ç½Ĺæĸ¯": 3127,
      "å¡ŀ": 3128,
      "ĠæĬĵä½ı": 3129,
      "ĠçİĽ": 3130,
      "Ġæ¯ıæ¬¡": 3131,
      "Ġå®¤": 3132,
      "Ġä¸įæķ¢": 3133,
      "ĠçĽĳçĭ±": 3134,
      "ĠåģļåĪ°": 3135,
      "Ġæ²ī": 3136,
      "ĠæĤ£": 3137,
      "é¦ĸ": 3138,
      "é¢Ĩ": 3139,
      "ĠåĲ¦åĪĻ": 3140,
      "æīĵ": 3141,
      "Ġåī¯": 3142,
      "ĠæĳĦ": 3143,
      "æĽ²": 3144,
      "Ġæľ¨": 3145,
      "åĳĺä¼ļ": 3146,
      "Ġå·ŀ": 3147,
      "Ġçħ§é¡¾": 3148,
      "ç»ª": 3149,
      "Ġæ··èĽĭ": 3150,
      "Ġèĥľ": 3151,
      "Ġå¿ĥçĲĨ": 3152,
      "Ġè¿Ŀ": 3153,
      "Ġå°ģ": 3154,
      "æ±ł": 3155,
      "æģĭ": 3156,
      "ĠæĬķèµĦèĢħ": 3157,
      "ĠçĹĽèĭ¦": 3158,
      "ĠåŁºéĩĳ": 3159,
      "æĮ¥": 3160,
      "çĤ¸": 3161,
      "Ġå¤ªéĺ³": 3162,
      "æ²³": 3163,
      "ªĴä½ĵ": 3164,
      "Ġçħ": 3165,
      "çĪ¶": 3166,
      "ĠæĶ¹éĿ©": 3167,
      "åĪĿ": 3168,
      "éĿł": 3169,
      "Ġè®¡ç®Ĺ": 3170,
      "Ġä¸¹": 3171,
      "Ġåħ¬åħ±": 3172,
      "Ġéķĩ": 3173,
      "æ¹¾": 3174,
      "Ġåħ³å¿ĥ": 3175,
      "æĭīåħĭ": 3176,
      "Ġåı¯ä¸į": 3177,
      "Ġè½¯": 3178,
      "ĠçĶµåŃĲ": 3179,
      "ĠèĢĮæĺ¯": 3180,
      "Ġèįī": 3181,
      "ĠæĢĢçĸĳ": 3182,
      "Ġåģı": 3183,
      "èıľ": 3184,
      "ĠåºŁ": 3185,
      "Ġåī©": 3186,
      "éª¨": 3187,
      "ç¿°": 3188,
      "Ġåı¯çĪ±": 3189,
      "Ġé±¼": 3190,
      "é»ĺ": 3191,
      "è½®": 3192,
      "ĠæĹħè¡Į": 3193,
      "ĠæĹģ": 3194,
      "Ġæ²³": 3195,
      "ĠæĶ¶åĪ°": 3196,
      "ĠæŃ¦åĻ¨": 3197,
      "ĠèĹı": 3198,
      "ĠâĢ¢": 3199,
      "æĸ¯åĿ¦": 3200,
      "Ġæ£Ĵ": 3201,
      "Ġè®Ńç»ĥ": 3202,
      "Ġä¸Ģæ®µ": 3203,
      "Ġä¸Ģéĥ¨åĪĨ": 3204,
      "Ġå¥ĸ": 3205,
      "Ġå¯»æī¾": 3206,
      "ç¬Ķ": 3207,
      "Ġç¨İ": 3208,
      "ĠæĬ¥éģĵ": 3209,
      "ĠæŃ£ç¡®": 3210,
      "éĹŃ": 3211,
      "è´µ": 3212,
      "è¯ŀ": 3213,
      "Ġåħ³æ³¨": 3214,
      "è¡Ĺ": 3215,
      "é£ŀ": 3216,
      "¢å¤į": 3217,
      "ĠæĪĲåĳĺ": 3218,
      "Ġæ¯ķ": 3219,
      "èµĸ": 3220,
      "æĭħ": 3221,
      "ĠèµĽ": 3222,
      "Ġä¸ĵå®¶": 3223,
      "Ġé¡¾": 3224,
      "ĠçĶľ": 3225,
      "Ġåĵªä¸ª": 3226,
      "Ġæī§è¡Į": 3227,
      "ĠåĪ¤": 3228,
      "Ġæ®ĭ": 3229,
      "äºĪ": 3230,
      "ä¸ģ": 3231,
      "ĠéľĢæ±Ĥ": 3232,
      "ĠæķĮ": 3233,
      "Ġè°ĭæĿĢ": 3234,
      "ĠæĤ²": 3235,
      "Ġæĺ¾çĦ¶": 3236,
      "åĮ»": 3237,
      "èŃ¦": 3238,
      "ĠçĶµèĦĳ": 3239,
      "ĠèĤī": 3240,
      "å½©": 3241,
      "çĿ£": 3242,
      "¹ģ": 3243,
      "Ġé²": 3244,
      "èĥľ": 3245,
      "éĥ": 3246,
      "éķľ": 3247,
      "Ġè¾¾åĪ°": 3248,
      "Ġæİ¥ä¸ĭæĿ¥": 3249,
      "ĠéĹŃ": 3250,
      "Ġåį±æľº": 3251,
      "Ġä¼¦æķ¦": 3252,
      "Ġåĺ´": 3253,
      "éģĩ": 3254,
      "Ġå°ıåŃ©": 3255,
      "èĭ±": 3256,
      "åĬ±": 3257,
      "ĠåĬĽéĩı": 3258,
      "Ġæµĭè¯ķ": 3259,
      "è®¿": 3260,
      "ĠçĹħäºº": 3261,
      "Ġé¼ĵ": 3262,
      "ĠçļĦç¡®": 3263,
      "ĠçĬ¯ç½ª": 3264,
      "æĢĴ": 3265,
      "Ġä¸»æĦı": 3266,
      "ĠèĮĥåĽ´": 3267,
      "æĭ¿": 3268,
      "ĠåĢ¾": 3269,
      "Ġèº«ä»½": 3270,
      "Ġæģ¢å¤į": 3271,
      "Ġé¥®": 3272,
      "ĠèĳĹ": 3273,
      "Ġæĸ½": 3274,
      "Ġèµŀ": 3275,
      "ä»ĭ": 3276,
      "èĦ±": 3277,
      "Ġèĭ¥": 3278,
      "åģļ": 3279,
      "ĠéĽ¶": 3280,
      "åĬ³": 3281,
      "é½": 3282,
      "ĠæŁĲäºĽ": 3283,
      "ç³Ł": 3284,
      "çĳŀ": 3285,
      "ç»į": 3286,
      "Ġè¿ĺå¥½": 3287,
      "åİŁ": 3288,
      "ĠåıĹå®³": 3289,
      "çľģ": 3290,
      "Ġæ´¾å¯¹": 3291,
      "è¿«": 3292,
      "è®¨": 3293,
      "ĠçĲĨçĶ±": 3294,
      "Ġéĺ´": 3295,
      "æĢĸ": 3296,
      "Ġçĥ§": 3297,
      "ĠåĸĶ": 3298,
      "Ġé£Łåĵģ": 3299,
      "Ġåıĳèªĵ": 3300,
      "æĥ¯": 3301,
      "Ġæĥ³æĥ³": 3302,
      "æ¶²": 3303,
      "Ġå¤§éĥ¨åĪĨ": 3304,
      "Ġè´£ä»»": 3305,
      "ĠåŁ¹": 3306,
      "æĬĬ": 3307,
      "·æ¬¾": 3308,
      "Ġåħħæ»¡": 3309,
      "å²¸": 3310,
      "ĠæĶ»åĩ»": 3311,
      "è´Ń": 3312,
      "ĠæĶ¾æĿ¾": 3313,
      "å°½": 3314,
      "ĠèµĮ": 3315,
      "Ġè¿Ļä½į": 3316,
      "çİ¯": 3317,
      "Ġéķ¿æľŁ": 3318,
      "Ġçľĭä¸į": 3319,
      "Ġä¹ł": 3320,
      "Ġå¼Ģçİ©": 3321,
      "èĦļ": 3322,
      "Ġä¸ĢæĹ¦": 3323,
      "Ġç¨į": 3324,
      "Ġå¼Ģçİ©ç¬ĳ": 3325,
      "Ġä¿Ħç½Ĺæĸ¯": 3326,
      "Ġéļ¾ä»¥": 3327,
      "Ġå¼¹": 3328,
      "ĠéĶĢåĶ®": 3329,
      "å·®": 3330,
      "ĠåĵŃ": 3331,
      "Ġçł´åĿı": 3332,
      "èĤ¯": 3333,
      "ĠéĿ¢ä¸´": 3334,
      "è¿·": 3335,
      "ĠåĮĹäº¬": 3336,
      "Ġæ´»çĿĢ": 3337,
      "Ġå±ŀäºİ": 3338,
      "ĠåĮºåŁŁ": 3339,
      "ä½³": 3340,
      "èĻ«": 3341,
      "çīĪ": 3342,
      "ĠèģĬ": 3343,
      "Ġç£": 3344,
      "Ġå¸ķ": 3345,
      "Ġå¤ļä¹ħ": 3346,
      "æĬĹ": 3347,
      "Ġå¿ĥèĦı": 3348,
      "ĠæģĲæĢĸ": 3349,
      "Ġå½¢æĪĲ": 3350,
      "Ġç¨³å®ļ": 3351,
      "ĠçĬ¹": 3352,
      "ĠåĨħå®¹": 3353,
      "é¼ł": 3354,
      "åĮĹ": 3355,
      "ĠåªĴä½ĵ": 3356,
      "ĠéĻ·": 3357,
      "Ġè¯Ńè¨Ģ": 3358,
      "ĠæĬĺ": 3359,
      "Ġåĳ¼åĲ": 3360,
      "å°¼äºļ": 3361,
      "ĠåıĬåħ¶": 3362,
      "Ġæĥ³åĪ°": 3363,
      "Ġå¼Ģæŀª": 3364,
      "æĥĬ": 3365,
      "Ġå¿«ä¹Ĳ": 3366,
      "Ńåĩ»": 3367,
      "Ġæ¬¡": 3368,
      "ĠéĿ¢åīį": 3369,
      "Ġåľ£è¯ŀ": 3370,
      "æĿĲ": 3371,
      "ĠéĢŁ": 3372,
      "Ġé¢ĨåŁŁ": 3373,
      "éĻĨ": 3374,
      "ç§»": 3375,
      "Ġæ¡Į": 3376,
      "Ġè¿Ł": 3377,
      "Ġæ»ĳ": 3378,
      "Ġå¤«äºº": 3379,
      "Ġå¼Ģè½¦": 3380,
      "Ġä¸įå¥½æĦıæĢĿ": 3381,
      "Ġä¸ĵä¸ļ": 3382,
      "Ġæ¤į": 3383,
      "Ġæ¾": 3384,
      "Ġæµ´": 3385,
      "Ġéª¨": 3386,
      "éŃĤ": 3387,
      "Ġä¸įå¤Ł": 3388,
      "ĠæľīæĹ¶åĢĻ": 3389,
      "Ġé¬¼": 3390,
      "Ġä¹±": 3391,
      "è·ĳ": 3392,
      "ĠæĴŀ": 3393,
      "åĨĻ": 3394,
      "å¹ħ": 3395,
      "Ġå¼Ģåıĳ": 3396,
      "Ġè¥¿æĸ¹": 3397,
      "ĠåĨįè¯´": 3398,
      "è°ĵ": 3399,
      "å¦ĩ": 3400,
      "ĠåĲ¹": 3401,
      "Ġå§Ķåĳĺä¼ļ": 3402,
      "Ġå±ģ": 3403,
      "ĠåĽłç´ł": 3404,
      "çĺ": 3405,
      "Ġä½¿å¾Ĺ": 3406,
      "Ġå°Ħ": 3407,
      "Ġåįıè®®": 3408,
      "Ġèī¯": 3409,
      "Ġç»ĵæŀĦ": 3410,
      "Ġè¯¥æŃ»": 3411,
      "Ġå°Ŀè¯ķ": 3412,
      "Ġåıĭ": 3413,
      "Ġè¯º": 3414,
      "Ġæ¶Īå¤±": 3415,
      "æĭľ": 3416,
      "æĵ": 3417,
      "é¥¼": 3418,
      "åł¡": 3419,
      "é¡¶": 3420,
      "ĠåĨĽéĺŁ": 3421,
      "Ġå¤įæĿĤ": 3422,
      "Ġä¿ĥ": 3423,
      "ĠæĮĤ": 3424,
      "Ġç¨ĭåº¦": 3425,
      "Ġä»ĭç»į": 3426,
      "æ·±": 3427,
      "ĠæľºåĻ¨": 3428,
      "ĠèµĦæľ¬": 3429,
      "æ¯Ľ": 3430,
      "Ġåĩ¶æīĭ": 3431,
      "Ġçº¦ç¿°": 3432,
      "Ġç»ıè¿ĩ": 3433,
      "Ġæ±ī": 3434,
      "Ġé¡¶": 3435,
      "çģŃ": 3436,
      "Ġæ¯«æĹł": 3437,
      "Ġä»İæľª": 3438,
      "èįī": 3439,
      "åĩł": 3440,
      "Ġå·¥ç¨ĭ": 3441,
      "Ġæ²¡äºº": 3442,
      "Ġå«Į": 3443,
      "å¸®": 3444,
      "Ġé«ĺéĢŁ": 3445,
      "Ġä¿¡ä»»": 3446,
      "Ġç¥ŀç»ı": 3447,
      "å¥ĭ": 3448,
      "ĠèĢģæĿ¿": 3449,
      "ĠæĿĥåĪ©": 3450,
      "Ġè¿Ī": 3451,
      "ç¼©": 3452,
      "æĦ": 3453,
      "éĢĶ": 3454,
      "Ġç¾¤": 3455,
      "é©¶": 3456,
      "Ġæľ¬æĿ¥": 3457,
      "Ġæŀľ": 3458,
      "Ġèİ±": 3459,
      "ä½Ļ": 3460,
      "ĠåĽ½åĨħ": 3461,
      "Ġæ°´å¹³": 3462,
      "Ġä¼Ĺ": 3463,
      "èģĬ": 3464,
      "ĠæĢİä¹ĪåĽŀäºĭ": 3465,
      "Ġåĩłå¤©": 3466,
      "Ġçĭ¬ç«ĭ": 3467,
      "Ġä¸Ķ": 3468,
      "ĠæĻ®éĢļ": 3469,
      "Ġç»¿": 3470,
      "ĠéĢĤåĲĪ": 3471,
      "ĠæĽ¼": 3472,
      "çĭĹ": 3473,
      "ĠèĢĮè¨Ģ": 3474,
      "ç¾": 3475,
      "Ġè§ĤçĤ¹": 3476,
      "ĠçĿ¡è§ī": 3477,
      "æľ¨": 3478,
      "è¯¾": 3479,
      "è®Ń": 3480,
      "ĠæĢĿæĥ³": 3481,
      "ĠéģĩåĪ°": 3482,
      "Ġè§Ĥå¯Ł": 3483,
      "Ġæĸ¹åĲĳ": 3484,
      "Ġè®¾å¤ĩ": 3485,
      "Ġç©Ĩ": 3486,
      "Ġç±»ä¼¼": 3487,
      "Ġè´¸æĺĵ": 3488,
      "Ġè°·": 3489,
      "Ġä¼°": 3490,
      "Ġéªĳ": 3491,
      "Ġè¯´æĺİ": 3492,
      "Ġè´¢æĶ¿": 3493,
      "ä»Ģ": 3494,
      "æ¦Ĥ": 3495,
      "ç£": 3496,
      "åĩºåİ»": 3497,
      "ĻĮ": 3498,
      "Ġçºª": 3499,
      "Ġåĭĩ": 3500,
      "æłĳ": 3501,
      "éĽ¨": 3502,
      "åĩĢ": 3503,
      "ĠæŀĦ": 3504,
      "Ġåĩ»": 3505,
      "Ġä¸ºä½ķ": 3506,
      "Ġå¢¨": 3507,
      "Ġåħ±åĲĮ": 3508,
      "æ¯ģ": 3509,
      "è¯Ħ": 3510,
      "Ġå»¶": 3511,
      "ĠæĿ¡ä»¶": 3512,
      "ĠæĦıå¤§åĪ©": 3513,
      "Ġå¯Ħ": 3514,
      "Ġå¦Ĥä»Ĭ": 3515,
      "Ġæıı": 3516,
      "èī¯": 3517,
      "ä¸ĸçķĮ": 3518,
      "ĠæĮĳæĪĺ": 3519,
      "ĠåĽ°éļ¾": 3520,
      "Ġä¼Ł": 3521,
      "ĠçķĻåľ¨": 3522,
      "ĠæľŁéĹ´": 3523,
      "é¾Ļ": 3524,
      "ĠçľŁå®ŀ": 3525,
      "ĠæĹ¶ä»£": 3526,
      "ĠçĨŁ": 3527,
      "Ġå®Ĺ": 3528,
      "åľ¾": 3529,
      "ĥåľ¾": 3530,
      "ĠèĩªæĪĳ": 3531,
      "å¦Ļ": 3532,
      "ĠåĲ¬è§ģ": 3533,
      "æ¢¦": 3534,
      "Ġçİ°å®ŀ": 3535,
      "Ġå¤´åıĳ": 3536,
      "åģľ": 3537,
      "Ġç¡¬": 3538,
      "Ġä¸ļåĬ¡": 3539,
      "ĠèµĦäº§": 3540,
      "å±ĭ": 3541,
      "Ġæİªæĸ½": 3542,
      "ĠèĢ³": 3543,
      "åħŃ": 3544,
      "ĠçĦ": 3545,
      "Ġè½®": 3546,
      "Ġåŀĥåľ¾": 3547,
      "ĠåĤ¨": 3548,
      "Ġç´¢": 3549,
      "Ġç¬¬ä¸Ģä¸ª": 3550,
      "Ġä½Ľ": 3551,
      "ĠéĤ®": 3552,
      "é¹": 3553,
      "åĬ²": 3554,
      "ĠçľĭæĿ¥": 3555,
      "ĠæŃ¥": 3556,
      "ĠæŃ£æĺ¯": 3557,
      "Ġå¾Īæ£Ĵ": 3558,
      "ä¸ĢæŃ¥": 3559,
      "Ġè¯į": 3560,
      "Ġä¹ĺ": 3561,
      "Ġç¡®ä¿Ŀ": 3562,
      "ĠèģĮä¸ļ": 3563,
      "ĠèĴĻ": 3564,
      "ĠèĵĿ": 3565,
      "ĠçĶ·åŃ©": 3566,
      "Ġéĥ¨éĹ¨": 3567,
      "ĠåıĹä¼¤": 3568,
      "Ġè¢Ńåĩ»": 3569,
      "ĠèĪĴéĢĤ": 3570,
      "æİĪ": 3571,
      "ĳå¨ĺ": 3572,
      "åŀ": 3573,
      "Ġæķ£": 3574,
      "è®²": 3575,
      "Ġç»ıéªĮ": 3576,
      "Ġç©¿çĿĢ": 3577,
      "æĻº": 3578,
      "ĠèĻļ": 3579,
      "Ġæ¢ħ": 3580,
      "å¾®": 3581,
      "ç³»ç»Ł": 3582,
      "Ġä»ħä»ħ": 3583,
      "ĠéĢīä¸¾": 3584,
      "çĵľ": 3585,
      "ĠåĪ«è¯´": 3586,
      "Ġä»¥èī²": 3587,
      "Ġè´Ńä¹°": 3588,
      "è®¯": 3589,
      "ĠçŃĸ": 3590,
      "Ġäºĭå®ŀä¸Ĭ": 3591,
      "ä¿®": 3592,
      "ĠæĪĲæľ¬": 3593,
      "ĠæĹ¥åŃĲ": 3594,
      "Ġä¾ĭå¦Ĥ": 3595,
      "ç¯": 3596,
      "Ġä»¥èī²åĪĹ": 3597,
      "å¾Ħ": 3598,
      "é¾Ħ": 3599,
      "èľ": 3600,
      "ĠåĮ»çĸĹ": 3601,
      "åĩı": 3602,
      "Ġä¸įå¤ª": 3603,
      "Ġäºļæ´²": 3604,
      "å¿ĺ": 3605,
      "Ġå¹¿åĳĬ": 3606,
      "åĳ¼": 3607,
      "Ġèŀį": 3608,
      "Ġçĸ¯çĭĤ": 3609,
      "éķĩ": 3610,
      "Ġçĩĥ": 3611,
      "Ġæ²¿": 3612,
      "Ġå¿ĺè®°": 3613,
      "å¥¥": 3614,
      "Ġç®ĢçĽ´": 3615,
      "ĠéĻĲåĪ¶": 3616,
      "Ġè´§å¸ģ": 3617,
      "æ¡£": 3618,
      "å¤®": 3619,
      "æĿĳ": 3620,
      "Ġç»ĳ": 3621,
      "å¦®": 3622,
      "ç¤¾": 3623,
      "è¡¡": 3624,
      "ĠæĹ¶æľŁ": 3625,
      "Ġé¦ĸåħĪ": 3626,
      "Ġä¸ĢåĿĹ": 3627,
      "Ġèº«è¾¹": 3628,
      "Ġæ¬¢è¿İ": 3629,
      "Ġå®Ī": 3630,
      "Ġç³ĸ": 3631,
      "ĠçĶ³è¯·": 3632,
      "Ġè´·æ¬¾": 3633,
      "Ġèĭ±è¯Ń": 3634,
      "ĠçŁ³æ²¹": 3635,
      "ç«Ł": 3636,
      "èı²": 3637,
      "é¥°": 3638,
      "Ġæ¨¡å¼ı": 3639,
      "Ġç»Īäºİ": 3640,
      "ĠæĶ¶åħ¥": 3641,
      "ĠäººçĶŁ": 3642,
      "è¯ļ": 3643,
      "äº«": 3644,
      "ĠæĦıè§ģ": 3645,
      "ĠåĦ¿ç«¥": 3646,
      "åħ¹": 3647,
      "ĠæĦŁåıĹ": 3648,
      "Ġäººå£«": 3649,
      "å¹ķ": 3650,
      "ĠåĲ¯": 3651,
      "Ŀç¦»": 3652,
      "æı¡": 3653,
      "ĠåĪ¶åº¦": 3654,
      "Ġåıĸå¾Ĺ": 3655,
      "Ġæ©": 3656,
      "ĠçĥŁ": 3657,
      "ĠèĢģå¸Ī": 3658,
      "ĠæŀĹ": 3659,
      "Ġæķ°åŃĹ": 3660,
      "ĠæľīæīĢ": 3661,
      "åĮĻ": 3662,
      "åŃ©åŃĲ": 3663,
      "Ġå¹¸è¿Ĳ": 3664,
      "ĠåİŁæĿ¥": 3665,
      "Ġä¸¾è¡Į": 3666,
      "åħĦ": 3667,
      "Ġåģ¶": 3668,
      "çŀ": 3669,
      "ĠæĬĽ": 3670,
      "æĶ¹": 3671,
      "ä¸Ńå¿ĥ": 3672,
      "ĠæĿ¥åĪ°": 3673,
      "Ġé¦Ļæ¸¯": 3674,
      "Ġè¾©": 3675,
      "è¾ĵ": 3676,
      "¤ħ": 3677,
      "ä¸įå¤ļ": 3678,
      "Ġè®¾æĸ½": 3679,
      "ĠæĢģ": 3680,
      "Ġèµļ": 3681,
      "ĠçŁ¥è¯Ĩ": 3682,
      "Ġè¡Įä¸ļ": 3683,
      "ĠæĪĴ": 3684,
      "æİ¢": 3685,
      "Ġåĩłå¹´": 3686,
      "ĠéĢ¼": 3687,
      "éģ¿": 3688,
      "Ġè§Ĵèī²": 3689,
      "ĠçŃĶæ¡Ī": 3690,
      "ĠèµĦæºĲ": 3691,
      "ĠåºĨ": 3692,
      "Ġå¼Ł": 3693,
      "ĠæĿ¥çľĭ": 3694,
      "Ġå§Ĳ": 3695,
      "Ġåī§": 3696,
      "äººåĳĺ": 3697,
      "ĠçĭĤ": 3698,
      "Ġåħ¬åĽŃ": 3699,
      "Ġè¿ª": 3700,
      "ĠçĶŁæ°Ķ": 3701,
      "ĠéħĴåĲ§": 3702,
      "Ġèº²": 3703,
      "ĠçĶ¨æĿ¥": 3704,
      "Ġæī¿è¯º": 3705,
      "Ġå»ºè®¾": 3706,
      "Ġèı²": 3707,
      "åĪ©äºļ": 3708,
      "Ġä¸ĭéĿ¢": 3709,
      "ĠèĮ¶": 3710,
      "éĽħ": 3711,
      "ä¼°": 3712,
      "å¤§åŃ¦": 3713,
      "Ġåĳ³": 3714,
      "è£Ĥ": 3715,
      "ĠåľŁåľ°": 3716,
      "Ġå®£å¸ĥ": 3717,
      "èıĮ": 3718,
      "ĠæĿĢäºº": 3719,
      "åħĭæĸ¯": 3720,
      "Ġåºķ": 3721,
      "ä¸įè¿ĩ": 3722,
      "ĠçīĻ": 3723,
      "çı": 3724,
      "çĵ¦": 3725,
      "å·§": 3726,
      "åłĨ": 3727,
      "ç²¾": 3728,
      "Ġéľ²": 3729,
      "Ġåİ¨": 3730,
      "Ġä¸ĢåįĬ": 3731,
      "çģ¯": 3732,
      "ĠåºĶå½ĵ": 3733,
      "ĠæĮĩåĩº": 3734,
      "ĠæĹ©å°±": 3735,
      "Ġä¹łæĥ¯": 3736,
      "åĪĨä¹ĭ": 3737,
      "ĠåĬŁèĥ½": 3738,
      "Ġç¤¼çī©": 3739,
      "éľĢ": 3740,
      "ĠçĶ¨äºİ": 3741,
      "Ġçĺ": 3742,
      "Ġæ²ĥ": 3743,
      "æĢľ": 3744,
      "Ġç¨ĭåºı": 3745,
      "Ġå¾Īéļ¾": 3746,
      "ĠåĪ°è¾¾": 3747,
      "Ġæĺ¯ä»İ": 3748,
      "Ġå®ŀåľ¨": 3749,
      "ĠæĿ°åħĭ": 3750,
      "åįļ": 3751,
      "èĦī": 3752,
      "æ®Ĭ": 3753,
      "ĠçıŃ": 3754,
      "Ġå¤§æ¦Ĥ": 3755,
      "ç§Ģ": 3756,
      "ĠæľĢé«ĺ": 3757,
      "Ġå²Ľ": 3758,
      "Ġä¼Łå¤§": 3759,
      "Ġæ³¡": 3760,
      "èĳĹ": 3761,
      "éĽĦ": 3762,
      "ĠéĢĲ": 3763,
      "Ġè®¢": 3764,
      "Ġåģľè½¦": 3765,
      "åŃķ": 3766,
      "å¯¸": 3767,
      "Ġæ¬§åħĥ": 3768,
      "Ġåįļå£«": 3769,
      "ĠèģĶéĤ¦": 3770,
      "ĠåĢºåĬ¡": 3771,
      "ĠåĽº": 3772,
      "ĠæĸŃ": 3773,
      "æ¸Ĳ": 3774,
      "Ġå¤ĸåĽ½": 3775,
      "å®ľ": 3776,
      "Ġä¸Ĭåİ»": 3777,
      "Ġé¢Ŀ": 3778,
      "Ġèµ¢å¾Ĺ": 3779,
      "ĠéŁ¦æĸ¯çī¹": 3780,
      "ĠæıĴ": 3781,
      "æĢİ": 3782,
      "Ġèį£": 3783,
      "æ½": 3784,
      "ĠéĤ»": 3785,
      "Ġä¹Ŀ": 3786,
      "åĢį": 3787,
      "æ³³": 3788,
      "Ġä¾ĽåºĶ": 3789,
      "Ġè¿ħ": 3790,
      "Ġç¥Ŀ": 3791,
      "ĠéĻįä½İ": 3792,
      "Ġåı¯æĢķ": 3793,
      "ĠéĢļçŁ¥": 3794,
      "ĠçĬ¶æĢģ": 3795,
      "èħĬ": 3796,
      "çīĽ": 3797,
      "ĠæĴ¤": 3798,
      "Ġäººåı£": 3799,
      "Ġå©ļç¤¼": 3800,
      "ĠçĶŁæĦı": 3801,
      "ĠåĨĽäºĭ": 3802,
      "Ġç²ī": 3803,
      "çĨŁ": 3804,
      "æĲ": 3805,
      "ĠéĹª": 3806,
      "Ġç¬Ķ": 3807,
      "ĠéĤĢ": 3808,
      "ĠéĢ®": 3809,
      "èīº": 3810,
      "Ġåħ´è¶£": 3811,
      "ĠæĿ¾": 3812,
      "Ġé©¾": 3813,
      "¥åĮĻ": 3814,
      "ĠåĪ°å¤Ħ": 3815,
      "ĠçĬ¶åĨµ": 3816,
      "Ġæ¯ıå¹´": 3817,
      "Ġä¹ħ": 3818,
      "Ġè¿Ļé¡¹": 3819,
      "Ġçī¹æ®Ĭ": 3820,
      "æĥ§": 3821,
      "çĶµè§Ĩ": 3822,
      "ĠæķĪæŀľ": 3823,
      "åı¤": 3824,
      "Ġéĺ¶": 3825,
      "ĠåŃĲå¼¹": 3826,
      "Ġéģ¿åħį": 3827,
      "èĽ": 3828,
      "ĠæĿĳ": 3829,
      "åħ«": 3830,
      "Ġä¸įå¦Ĥ": 3831,
      "éĵģ": 3832,
      "æ¤į": 3833,
      "ĠèŃ¦åĳĬ": 3834,
      "Ġå¤Ħäºİ": 3835,
      "ä¼ĳ": 3836,
      "ĠæĦļ": 3837,
      "Ġä¸įå¿ħ": 3838,
      "ä¹ı": 3839,
      "éĢĬ": 3840,
      "ĠæŁĲç§į": 3841,
      "Ġå¥½å¤ļ": 3842,
      "ĠçĪĨçĤ¸": 3843,
      "Ġçľĭè¿ĩ": 3844,
      "ä¸ĭåİ»": 3845,
      "ĠåĿ¦": 3846,
      "Ġè¿Ļäºĭ": 3847,
      "æ¸©": 3848,
      "ĠçĽĸ": 3849,
      "ĠæĢģåº¦": 3850,
      "Ġå¦¹": 3851,
      "æļĹ": 3852,
      "Ġä¸Ģä¼ļåĦ¿": 3853,
      "ĠåºĹ": 3854,
      "Ġåı¯ä¸įæĺ¯": 3855,
      "Ġå½¼": 3856,
      "Ġè¨Ģ": 3857,
      "Ġåħĥ": 3858,
      "ĠåĽ´": 3859,
      "ĠæļĤ": 3860,
      "èł¢": 3861,
      "ĠéĴ¥åĮĻ": 3862,
      "Ġè´Ŀæĸ¯çī¹": 3863,
      "Ġå®ŀæĸ½": 3864,
      "çº¢": 3865,
      "éº»": 3866,
      "Ġæµªè´¹": 3867,
      "èĸ": 3868,
      "Ġç¹ģ": 3869,
      "Ġåĳ½ä»¤": 3870,
      "Ġå·®ä¸įå¤ļ": 3871,
      "Ġå·¥åħ·": 3872,
      "Ġå¹´ä»£": 3873,
      "éħ¸": 3874,
      "ĠåĪºæ¿Ģ": 3875,
      "Ġå¹¶éĿŀ": 3876,
      "Ġæĥ¹": 3877,
      "Ġç¾İä¸½": 3878,
      "Ġä¸Ģè¾Ĩ": 3879,
      "éĨī": 3880,
      "Ġä¸ĭéĻį": 3881,
      "ĠéĨĴ": 3882,
      "åĢº": 3883,
      "Ġæĥħç»ª": 3884,
      "ä½Ľ": 3885,
      "éħ·": 3886,
      "ĠæĬķç¥¨": 3887,
      "Ġç¼ĵ": 3888,
      "æ±Ĺ": 3889,
      "Ġå·§": 3890,
      "Ġè´«": 3891,
      "Ġå¤§çº¦": 3892,
      "Ġåĵĩ": 3893,
      "Ġæ»ļ": 3894,
      "Ġåĩºåıĳ": 3895,
      "Ġæ»¡è¶³": 3896,
      "Ġçļĩ": 3897,
      "Ġç§ĳåŃ¦å®¶": 3898,
      "ĠéĢŁåº¦": 3899,
      "èµı": 3900,
      "æ´ģ": 3901,
      "ĠåĬ©": 3902,
      "åĽ°": 3903,
      "Ġå¿į": 3904,
      "Ġæ±¡": 3905,
      "Ġæ³ķå®ĺ": 3906,
      "ĠæľīçĿĢ": 3907,
      "ĠäºĴèģĶ": 3908,
      "Ġä½ľåĵģ": 3909,
      "Ġèī²": 3910,
      "å¯ĵ": 3911,
      "Ġåĳ¨åĽ´": 3912,
      "è§¦": 3913,
      "å®«": 3914,
      "åı¶": 3915,
      "Ġä¹Į": 3916,
      "Ġéĺ¿æĭī": 3917,
      "ĠåĨ°ç®±": 3918,
      "èĥİ": 3919,
      "ĠéĴĪå¯¹": 3920,
      "Ġä¸Ģè¾¹": 3921,
      "Ġåı¦ä¸Ģ": 3922,
      "æ¶Īæģ¯": 3923,
      "Ġéĥ": 3924,
      "ĠèµĦæĸĻ": 3925,
      "ĠéŁ©": 3926,
      "Ġåħļ": 3927,
      "Ġå·¥ä¸ļ": 3928,
      "åĨ²": 3929,
      "Ġèĥ¸": 3930,
      "Ġç½ĳç«Ļ": 3931,
      "Ġè¿Ľä¸ĢæŃ¥": 3932,
      "ĠåĿĩ": 3933,
      "Ġè¯ķè¯ķ": 3934,
      "Ġæ²¡æ³ķ": 3935,
      "è½½": 3936,
      "Ġè®°å¿Ĩ": 3937,
      "çĻ»": 3938,
      "çªģ": 3939,
      "Ġåħ¬å¯ĵ": 3940,
      "Ġæ¢¦æĥ³": 3941,
      "Ġæİ¥è¿ĳ": 3942,
      "ĠéĽª": 3943,
      "çĳŁ": 3944,
      "ĠçĮ«": 3945,
      "Ġçº¸": 3946,
      "Ġåı¯æĢľ": 3947,
      "ĠéĶģ": 3948,
      "Ġå¤ªå¤ª": 3949,
      "Ġçľģ": 3950,
      "Ġå¦ĩ": 3951,
      "Ġæ£®": 3952,
      "å§»": 3953,
      "è´Ł": 3954,
      "éĢı": 3955,
      "Ġç«Ł": 3956,
      "Ġè®¤çľŁ": 3957,
      "Ġæ±ĩ": 3958,
      "Ġä¾ĿçĦ¶": 3959,
      "Ġå¤§èĦĳ": 3960,
      "ç½ļ": 3961,
      "æĹ§": 3962,
      "è¿ĩæĿ¥": 3963,
      "è°ħ": 3964,
      "ĠåĸĦ": 3965,
      "éĵ¶è¡Į": 3966,
      "åį±": 3967,
      "ĠåĨħéĥ¨": 3968,
      "ĠæĴĴè°İ": 3969,
      "æĻ¨": 3970,
      "Ġå®īéĿĻ": 3971,
      "Ġåıªä¼ļ": 3972,
      "¤éħĴ": 3973,
      "ĠåįİçĽĽ": 3974,
      "Ġä¾µ": 3975,
      "ĠèĢģå©Ĩ": 3976,
      "¾çĹħ": 3977,
      "é»İ": 3978,
      "ĠæĹ¢çĦ¶": 3979,
      "ĠåįİçĽĽé¡¿": 3980,
      "Ġåĵ¥ä»¬": 3981,
      "Ġä¹ĭä¸Ń": 3982,
      "ĠæĿİ": 3983,
      "è£ģ": 3984,
      "ĠèĨ": 3985,
      "Ġæ¦Ĥ": 3986,
      "Ġå¿«éĢŁ": 3987,
      "åı³": 3988,
      "Ġæľºåľº": 3989,
      "Ġå½¢å¼ı": 3990,
      "çĮ®": 3991,
      "Ġèıľ": 3992,
      "ĠéĤĢè¯·": 3993,
      "ĠäºĴèģĶç½ĳ": 3994,
      "Ġå®ĹæķĻ": 3995,
      "Ġä¸Ģå¤§": 3996,
      "ĠåĽ¢éĺŁ": 3997,
      "Ġè®°èĢħ": 3998,
      "çĤī": 3999,
      "Ġå£«": 4000,
      "Ġè¿Ļåľº": 4001,
      "Ġåħ¨åĽ½": 4002,
      "Ġç¥ĸ": 4003,
      "ĠéĩĩçĶ¨": 4004,
      "Ġä¹Ķæ²»": 4005,
      "Ġå½»": 4006,
      "ĠéĽĨä¸Ń": 4007,
      "ä¿©": 4008,
      "²Į": 4009,
      "åĶ±": 4010,
      "ĠæĲŀå®ļ": 4011,
      "ĠæŁĲä¸ª": 4012,
      "Ġéŀĭ": 4013,
      "çľł": 4014,
      "åĿĢ": 4015,
      "Ġæ¬ł": 4016,
      "Ġåħ¬å¼Ģ": 4017,
      "Ġå¤ļä¹Ī": 4018,
      "ĠéĤ£æĹ¶": 4019,
      "Ġæĳĩ": 4020,
      "Ġé¸Ł": 4021,
      "Ġå¾ģ": 4022,
      "èĥĢ": 4023,
      "ĠåĿĹ": 4024,
      "ĠåĪĢ": 4025,
      "èĮĥ": 4026,
      "Ġèħ¿": 4027,
      "ĠæĬ¥çº¸": 4028,
      "èĲĦ": 4029,
      "ç§ģ": 4030,
      "Ġæ³ķåºŃ": 4031,
      "Ġç§Ł": 4032,
      "Ġåħ°": 4033,
      "Ġæł¡": 4034,
      "¡èĲĦ": 4035,
      "Ġåĸ·": 4036,
      "Ġæ¸¸æ³³": 4037,
      "Ġä¼´": 4038,
      "Ġè¿ħéĢŁ": 4039,
      "åģ¿": 4040,
      "æĢ¨": 4041,
      "ĠçľŁçĽ¸": 4042,
      "èĴĻ": 4043,
      "ĠåīĬ": 4044,
      "ç§Ł": 4045,
      "ĠçĽ¸å¯¹": 4046,
      "ĠæķĻæİĪ": 4047,
      "Ġæĸ°é²ľ": 4048,
      "Ġéĺ³": 4049,
      "½åŃĲ": 4050,
      "ĠæĻ¯": 4051,
      "Ġåħ±åĴĮ": 4052,
      "è¾ĳ": 4053,
      "ĠåĪ©çĽĬ": 4054,
      "å½Ĵ": 4055,
      "æµª": 4056,
      "ĠæĹħæ¸¸": 4057,
      "Ġä¸ĢæŃ¥": 4058,
      "Ġåĳ¼åĲ¸": 4059,
      "Ġå®ģ": 4060,
      "Ġçģ¯": 4061,
      "ĠçŃĶåºĶ": 4062,
      "å°¾": 4063,
      "æīİ": 4064,
      "Ġå¸ĮèħĬ": 4065,
      "Ġæ¯Ĵåĵģ": 4066,
      "èĪª": 4067,
      "ĠæľīéĻĲ": 4068,
      "Ġå¤ªæ£Ĵ": 4069,
      "Ġå©ļå§»": 4070,
      "Ġè·Ŀç¦»": 4071,
      "æ¯Ķäºļ": 4072,
      "åĽº": 4073,
      "æĳ©": 4074,
      "ç¢İ": 4075,
      "Ġç§»åĬ¨": 4076,
      "Ġå®ĩ": 4077,
      "è¾Ī": 4078,
      "ĠæĦŁæĥħ": 4079,
      "åĲ«": 4080,
      "Ġå§ĳå¨ĺ": 4081,
      "ĠèĩªæĿĢ": 4082,
      "Ġç»ıèĲ¥": 4083,
      "Ġåį·": 4084,
      "Ġç¯": 4085,
      "Ġå¤ªæ£ĴäºĨ": 4086,
      "Ġçıį": 4087,
      "Ġè¯¯": 4088,
      "Ġè·¯ä¸Ĭ": 4089,
      "ĠèĽ": 4090,
      "æĿī": 4091,
      "Ġæķ°éĩı": 4092,
      "Ġéľį": 4093,
      "ĠéģĵæŃī": 4094,
      "ä¸Ģä¸ĭ": 4095,
      "ç´¯": 4096,
      "Ġå¾Īå°ĳ": 4097,
      "Ġå¯¹æŃ¤": 4098,
      "ĠåĩºçĶŁ": 4099,
      "ç¼ĺ": 4100,
      "ĠåĲĮä¸Ģ": 4101,
      "åĪĳ": 4102,
      "Ġåħ¬å¹³": 4103,
      "è¡¥": 4104,
      "Ġè¥¿çıŃ": 4105,
      "Ġè¥¿çıŃçīĻ": 4106,
      "ĠåĻ¨": 4107,
      "Ġå¦¹å¦¹": 4108,
      "ĠåıĹå®³èĢħ": 4109,
      "æļ´": 4110,
      "ç§ĺ": 4111,
      "Ġä¼°è®¡": 4112,
      "ĠæĿĢæŃ»": 4113,
      "Ġç»ĥ": 4114,
      "ĠæĿĥåĬĽ": 4115,
      "åį°": 4116,
      "Ġäº¤ç»Ļ": 4117,
      "è¹": 4118,
      "ĠæĻļé¤Ĳ": 4119,
      "éĽª": 4120,
      "ĠæķĻåłĤ": 4121,
      "è´·": 4122,
      "ĠåĴĮå¹³": 4123,
      "åĲĦ": 4124,
      "Ġå¤±æľĽ": 4125,
      "Ġç¬¨": 4126,
      "Ġä¸įåľ¨": 4127,
      "é¢Ĺ": 4128,
      "Ġä»İèĢĮ": 4129,
      "ĠèĬĤçĽ®": 4130,
      "ĠæĶ¾ä¸ĭ": 4131,
      "ĠæĦ¤": 4132,
      "Ġå¢Ļ": 4133,
      "å³": 4134,
      "Ġå¿½": 4135,
      "ĠæĶ¯ä»ĺ": 4136,
      "æŀģäºĨ": 4137,
      "Ġç½¢": 4138,
      "Ġé¥¼": 4139,
      "Ġé¤Ĳåİħ": 4140,
      "Ġä¿¡åı·": 4141,
      "Ġæ¤įçī©": 4142,
      "æ¶¦": 4143,
      "Ġåıĳè¡¨": 4144,
      "Ġæ¶Īè´¹èĢħ": 4145,
      "Ġå°Ķ": 4146,
      "Ġæ±¤å§Ĩ": 4147,
      "æ±ī": 4148,
      "Ġåºĵ": 4149,
      "Ġè¡¨è¾¾": 4150,
      "Ġä¸Ĭåĳ¨": 4151,
      "è¥¿åĵ¥": 4152,
      "èĦ¸": 4153,
      "Ġæ¾³": 4154,
      "çº¹": 4155,
      "ĠæĪĺæĸĹ": 4156,
      "Ġåıªä¸įè¿ĩ": 4157,
      "ĠéĽĨåĽ¢": 4158,
      "Ġç²Ĺ": 4159,
      "ç³ĸ": 4160,
      "æ»©": 4161,
      "Ġåķ¤éħĴ": 4162,
      "Ġä¸Ńå¤®": 4163,
      "Ġç¬¦": 4164,
      "ĠæĮĸ": 4165,
      "Ġæİ©": 4166,
      "Ġçİ°åľº": 4167,
      "Ġåĵ¥åĵ¥": 4168,
      "ç§¯": 4169,
      "Ġåį§": 4170,
      "Ġæ¶ī": 4171,
      "Ġæĳĺ": 4172,
      "èİİ": 4173,
      "Ġä½ĵç³»": 4174,
      "ĠéĤ£å¤©": 4175,
      "Ġçº¯": 4176,
      "åį³": 4177,
      "ĠæĦıå¤ĸ": 4178,
      "åĿĩ": 4179,
      "Ġæī¾ä¸ª": 4180,
      "Ġçĸ¼": 4181,
      "ĠéĻĪ": 4182,
      "ĠéļĶ": 4183,
      "Ġä¿±ä¹Ĳ": 4184,
      "Ġä¿±ä¹Ĳéĥ¨": 4185,
      "ĠåĲĦä½į": 4186,
      "Ġèĳ¡èĲĦ": 4187,
      "Ġèį¯çī©": 4188,
      "æ¦": 4189,
      "Ġå·¥äºº": 4190,
      "åĨĮ": 4191,
      "Ġä¸¤å¹´": 4192,
      "Ġéħįæľī": 4193,
      "Ġç»Ĩèĥŀ": 4194,
      "æĢ§æģĭ": 4195,
      "ī´": 4196,
      "Ġç§¯æŀģ": 4197,
      "¹æŀľ": 4198,
      "Ġé£ŀè¡Į": 4199,
      "Ġè·ŁçĿĢ": 4200,
      "æı´": 4201,
      "Ġçĥ¦": 4202,
      "ĠæįŁå¤±": 4203,
      "Ġçĸ¾çĹħ": 4204,
      "Ġä½ĵèĤ²": 4205,
      "äºĴ": 4206,
      "Ġå°±è¡Į": 4207,
      "ĠåķĨåĵģ": 4208,
      "Ġåģļå¥½": 4209,
      "å°ģ": 4210,
      "è°·": 4211,
      "ĠéĿŀæ´²": 4212,
      "ĠæĪı": 4213,
      "Ġè®¿": 4214,
      "Ġå·¥åİĤ": 4215,
      "Ġèĭ¦": 4216,
      "Ġäº¤éĢļ": 4217,
      "èªī": 4218,
      "Ġçĵ¦": 4219,
      "ĠçĶ¨æĪ·": 4220,
      "åħ´è¶£": 4221,
      "Ġè¯Ĺ": 4222,
      "Ġä¸ŃéĹ´": 4223,
      "Ġèĭ¹æŀľ": 4224,
      "æĥľ": 4225,
      "Ġå¹´è½»äºº": 4226,
      "ĠåĲĥé¥Ń": 4227,
      "Ġè¿Ļè¾¹": 4228,
      "Ġå¿ł": 4229,
      "Ġåº·": 4230,
      "Ġåľ°ä½į": 4231,
      "é¢ĳ": 4232,
      "åĬ«": 4233,
      "æĥĳ": 4234,
      "Ġå·®çĤ¹": 4235,
      "Ġæ²¡æĥ³": 4236,
      "Ġå¤ļå¹´": 4237,
      "Ġèĥ½æºĲ": 4238,
      "Ġä¸įå°ĳ": 4239,
      "ĠåĲµ": 4240,
      "Ġåľ°ä¸ĭ": 4241,
      "Ġä¸ĭåįĪ": 4242,
      "ĠèĪĴæľį": 4243,
      "Ġæİ¢è®¨": 4244,
      "Ġéļ¾éģĵ": 4245,
      "Ġå¹»": 4246,
      "æĨ": 4247,
      "ĠéĴ¢": 4248,
      "Ġæ¹ĸ": 4249,
      "èĢ³": 4250,
      "Ġæī«": 4251,
      "Ġå¥½å¤Ħ": 4252,
      "Ġå¹²åĩĢ": 4253,
      "çİĽ": 4254,
      "Ġä¸Ģéģį": 4255,
      "Ġæ¬§çĽŁ": 4256,
      "ç½²": 4257,
      "Ġä¼ĬæľĹ": 4258,
      "ĠæĦī": 4259,
      "Ġé¾": 4260,
      "Ġåıĳåĩº": 4261,
      "Ġæľ¬æĸĩ": 4262,
      "Ġé©±": 4263,
      "éº¦": 4264,
      "éĺµ": 4265,
      "åĪĢ": 4266,
      "Ġå¤§åŀĭ": 4267,
      "ĠçĽ¯": 4268,
      "ĠæĢķ": 4269,
      "Ġå¸¸å¸¸": 4270,
      "Ġèī°": 4271,
      "ĠçĶŁæĹ¥": 4272,
      "Ġè¿Ļå®¶": 4273,
      "ĠåĬ³åĬ¨": 4274,
      "çŁ¶": 4275,
      "Ġé¢ľ": 4276,
      "ĠåİŁè°ħ": 4277,
      "å¿§": 4278,
      "Ġåıĸæ¶Ī": 4279,
      "è§Ī": 4280,
      "Ġè·³èĪŀ": 4281,
      "Ġå±ķç¤º": 4282,
      "Ġå¾Ģå¾Ģ": 4283,
      "Ġåľ¨äºİ": 4284,
      "Ġæ¬º": 4285,
      "ĠèįĴ": 4286,
      "ĠåĩŃ": 4287,
      "Ġå±ģèĤ¡": 4288,
      "Ġä¸įçŁ¥": 4289,
      "Ġå¼ı": 4290,
      "ĠæģĲæĥ§": 4291,
      "æĸ¹éĿ¢": 4292,
      "Ġå¼Łå¼Ł": 4293,
      "Ġä¸Ĭæ¬¡": 4294,
      "Ġåħ¬ä¼Ĺ": 4295,
      "Ġå½¼æŃ¤": 4296,
      "Ġçģ«è½¦": 4297,
      "æ¢¯": 4298,
      "é¸¡": 4299,
      "Ġç¾İå¥½": 4300,
      "ä¸ªæľĪ": 4301,
      "Ġä¸ĬçıŃ": 4302,
      "Ġè¯¾ç¨ĭ": 4303,
      "ĠéĴ»": 4304,
      "Ġè´¹çĶ¨": 4305,
      "ĠçĽĳç®¡": 4306,
      "ĠçģµéŃĤ": 4307,
      "Ġå¹¸ç¦ı": 4308,
      "Ġé¥Ń": 4309,
      "ä¼į": 4310,
      "èį¡": 4311,
      "Ġä¼¼çļĦ": 4312,
      "Ġè§ģéĿ¢": 4313,
      "Ġå¼ķåıĳ": 4314,
      "Ġæııè¿°": 4315,
      "ĠèĶ": 4316,
      "Ġçģ¾": 4317,
      "Ġä¸įè®©": 4318,
      "ĠæĸĹ": 4319,
      "ĠæĪĳå®¶": 4320,
      "Ġå°ļ": 4321,
      "Ġä»Ķ": 4322,
      "Ġæ´ĽæĿī": 4323,
      "ĠæĢĿèĢĥ": 4324,
      "Ġæĸ¹æ¡Ī": 4325,
      "å¥ĸ": 4326,
      "çĹ´": 4327,
      "Ġåį¢": 4328,
      "ĠåĽ½çİĭ": 4329,
      "Ġåħ´å¥ĭ": 4330,
      "éľĩ": 4331,
      "çļ": 4332,
      "éļı": 4333,
      "Ġå¹²åĲĹ": 4334,
      "ĠåĲĪéĢĤ": 4335,
      "éªĹ": 4336,
      "Ġä¸Ĭåįĩ": 4337,
      "Ġè¿«": 4338,
      "Ġå©´": 4339,
      "Ġæ´ŀ": 4340,
      "Ġçº¿ç´¢": 4341,
      "Ġç¦ģæŃ¢": 4342,
      "Ġéģµ": 4343,
      "ĠæĹ¶åĪ»": 4344,
      "Ġèºº": 4345,
      "Ġèĭ±éĽĦ": 4346,
      "Ġå¤ĸäº¤": 4347,
      "ĠåŃ¦ä¼ļ": 4348,
      "ĠæĽ´ä¸º": 4349,
      "æ±ģ": 4350,
      "Ġç¥¨": 4351,
      "ĠæĪĺçķ¥": 4352,
      "ĠçŃĸçķ¥": 4353,
      "å®¾": 4354,
      "èİ·": 4355,
      "Ġåģľä¸ĭ": 4356,
      "Ġçİ°è±¡": 4357,
      "éĺ¶": 4358,
      "ĠæĪĳåĽ½": 4359,
      "Ġåı°æ¹¾": 4360,
      "èį£": 4361,
      "æ³Ľ": 4362,
      "Ġé¢Ĩå¯¼äºº": 4363,
      "Ġèł¢": 4364,
      "Ġåıĳå¸ĥ": 4365,
      "ĠæĮīçħ§": 4366,
      "Ġå¸¦èµ°": 4367,
      "Ġç¡®è®¤": 4368,
      "Ġå¯¹æĸ¹": 4369,
      "Ġä½©": 4370,
      "Ġæīĵæī°": 4371,
      "Ġå¢¨è¥¿åĵ¥": 4372,
      "åľĪ": 4373,
      "Ġ/": 4374,
      "ĠæŃ£å¼ı": 4375,
      "ĠæĹģè¾¹": 4376,
      "ä»ĭæĦı": 4377,
      "Ġè£ģ": 4378,
      "ĠåİŁåĪĻ": 4379,
      "èĭı": 4380,
      "Ġå®ŀéªĮå®¤": 4381,
      "Ġä¸ĢæĬĬ": 4382,
      "èĤ¤": 4383,
      "ĠéĹŃåĺ´": 4384,
      "ĠæķĮäºº": 4385,
      "ĠæľĿé²ľ": 4386,
      "Ġä¹¡": 4387,
      "å®¡": 4388,
      "Ġè¯±": 4389,
      "Ġç«ĭåĪ»": 4390,
      "Ġæ¬£": 4391,
      "æįŁ": 4392,
      "Ġç¦»å©ļ": 4393,
      "Ġæķ¢": 4394,
      "èħ¿": 4395,
      "ĠæģĲæĢķ": 4396,
      "ĠåİĮ": 4397,
      "Ġæ´ĽæĿīçŁ¶": 4398,
      "Ġè´µ": 4399,
      "Ġé¥¿": 4400,
      "å®¶ä¼Ļ": 4401,
      "å¦ĤæŃ¤": 4402,
      "ĠçĮİ": 4403,
      "ĠåŁĭ": 4404,
      "Ġè´¦": 4405,
      "å¿į": 4406,
      "æī¹": 4407,
      "è½¯": 4408,
      "Ġç»ĦæĪĲ": 4409,
      "Ġå¥³æľĭåıĭ": 4410,
      "Ġç»¼": 4411,
      "ĠèŃ¦æĸ¹": 4412,
      "æĺł": 4413,
      "Ġç«ŀéĢī": 4414,
      "èĤł": 4415,
      "ĠçĮª": 4416,
      "Ġèĭ±éĩĮ": 4417,
      "ĠéĩĬ": 4418,
      "Ġç¼ºä¹ı": 4419,
      "ĠæıĲåĪ°": 4420,
      "ĠæĿ¯": 4421,
      "Ġæļ´åĬĽ": 4422,
      "ĠåĬ¨ä½ľ": 4423,
      "ĠçĪ¬": 4424,
      "¦Ĩ": 4425,
      "ĠåĽ½ä¼ļ": 4426,
      "Ġäºİæĺ¯": 4427,
      "çĶ°": 4428,
      "Ġç´§æĢ¥": 4429,
      "Ġéħ¸": 4430,
      "ç¥Ŀ": 4431,
      "ĠçĽ¸æ¯Ķ": 4432,
      "Ġè§ĦåĪĻ": 4433,
      "è²Į": 4434,
      "ĠåĢºåĪ¸": 4435,
      "åĨ·": 4436,
      "Ġæī¹è¯Ħ": 4437,
      "çĥ§": 4438,
      "è¿ŀ": 4439,
      "Ġå°ĸ": 4440,
      "ĠèĤ¡ç¥¨": 4441,
      "Ġå±ħçĦ¶": 4442,
      "ĠåĮĸåŃ¦": 4443,
      "Ġå¼ºå¤§": 4444,
      "æ¶¨": 4445,
      "Ġä¸Ģåĳ¨": 4446,
      "Ġåº§": 4447,
      "ĠéĻ¤éĿŀ": 4448,
      "ç£¨": 4449,
      "Ġéĩįå¤§": 4450,
      "Ġç®ĹäºĨ": 4451,
      "å¥ı": 4452,
      "æ²Ļ": 4453,
      "æĬĺ": 4454,
      "Ġå±Ĥ": 4455,
      "ĠçĦ¦": 4456,
      "å¼Ħ": 4457,
      "ĠåŁºåĽł": 4458,
      "ĠæįĲ": 4459,
      "Ġç¼©": 4460,
      "Ġè±ª": 4461,
      "Ġè¯Ĭ": 4462,
      "Ġåľ¨å®¶": 4463,
      "å°º": 4464,
      "ĠæĦŁæŁĵ": 4465,
      "Ġæķı": 4466,
      "Ġæįķ": 4467,
      "Ġæ°ĳæĹı": 4468,
      "Ġæĸĩç«ł": 4469,
      "Ġè¡°": 4470,
      "Ġé¢ĳ": 4471,
      "ĠæľĢä½³": 4472,
      "ĠèĩŃ": 4473,
      "ĠçĹĩ": 4474,
      "ĠéĿ¢åĮħ": 4475,
      "Ġå½»åºķ": 4476,
      "Ġçİ°éĩĳ": 4477,
      "ä»°": 4478,
      "ĠéĢ®æįķ": 4479,
      "Ġå£«åħµ": 4480,
      "Ġæķ²": 4481,
      "å¸Ĥåľº": 4482,
      "ĠäºĭåĦ¿": 4483,
      "ĠæĦļèł¢": 4484,
      "Ġå¼ºçĥĪ": 4485,
      "ĠæĿĲ": 4486,
      "æł¼åħ°": 4487,
      "Ġåĳ¨æľ«": 4488,
      "ĠæĪĳçĪ±": 4489,
      "ĠæľĢæĸ°": 4490,
      "ĠæĮĩæİ§": 4491,
      "ĠåĲ»": 4492,
      "èĵ": 4493,
      "Ġç©ºæ°Ķ": 4494,
      "Ġå©´åĦ¿": 4495,
      "Ġéľĩ": 4496,
      "Ġæ°´æŀľ": 4497,
      "ç¦ģ": 4498,
      "Ġè¾¾æĪĲ": 4499,
      "Ġçŀ§": 4500,
      "æĬ¼": 4501,
      "ĠéĽħ": 4502,
      "Ġåİī": 4503,
      "ç»©": 4504,
      "è°ĭ": 4505,
      "ĠæĿĤå¿Ĺ": 4506,
      "Ġé¢Ħæµĭ": 4507,
      "ĠåĽĽä¸ª": 4508,
      "Ġå°ıåŃĲ": 4509,
      "Ġè°ĥæķ´": 4510,
      "éĤ£": 4511,
      "Ġå¤±è¸ª": 4512,
      "ĠåĲįåįķ": 4513,
      "æ³½": 4514,
      "çĽ¸ä¿¡": 4515,
      "Ġè¸¢": 4516,
      "Ġæİ¥è§¦": 4517,
      "Ġæģ¨": 4518,
      "Ġå¿ĥéĩĮ": 4519,
      "Ġå¦ĩå¥³": 4520,
      "Ġæĸ¼": 4521,
      "Ġå°ıç»Ħ": 4522,
      "Ġæľ¬ä¹¦": 4523,
      "ĠåĪ¶å®ļ": 4524,
      "Ġé£İæł¼": 4525,
      "Ġä»Ģä¹Īæł·": 4526,
      "Ġä¸ĢçĶŁ": 4527,
      "Ġä¸įåľ¨ä¹İ": 4528,
      "Ġè§¦": 4529,
      "éĶģ": 4530,
      "æĭĽ": 4531,
      "æľĿ": 4532,
      "Ġäºĭä¸ļ": 4533,
      "Ġç½Ĺé©¬": 4534,
      "Ġä¿¡çĶ¨": 4535,
      "Ġä½ľåĩº": 4536,
      "Ġå¯»æ±Ĥ": 4537,
      "Ġæľ¬èº«": 4538,
      "Ġéĩı": 4539,
      "Ġåī©ä¸ĭ": 4540,
      "é¸Ł": 4541,
      "ĠæľŁå¾ħ": 4542,
      "è®¢": 4543,
      "Ġç»ıçĲĨ": 4544,
      "ĠèĩªåĬ¨": 4545,
      "åĭĥ": 4546,
      "Ġå¤©æ°Ķ": 4547,
      "Ġåħ¨éĥ½": 4548,
      "Ġç©¿è¿ĩ": 4549,
      "Ġè´¨éĩı": 4550,
      "è´´": 4551,
      "Ġä¿Ŀå®Ī": 4552,
      "Ġçĥ¤": 4553,
      "Ġæīĵåĩ»": 4554,
      "çĥĤ": 4555,
      "ĠæĬĳ": 4556,
      "Ġä¸Ĭæµ·": 4557,
      "ĠåĲĮäºĭ": 4558,
      "çŁŃ": 4559,
      "ĠåºĬä¸Ĭ": 4560,
      "Ġåħ·ä½ĵ": 4561,
      "è¿ĺ": 4562,
      "æĤĶ": 4563,
      "ĠåĨĴéĻ©": 4564,
      "Ġæĺ¥": 4565,
      "Ġè¶ħçº§": 4566,
      "ĠåĪĽæĸ°": 4567,
      "Ġä»ĸäºº": 4568,
      "ĠèĤ¥": 4569,
      "Ġå®¶æĹı": 4570,
      "Ġä»İä¸į": 4571,
      "ĬåŃĲ": 4572,
      "Ġåį³å°Ĩ": 4573,
      "ç³Ĭ": 4574,
      "ĠèħĲ": 4575,
      "éĩİ": 4576,
      "Ġç¥Ī": 4577,
      "ĠéĿ©": 4578,
      "ĠåĶĲ": 4579,
      "Ġåľ°çĤ¹": 4580,
      "Ġè·¨": 4581,
      "ĠåĲĪåĲĮ": 4582,
      "Ġçī¹å¤§": 4583,
      "Ġå¼ĢæĶ¾": 4584,
      "Ġæ¯ķä¸ļ": 4585,
      "Ġä»ª": 4586,
      "ĠçĤ¸å¼¹": 4587,
      "Ġå·¡": 4588,
      "Ġéļıä¾¿": 4589,
      "Ġè¯¸": 4590,
      "çĴ": 4591,
      "Ġè¡ĮæĶ¿": 4592,
      "Ġåįķçĭ¬": 4593,
      "åĪĨåŃĲ": 4594,
      "Ġå°Ĭéĩį": 4595,
      "Ġæ¶²": 4596,
      "Ġä»¶": 4597,
      "æĹ¶åĢĻ": 4598,
      "Ġåİīå®³": 4599,
      "ĠåĸĿéħĴ": 4600,
      "ĠèģĶåĲĪåĽ½": 4601,
      "Ġç»ĨèĬĤ": 4602,
      "åĤ¨": 4603,
      "éĩĮæĸ¯": 4604,
      "å°ļ": 4605,
      "ĠèĢĲ": 4606,
      "çĶŁæ´»": 4607,
      "Ġä»½": 4608,
      "å®Ļ": 4609,
      "Ġèĥ½éĩı": 4610,
      "ĠæĤ£èĢħ": 4611,
      "Ġè¾Ľ": 4612,
      "ĠéŁ©åĽ½": 4613,
      "Ġæĵ¦": 4614,
      "ĠæĪĳçĪ±ä½ł": 4615,
      "Ġè·Łè¸ª": 4616,
      "ĠæıĲéĨĴ": 4617,
      "æ°§": 4618,
      "Ġéķ¿å¤§": 4619,
      "Ġå¡«": 4620,
      "Ġå¹¿æ³Ľ": 4621,
      "ĠåĴ¬": 4622,
      "Ġä¸įæķ¢çĽ¸ä¿¡": 4623,
      "Ġè°Īè¯Ŀ": 4624,
      "è£¤": 4625,
      "Ġç»´æĮģ": 4626,
      "Ġä¸įä»ĭæĦı": 4627,
      "å¯»": 4628,
      "ĠæķĻåŃ¦": 4629,
      "ĠéĿĻ": 4630,
      "Ġè¶ĭ": 4631,
      "Ġéķľ": 4632,
      "Ġèī¯å¥½": 4633,
      "Ġåı¬": 4634,
      "Ġåį³ä¾¿": 4635,
      "ĠèĢģåħĦ": 4636,
      "ä¸įä¼ļ": 4637,
      "æ¬²": 4638,
      "Ġç©¶": 4639,
      "ĠçĽ¸äºĴ": 4640,
      "ĠåľĨ": 4641,
      "Ġè§Ĵåº¦": 4642,
      "ĠæĦ¤æĢĴ": 4643,
      "Ġæģ°": 4644,
      "ĠéĹ»": 4645,
      "ĠæĿĲæĸĻ": 4646,
      "ĠçŃīå¾ħ": 4647,
      "Ġé¢ľèī²": 4648,
      "Ġæ²¡åħ³ç³»": 4649,
      "æĨ¾": 4650,
      "Ġèĩªèº«": 4651,
      "ĠæľīçĶ¨": 4652,
      "æģ¨": 4653,
      "ĠéĶĻè¿ĩ": 4654,
      "ĠéĻ·åħ¥": 4655,
      "ĠçĻ½çĹ´": 4656,
      "Ġå¸Ĳ": 4657,
      "æī¬": 4658,
      "Ġåĳ³éģĵ": 4659,
      "ĠåºĨç¥Ŀ": 4660,
      "Ġç§»æ°ĳ": 4661,
      "çĲ´": 4662,
      "Ġäººçī©": 4663,
      "ĠåŃ£": 4664,
      "Ġå¥ĹæĪ¿": 4665,
      "ĠæĭĨ": 4666,
      "Ġä¸§": 4667,
      "Ġå¸¦åĪ°": 4668,
      "ĠåĪ¶ä½ľ": 4669,
      "Ġåİ¨æĪ¿": 4670,
      "Ġå°¿": 4671,
      "¨ª": 4672,
      "Ġæħ¢æħ¢": 4673,
      "åĽ½å®¶": 4674,
      "Ġæ¼«": 4675,
      "æ´ŀ": 4676,
      "Ġé«ĺä¸Ń": 4677,
      "Ġä¸įä»ħä»ħ": 4678,
      "Ġä¼¸": 4679,
      "Ġä¼Ĭæĭīåħĭ": 4680,
      "ĠåĪĴ": 4681,
      "Ġå®ĩå®Ļ": 4682,
      "Ġé«ĺçº§": 4683,
      "ĠèĥľåĪ©": 4684,
      "Ġå±ħæ°ĳ": 4685,
      "ĠåĲĮæĢ§æģĭ": 4686,
      "ĠçīĪ": 4687,
      "Ġæ¿ĢåĬ¨": 4688,
      "Ġç´¯": 4689,
      "Ġç§°ä¸º": 4690,
      "Ġå·´é»İ": 4691,
      "Ġä»Ķç»Ĩ": 4692,
      "Ġä¸¤æ¬¡": 4693,
      "ĠçĬ¹å¤ª": 4694,
      "Ġè¿ĺä¼ļ": 4695,
      "ĠåĿĲä¸ĭ": 4696,
      "Ġè¯¦": 4697,
      "ĠæıŃ": 4698,
      "ĠæĬ±æĢ¨": 4699,
      "å¹¿": 4700,
      "ĠéĿłè¿ĳ": 4701,
      "Ġä¸¥æł¼": 4702,
      "è¯¢": 4703,
      "Ġä»¥ä¸Ĭ": 4704,
      "ĠæĦīå¿«": 4705,
      "æ½®": 4706,
      "åħ°åħĭ": 4707,
      "ĠåĲĪæ³ķ": 4708,
      "é»ĳ": 4709,
      "æľµ": 4710,
      "æĭ¾": 4711,
      "åħ¬è·¯": 4712,
      "ĠçĪ±æĥħ": 4713,
      "Ġæ²Ļåıĳ": 4714,
      "Ġè¯ķéªĮ": 4715,
      "Ġæİ¨åĬ¨": 4716,
      "å¸Į": 4717,
      "Ġåħ¸": 4718,
      "Ġæĭ¼": 4719,
      "ĠæĬĹè®®": 4720,
      "æĢ»": 4721,
      "ĠåĪĨäº«": 4722,
      "ä»¶äºĭ": 4723,
      "Ġç©¶ç«Ł": 4724,
      "ĠåķĨåºĹ": 4725,
      "çĤİ": 4726,
      "ĠæĮ£": 4727,
      "å¦»": 4728,
      "ĠèĪªç©º": 4729,
      "Ġçºªå¿µ": 4730,
      "Ġé»ĺ": 4731,
      "Ġç»ĵè®º": 4732,
      "åĤ²": 4733,
      "Ġç§ĳæĬĢ": 4734,
      "ĠæĮĩæĮ¥": 4735,
      "ĠçĶ·æĢ§": 4736,
      "£äºĭ": 4737,
      "Ġåħ³éĹŃ": 4738,
      "ĠåĨł": 4739,
      "Ġè´´": 4740,
      "æ¼«": 4741,
      "Ġé¼ĵåĬ±": 4742,
      "Ġè¯´æľį": 4743,
      "Ġè¿Ľå±ķ": 4744,
      "ĠåŁºäºİ": 4745,
      "Ġçī¹å¾ģ": 4746,
      "Ġå¤ĩ": 4747,
      "ĠæĶ¹åĸĦ": 4748,
      "ĠèģĶçĽŁ": 4749,
      "Ġè½¬ç§»": 4750,
      "Ġä¹ī": 4751,
      "ĠèĪ¬": 4752,
      "Ġè¯ļ": 4753,
      "ĠæĽ²": 4754,
      "ĠæĢĢåŃķ": 4755,
      "èĻİ": 4756,
      "ĠçĽĳè§Ĩ": 4757,
      "Ġæĭ¿èµ°": 4758,
      "Ġéĵ¶": 4759,
      "Ġæ°ĶåĢĻ": 4760,
      "Ġçĸĳ": 4761,
      "Ġå¸ĥé²ģ": 4762,
      "ĠæīĢè°ĵ": 4763,
      "ĠåĪĨåŃĲ": 4764,
      "ĸåŃĲ": 4765,
      "Ġè¯Ħè®º": 4766,
      "ĠåīįéĿ¢": 4767,
      "ĠåĲĪçĲĨ": 4768,
      "å¼Ĺ": 4769,
      "èĮ¨": 4770,
      "ĠæİĪ": 4771,
      "ĠéĩĬæĶ¾": 4772,
      "Ġåŀĭ": 4773,
      "Ġè§Ħæ¨¡": 4774,
      "ĠåĲĲ": 4775,
      "Ġæĸ¹ä¾¿": 4776,
      "Ġæķ¬": 4777,
      "ĠâĢĵ": 4778,
      "Ġéģĵå¾·": 4779,
      "çĿ¡": 4780,
      "ĠæĢ§æĦŁ": 4781,
      "Ġæī¿æĭħ": 4782,
      "é½Ĳ": 4783,
      "Ġä¹ĭå¤ĸ": 4784,
      "ĠçŁ¿": 4785,
      "çī²": 4786,
      "åįģå¹´": 4787,
      "Ġçģ°": 4788,
      "Ġå¸Ī": 4789,
      "ĠèĢģçĪ¸": 4790,
      "Ġéĺ¿å¯Į": 4791,
      "Ġè¯Ħä¼°": 4792,
      "ĠæĬķåħ¥": 4793,
      "ä¸įåĪ°": 4794,
      "Ġéĺ¿å¯Įæ±Ĺ": 4795,
      "Ġå¯¹å¾ħ": 4796,
      "Ġæĭ¯": 4797,
      "Ġä¸įå¹¸": 4798,
      "ĠæĥħæĬ¥": 4799,
      "Ġæĭ¯æķĳ": 4800,
      "Ġçī©è´¨": 4801,
      "Ġäº¿ç¾İåħĥ": 4802,
      "çģ¾": 4803,
      "Ġäº§ä¸ļ": 4804,
      "Ġè½»æĿ¾": 4805,
      "æķ¬": 4806,
      "Ġè°Īè®º": 4807,
      "Ġç»¼åĲĪ": 4808,
      "æ´Ĺ": 4809,
      "åľ£": 4810,
      "Ġä¸įè§ģ": 4811,
      "æ±ĩ": 4812,
      "ĠåŁºçĿ£": 4813,
      "Ġæ¡£": 4814,
      "Ġè½¦éĩĮ": 4815,
      "åħħ": 4816,
      "ĠåĨ¬": 4817,
      "Ġæ¡ĮåŃĲ": 4818,
      "Ġæ¨¡åŀĭ": 4819,
      "Ġä¸ĢæĿ¯": 4820,
      "ĠæĬ¬": 4821,
      "Ġè®°ä½ı": 4822,
      "Ġåħ±åĴĮåħļ": 4823,
      "Ġç¤¾åĮº": 4824,
      "Ġé»ĳæļĹ": 4825,
      "ĠéĢĤåºĶ": 4826,
      "Ġä»ĺåĩº": 4827,
      "ĠæĹłçĥŁ": 4828,
      "ä¸¹": 4829,
      "Ġè¹": 4830,
      "Ġä¸Ģçīĩ": 4831,
      "åĴĮåįİ": 4832,
      "Ġæ¸´": 4833,
      "Ġæģ¶å¿ĥ": 4834,
      "Ġæī®": 4835,
      "ĠèĢ¶åĴĮåįİ": 4836,
      "Ġé¾Ļ": 4837,
      "ĠèĥĨ": 4838,
      "ĠçĻĮ": 4839,
      "Ġä¸Ģç¾¤": 4840,
      "ç¼¸": 4841,
      "Ġçī§": 4842,
      "Ġçľĭæ³ķ": 4843,
      "æĤī": 4844,
      "Ġçīĩ": 4845,
      "Ġç´ł": 4846,
      "ĠæĳĶ": 4847,
      "Ġä¸ĬåºĬ": 4848,
      "åı¯èĥ½": 4849,
      "Ġå¯¹ä»ĺ": 4850,
      "Ġåħ¨ä¸ĸçķĮ": 4851,
      "æļĸ": 4852,
      "ĠèĤĮ": 4853,
      "ĠåĭĴ": 4854,
      "æī¿": 4855,
      "Ġè´Ńçī©": 4856,
      "Ġæĵįä½ľ": 4857,
      "Ġè°ĪåĪ¤": 4858,
      "å°Ķæĸ¯": 4859,
      "Ġä¸Ģç³»": 4860,
      "Ġä¸Ģç³»åĪĹ": 4861,
      "èĨľ": 4862,
      "ĠæĻ®éģį": 4863,
      "Ġåħ¬è·¯": 4864,
      "Ġä¹ĭç±»": 4865,
      "Ġåı¶": 4866,
      "çĶ²": 4867,
      "ĠåĢĻ": 4868,
      "æĭīæĸ¯": 4869,
      "Ġéģĵè·¯": 4870,
      "Ġä¾Ŀèµĸ": 4871,
      "Ġä¼ĺåĬ¿": 4872,
      "Ġå¹½": 4873,
      "æ£Ģ": 4874,
      "ĠéĽ¨": 4875,
      "ĠåıĮæĸ¹": 4876,
      "Ġå§Ĳå§Ĳ": 4877,
      "Ġæīĭæ®µ": 4878,
      "Ġä¸įè¶³": 4879,
      "Ġè¿Ļä»½": 4880,
      "Ġé¢Ħç®Ĺ": 4881,
      "Ġç»Łæ²»": 4882,
      "çĪ·": 4883,
      "Ġå¤±ä¸ļ": 4884,
      "çĴĥ": 4885,
      "ĠéļıæĹ¶": 4886,
      "Ġçļ®èĤ¤": 4887,
      "æ¡Į": 4888,
      "è¿Ł": 4889,
      "Ġä¸Ģèĩ´": 4890,
      "å§Ķ": 4891,
      "Ġçīµ": 4892,
      "å¢ŀ": 4893,
      "ĠæīĢè¯´": 4894,
      "Ġè¯·æ±Ĥ": 4895,
      "ä¿Ĺ": 4896,
      "ĠåįĪé¤Ĳ": 4897,
      "Ġè¿ŁåĪ°": 4898,
      "Ġåį¡è½¦": 4899,
      "Ġå·¦åı³": 4900,
      "ĠçĽ¸åĲĮ": 4901,
      "è¾ĪåŃĲ": 4902,
      "è¾±": 4903,
      "ĠåĬłå¼º": 4904,
      "Ġèĳ£äºĭ": 4905,
      "ĠæİĮæı¡": 4906,
      "İ»çĴĥ": 4907,
      "åľ°åĮº": 4908,
      "ĠèĳĹåĲį": 4909,
      "Ġæĵħ": 4910,
      "Ġä¸Ģåº§": 4911,
      "Ġè¿ĻçĤ¹": 4912,
      "ĠåĮ»åŃ¦": 4913,
      "Ġéº¦åħĭ": 4914,
      "Ġç±»åŀĭ": 4915,
      "Ġä¸įä¹ħ": 4916,
      "çĲ³": 4917,
      "Ġæĺĵ": 4918,
      "Ġæİ¥åĪ°": 4919,
      "Ġæ®µ": 4920,
      "Ġä¿¡å¿ĥ": 4921,
      "ĠåıįæŃ£": 4922,
      "ĠçĶ·æľĭåıĭ": 4923,
      "ĠåĪ©æ¶¦": 4924,
      "ĠæºĲ": 4925,
      "ĠæľīéĴ±": 4926,
      "ĠåĩºçīĪ": 4927,
      "Ġèĩªè¡Į": 4928,
      "ĠåĨ²çªģ": 4929,
      "Ġä¹³": 4930,
      "åĮ¹": 4931,
      "åıĶ": 4932,
      "Ġåľ°åĿĢ": 4933,
      "Ġæī¾åĩº": 4934,
      "Ġä¸ĳ": 4935,
      "Ġè®¡ç®Ĺæľº": 4936,
      "Ġè°İ": 4937,
      "ç¼º": 4938,
      "æĽ¿": 4939,
      "Ġä½ĵéªĮ": 4940,
      "Ġç»ĵåĲĪ": 4941,
      "Ġæīİ": 4942,
      "Ġå¹´é¾Ħ": 4943,
      "æ¼Ĥäº®": 4944,
      "Ġæµģè¡Į": 4945,
      "Ġéĺ¶æ®µ": 4946,
      "Ġå¯¹è±¡": 4947,
      "ĠæľīæĦıæĢĿ": 4948,
      "Ġèģļä¼ļ": 4949,
      "æĭŁ": 4950,
      "ĠçĲĨæĥ³": 4951,
      "Ġåģĩè£ħ": 4952,
      "Ġæĺİç¡®": 4953,
      "æĩĤ": 4954,
      "Ġè¦ģè¯´": 4955,
      "Ġè¾ŀ": 4956,
      "ç¼ĵ": 4957,
      "Ġåı¸æľº": 4958,
      "Ġå«ģ": 4959,
      "æł¸": 4960,
      "ĠèĽĭç³ķ": 4961,
      "éŁ": 4962,
      "ĠåĬłæĭ¿": 4963,
      "Ġæĥ©": 4964,
      "ĠçĶŁåŃĺ": 4965,
      "Ġå®ĺæĸ¹": 4966,
      "ĠåĬłæĭ¿å¤§": 4967,
      "Ġç¥ŀç§ĺ": 4968,
      "ĠåıĽ": 4969,
      "Ġå¹³è¡¡": 4970,
      "ºçī²": 4971,
      "Ġè¯ī": 4972,
      "Ġæı´": 4973,
      "Ġç«ŁçĦ¶": 4974,
      "Ġæ»¡æĦı": 4975,
      "Ġç«ĭåį³": 4976,
      "Ġé¡¾å®¢": 4977,
      "ĠæĿľ": 4978,
      "Ġåľ°ä¸Ĭ": 4979,
      "Ġå®¾": 4980,
      "ĠåĳĪ": 4981,
      "å°¸": 4982,
      "æŃ¦": 4983,
      "Ġå¤ļæķ°": 4984,
      "ĠçŃ¹": 4985,
      "ä¾§": 4986,
      "Ġèµ«": 4987,
      "Ġä¼ª": 4988,
      "Ġè§Ĥä¼Ĺ": 4989,
      "åĿ¡": 4990,
      "ĠçĽ¸åıį": 4991,
      "ĠäºĴçĽ¸": 4992,
      "ªæ°´": 4993,
      "éĴĪ": 4994,
      "Ġè¦ģä¹Ī": 4995,
      "Ġæ£®æŀĹ": 4996,
      "Ġå®ł": 4997,
      "Ġæī¹åĩĨ": 4998,
      "Ġä¸ºæŃ¤": 4999,
      "Ġåį«çĶŁ": 5000,
      "åĬ©äºİ": 5001,
      "çĦ": 5002,
      "è¯ĳ": 5003,
      "ĠæļĤæĹ¶": 5004,
      "ĠåīĬåĩı": 5005,
      "Ġç©·": 5006,
      "ĠæĹłçº¿": 5007,
      "ĠåĽ¾ä¹¦": 5008,
      "Ġç¬¦åĲĪ": 5009,
      "ĻåŃĲ": 5010,
      "æ¬¢è¿İ": 5011,
      "Ġäº¤æµģ": 5012,
      "Ġå¤ļè°¢": 5013,
      "ĠåħħåĪĨ": 5014,
      "Ġå¹³åĿĩ": 5015,
      "Ġæĺ¾å¾Ĺ": 5016,
      "éĹ¹": 5017,
      "åį±æľº": 5018,
      "Ġè¯´æ³ķ": 5019,
      "æ¸ħæ¥ļ": 5020,
      "èļ": 5021,
      "ĠçĶ²": 5022,
      "Ġåģĩè®¾": 5023,
      "Ġå¤º": 5024,
      "Ġä¸Ģåı¥": 5025,
      "æ¡¥": 5026,
      "ĠæīŃ": 5027,
      "Ġäºĳ": 5028,
      "ç¾Ĭ": 5029,
      "Ġæĩ": 5030,
      "éĻ·": 5031,
      "Ġä¿ĥè¿Ľ": 5032,
      "å½¹": 5033,
      "Ġå¤¸": 5034,
      "æ»ĳ": 5035,
      "ĠçĹħæ¯Ĵ": 5036,
      "Ġè¯´è°İ": 5037,
      "Ġä¸Ģå¥Ĺ": 5038,
      "ĠåĪ«ç®¡": 5039,
      "Ġå¹¼": 5040,
      "åį·": 5041,
      "Ġå½ķåĥı": 5042,
      "éļĨ": 5043,
      "ĠæĶ¶çĽĬ": 5044,
      "ĠæĲľç´¢": 5045,
      "Ġæ¼Ķåĩº": 5046,
      "é¦Ļ": 5047,
      "ĠéªĦ": 5048,
      "Ġè£¤": 5049,
      "ĠèĦĳè¢ĭ": 5050,
      "Ġå°ıè¯´": 5051,
      "Ġè®²è¯Ŀ": 5052,
      "åģ¥": 5053,
      "ĠèĥĮæĻ¯": 5054,
      "Ġçī¢": 5055,
      "Ġæĥ³èµ·": 5056,
      "ĠæıĲåįĩ": 5057,
      "ĠåĪ¤æĸŃ": 5058,
      "ĠéĤ»å±ħ": 5059,
      "æĢĢ": 5060,
      "Ġä¸°å¯Į": 5061,
      "Ġéĺħ": 5062,
      "Ġè¯Ħä»·": 5063,
      "Ġåģļæ³ķ": 5064,
      "Ġç»ĥä¹ł": 5065,
      "ĠéĢĲæ¸Ĳ": 5066,
      "ä½ľçĶ¨": 5067,
      "ĴåŃĲ": 5068,
      "Ġè´¢å¯Į": 5069,
      "çī©é¦Ĩ": 5070,
      "Ġæī©å¤§": 5071,
      "ĠéĿ©åĳ½": 5072,
      "Ġå°½åĬĽ": 5073,
      "Ġåīª": 5074,
      "ĠåĬłæ²¹": 5075,
      "ĠåĩĨç¡®": 5076,
      "Ġå°½å¿«": 5077,
      "Ġé²į": 5078,
      "ĠæĽ´å¤§": 5079,
      "ĠåĵģçīĮ": 5080,
      "Ġå¥½åĩł": 5081,
      "åįı": 5082,
      "ĠæĹłæīĢ": 5083,
      "Ġéī´": 5084,
      "ĠéĹ¹": 5085,
      "Ġå¤§åį«": 5086,
      "Ġä¸¤ç§į": 5087,
      "ĠåĽŀæĬ¥": 5088,
      "ĠåĢ¾åĲĳ": 5089,
      "ĠåŁĥåıĬ": 5090,
      "ĠæĿĢæīĭ": 5091,
      "å¤º": 5092,
      "è±Ĩ": 5093,
      "ĠéĿŀæ³ķ": 5094,
      "ĠèĤº": 5095,
      "Ġæ¦Ĥå¿µ": 5096,
      "Ġè½¬åıĺ": 5097,
      "ç¿¼": 5098,
      "æ¾": 5099,
      "Ġå·´è¥¿": 5100,
      "å®ģ": 5101,
      "ĠåĮħåĲ«": 5102,
      "Ġä¸¹å°¼": 5103,
      "Ġçīºçī²": 5104,
      "Ġä¼ĺç§Ģ": 5105,
      "çĶ·": 5106,
      "Ġå·´åŁº": 5107,
      "Ġç§įæĹı": 5108,
      "Ġç»ĻäºĪ": 5109,
      "Ġå¤¹": 5110,
      "ĠéĢģåĪ°": 5111,
      "Ġä¸¤ä½į": 5112,
      "è±ª": 5113,
      "ĠæĶ¶æĭ¾": 5114,
      "Ġæµ·åĨĽ": 5115,
      "ĠåıĻ": 5116,
      "ä¸įä¸Ĭ": 5117,
      "å°Ķå¤«": 5118,
      "ç»Ĩèĥŀ": 5119,
      "Ġå§ĭ": 5120,
      "Ġäºĭæķħ": 5121,
      "Ġéķ¿æĹ¶éĹ´": 5122,
      "Ġåİ»è¿ĩ": 5123,
      "Ġå¸ĥèİ±": 5124,
      "å¢Ļ": 5125,
      "éĹ²": 5126,
      "çĸ«": 5127,
      "é½¿": 5128,
      "ĠæŃ£å¦Ĥ": 5129,
      "ĠåĤ»çĵľ": 5130,
      "Ġé²ľ": 5131,
      "å°ī": 5132,
      "Ġæ±¡æŁĵ": 5133,
      "ç¥·": 5134,
      "æ±½": 5135,
      "ĠçªĹæĪ·": 5136,
      "Ġæīĵæī": 5137,
      "å°¿": 5138,
      "æľºæŀĦ": 5139,
      "ä¸¤": 5140,
      "åģ·": 5141,
      "Ġçİ©æĦı": 5142,
      "Ġç½ĳä¸Ĭ": 5143,
      "ĠçĶŁéķ¿": 5144,
      "å»Ĭ": 5145,
      "Ġç½®": 5146,
      "Ġæłĩå¿Ĺ": 5147,
      "Ġæµĵ": 5148,
      "Ġå«Įçĸĳ": 5149,
      "Ġç«¥": 5150,
      "Ġä¼Ĭæĸ¯": 5151,
      "ĠæĬ«": 5152,
      "ĠæľŁæľĽ": 5153,
      "ĠåģļäºĽ": 5154,
      "Ġå¾®æ³¢": 5155,
      "åĪº": 5156,
      "Ġå¼±": 5157,
      "Ġå½ĵåīį": 5158,
      "ĠæķĻç»ĥ": 5159,
      "ç»Ħç»ĩ": 5160,
      "ĠåºĶå¯¹": 5161,
      "Ġå¡ĳ": 5162,
      "ĠåľĪ": 5163,
      "ĠåıĳåĬ¨": 5164,
      "ĠåĩºåĶ®": 5165,
      "ç¨£": 5166,
      "èģļ": 5167,
      "ĠæĻļå®ī": 5168,
      "èķ": 5169,
      "æ¢°": 5170,
      "åĪĽ": 5171,
      "Ġåº¦è¿ĩ": 5172,
      "Ġåį°è±¡": 5173,
      "Ġé¹": 5174,
      "ä¸įçŁ¥": 5175,
      "ĠæĹ©æľŁ": 5176,
      "ä¹Ŀ": 5177,
      "Ġå¯¹æīĭ": 5178,
      "æķı": 5179,
      "Ġç¤º": 5180,
      "è®¶": 5181,
      "ĠæĥĬè®¶": 5182,
      "ĠèĦ¸ä¸Ĭ": 5183,
      "Ġå°±è¡ĮäºĨ": 5184,
      "Ġæ¸¯": 5185,
      "Ġä¸įæĦ¿": 5186,
      "èĩĤ": 5187,
      "Ġæ¼Ķè®²": 5188,
      "Ġä¸įçĦ¶": 5189,
      "Ġåħ¨éĿ¢": 5190,
      "ĠçĽĺ": 5191,
      "Ġå·´åŁºæĸ¯åĿ¦": 5192,
      "Ġæ¡Īä»¶": 5193,
      "ĠçĸĹ": 5194,
      "Ġå·¥èµĦ": 5195,
      "Ġå¤©çĦ¶": 5196,
      "Ġæ··ä¹±": 5197,
      "æĶ»": 5198,
      "ĠçĥŃæĥħ": 5199,
      "Ġèį·": 5200,
      "çĺ¤": 5201,
      "Ġç®Ĺæĺ¯": 5202,
      "ĠæħĪ": 5203,
      "åĩ¡": 5204,
      "Ġæī£": 5205,
      "çĽĹ": 5206,
      "ĠåŃ¦éĻ¢": 5207,
      "Ġç»ĳæŀ¶": 5208,
      "Ġå´©": 5209,
      "èĿ": 5210,
      "ĠåĪĳ": 5211,
      "ĠæīĭæĮĩ": 5212,
      "Ġåĳ½è¿Ĳ": 5213,
      "Ġè¿İ": 5214,
      "Ġè§Ĩä¸º": 5215,
      "Ġå¥½äºĭ": 5216,
      "Ġåıĳå°Ħ": 5217,
      "Ġè®¿éĹ®": 5218,
      "è°±": 5219,
      "Ġçºł": 5220,
      "Ġä¸Ģæ®µæĹ¶éĹ´": 5221,
      "Ġåı¯èĥ½æĢ§": 5222,
      "Ġå»ºéĢł": 5223,
      "Ġä¸īå¹´": 5224,
      "Ġä¹ĲæĦı": 5225,
      "Ġè¿Ļä¼ļ": 5226,
      "å¤§åĪ©äºļ": 5227,
      "æĹħ": 5228,
      "Ġåħ¬æ°ĳ": 5229,
      "Ġè¡¨éĿ¢": 5230,
      "Ġä¸»é¢ĺ": 5231,
      "Ġå¸¦ä¸Ĭ": 5232,
      "ĠèĦĳåŃĲ": 5233,
      "Ġå¤§äºº": 5234,
      "æĳĦ": 5235,
      "ç²ī": 5236,
      "éĵ¾": 5237,
      "æĬ±": 5238,
      "ĠåĤ¬": 5239,
      "Ġæ£Ģæµĭ": 5240,
      "ĠéģŃåĪ°": 5241,
      "ĠäºĭåĬ¡": 5242,
      "Ġä¿¡ä»°": 5243,
      "ĠåŁºåľ°": 5244,
      "Ġç®±": 5245,
      "Ġåį«æĺŁ": 5246,
      "Ġäººä¼ļ": 5247,
      "ĠéĤª": 5248,
      "Ġå¥½æ¶Īæģ¯": 5249,
      "ĠéªĦåĤ²": 5250,
      "Ġæł¸å¿ĥ": 5251,
      "Ġå¤ªç©º": 5252,
      "Ġä¸įåģľ": 5253,
      "ĠéĢĢä¼ĳ": 5254,
      "ĠåıĶ": 5255,
      "ĠåģļçĪ±": 5256,
      "éĥ¨éĹ¨": 5257,
      "éŃĶ": 5258,
      "Ġéļ¾è¿ĩ": 5259,
      "Ġå¢ĥ": 5260,
      "ĠæĶ¾åĪ°": 5261,
      "ĠæŃ»åİ»": 5262,
      "Ġæĭħå¿§": 5263,
      "ĠçĽĽ": 5264,
      "èħ¾": 5265,
      "Ġæ¡ĳ": 5266,
      "Ġç¥Īç¥·": 5267,
      "ĠåĨľä¸ļ": 5268,
      "å¨ĥ": 5269,
      "Ġæ¾³å¤§åĪ©äºļ": 5270,
      "Ġé¢ĦæľŁ": 5271,
      "Ġå£°ç§°": 5272,
      "Ġæĳĺè¦ģ": 5273,
      "Ġä¸»å¸Ń": 5274,
      "Ġéĺ¿å°Ķ": 5275,
      "ĠæĪĳè¯¥": 5276,
      "Ġä¸Ģéĥ¨": 5277,
      "Ġå¥½æŀģäºĨ": 5278,
      "ĠåĢ¼": 5279,
      "å«": 5280,
      "ä¼ģä¸ļ": 5281,
      "Ġé½": 5282,
      "ĠæģŃ": 5283,
      "ä¸ĥ": 5284,
      "ĠåĪ«åĬ¨": 5285,
      "Ġæ¶īåıĬ": 5286,
      "ĠæĪ¿åľ°": 5287,
      "Ġçİī": 5288,
      "éŀĭ": 5289,
      "ĠçĶŁæĢģ": 5290,
      "ĠæĴŃ": 5291,
      "ĠæĳĨèĦ±": 5292,
      "ĠèĢ¶ç¨£": 5293,
      "éĥİ": 5294,
      "å¹´äºº": 5295,
      "Ġå°±ç®Ĺ": 5296,
      "Ġæ²¡è§ģ": 5297,
      "è¹Ī": 5298,
      "ç©·": 5299,
      "è·ĥ": 5300,
      "Ġæ¤ħ": 5301,
      "Ġåĩ¡": 5302,
      "Ġè½¯ä»¶": 5303,
      "ç¡¬": 5304,
      "Ġæ°ĳä¸»åħļ": 5305,
      "Ġåĩºç§Ł": 5306,
      "Ġäºĭçī©": 5307,
      "Ġæŀ¶": 5308,
      "Ġå¥½äºº": 5309,
      "å£ģ": 5310,
      "Ġæľīäºĭ": 5311,
      "Ġä¸Ŀ": 5312,
      "Ġè¿Ĳè¡Į": 5313,
      "çł¸": 5314,
      "Ġæ²¡çĶ¨": 5315,
      "åİļ": 5316,
      "æ²ĥ": 5317,
      "Ġè¿ĺç»Ļ": 5318,
      "ķæīĢ": 5319,
      "ĠæľīåĬ©äºİ": 5320,
      "çĽ¾": 5321,
      "Ġè¯ģäºº": 5322,
      "Ġå½¢è±¡": 5323,
      "å´": 5324,
      "ĠåĽºå®ļ": 5325,
      "åħĭåĬĽ": 5326,
      "Ġä¾¦": 5327,
      "Ġåģľä¸ĭæĿ¥": 5328,
      "ĠæĹħé¦Ĩ": 5329,
      "Ġè¿½æ±Ĥ": 5330,
      "ĠéģĹæĨ¾": 5331,
      "ĠæĹłèģĬ": 5332,
      "æĬķ": 5333,
      "ĠçĤ¹åĦ¿": 5334,
      "Ġé©¾é©¶": 5335,
      "Ġåį´æĺ¯": 5336,
      "Ġçģ¾éļ¾": 5337,
      "æĻ¶": 5338,
      "Ġé¢Ħè®¡": 5339,
      "ĠæĭįæĳĦ": 5340,
      "åĪĨä¹ĭä¸Ģ": 5341,
      "Ġé»ĳäºº": 5342,
      "Ġä¸įç®¡æĢİ": 5343,
      "ĠçģĮ": 5344,
      "Ġæīĭä¸Ĭ": 5345,
      "Ġåįļçī©é¦Ĩ": 5346,
      "çĻ¾ä¸ĩ": 5347,
      "åĨ°": 5348,
      "Ġåľ°éľĩ": 5349,
      "è·µ": 5350,
      "Ġæĥ©ç½ļ": 5351,
      "Ġä¸¤å¤©": 5352,
      "Ġå¥¶å¥¶": 5353,
      "æĳ¸": 5354,
      "äºĳ": 5355,
      "æĿĨ": 5356,
      "Ġèĥĥ": 5357,
      "Ġä½Ļ": 5358,
      "ç§Ĵ": 5359,
      "Ġæ½ľåľ¨": 5360,
      "Ġä¸»ä¹ī": 5361,
      "Ġç¢İ": 5362,
      "Ġè¿ŀæİ¥": 5363,
      "æµ´": 5364,
      "Ġå¿ĥæĥħ": 5365,
      "Ġè¿Ķ": 5366,
      "Ġåĵ²": 5367,
      "èº": 5368,
      "åħ½": 5369,
      "ĠæľīåĪ©": 5370,
      "Ġåįķä½į": 5371,
      "æ¼ł": 5372,
      "Ġä¸ĢæĶ¯": 5373,
      "Ġè¿ĩåº¦": 5374,
      "ä¸ºæŃ¢": 5375,
      "Ġåıįæĺł": 5376,
      "Ġéĥ¨éĺŁ": 5377,
      "ĠåĬ¨åĬĽ": 5378,
      "ĠæµģåĬ¨": 5379,
      "Ġå·§åħĭåĬĽ": 5380,
      "Ġæ¬£èµı": 5381,
      "Ġç»¿èī²": 5382,
      "Ġä¸ĢéĹ´": 5383,
      "è®¼": 5384,
      "Ġå½©": 5385,
      "è§Ħæ¨¡": 5386,
      "å£®": 5387,
      "ĠæĦŁåħ´è¶£": 5388,
      "ĠæĶ¶éĽĨ": 5389,
      "Ġå®ĥä¼ļ": 5390,
      "Ġä¸»äºº": 5391,
      "ĠåĨľæ°ĳ": 5392,
      "Ġåħ¬å¸ĥ": 5393,
      "èīĩ": 5394,
      "ä¸įä½ı": 5395,
      "Ġå¹²å¾Ĺ": 5396,
      "Ġè¿ĲçĶ¨": 5397,
      "Ġæ¡£æ¡Ī": 5398,
      "Ġä»İæĿ¥ä¸į": 5399,
      "Ġè¯ģå®ŀ": 5400,
      "ç»ķ": 5401,
      "Ġå®īè£ħ": 5402,
      "ĠçĿ": 5403,
      "å®Ĺ": 5404,
      "Ġæī¿åıĹ": 5405,
      "Ġæµ´ç¼¸": 5406,
      "ĠçĨŁæĤī": 5407,
      "Ġå¼ºè°ĥ": 5408,
      "Ġè¡Ģæ¶²": 5409,
      "ĠçĻĮçĹĩ": 5410,
      "ĠèĥĮåĲİ": 5411,
      "è´¢": 5412,
      "ĠåĪĨæīĭ": 5413,
      "å±ģ": 5414,
      "ĠæĪĲçĨŁ": 5415,
      "ĠæĹłåħ³": 5416,
      "ç¢°": 5417,
      "æħ§": 5418,
      "Ġè©": 5419,
      "ĠåĪ©çİĩ": 5420,
      "ĠæĬ¢åĬ«": 5421,
      "Ġæµ·æ´ĭ": 5422,
      "æ§": 5423,
      "ä»¥ä¸º": 5424,
      "Ġå¯Įæľī": 5425,
      "æĶ¿çŃĸ": 5426,
      "Ġå½ĵä¸Ń": 5427,
      "ĠæĪ¿åľ°äº§": 5428,
      "Ġçİ»çĴĥ": 5429,
      "çī¢": 5430,
      "Ġæģĭ": 5431,
      "è·Į": 5432,
      "æī§": 5433,
      "Ġæĺı": 5434,
      "Ġä»¥ä¸ĭ": 5435,
      "æħİ": 5436,
      "Ġä¾¿å®ľ": 5437,
      "Ġä¿ĿçķĻ": 5438,
      "ĠæĪĲéķ¿": 5439,
      "å°Ŀ": 5440,
      "Ġé¡ºåĪ©": 5441,
      "Ġé²ģ": 5442,
      "Ġå°±ä¸ļ": 5443,
      "ĠæĦŁæ¿Ģ": 5444,
      "Ġå¾Īä¹ħ": 5445,
      "ĠçĶ·åŃĲ": 5446,
      "ĠæĲŀçł¸": 5447,
      "èĥĮ": 5448,
      "Ġå¼¥": 5449,
      "Ġåį¡å°Ķ": 5450,
      "ħåĬĽ": 5451,
      "Ġèµ·è¯ī": 5452,
      "Ġæ¼Ķåĳĺ": 5453,
      "ĠåŁ¹åħ»": 5454,
      "Ġäº²èĩª": 5455,
      "Ġç¨Ģ": 5456,
      "ĠåķĨåĬ¡": 5457,
      "éĤ®": 5458,
      "ĠåĽŀå¿Ĩ": 5459,
      "Ġé«ĺåº¦": 5460,
      "Ġè´¢äº§": 5461,
      "é¡µ": 5462,
      "Ġè¿Ľåı£": 5463,
      "ĠåĪ°æĿ¥": 5464,
      "éĹ®é¢ĺ": 5465,
      "Ġåİ»ä¸ĸ": 5466,
      "Ġè©¹": 5467,
      "Ġè¿½è¸ª": 5468,
      "Ġèī°éļ¾": 5469,
      "å·¾": 5470,
      "ĠèĬĿ": 5471,
      "Ġèĭ±å¯¸": 5472,
      "ĠåıĹæ¬¢è¿İ": 5473,
      "Ġåħ¥ä½ı": 5474,
      "Ġæī¯": 5475,
      "æħ°": 5476,
      "ĠæĮ¤": 5477,
      "Ġæ¯ĶåĪ©": 5478,
      "Ġéļľ": 5479,
      "Ġè¿Ļåº§": 5480,
      "ĠæĿ¥æºĲ": 5481,
      "Ġæµ®": 5482,
      "æĥł": 5483,
      "ĠéĢĶ": 5484,
      "Ġä»£ä»·": 5485,
      "Ġå±ħä½ı": 5486,
      "Ġæ¬§åħĥåĮº": 5487,
      "ĠåıĳæĮ¥": 5488,
      "è¢ĸ": 5489,
      "Ġå¯Ĩçłģ": 5490,
      "Ġæ³Ħ": 5491,
      "ĠæĳĦåĥı": 5492,
      "ĠåĶĶ": 5493,
      "Ġæ³ķéĻ¢": 5494,
      "Ġæ¸´æľĽ": 5495,
      "ĠéĩįçĤ¹": 5496,
      "çĵ¶": 5497,
      "Ġåįĥä¸ĩ": 5498,
      "Ġåľ°çĭ±": 5499,
      "ĠåĵªäºĽ": 5500,
      "Ġæİ¥çĿĢ": 5501,
      "Ġçī¹çĤ¹": 5502,
      "Ġåı·çłģ": 5503,
      "æŁľ": 5504,
      "Ġä¸¤äºº": 5505,
      "ĠåĲ¬åĲ¬": 5506,
      "Ġå¤ªå¤ļ": 5507,
      "ĠæľºåĪ¶": 5508,
      "Ġåĥ": 5509,
      "Ġèµ¤": 5510,
      "èĪį": 5511,
      "ĠæĪĳæľ¬": 5512,
      "ç©¿": 5513,
      "Ġåº¦åģĩ": 5514,
      "Ġæ¨ª": 5515,
      "Ġå¨±ä¹Ĳ": 5516,
      "å»¶": 5517,
      "ĠèĸĦ": 5518,
      "Ġéĺħè¯»": 5519,
      "ĠåĩłåĪĨéĴŁ": 5520,
      "ĠæĺİæĺŁ": 5521,
      "ĠéĹ²": 5522,
      "Ġå¾Īæ¼Ĥäº®": 5523,
      "Ġèĥ½åĲ¦": 5524,
      "ĠæīĭéĩĮ": 5525,
      "Ġè§Ĩé¢ĳ": 5526,
      "ĠæĮĩå¯¼": 5527,
      "Ġç¾Ĭ": 5528,
      "ĠçİĽä¸½": 5529,
      "Ġå°ĨåĨĽ": 5530,
      "æ¢ħ": 5531,
      "Ġæİ¢ç´¢": 5532,
      "åŃĶ": 5533,
      "éĺ¿": 5534,
      "è·Ł": 5535,
      "Ġç¬¬åĽĽ": 5536,
      "Ġå¾®æ³¢çĤī": 5537,
      "ĠåıĤè®®": 5538,
      "ĠåĢĻéĢī": 5539,
      "Ġå¸Ŀ": 5540,
      "ĠæĮĩè´£": 5541,
      "åĥ": 5542,
      "ĠçĪĨåıĳ": 5543,
      "Ġå¥½äºĨ": 5544,
      "æ¬§": 5545,
      "Ġé¢Ŀå¤ĸ": 5546,
      "ĠéĻĨ": 5547,
      "Ġå©ĬåŃĲ": 5548,
      "ĠåıĶåıĶ": 5549,
      "ĠæĪª": 5550,
      "Ġä¸Ģå¯¹": 5551,
      "èħº": 5552,
      "ĠæķıæĦŁ": 5553,
      "ĠæķĻå¸Ī": 5554,
      "Ġåį§å®¤": 5555,
      "è¿Ľåİ»": 5556,
      "è¡«": 5557,
      "Ġè¶ĭåĬ¿": 5558,
      "Ġç¾İåĳ³": 5559,
      "Ġä¸ĢçĻ¾": 5560,
      "Ġæ¸ħçĲĨ": 5561,
      "Ġè¶³çĲĥ": 5562,
      "ĠçĥĤ": 5563,
      "Ġä¸ĢéĿ¢": 5564,
      "Ġæ³ķæ¡Ī": 5565,
      "è·³": 5566,
      "çĤ¼": 5567,
      "Ġé©¬åħĭ": 5568,
      "Ġæİ¢åĳĺ": 5569,
      "Ġéĺ²æŃ¢": 5570,
      "ĠåĲ¯åĬ¨": 5571,
      "ä¹¡": 5572,
      "ĠåĬ¿": 5573,
      "Ġè§ģè¿ĩ": 5574,
      "Ġå®¡åĪ¤": 5575,
      "Ġå¿µ": 5576,
      "ĠæĥĬåĸľ": 5577,
      "Ġæĸ°åħ´": 5578,
      "Ġéļľç¢į": 5579,
      "Ġä¸įç®Ĺ": 5580,
      "Ġåĩºèī²": 5581,
      "ĠæīĢåľ¨": 5582,
      "å°ıæĹ¶": 5583,
      "Ġèİİ": 5584,
      "Ġä½łå®¶": 5585,
      "æĿ°": 5586,
      "æĿİ": 5587,
      "Ġæ¸¸å®¢": 5588,
      "Ġçº¢èī²": 5589,
      "ĠéĹ®éĹ®": 5590,
      "æ±Ł": 5591,
      "ĠéĽĦ": 5592,
      "Ġéĩĳå±ŀ": 5593,
      "ĠéĢĢåĩº": 5594,
      "Ġæµªæ¼«": 5595,
      "Ġè¿¹": 5596,
      "ĠåŃ¤çĭ¬": 5597,
      "åĲ»": 5598,
      "ĠæĹ¥çĽĬ": 5599,
      "Ġä½ıå®": 5600,
      "ĠåİķæīĢ": 5601,
      "å°Ķåħ°": 5602,
      "Ġæ·»": 5603,
      "Ġå±ĭåŃĲ": 5604,
      "ĠæŃ¤å¤ĸ": 5605,
      "Ġå°ĨæĿ¥": 5606,
      "Ġåĵį": 5607,
      "é¢Ħ": 5608,
      "ĠèĿ": 5609,
      "Ġå¥³å£«ä»¬": 5610,
      "Ġäººç¾¤": 5611,
      "ĠèŃ¦å®ĺ": 5612,
      "Ġæµ·æ»©": 5613,
      "Ġçĭ¬çī¹": 5614,
      "åıĽ": 5615,
      "ĠåĲİæŀľ": 5616,
      "Ġçĸ²": 5617,
      "æİĮ": 5618,
      "ĠåĨłåĨĽ": 5619,
      "Ġä¸ĬåŃ¦": 5620,
      "Ġçłģ": 5621,
      "ĠéģŃåıĹ": 5622,
      "Ġçĭ¼": 5623,
      "ĠèĢį": 5624,
      "ç¥¸": 5625,
      "ĠæĹ©æĻ¨": 5626,
      "Ġå¥¥è¿Ĳ": 5627,
      "ĠçīĮ": 5628,
      "Ġä¸´æĹ¶": 5629,
      "ĠæĿ¿": 5630,
      "Ġå¥´": 5631,
      "ĠæĶ¶è´Ń": 5632,
      "ĠåĨħå¿ĥ": 5633,
      "ĠæĬĬæīĭ": 5634,
      "Ġä¾¿åĪ©": 5635,
      "ĠçĤĴ": 5636,
      "Ġåı«åģļ": 5637,
      "ĠçĮĽ": 5638,
      "Ġè¿¹è±¡": 5639,
      "Ġä¼ģ": 5640,
      "Ġä»İäºĭ": 5641,
      "Ġæ³¥": 5642,
      "ĠçĩĥæĸĻ": 5643,
      "Ġå¤§éĻĨ": 5644,
      "ĠæĪĲç«ĭ": 5645,
      "Ġæīĵä¸ª": 5646,
      "ĠåĨľåľº": 5647,
      "æ¹ĸ": 5648,
      "ĮçĶŁ": 5649,
      "èĤ¥": 5650,
      "ĠæĮĩçº¹": 5651,
      "Ġæķ°åŃ¦": 5652,
      "Ġå®Įæķ´": 5653,
      "çŁ©": 5654,
      "æ·¡": 5655,
      "Ġç¢³": 5656,
      "ĠåģļçĤ¹": 5657,
      "Ġæĵħéķ¿": 5658,
      "Ġåħĭèİ±": 5659,
      "Ġæ³¨æĦıåĬĽ": 5660,
      "Ġä¸ĢæĹł": 5661,
      "ĠæĲŃæ¡£": 5662,
      "Ġè®¸åı¯": 5663,
      "Ġå½¼å¾Ĺ": 5664,
      "é¡º": 5665,
      "Ġæ·ĭ": 5666,
      "Ġä¼Ĭæĸ¯åħ°": 5667,
      "Ġå°±è®©": 5668,
      "ĠéĻ¢": 5669,
      "æ¡¶": 5670,
      "ĠæĬ¥èŃ¦": 5671,
      "ĠåĪ«å¿ĺ": 5672,
      "ä»Ķ": 5673,
      "Ġæľ±": 5674,
      "ĠçĽ¸ä¼¼": 5675,
      "Ġåģĩå¦Ĥ": 5676,
      "Ġè¯Ŀé¢ĺ": 5677,
      "ĠéĹ¯": 5678,
      "Ġè¡Įé©¶": 5679,
      "ĠæĮĩæľĽ": 5680,
      "Ġç¬¨èĽĭ": 5681,
      "Ġåħ¼": 5682,
      "è¯Ĭ": 5683,
      "Ġåºŀ": 5684,
      "Ġé»Ħéĩĳ": 5685,
      "Ġåıĳè¨Ģ": 5686,
      "Ġèµ¶ç´§": 5687,
      "èĶ": 5688,
      "èĢĢ": 5689,
      "Ġåľ¨ä¹İ": 5690,
      "Ġå¥½å¥ĩ": 5691,
      "è¾ľ": 5692,
      "Ġæ¤ħåŃĲ": 5693,
      "èīĺ": 5694,
      "ĠæĮģæľī": 5695,
      "Ġä»¥ä¾¿": 5696,
      "Ġæ¡¥": 5697,
      "Ġå¤´ä¸Ĭ": 5698,
      "ĠæĳĦå½±": 5699,
      "ĠèĬ±åĽŃ": 5700,
      "Ġå°ĳæķ°": 5701,
      "Ġçĸ¯åŃĲ": 5702,
      "Ġåľ°åĽ¾": 5703,
      "èİ«": 5704,
      "Ġåı¸æ³ķ": 5705,
      "ĠæĹ©ä¸Ĭå¥½": 5706,
      "Ġçī¹å®ļ": 5707,
      "Ġæī®æ¼Ķ": 5708,
      "Ġä¼¤åı£": 5709,
      "Ġä½ľå®¶": 5710,
      "ĠçķĮ": 5711,
      "Ġåıĭå¥½": 5712,
      "Ġäºīè®º": 5713,
      "ĠçģŃ": 5714,
      "Ġä¹ĸ": 5715,
      "Ġç¾ŀ": 5716,
      "ĠçĹĩçĬ¶": 5717,
      "ĠéŃħåĬĽ": 5718,
      "éĥģ": 5719,
      "Ġè£ħç½®": 5720,
      "å¹¶": 5721,
      "æºĥ": 5722,
      "ĠçĻ»è®°": 5723,
      "ĠæŀĦæĪĲ": 5724,
      "ĠçĶĺ": 5725,
      "çĪµ": 5726,
      "åĮ»çĶŁ": 5727,
      "æ¤ħ": 5728,
      "ĠæĪĳå¦Ī": 5729,
      "ĠåĪĨå¼Ģ": 5730,
      "Ġä¼łæĴŃ": 5731,
      "ĠäºĮåįģ": 5732,
      "è¾ŀ": 5733,
      "æĺ¥": 5734,
      "Ġæ°ĳä¼Ĺ": 5735,
      "ĠæĪĲå°±": 5736,
      "Ġå®Ŀå®Ŀ": 5737,
      "ĠèģĮä½į": 5738,
      "ä¸¥": 5739,
      "Ġçŀİ": 5740,
      "ĠèµĶ": 5741,
      "Ġä»Ģ": 5742,
      "Ġåĩłæ¬¡": 5743,
      "ĠæıĲè®®": 5744,
      "Ġæ³¨å°Ħ": 5745,
      "Ġè¯¦ç»Ĩ": 5746,
      "Ġä»ĵ": 5747,
      "Ġå¥ī": 5748,
      "Ġä¸Ģä¸ªæľĪ": 5749,
      "Ġä¸ĬæĿ¥": 5750,
      "ĠæĪĳæķ¢": 5751,
      "Ġçħ¤": 5752,
      "Ġç½¢äºĨ": 5753,
      "Ġèĩªè¡Įè½¦": 5754,
      "Ġåģļè¿ĩ": 5755,
      "Ġé¦ĸæ¬¡": 5756,
      "Ġç¨İæĶ¶": 5757,
      "Ġä¸Ģé¢Ĺ": 5758,
      "ç±į": 5759,
      "ĠåĮºåĪ«": 5760,
      "ĠéĻĮçĶŁ": 5761,
      "Ġå®ŀè·µ": 5762,
      "ä»ª": 5763,
      "ç®Ń": 5764,
      "Ġä¸İæŃ¤": 5765,
      "ä¸įçŁ¥éģĵ": 5766,
      "Ġéĺ¿æĭīä¼¯": 5767,
      "Ġç£ģ": 5768,
      "ĠæĤ¬": 5769,
      "çŁ¿": 5770,
      "Ġå¥½çľĭ": 5771,
      "æĴĴ": 5772,
      "Ġç¤¾äº¤": 5773,
      "Ġèĩªä»İ": 5774,
      "Ġæºľ": 5775,
      "ĠçīĽå¥¶": 5776,
      "Ġé¥®æĸĻ": 5777,
      "çŃ¾": 5778,
      "Ġéĺ³åħī": 5779,
      "Ġå¸½åŃĲ": 5780,
      "Ġåıĳæĺİ": 5781,
      "å£¤": 5782,
      "Ġè¿Īåħĭ": 5783,
      "Ġç§ĭ": 5784,
      "ĠèĴĤ": 5785,
      "Ġåĭĩæķ¢": 5786,
      "Ġè¾ħ": 5787,
      "æ»ļ": 5788,
      "Ġå³": 5789,
      "åĬ¨çī©": 5790,
      "Ġå®łçī©": 5791,
      "ĠåĽ¢ä½ĵ": 5792,
      "éĢĲ": 5793,
      "Ġæĸ¯çī¹": 5794,
      "ç¬¬": 5795,
      "Ġå±ķå¼Ģ": 5796,
      "Ġè¡ĮæĿİ": 5797,
      "Ġçİ©åħ·": 5798,
      "åĳĲ": 5799,
      "Ġè¿ĽæŃ¥": 5800,
      "Ġæµ·å¤ĸ": 5801,
      "Ġè®®ä¼ļ": 5802,
      "ĠéĢīæ°ĳ": 5803,
      "Ġå®£ä¼ł": 5804,
      "Ġç»Łä¸Ģ": 5805,
      "å³°": 5806,
      "Ġç²ĺ": 5807,
      "Ġäºīè®®": 5808,
      "Ġçĵ¶": 5809,
      "ĠåĽ¾ä¹¦é¦Ĩ": 5810,
      "Ġä¸Ģæľ¬": 5811,
      "Ġå¥½çİ©": 5812,
      "ĠèĤ©": 5813,
      "åłª": 5814,
      "çĻĮ": 5815,
      "éĢĴ": 5816,
      "ĠçŁ³å¤´": 5817,
      "Ġå¹´åīį": 5818,
      "Ġä¸ĵéĹ¨": 5819,
      "ĠåįĹéĥ¨": 5820,
      "Ġåı¯æĥľ": 5821,
      "ĠæĹłè¾ľ": 5822,
      "çĮ«": 5823,
      "Ġå¤§å¹ħ": 5824,
      "Ġä¸¤å¼ł": 5825,
      "Ġéĩįå¤į": 5826,
      "Ġä¼¤å¿ĥ": 5827,
      "¨è¯¢": 5828,
      "Ġå¿§": 5829,
      "Ġå£°æĺİ": 5830,
      "Ġæ··åĲĪ": 5831,
      "Ġä¼Ļä¼´": 5832,
      "Ġåĩºäºİ": 5833,
      "Ġåıĳè¡Į": 5834,
      "è¢Ń": 5835,
      "æ³¡": 5836,
      "ĠåĪ»": 5837,
      "å¿Į": 5838,
      "Ġä»¿": 5839,
      "ĠåĲ¦è®¤": 5840,
      "æ°ı": 5841,
      "ĠåĬ¨æīĭ": 5842,
      "Ġæľ¬åľ°": 5843,
      "Ġæ²¡æĥ³åĪ°": 5844,
      "Ġæ¯ıåĳ¨": 5845,
      "æ¶ī": 5846,
      "ĠèĢģé¼ł": 5847,
      "ĠæľīéĻĲåħ¬åı¸": 5848,
      "Ġæĭĺ": 5849,
      "Ġå¨ģå°Ķ": 5850,
      "Ġå½ĵå±Ģ": 5851,
      "Ġå½ĵä½ľ": 5852,
      "Ġåĩłåĳ¨": 5853,
      "ĠèµĦæł¼": 5854,
      "ĠæĹĭ": 5855,
      "Ġå°½éĩı": 5856,
      "Ġå¹³æĿ¿": 5857,
      "Ġçī©çĲĨ": 5858,
      "ĠçĪ±å°Ķåħ°": 5859,
      "ä¸ĸçºª": 5860,
      "ĠæĻºæħ§": 5861,
      "åĪ·": 5862,
      "çķª": 5863,
      "ĠèĪŀä¼ļ": 5864,
      "Ġåīįå¾Ģ": 5865,
      "ä¸įåıĬ": 5866,
      "Ġåįıä¼ļ": 5867,
      "å°Ķå¾·": 5868,
      "æ²ī": 5869,
      "éĽĩ": 5870,
      "Ġå®¤åĨħ": 5871,
      "Ġä½ľèĢħ": 5872,
      "Ġè®®åĳĺ": 5873,
      "ĠæļĹç¤º": 5874,
      "Ġæ¬²": 5875,
      "æīĢçŁ¥": 5876,
      "å¥¸": 5877,
      "Ġè°¨": 5878,
      "ä¸§": 5879,
      "ĠçĶ©": 5880,
      "ĠçĶ°": 5881,
      "ĠåĲ¸è¡Ģ": 5882,
      "æħĮ": 5883,
      "Ġå¸¦æľī": 5884,
      "ä¾£": 5885,
      "ĠåĲĦåĽ½": 5886,
      "Ġå¤ıå¤©": 5887,
      "Ġä¸»ç®¡": 5888,
      "Ġç¢°åĪ°": 5889,
      "Ġè¡¬": 5890,
      "ĠåĨ³çŃĸ": 5891,
      "ç»ıæµİ": 5892,
      "Ġåģ¶å°Ķ": 5893,
      "ĠéĢīæīĭ": 5894,
      "ĠåŁ¹è®Ń": 5895,
      "ĠåĬĿ": 5896,
      "Ġéħįå¤ĩ": 5897,
      "æ®ĸ": 5898,
      "Ġç»Łè®¡": 5899,
      "Ġè£¤åŃĲ": 5900,
      "Ġå¹²æİī": 5901,
      "Ġè¡Ĺä¸Ĭ": 5902,
      "Ġæı´åĬ©": 5903,
      "ĠéĺŁä¼į": 5904,
      "ĠæľĢåĪĿ": 5905,
      "ĠæŁĲäºº": 5906,
      "ĠæľĽ": 5907,
      "Ġè´ª": 5908,
      "Ġå°¼åħĭ": 5909,
      "Ġå¯¹è¯Ŀ": 5910,
      "èĭ¥": 5911,
      "æĵį": 5912,
      "Ġä¸Ĭè¿°": 5913,
      "ĠåĪ«å¿ĺäºĨ": 5914,
      "ĠæĹ¶åħī": 5915,
      "Ġé½Ĳ": 5916,
      "Ġä½łåĪ«": 5917,
      "ĠèĢĥè¯ķ": 5918,
      "Ġäº«çĶ¨": 5919,
      "ä¸įå¾Ĺ": 5920,
      "Ġä¸ĸä¸Ĭ": 5921,
      "èĮ¶": 5922,
      "Ġè®¾ç½®": 5923,
      "åŃ¦éĻ¢": 5924,
      "ĠèĤ¿": 5925,
      "ĠéĢĤçĶ¨": 5926,
      "åĲµ": 5927,
      "ç¯ĩ": 5928,
      "ĠåĬłä¸Ĭ": 5929,
      "Ġè´¢åĬ¡": 5930,
      "Ġæĭ³": 5931,
      "Ġå¤§è§Ħæ¨¡": 5932,
      "éļĶ": 5933,
      "èįĲ": 5934,
      "Ġç§Ĵ": 5935,
      "ĠçķĻä¸ĭæĿ¥": 5936,
      "èħĶ": 5937,
      "ĠåĢĻéĢīäºº": 5938,
      "ĠæĮ¯": 5939,
      "Ġçľĭä¸įåĪ°": 5940,
      "ĠæľºåĻ¨äºº": 5941,
      "Ġä¸Ģè·¯": 5942,
      "åºĦ": 5943,
      "ĠéĢĥè·ĳ": 5944,
      "Ġè¯´å¾Ĺ": 5945,
      "Ġä»¥å¤ĸ": 5946,
      "åĢ¦": 5947,
      "Ġæį®è¯´": 5948,
      "Ġä¸ĢçĤ¹çĤ¹": 5949,
      "Ġæ¼ı": 5950,
      "Ġæĳ¸": 5951,
      "ĠåĽ½å¤ĸ": 5952,
      "ĠæĬĢå·§": 5953,
      "Ġå¤©åłĤ": 5954,
      "æĵİ": 5955,
      "Ġåģ¥èº«": 5956,
      "åİ¿": 5957,
      "Ġèĳ¬": 5958,
      "Ġä¸Ńæľī": 5959,
      "çº·": 5960,
      "ĠæĬ¤å£«": 5961,
      "æ¼ı": 5962,
      "Ġèĭ±å°º": 5963,
      "å§Ĩæĸ¯": 5964,
      "Ġé¦ĸå¸Ń": 5965,
      "Ġæµ´å®¤": 5966,
      "æ²«": 5967,
      "Ġæīĵèµ": 5968,
      "´åŃĲ": 5969,
      "ĠæĺĤ": 5970,
      "ĠæľĪä»½": 5971,
      "Ġè¿Ĳè¾ĵ": 5972,
      "Ġçĭ¬èĩª": 5973,
      "Ġç½ªçĬ¯": 5974,
      "ĠåıĤè§Ĥ": 5975,
      "Ġå¥½äºĨåĲĹ": 5976,
      "Ġæľ¬åĳ¨": 5977,
      "Ġæī¶": 5978,
      "ĠåĽŀå¤´": 5979,
      "Ġéģ¥": 5980,
      "Ġé¸¡èĽĭ": 5981,
      "ĠæĬĺç£¨": 5982,
      "æĦĪ": 5983,
      "Ġè¡¨æĥħ": 5984,
      "ĠèĤ¾": 5985,
      "Ġç«ĭæ³ķ": 5986,
      "Ġå¼Ĺåħ°åħĭ": 5987,
      "ĠæĢ»çĲĨ": 5988,
      "Ġä¸ŃåĽ½æĶ¿åºľ": 5989,
      "Ġç»ıæµİä½ĵ": 5990,
      "Ġé¤Ĳé¦Ĩ": 5991,
      "Ġç»ķ": 5992,
      "ĠæĮ¡": 5993,
      "ĠåĶ±æŃĮ": 5994,
      "ĠåĲ¸çĥŁ": 5995,
      "Ġå¸®å¸®": 5996,
      "Ġæĥ³çĿĢ": 5997,
      "ĠéĤ®ä»¶": 5998,
      "å»ī": 5999,
      "ĠçĨĬ": 6000,
      "Ġä¾ĭåŃĲ": 6001,
      "Ġä¸įåİ»": 6002,
      "ç²¹": 6003,
      "Ġä¸Ģç¬": 6004,
      "Ġé¢Ĩè¢ĸ": 6005,
      "Ġç©Ĩæĸ¯": 6006,
      "Ġè£ħé¥°": 6007,
      "Ġæ¶Ĥ": 6008,
      "ĠéļıåĲİ": 6009,
      "Ġä½ıæīĭ": 6010,
      "ĠåĽŀåºĶ": 6011,
      "Ġåįģå¹´": 6012,
      "Ġè¯ĬæĸŃ": 6013,
      "å¦Ĵ": 6014,
      "æıı": 6015,
      "çĪĨ": 6016,
      "ĠåĲĮæĥħ": 6017,
      "ĠæĥħæĦŁ": 6018,
      "Ġæ´ĭ": 6019,
      "ĠèĪŀè¹Ī": 6020,
      "ĠæģŃåĸľ": 6021,
      "Ġæ·±åĪ»": 6022,
      "èĨĢ": 6023,
      "Ġäº¨": 6024,
      "åĿĲ": 6025,
      "Ġè°·æŃĮ": 6026,
      "Ġäººæīį": 6027,
      "éħ¬": 6028,
      "Ġè¿ĲåĬ¨åĳĺ": 6029,
      "Ġä»£çĲĨ": 6030,
      "Ġä¸ĭæ¬¡": 6031,
      "ĠéĨĴæĿ¥": 6032,
      "Ġå¦ĵ": 6033,
      "Ġä¸Ģæķ´": 6034,
      "æĪĳçľĭ": 6035,
      "Ġè¦Ĩ": 6036,
      "Ġå¤©æīį": 6037,
      "ĠæĺŁçĲĥ": 6038,
      "æĬĢæľ¯": 6039,
      "Ġæ¹¿": 6040,
      "ĠæŃ£å¥½": 6041,
      "Ġå®ŀè¡Į": 6042,
      "ĠçĽ´åįĩ": 6043,
      "æĤ¦": 6044,
      "Ġè¿ľç¦»": 6045,
      "åı¥è¯Ŀ": 6046,
      "ĠéĴŁ": 6047,
      "ĠçĽĲ": 6048,
      "ĠçĮ®": 6049,
      "ĽçĽ¾": 6050,
      "Ġå¼ĢéĹ¨": 6051,
      "ĠæĢ»æľī": 6052,
      "ĠçĿ¡çĿĢ": 6053,
      "Ġæ¿ĢçĥĪ": 6054,
      "Ġåľ°éĿ¢": 6055,
      "Ġèĥ¶": 6056,
      "Ġåľ£è¯ŀèĬĤ": 6057,
      "Ġæ²Ł": 6058,
      "ĠèĤĿ": 6059,
      "æķĮ": 6060,
      "ĠæıĲåīį": 6061,
      "Ġä¸įèĤ¯": 6062,
      "Ġè´¡": 6063,
      "Ġå®ª": 6064,
      "Ġå´©æºĥ": 6065,
      "ļåŃĲ": 6066,
      "Ġå°º": 6067,
      "æģ¼": 6068,
      "Ġè±ªåįİ": 6069,
      "ĠæŃ¦è£ħ": 6070,
      "ä¼¯çī¹": 6071,
      "Ġèĩªä¿¡": 6072,
      "ĠåĪ«ç¢°": 6073,
      "Ġç»´æĬ¤": 6074,
      "Ġè¯īè®¼": 6075,
      "ĠåįĪé¥Ń": 6076,
      "ĠèĢģå¤§": 6077,
      "æĸ¯ç§ĳ": 6078,
      "Ġè½¨": 6079,
      "ĠéĽķ": 6080,
      "Ġä¸ĩä¸Ģ": 6081,
      "ĠèĲ¥åħ»": 6082,
      "ĠéĤªæģ¶": 6083,
      "ĠåĲŀ": 6084,
      "èľľ": 6085,
      "Ġæ½®": 6086,
      "Ġæ¸ħæ´ģ": 6087,
      "è¡£æľį": 6088,
      "æ³ī": 6089,
      "ĠèĦĸåŃĲ": 6090,
      "å¦Ĥä½ķ": 6091,
      "ĠæĶ¯åĩº": 6092,
      "ĠçĻ½äºº": 6093,
      "Ġå«ĮçĬ¯": 6094,
      "Ġåı¯éĿł": 6095,
      "å¸ķ": 6096,
      "ĠåĪ¶éĢłåķĨ": 6097,
      "Ġæĭħä»»": 6098,
      "Ġåįķèº«": 6099,
      "Ġä¹ĲéĺŁ": 6100,
      "ĠèĢ³æľµ": 6101,
      "Ġè½¦ä¸Ĭ": 6102,
      "Ġä»ĭæĦı": 6103,
      "æ´»åĬ¨": 6104,
      "ĠçĶµåĬĽ": 6105,
      "Ġé¡¿": 6106,
      "Ġåħ±äº§": 6107,
      "Ġå¥½åĲĥ": 6108,
      "ĠæįŁå®³": 6109,
      "Ġçĸı": 6110,
      "Ġé»ĳèī²": 6111,
      "Ġä¸¾åĬŀ": 6112,
      "Ġæ°§": 6113,
      "ä¾µ": 6114,
      "Ġå°ıä¼Ļ": 6115,
      "Ġåī²": 6116,
      "æĺĤ": 6117,
      "Ġçİĩ": 6118,
      "Ġå¤©ä½¿": 6119,
      "æĹģ": 6120,
      "æķŀ": 6121,
      "Ġæĳ§": 6122,
      "Ġæµ·å²¸": 6123,
      "Ġåĺ²": 6124,
      "Ġç¯®": 6125,
      "ä¸įçĿĢ": 6126,
      "Ġæĺİå¹´": 6127,
      "éļľç¢į": 6128,
      "åĲĮæĹ¶": 6129,
      "Ġä¸İæŃ¤åĲĮæĹ¶": 6130,
      "Ġäº®": 6131,
      "Ġå¤©åĳĲ": 6132,
      "Ġèµ°è¿Ľ": 6133,
      "ĠæĸĩåŃ¦": 6134,
      "ĠçĽĳæİ§": 6135,
      "Ġæ£Ģå¯Ł": 6136,
      "Ġé©»": 6137,
      "ĠéĤ£ä½į": 6138,
      "Ġæīĵçł´": 6139,
      "Ġå°ıå°ı": 6140,
      "ĠéģŃéģĩ": 6141,
      "Ġæĥ¨": 6142,
      "Ġæ·ĺ": 6143,
      "èĥ¡": 6144,
      "Ġå®½æķŀ": 6145,
      "Ġä¹ĭåĨħ": 6146,
      "æ¾¡": 6147,
      "ĠæĮª": 6148,
      "ĠçĽĳçĿ£": 6149,
      "ĠèĤĮèĤī": 6150,
      "Ġå´ĩ": 6151,
      "Ġäººå®¶": 6152,
      "ĠéļĲèĹı": 6153,
      "Ġé¡¾éĹ®": 6154,
      "èĹ": 6155,
      "Ġä¸įå®ī": 6156,
      "èĬ¬": 6157,
      "ĠæĪ¿å±ĭ": 6158,
      "Ġä¾ĿéĿł": 6159,
      "ĠæľīæĿĥ": 6160,
      "Ġå·®å¼Ĥ": 6161,
      "è¡ĮåĬ¨": 6162,
      "Ġéĩĩè®¿": 6163,
      "Ġäººæķ°": 6164,
      "Ġç©ºä¸Ń": 6165,
      "ĠæĹłäºº": 6166,
      "Ġç¡®ä¿¡": 6167,
      "Ġç´«": 6168,
      "Ġèŀ": 6169,
      "Ġåĭ¾": 6170,
      "Ġç¥Ń": 6171,
      "Ġä¸´åºĬ": 6172,
      "åĭ¤": 6173,
      "ĠæķħæĦı": 6174,
      "Ġä¼ļè®¡": 6175,
      "Ġèļ": 6176,
      "å°¬": 6177,
      "è°Ĭ": 6178,
      "Ġå¤§è¡Ĺ": 6179,
      "Ġçł´äº§": 6180,
      "ĠæħĪåĸĦ": 6181,
      "Ġç©Ĩæĸ¯æŀĹ": 6182,
      "Ġäººæ°ĳå¸ģ": 6183,
      "Ġå¹´çºª": 6184,
      "Ġå£ģ": 6185,
      "ĠçĻ½èī²": 6186,
      "Ġå®ļä¹ī": 6187,
      "Ġä¹ĭä¸ĭ": 6188,
      "Ġè¯ģåĪ¸": 6189,
      "çªĥ": 6190,
      "ä»ĩ": 6191,
      "äº¿": 6192,
      "ĠåıĬæĹ¶": 6193,
      "ĠåĲ¸è¡Ģé¬¼": 6194,
      "Ġå±ı": 6195,
      "Ġå°´": 6196,
      "Ġè¯Ĩ": 6197,
      "ĠèĦĨ": 6198,
      "ĠéªĮ": 6199,
      "ĠæĪĪ": 6200,
      "æ±¡": 6201,
      "ĠçĲĥåĳĺ": 6202,
      "Ġè¿ŀç»Ń": 6203,
      "Ġç»ĦåĲĪ": 6204,
      "Ġæ¯Ķä¾ĭ": 6205,
      "ĠèĪ°": 6206,
      "å£³": 6207,
      "Ġäºīåıĸ": 6208,
      "Ġå°´å°¬": 6209,
      "ĠåĨ»": 6210,
      "ĠæŁĶ": 6211,
      "èµĦæºĲ": 6212,
      "æī£": 6213,
      "å¦Ĩ": 6214,
      "åļ": 6215,
      "ĠåĴ¨è¯¢": 6216,
      "Ġå¸ĥä»Ģ": 6217,
      "ĠåĲİæĤĶ": 6218,
      "ĠèĬ±è´¹": 6219,
      "Ġç½Ĺæĸ¯": 6220,
      "Ġåįİå°Ķ": 6221,
      "éħª": 6222,
      "èĥĨ": 6223,
      "è°į": 6224,
      "Ġä¸Ģéĺµ": 6225,
      "ĠæĬĽå¼ĥ": 6226,
      "Ġä¸Ģåı°": 6227,
      "Ġäº¤æį¢": 6228,
      "ĠåĬłå·ŀ": 6229,
      "Ġè§ĦåĪĴ": 6230,
      "Ġé«ĺå°Ķå¤«": 6231,
      "¨èĥĢ": 6232,
      "Ġæŀģç«¯": 6233,
      "Ġä¹Ĳè§Ĥ": 6234,
      "Ġå¤§å£°": 6235,
      "ĠåĬ¨æľº": 6236,
      "èµ«": 6237,
      "Ġçİīç±³": 6238,
      "Ġæķ´ä½ĵ": 6239,
      "ĠæĴķ": 6240,
      "Ġå«ģç»Ļ": 6241,
      "Ġé¦ĸéĥ½": 6242,
      "åĿĽ": 6243,
      "ç¬¦": 6244,
      "Ġä¿¡è´·": 6245,
      "æ¤": 6246,
      "æłı": 6247,
      "ĠåĴĸåķ¡æľº": 6248,
      "æŃ§": 6249,
      "Ġè¿ĩäºİ": 6250,
      "Ġé«ĺéĢŁåħ¬è·¯": 6251,
      "Ġå¸Ĥéķ¿": 6252,
      "Ġéĺµ": 6253,
      "Ġæīĭä¸ĭ": 6254,
      "Ġæķ´å¤©": 6255,
      "Ġç£¨": 6256,
      "Ġå¿įåıĹ": 6257,
      "īå¦Ĵ": 6258,
      "Ġä¸Ģå£°": 6259,
      "Ġä¸Ģå°ı": 6260,
      "Ġå¤įèĭı": 6261,
      "Ġåı¤èĢģ": 6262,
      "ĠèĽĭçĻ½": 6263,
      "çĮİ": 6264,
      "Ġå¿Ĺ": 6265,
      "Ġå¼Ĥå¸¸": 6266,
      "é«": 6267,
      "Ġçıł": 6268,
      "Ġåĵ¼": 6269,
      "ĠæĮ¥": 6270,
      "éĿĴ": 6271,
      "Ġå¸¸è§ģ": 6272,
      "Ġæ¬¾": 6273,
      "Ġå®ģæĦ¿": 6274,
      "ĠåĩĿ": 6275,
      "Ġä¸Ģäºº": 6276,
      "Ġå¤´èĦĳ": 6277,
      "Ġå¤§æ¥¼": 6278,
      "ç¨³": 6279,
      "Ġè¿Ŀåıį": 6280,
      "ĠåĽļ": 6281,
      "Ġä¸Ĭæ¶¨": 6282,
      "èĥ½åĬĽ": 6283,
      "ĠåĪĨåĪ«": 6284,
      "æĮ¯": 6285,
      "ĠéĴĵ": 6286,
      "Ġåħ¸åŀĭ": 6287,
      "Ġåī¥": 6288,
      "Ġè±¡å¾ģ": 6289,
      "ĠæĹ¨": 6290,
      "çĪ½": 6291,
      "èį·": 6292,
      "è¡Įä¸º": 6293,
      "Ġè¾¹ç¼ĺ": 6294,
      "Ġè½½": 6295,
      "ĠæĢ»ä¼ļ": 6296,
      "Ġç®±åŃĲ": 6297,
      "ĠæĺĨ": 6298,
      "Ġå¯¹æĬĹ": 6299,
      "ĠåİĤ": 6300,
      "Ġä¸½": 6301,
      "Ġå¹³éĿĻ": 6302,
      "æ°§åĮĸ": 6303,
      "Ġä¸įç®¡æĢİæł·": 6304,
      "Ġå¾Ĺä»¥": 6305,
      "Ġè¡Ĺéģĵ": 6306,
      "æĭį": 6307,
      "ĠæĲľæŁ¥": 6308,
      "çĨĬ": 6309,
      "Ġçİ©ç¬ĳ": 6310,
      "ĠåĪ®": 6311,
      "ĠåįıåĬ©": 6312,
      "Ġèīºæľ¯å®¶": 6313,
      "èĪ°": 6314,
      "ĠåĢį": 6315,
      "äºķ": 6316,
      "ĠæĹ¥å¸¸": 6317,
      "Ġéªļ": 6318,
      "Ġç²¾å½©": 6319,
      "Ġæ³¨åĨĮ": 6320,
      "Ġå¤ļæ¬¡": 6321,
      "ĠèĢģäºº": 6322,
      "ĠæĮĩå®ļ": 6323,
      "ç¿»": 6324,
      "Ġéĵģè·¯": 6325,
      "Ġå°ıåŀĭ": 6326,
      "Ġå®«": 6327,
      "ĠæİĴæĶ¾": 6328,
      "æĻ°": 6329,
      "Ġä¿ĿåŃĺ": 6330,
      "ĠæķĻè®Ń": 6331,
      "ĠæĬļ": 6332,
      "éĩĮåħĭ": 6333,
      "ĠåĽ½æľī": 6334,
      "Ġæīĭä¸Ń": 6335,
      "ĠæĪĴæĮĩ": 6336,
      "Ġæļ´éľ²": 6337,
      "åıĮ": 6338,
      "Ġè¯´åĩº": 6339,
      "ĶåŃĲ": 6340,
      "åĲ¯": 6341,
      "æĴŀ": 6342,
      "æĪĴ": 6343,
      "ĠåĨľæĿĳ": 6344,
      "ĠæĢªçī©": 6345,
      "æ³ª": 6346,
      "Ġå§ĵ": 6347,
      "ĠåĽ½æ°ĳ": 6348,
      "Ġå«īå¦Ĵ": 6349,
      "Ġå¤ľæĻļ": 6350,
      "åĹ": 6351,
      "æİª": 6352,
      "åĬłåĵ¥": 6353,
      "çĹķ": 6354,
      "Ġæ¸¸æ³³æ±ł": 6355,
      "Ġå¥¢": 6356,
      "å¸ħ": 6357,
      "Ġ'": 6358,
      "ĠæĹ¶å°ļ": 6359,
      "Ġå²©": 6360,
      "ĠåĩĮ": 6361,
      "Ġåģļä¸ª": 6362,
      "åŁĥ": 6363,
      "ĠèĬĿåĬłåĵ¥": 6364,
      "ĠèĹ": 6365,
      "Ġä¸»åĬ¨": 6366,
      "ĠæĬĢèĥ½": 6367,
      "Ġæ´Ĺæīĭ": 6368,
      "çıł": 6369,
      "Ġæ²¿çĿĢ": 6370,
      "Ġä»ĸæĿ¥": 6371,
      "ĠåĲĦä¸ª": 6372,
      "ĠåĮĹéĥ¨": 6373,
      "Ġåħ¨æĺ¯": 6374,
      "æ¡ĳ": 6375,
      "ĠæŃ¤äºĭ": 6376,
      "ä¸įå¥½": 6377,
      "è´¦": 6378,
      "Ġä¸Ģé¡¿": 6379,
      "ĠæŃ»èĢħ": 6380,
      "Ġç¥ŀçĪ¶": 6381,
      "Ġåģļäºĭ": 6382,
      "Ġå¼ºè¿«": 6383,
      "ĠæŃ¤æ¬¡": 6384,
      "Ġç¤¼æĭľ": 6385,
      "Ġä¸įåĩĨ": 6386,
      "ä»¥æĿ¥": 6387,
      "Ġçł¸": 6388,
      "æī¯": 6389,
      "åĿŀ": 6390,
      "Ġè¿ľè¿ľ": 6391,
      "Ġå¸¦åĽŀ": 6392,
      "Ġä¸Ģè¾ĪåŃĲ": 6393,
      "Ġä¾§": 6394,
      "ĠæķĻä¼ļ": 6395,
      "æ±½è½¦": 6396,
      "ä¼ļåĦ¿": 6397,
      "Ġè§£éĽĩ": 6398,
      "ĠæŁı": 6399,
      "Ġæľ¯": 6400,
      "è¾Ľ": 6401,
      "ĠéŃĶæ³ķ": 6402,
      "ĠèĦĤ": 6403,
      "ĠåĪ©æ¯Ķäºļ": 6404,
      "çļĩ": 6405,
      "Ġä»ªå¼ı": 6406,
      "ĠæĹłè®ºå¦Ĥä½ķ": 6407,
      "æĪĳçľĭæĿ¥": 6408,
      "ĠçĿ¡çľł": 6409,
      "Ġç¾İèģĶ": 6410,
      "Ġèĩ´åĳ½": 6411,
      "Ġæİ¨èįĲ": 6412,
      "åĨ»": 6413,
      "ĠæŃ¢": 6414,
      "ĠçŃīåĪ°": 6415,
      "çłĶ": 6416,
      "Ġä¸Ĭå¸Ĥ": 6417,
      "è¡°": 6418,
      "Ġæĭ¨": 6419,
      "Ġå°Ĩè¦ģ": 6420,
      "ĠæĪĲäºº": 6421,
      "Ġçº§": 6422,
      "Ġæ·±åħ¥": 6423,
      "ĠæĮīæĳ©": 6424,
      "Ġå¸ħ": 6425,
      "å¹»": 6426,
      "ĠåĬłéĢŁ": 6427,
      "Ġé¡µ": 6428,
      "Ġè¾©æĬ¤": 6429,
      "Ġä¸Ģç¬Ķ": 6430,
      "Ġå¦¥": 6431,
      "æ¶¯": 6432,
      "Ġå¦ĤåĲĮ": 6433,
      "Ġå°½åı¯èĥ½": 6434,
      "ĠåħĭéĩĮæĸ¯": 6435,
      "Ġè¿·äºº": 6436,
      "éĩįè¦ģ": 6437,
      "Ġå¥¥æĸ¯": 6438,
      "ĠçĨ¨": 6439,
      "Ġæ¸ħéĨĴ": 6440,
      "ĠèĪŀåı°": 6441,
      "ĠæģĴ": 6442,
      "Ġè´§çī©": 6443,
      "Ġæ¯ģçģŃ": 6444,
      "ĠèħĲè´¥": 6445,
      "Ġé¼»åŃĲ": 6446,
      "Ġé¥®é£Ł": 6447,
      "æĪĪ": 6448,
      "Ġèħ¹": 6449,
      "ĠäººæĿ¥": 6450,
      "ĠåĪĨç¦»": 6451,
      "ĠåĸĬ": 6452,
      "ĠèĪ¹ä¸Ĭ": 6453,
      "å±Ĭ": 6454,
      "ĠéĢıéľ²": 6455,
      "Ġåĭĩæ°Ķ": 6456,
      "ç½©": 6457,
      "åĨĴ": 6458,
      "ĠåºĶä»ĺ": 6459,
      "Ġçĳ": 6460,
      "èĥ¶": 6461,
      "Ġäº¦": 6462,
      "èĲ¨æĸ¯": 6463,
      "Ġå¸ĿåĽ½": 6464,
      "çºµ": 6465,
      "ĠéĹ´è°į": 6466,
      "Ġçī¹æĢ§": 6467,
      "ĠæľĢä½İ": 6468,
      "æĦıä¹ī": 6469,
      "ĠåĲĬ": 6470,
      "Ġåľ¨æĪĳçľĭæĿ¥": 6471,
      "Ġéº½": 6472,
      "ĠäºĶå¹´": 6473,
      "Ġå¤©ç©º": 6474,
      "Ġå¾®ç¬ĳ": 6475,
      "ĠæĨ": 6476,
      "Ġå§ĭç»Ī": 6477,
      "Ġå¸Ń": 6478,
      "ĠèģĬå¤©": 6479,
      "Ġæ³¡æ²«": 6480,
      "åĨł": 6481,
      "ä¸ĢæĿ¯": 6482,
      "èĩ³äºİ": 6483,
      "æ··": 6484,
      "Ġç¬ĳè¯Ŀ": 6485,
      "Ġä¿¡çĶ¨åį¡": 6486,
      "äºĽæĹ¶åĢĻ": 6487,
      "Ġæľ¬äºº": 6488,
      "Ġä¸Ģæł¹": 6489,
      "ĠåĮ¹": 6490,
      "ĠçĽ¸å¤Ħ": 6491,
      "ĠçĬ¹å¤ªäºº": 6492,
      "Ġå¤§ä¼Ĺ": 6493,
      "Ġåĥµ": 6494,
      "ä¸įæ¸ħ": 6495,
      "Ġé¥¼å¹²": 6496,
      "Ġç¼Ŀ": 6497,
      "Ġè¯¥åĽ½": 6498,
      "ĠæĬµæĬ¼": 6499,
      "Ġç»ıæµİåŃ¦å®¶": 6500,
      "èĵĦ": 6501,
      "Ġå¢ŀå¼º": 6502,
      "Ġåģľè½¦åľº": 6503,
      "Ġè¿Ĳä½ľ": 6504,
      "åĤ»": 6505,
      "Ġä¸Ģåı£": 6506,
      "èĢĹ": 6507,
      "å·Ŀ": 6508,
      "ĠçĲĥéĺŁ": 6509,
      "Ġèİ·åıĸ": 6510,
      "Ġæĳ§æ¯ģ": 6511,
      "Ġå®¶éķ¿": 6512,
      "Ġå¹²æ´»": 6513,
      "Ġæ¬ºéªĹ": 6514,
      "Ġè¾ŀèģĮ": 6515,
      "Ġå°¾": 6516,
      "è°Ĳ": 6517,
      "çģ°": 6518,
      "Ġçªĥ": 6519,
      "Ġæ·¡": 6520,
      "ªçİ¯": 6521,
      "Ġæ¸©åº¦": 6522,
      "Ġæľįè£ħ": 6523,
      "ĠæīĵèµĮ": 6524,
      "Ġè¿Ļå¼ł": 6525,
      "Ġè¢«æįķ": 6526,
      "æľįåĬ¡": 6527,
      "åī¯": 6528,
      "Ġè®ºæĸĩ": 6529,
      "ä½£": 6530,
      "ĠåĪĽå»º": 6531,
      "ĠåĴ¯": 6532,
      "Ġè´±": 6533,
      "Ġåħ¬ä¸»": 6534,
      "ĠæĸĹäºī": 6535,
      "Ġçłį": 6536,
      "Ġä¸ĢåłĨ": 6537,
      "Ġå¿ĥèĦıçĹħ": 6538,
      "ĠæĪĲç»©": 6539,
      "Ġè´¨çĸĳ": 6540,
      "Ġå¥ĩè¿¹": 6541,
      "Ġåĵ²åŃ¦": 6542,
      "ĠèĵĿèī²": 6543,
      "Ġè¯´å¾Ĺå¯¹": 6544,
      "Ġå°ıå¥³": 6545,
      "Ġå¥½è¿Ĳ": 6546,
      "ĠèĥĮåıĽ": 6547,
      "æį·": 6548,
      "åĴª": 6549,
      "Ġèį£å¹¸": 6550,
      "Ġæ¥¼ä¸Ĭ": 6551,
      "æĻĵ": 6552,
      "ä¸įåĩº": 6553,
      "Ġåľ°æĿ¿": 6554,
      "Ġè¡¥åħħ": 6555,
      "Ġè¢«è¿«": 6556,
      "Ġä¿Ŀéļľ": 6557,
      "å°ĺ": 6558,
      "Ġå½ĵæĪĲ": 6559,
      "ĠæıĲèµ·": 6560,
      "Ġç»§æī¿": 6561,
      "Ġä¸įæŃ¢": 6562,
      "Ġè¿Ļéĥ¨": 6563,
      "Ġéĵº": 6564,
      "Ġæ¶ĪéĻ¤": 6565,
      "ä»¿": 6566,
      "Ġçºµ": 6567,
      "ĠåĪĨéħį": 6568,
      "ĠåŀĤ": 6569,
      "æĹĭ": 6570,
      "Ġåıĳè¾¾": 6571,
      "ĠéĽ¶åĶ®": 6572,
      "Ġä¹īåĬ¡": 6573,
      "Ġå½ĵäºĭ": 6574,
      "ĠæİĴéĻ¤": 6575,
      "Ġè°¨æħİ": 6576,
      "Ġè¿ĻæĿ¡": 6577,
      "ĠåŁİéĩĮ": 6578,
      "æłĭ": 6579,
      "åľĨ": 6580,
      "ĠæĽ¿ä»£": 6581,
      "Ġè°Īè¿ĩ": 6582,
      "ĠéĺĲ": 6583,
      "Ġä¼Ĺå¤ļ": 6584,
      "Ġç»³": 6585,
      "è£ķ": 6586,
      "Ġç¿»è¯ĳ": 6587,
      "Ġä¿Ŀç½Ĺ": 6588,
      "ĠåĲĮä¸Ģä¸ª": 6589,
      "Ġå¯Ĵ": 6590,
      "ä¼ı": 6591,
      "èĭĹ": 6592,
      "Ġåľ¨åľº": 6593,
      "Ġå¹»æĥ³": 6594,
      "Ġèľľ": 6595,
      "Ġè¢ĭ": 6596,
      "Ġè´¡çĮ®": 6597,
      "Ġç½ļ": 6598,
      "Ġæľºæ¢°": 6599,
      "Ġå¥³çĶŁ": 6600,
      "Ġåĩºç§Łè½¦": 6601,
      "ĠçķĻç»Ļ": 6602,
      "æŁ±": 6603,
      "ä¸įåĲĮ": 6604,
      "ĠåīįæĻ¯": 6605,
      "éĩĩ": 6606,
      "ĠæĢĿç»´": 6607,
      "Ġåįİå°Ķè¡Ĺ": 6608,
      "Ġä½ĨæĦ¿": 6609,
      "Ġå¤§å°ı": 6610,
      "Ġä¸īå¤©": 6611,
      "Ġè´¦æĪ·": 6612,
      "ĠçĽ´åįĩæľº": 6613,
      "ĠéĤ£å®¶ä¼Ļ": 6614,
      "Ġæĥ³å¿µ": 6615,
      "Ġèµ°å¼Ģ": 6616,
      "Ġåľ¨åĨħ": 6617,
      "Ġå£®": 6618,
      "Ġç²®": 6619,
      "Ġåĺĺ": 6620,
      "Ġéħ¸å¥¶": 6621,
      "Ġå¼ĢæĶ¯": 6622,
      "Ġéģµå®Ī": 6623,
      "æķĻèĤ²": 6624,
      "Ġæĭ¿æĿ¥": 6625,
      "è¿ĽæĿ¥": 6626,
      "æĴĳ": 6627,
      "é»Ħ": 6628,
      "ĠæĦĪ": 6629,
      "Ġè¿ĲèĲ¥": 6630,
      "æĸ¥": 6631,
      "ĠæĬĳåĪ¶": 6632,
      "åıī": 6633,
      "ĠéĤ£æĿ¡": 6634,
      "Ġè¥¿éĥ¨": 6635,
      "Ġè·¯çº¿": 6636,
      "Ġè¯ķçĿĢ": 6637,
      "Ġåı£è¢ĭ": 6638,
      "æŃĩ": 6639,
      "ĠéĢļèĥĢ": 6640,
      "Ġè´Łæĭħ": 6641,
      "æĢİä¹Ī": 6642,
      "è½¨": 6643,
      "ĠæŁ¯": 6644,
      "ĠèĢĹ": 6645,
      "ĠåıĹä¸įäºĨ": 6646,
      "Ġæĸ¯åĿ¦": 6647,
      "èİ±åĿŀ": 6648,
      "åĽŀæĿ¥": 6649,
      "¾æ°Ķ": 6650,
      "èĥĸ": 6651,
      "ĠæĿĢå®³": 6652,
      "Ġæľ«": 6653,
      "ĠåĸĿä¸ĢæĿ¯": 6654,
      "åħĪçĶŁ": 6655,
      "Ġå¦ĵå¥³": 6656,
      "ĠæŁĵ": 6657,
      "Ġæļĸ": 6658,
      "ĠæĮ½": 6659,
      "ĠæĲº": 6660,
      "Ġæī©å¼ł": 6661,
      "Ġä¸Ĭè½¦": 6662,
      "ç®¡çĲĨ": 6663,
      "æ¸¡": 6664,
      "éĢīæĭ©": 6665,
      "éĥ½æĺ¯": 6666,
      "Ġä¸įåĥı": 6667,
      "æĭ³": 6668,
      "ĠçĪ·": 6669,
      "Ġç»Ŀä¸į": 6670,
      "å¾¡": 6671,
      "Ġåİļ": 6672,
      "Ġä¸įæĢİä¹Ī": 6673,
      "ĠåĩĢ": 6674,
      "Ġè¯»èĢħ": 6675,
      "ĠçĽĹ": 6676,
      "Ġå°ıéķĩ": 6677,
      "æĹĹ": 6678,
      "Ġçī©åĵģ": 6679,
      "Ġå®ı": 6680,
      "Ġæķ´çĲĨ": 6681,
      "Ġå¼¯": 6682,
      "ĠåĿł": 6683,
      "Ġä»ĺéĴ±": 6684,
      "èĸĦ": 6685,
      "ĠéĶ»": 6686,
      "éļ¶": 6687,
      "ĠåįĹæĸ¹": 6688,
      "éľī": 6689,
      "ĠæĻķ": 6690,
      "Ġåħ¨èº«": 6691,
      "èĦĤ": 6692,
      "ĠæİĪæĿĥ": 6693,
      "åģ¶": 6694,
      "Ġä¸ĢåĪĨéĴŁ": 6695,
      "Ġåħ³æİī": 6696,
      "ĠéĢļè®¯": 6697,
      "ĠåĵªæĢķ": 6698,
      "Ġå¤©èµ": 6699,
      "æĤ¨": 6700,
      "ĠäºĶä¸ª": 6701,
      "åĽĬ": 6702,
      "Ġç²¾åĬĽ": 6703,
      "Ġä¸įè®¸": 6704,
      "Ġæ¸Ĳ": 6705,
      "Ġè¯´çľŁ": 6706,
      "Ġè°İè¨Ģ": 6707,
      "Ġè¯´çľŁçļĦ": 6708,
      "Ġæīĵè´¥": 6709,
      "Ġçİ°æľī": 6710,
      "ĠèĭıèģĶ": 6711,
      "ĠåıĹå¤Ł": 6712,
      "Ġéĵ¾": 6713,
      "èĤĥ": 6714,
      "Ġå½±åĵįåĬĽ": 6715,
      "ĠåĨ²åĩ»": 6716,
      "ĠèĤ¡å¸Ĥ": 6717,
      "Ġæ¯«ä¸į": 6718,
      "ĠéĨī": 6719,
      "Ġéĩįå»º": 6720,
      "è´£ä»»": 6721,
      "ĠåİŁæľ¬": 6722,
      "Ġä¿ĦåĽ½": 6723,
      "Ġå½ĵäºĭäºº": 6724,
      "Ġå·«": 6725,
      "Ġç¾¤ä½ĵ": 6726,
      "è¶Ł": 6727,
      "åĴĴ": 6728,
      "Ġå¯¼å¼¹": 6729,
      "Ġæĥħäºº": 6730,
      "ĠåĸĿçĤ¹": 6731,
      "è®¾æĸ½": 6732,
      "éĺ¶çº§": 6733,
      "Ġå¤ļç§į": 6734,
      "ĠéŀĭåŃĲ": 6735,
      "Ġæ²Ļæ¼ł": 6736,
      "Ġè¡¥åģ¿": 6737,
      "éĶĭ": 6738,
      "Ġéĩĳèŀįåį±æľº": 6739,
      "æ¯ķ": 6740,
      "ĠåĴ±ä¿©": 6741,
      "ä¸įåı¯": 6742,
      "çĽĳ": 6743,
      "Ġå¹¶æľª": 6744,
      "Ġç«ĭåľº": 6745,
      "Ġå¥´éļ¶": 6746,
      "è¿ĩåİ»": 6747,
      "Ġå¾Ĺåĩº": 6748,
      "ĠçĶµæ±ł": 6749,
      "Ġèħ°": 6750,
      "æĺŁæľŁ": 6751,
      "Ġé¥¥": 6752,
      "Ġç¹ģèį£": 6753,
      "Ġæŀľæ±ģ": 6754,
      "Ġå¿ĥä¸Ń": 6755,
      "Ġè½°": 6756,
      "Ġå¨¶": 6757,
      "Ġçī§å¸Ī": 6758,
      "æĥ¨": 6759,
      "éĨĩ": 6760,
      "ĠåĽ¾çīĩ": 6761,
      "Ġå¤´åĦ¿": 6762,
      "æĤ£": 6763,
      "Ġæİ¨åĩº": 6764,
      "Ġåīĳ": 6765,
      "Ġä¿Ŀå®ī": 6766,
      "ĠæĹłè®ºæĺ¯": 6767,
      "Ġé¢ĩ": 6768,
      "Ġæĸĩæĺİ": 6769,
      "ĠéģĵçĲĨ": 6770,
      "Ġåı²èĴĤ": 6771,
      "Ġå®ªæ³ķ": 6772,
      "åĲĽ": 6773,
      "Ġä¸ªæĢ§": 6774,
      "éĽ¾": 6775,
      "Ġè½¦åŃĲ": 6776,
      "ĠåĪĺ": 6777,
      "å»·": 6778,
      "ĠåľŁèĢ³": 6779,
      "ĠçŃ¾ç½²": 6780,
      "ĠèĦı": 6781,
      "å£«é¡¿": 6782,
      "Ġæ¸ħæĻ°": 6783,
      "Ġä½ĵåĨħ": 6784,
      "ĠæķĪçİĩ": 6785,
      "ĠåľŁèĢ³åħ¶": 6786,
      "ĠçĪµ": 6787,
      "Ġå¤§ä½¿": 6788,
      "Ġä¸ĩç¾İåħĥ": 6789,
      "Ġå¥½èİ±åĿŀ": 6790,
      "ä¸įå®ļ": 6791,
      "ĠãĢį": 6792,
      "ĠéĢĴ": 6793,
      "Ġè¡ĹåĮº": 6794,
      "ĠéĻªå®¡": 6795,
      "çĩĥ": 6796,
      "ĠãĢĮ": 6797,
      "æİĺ": 6798,
      "åĳĨ": 6799,
      "Ġä¸¤åĳ¨": 6800,
      "Ġåįıè°ĥ": 6801,
      "ĠéĢĶå¾Ħ": 6802,
      "Ġæĥ³æĿ¥": 6803,
      "åıĺåĮĸ": 6804,
      "Ġå¿łè¯ļ": 6805,
      "¤ç»´": 6806,
      "Ġç¥ŀå¥ĩ": 6807,
      "ĠéģĹä¼ł": 6808,
      "çªĹ": 6809,
      "ĠèģĮè´£": 6810,
      "Ġè¿ĶåĽŀ": 6811,
      "ä¸ĳ": 6812,
      "åºĨ": 6813,
      "ĠæĹ¥æľŁ": 6814,
      "ĠæĭĶ": 6815,
      "Ġç§Ģ": 6816,
      "Ġè¾©è®º": 6817,
      "Ġå°ļæľª": 6818,
      "Ġå¼ķæĵİ": 6819,
      "Ġæľīæľº": 6820,
      "Ġå¤§åºĬ": 6821,
      "ĠéĩĳéĴ±": 6822,
      "ĠéĴ±åĮħ": 6823,
      "ĠèĤ¡ä¸ľ": 6824,
      "Ġæ¯ķç«Ł": 6825,
      "Ġèĳ¬ç¤¼": 6826,
      "ĠåĽĽå¤Ħ": 6827,
      "Ġåħįçĸ«": 6828,
      "ĠåıĳçĶµ": 6829,
      "ĠæĪıåī§": 6830,
      "Ġæ²®": 6831,
      "Ġæİ¨è¿Ľ": 6832,
      "Ġåľ¨çº¿": 6833,
      "Ġå¸ĥæľĹ": 6834,
      "ĠåĿİ": 6835,
      "Ġå»ī": 6836,
      "Ġç¤¾ä¼ļä¸»ä¹ī": 6837,
      "ĠåĢŁåı£": 6838,
      "Ġæįī": 6839,
      "Ġæ²®ä¸§": 6840,
      "Ġæĥ³åĥı": 6841,
      "Ġç½Ĳ": 6842,
      "æ¶Ĥ": 6843,
      "é£ŀæľº": 6844,
      "Ġæ¸Ķ": 6845,
      "Ġçľĭä¸įè§ģ": 6846,
      "Ġè¾Ĩ": 6847,
      "ĠçĪ±å¥½": 6848,
      "Ġå¸Ĥä¸Ńå¿ĥ": 6849,
      "æĭĶ": 6850,
      "Ġèµ°åĲĳ": 6851,
      "ĠæĮ¨": 6852,
      "Ġæ¦": 6853,
      "ĠæĪ·": 6854,
      "ĠåĪļå¥½": 6855,
      "Ġä¸įæ»¡": 6856,
      "Ġå¤§éº»": 6857,
      "ĠåĪĨå¸ĥ": 6858,
      "Ġæĺ¾èĳĹ": 6859,
      "ĠåĪĽä½ľ": 6860,
      "Ġåıĸä»£": 6861,
      "ĠæĢ»éĥ¨": 6862,
      "Ġä½ľä¸ļ": 6863,
      "åĬłæĸ¯": 6864,
      "Ġæ²ĥå°Ķ": 6865,
      "Ġä½ķæĹ¶": 6866,
      "Ġæı¡": 6867,
      "Ġè¦ĨçĽĸ": 6868,
      "ĠæĽ´ç³Ł": 6869,
      "Ġç«¯": 6870,
      "ĠæĹłæĦı": 6871,
      "ĠåłĨ": 6872,
      "ĠæĸĻ": 6873,
      "Ġåħ¬éĩĮ": 6874,
      "ĠåŃ¦æľ¯": 6875,
      "ĠæĶ¾å¼Ģ": 6876,
      "Ġèĳ£äºĭä¼ļ": 6877,
      "ĠçŁŃæľŁ": 6878,
      "ĠæĶ¯ç¥¨": 6879,
      "Ġè§Ĥå¿µ": 6880,
      "æ¦Ħ": 6881,
      "Ġä¹ĺå®¢": 6882,
      "Ġå¤ªå¹³": 6883,
      "ĠéªĹåŃĲ": 6884,
      "ĠåĪł": 6885,
      "Ġå¥³åŃ©åŃĲ": 6886,
      "Ġæĭīæĸ¯": 6887,
      "ĠçŁĽçĽ¾": 6888,
      "Ġèĩªè±ª": 6889,
      "ĠçĽĴåŃĲ": 6890,
      "èĤª": 6891,
      "Ġå¿ĥçģµ": 6892,
      "Ġæ£ĴçĲĥ": 6893,
      "Ġä¸īæĺİ": 6894,
      "Ġçİ¯ä¿Ŀ": 6895,
      "Ġä¸ĭè·Į": 6896,
      "Ħæ¦Ħ": 6897,
      "Ĳå°Ħ": 6898,
      "æŀĿ": 6899,
      "Ġä¸ĭåĳ¨": 6900,
      "èĭ±éĩĮ": 6901,
      "Ġå®¡æŁ¥": 6902,
      "å¤ªå¤ļ": 6903,
      "Ġå¥³åŃĲ": 6904,
      "Ġè§ĦçŁ©": 6905,
      "ĠåĲ¸å¼ķåĬĽ": 6906,
      "å°Ĭ": 6907,
      "Ġä½ĵçİ°": 6908,
      "Ġæį¡": 6909,
      "Ġæ©Ħæ¦Ħ": 6910,
      "Ġå¾Ĵ": 6911,
      "éģĹ": 6912,
      "ĠåİĦ": 6913,
      "è¯Ĺ": 6914,
      "ĠæĥĬäºº": 6915,
      "Ġç¦ıåĪ©": 6916,
      "Ġè·Į": 6917,
      "Ġäº¤è°Ī": 6918,
      "ĠèĦĨå¼±": 6919,
      "Ġå®¢æ°Ķ": 6920,
      "Ġè½¦è¾Ĩ": 6921,
      "Ġç¬Ķè®°": 6922,
      "Ġä¸ĢåĽ¢": 6923,
      "Ġå¤®": 6924,
      "Ġå®¿": 6925,
      "Ġæĥ³è¿ĩ": 6926,
      "Ġä¸¤èĢħ": 6927,
      "Ġä¸īæĺİæ²»": 6928,
      "Ġè¿ĽåĮĸ": 6929,
      "Ġæ²ŁéĢļ": 6930,
      "Ġåħĭæĭīåħĭ": 6931,
      "Ġä»¥æŃ¤": 6932,
      "ä»·æł¼": 6933,
      "Ġåħ³èģĶ": 6934,
      "åķ¥": 6935,
      "Ġè®¾ç«ĭ": 6936,
      "Ġæ£ĢéªĮ": 6937,
      "Ġå¹¿æĴŃ": 6938,
      "Ġèĭ±æł¼åħ°": 6939,
      "Ġå½ĵåĪĿ": 6940,
      "ĠèŃ¦å±Ģ": 6941,
      "èķ¾": 6942,
      "è¿Ķ": 6943,
      "ĠçĽĪ": 6944,
      "å½»": 6945,
      "Ġå®ĮåĸĦ": 6946,
      "Ġç¾İèģĶåĤ¨": 6947,
      "Ġæ¨¡çī¹": 6948,
      "è¯Ī": 6949,
      "ĠåĲĮå¿Ĺ": 6950,
      "Ġä¿®æĶ¹": 6951,
      "Ġä¸ºåķ¥": 6952,
      "çħ": 6953,
      "Ġä¸Ĭæł¡": 6954,
      "ĠèģĬèģĬ": 6955,
      "ĠåıĮäºº": 6956,
      "ĠåĲ«éĩı": 6957,
      "ĠéĺŁéķ¿": 6958,
      "ĠæĻºèĥ½": 6959,
      "Ġéĥ¨éķ¿": 6960,
      "Ġè§Ĥçľĭ": 6961,
      "ĠæĤ²ä¼¤": 6962,
      "ĠåıĹå®³äºº": 6963,
      "Ġç¼ĸè¾ĳ": 6964,
      "Ġå¥Ķ": 6965,
      "Ġæŀģåħ¶": 6966,
      "Ġçĸ¼çĹĽ": 6967,
      "Ġè¶³ä»¥": 6968,
      "ĠçĲĨå¿µ": 6969,
      "Ġè½¬åĲĳ": 6970,
      "ĠæĿ¡æ¬¾": 6971,
      "Ġæģ¶éŃĶ": 6972,
      "ĠåĲĳåīį": 6973,
      "é©¬æĸ¯": 6974,
      "Ġèª": 6975,
      "åī²": 6976,
      "Ġé¢Ħéĺ²": 6977,
      "æ¹¿": 6978,
      "Ġå¼Ģå±ķ": 6979,
      "Ġçº¹": 6980,
      "Ġä»ĩ": 6981,
      "ç»¿": 6982,
      "çŀĴ": 6983,
      "ĠéĢģç»Ļ": 6984,
      "Ġåľ°çĲĨ": 6985,
      "Ġéħ·": 6986,
      "ĠæĬ¥å¤į": 6987,
      "Ġè£Ĥ": 6988,
      "Ġè£ĻåŃĲ": 6989,
      "Ġæµĭéĩı": 6990,
      "ĠèĪ¬çļĦ": 6991,
      "Ġæ¯Ķå°Ķ": 6992,
      "Ġæ¶Īéĺ²": 6993,
      "éķĳ": 6994,
      "ĠæľĢä¸º": 6995,
      "Ġç¤¼è²Į": 6996,
      "Ġå¹¿åľº": 6997,
      "ĠåĽ°æī°": 6998,
      "å§ĵ": 6999,
      "ĠåĽŃ": 7000,
      "ĠçŃ¾åĲį": 7001,
      "Ġè¡°éĢĢ": 7002,
      "ĠåĴĮè°Ĳ": 7003,
      "ĠéĢļçĶ¨": 7004,
      "ç²Ĵ": 7005,
      "ĠåŁºæľ¬ä¸Ĭ": 7006,
      "èĢ»": 7007,
      "Ġåħ¨æĸ°": 7008,
      "ĠåıįæĬĹ": 7009,
      "ĠçĶ·åıĭ": 7010,
      "Ġå§¿": 7011,
      "ĠåĲ¸æĶ¶": 7012,
      "Ġè£ħå¤ĩ": 7013,
      "åįľ": 7014,
      "å®´": 7015,
      "ĠåħĪè¿Ľ": 7016,
      "ä¾Ŀ": 7017,
      "Ġè¿Ĳæ°Ķ": 7018,
      "ĠæķĪåºĶ": 7019,
      "Ġçĳŀå£«": 7020,
      "Ġä½Ľç½Ĺ": 7021,
      "Ġåº§ä½į": 7022,
      "ĠæĹłéļľç¢į": 7023,
      "ĠèĨĿ": 7024,
      "åĬ£": 7025,
      "Ġå¤ĸæĺŁ": 7026,
      "äº§åĵģ": 7027,
      "æĳĩ": 7028,
      "ĠåĲĦèĩª": 7029,
      "Ġå¹³çŃī": 7030,
      "Ġæ³¢å£«é¡¿": 7031,
      "Ġåħ¥ä¾µ": 7032,
      "ĠèĴ¸": 7033,
      "ĠèĶ¬": 7034,
      "Ġæīĳ": 7035,
      "Ġèµ¶å¿«": 7036,
      "Ġè¯ļå®ŀ": 7037,
      "Ġè¿ĩå¾Ĺ": 7038,
      "æ£į": 7039,
      "Ġå¤«å¦ĩ": 7040,
      "æ´¥": 7041,
      "çĺ¾": 7042,
      "ĠåŃŁ": 7043,
      "çļĦè¯Ŀ": 7044,
      "Ġæĥħå½¢": 7045,
      "Ġéĥ¨èĲ½": 7046,
      "Ġç¬¬äºĶ": 7047,
      "ĠæĮĩæķ°": 7048,
      "ĠåķĨäºº": 7049,
      "ĠåĽ¾åĥı": 7050,
      "ĠæĹ¨åľ¨": 7051,
      "Ġä»¥éĺ²": 7052,
      "ĠåįģäºĮ": 7053,
      "éĺĶ": 7054,
      "Ġéĺģ": 7055,
      "Ġå¤©çĦ¶æ°Ķ": 7056,
      "Ġå¥¥è¿Ĳä¼ļ": 7057,
      "ĠæĶ¯æĮģèĢħ": 7058,
      "è°ĥæŁ¥": 7059,
      "éĤ®ä»¶": 7060,
      "Ġä¼ı": 7061,
      "ĠçĪµå£«": 7062,
      "ä½©": 7063,
      "Ġåħ¬æŃ£": 7064,
      "ĠçĽ®åĩ»": 7065,
      "åĶ¤": 7066,
      "çĸ¯": 7067,
      "Ġå¤įåĪ¶": 7068,
      "ĠéĢĤå½ĵ": 7069,
      "Ġä¹¡æĿĳ": 7070,
      "Ġå®´": 7071,
      "è¥¿äºļ": 7072,
      "Ġå°ıæĹ¶åĢĻ": 7073,
      "ĠèĢĲå¿ĥ": 7074,
      "ĠæĶ¿å®¢": 7075,
      "ĠæĪĳæŁ¥": 7076,
      "ĠæĶ¿æĿĥ": 7077,
      "æ¸¸æĪı": 7078,
      "ĠèģļéĽĨ": 7079,
      "ĠéĶ»çĤ¼": 7080,
      "çĸ¾": 7081,
      "Ġèĥ³": 7082,
      "Ġå¤©èµĭ": 7083,
      "ä¼Ĳ": 7084,
      "Ġçİ°çĬ¶": 7085,
      "Ġåģ·åģ·": 7086,
      "æ³°": 7087,
      "»è¾ĳ": 7088,
      "Ġè´«åĽ°": 7089,
      "éĥ¨éķ¿": 7090,
      "çŀ§": 7091,
      "Ġåĩºå¸Ń": 7092,
      "åį´": 7093,
      "Ġåħµ": 7094,
      "Ġè¾¹å¢ĥ": 7095,
      "Ġè·ŁæĪĳ": 7096,
      "æ¯¯": 7097,
      "Ġè¦ģæŃ»": 7098,
      "Ġä¸Ģå¤´": 7099,
      "èµŀ": 7100,
      "Ġå¿ħçĦ¶": 7101,
      "ä½łåİ»": 7102,
      "Ġä¿Ŀå¯Ĩ": 7103,
      "ĠèĪªçıŃ": 7104,
      "ĠåĿıäºº": 7105,
      "éħ±": 7106,
      "Ġå°ıä¼ĻåŃĲ": 7107,
      "Ġç§įæ¤į": 7108,
      "ĠçĻ¾ä¸ĩ": 7109,
      "Ġæ¯ıäºº": 7110,
      "ĠåİŁå§ĭ": 7111,
      "Ġä¸Ģæŀ¶": 7112,
      "Ġå¤ªä¹ħ": 7113,
      "Ġä¸Ģéģĵ": 7114,
      "ĠçĽŁ": 7115,
      "Ġç¼ħ": 7116,
      "ĠåĮħè£ħ": 7117,
      "Ġä¸Ģæķ´å¤©": 7118,
      "æ»´": 7119,
      "Ġäº²å¯Ĩ": 7120,
      "ĠæīĭèĩĤ": 7121,
      "Ġæľªèĥ½": 7122,
      "èĳ¬": 7123,
      "Ġè¸©": 7124,
      "ĠéĻĮçĶŁäºº": 7125,
      "æİªæĸ½": 7126,
      "ĠåįĬä¸ª": 7127,
      "ĠåıĤè®®åĳĺ": 7128,
      "ĠçĶµæ¢¯": 7129,
      "Ġå®īå¾·": 7130,
      "Ġç»ĨèıĮ": 7131,
      "Ġåĩ¯çī¹": 7132,
      "Ġä¸°çĽĽ": 7133,
      "Ġå¤ĸå¥Ĺ": 7134,
      "ĠéŃĶé¬¼": 7135,
      "Ġè£¸": 7136,
      "ĠåİĮåĢ¦": 7137,
      "Ġåīįè¿Ľ": 7138,
      "Ġæĭ¥æĬ±": 7139,
      "Ġè¿Ľç¨ĭ": 7140,
      "ĠèĽĩ": 7141,
      "Ġä¸¤åĲį": 7142,
      "ĠåŃ¦èĢħ": 7143,
      "åĪĬ": 7144,
      "Ġå¤ļä¸ª": 7145,
      "ĠæĶ¹è¿Ľ": 7146,
      "Ġå±ķçİ°": 7147,
      "Ġåį°ç¬¬": 7148,
      "Ġèĭıæł¼åħ°": 7149,
      "ĠåıĻåĪ©äºļ": 7150,
      "ĠèµļéĴ±": 7151,
      "Ġç¨įå¾®": 7152,
      "ĠæĮĩç¤º": 7153,
      "ĠåĨĻä½ľ": 7154,
      "Ġå½ĵå¿ĥ": 7155,
      "ĠèĶ¬èıľ": 7156,
      "Ġçº·": 7157,
      "Ġä¸ĢåĪ»": 7158,
      "Ġä¸Ĭå°ī": 7159,
      "æĺĵæĸ¯": 7160,
      "ĠæģĲæĢĸåĪĨåŃĲ": 7161,
      "Ġèį·åħ°": 7162,
      "Ġç§ĺä¹¦": 7163,
      "Ġå±Ī": 7164,
      "ĠåĸľçĪ±": 7165,
      "Ġå¥½ä¸įå¥½": 7166,
      "Ġæ¿Ģæĥħ": 7167,
      "Ġæ£Ģå¯Łå®ĺ": 7168,
      "è¡·": 7169,
      "ĠçĻ½å®«": 7170,
      "èĨĬ": 7171,
      "Ġå§Ķæīĺ": 7172,
      "Ġçħ®": 7173,
      "ĠåĽ½éĺ²": 7174,
      "Ġéĵľ": 7175,
      "èµł": 7176,
      "çĽĴ": 7177,
      "ĠèģĶç»ľ": 7178,
      "ĠåĪ¶æľį": 7179,
      "Ġè¿«ä½¿": 7180,
      "Ġä¸įæĺİ": 7181,
      "ç©´": 7182,
      "è¿ĲåĬ¨": 7183,
      "Ġä»£æĽ¿": 7184,
      "ĠçİĭåŃĲ": 7185,
      "æŃ¦åĻ¨": 7186,
      "Ġä»¥å¾Ģ": 7187,
      "ĠæĹĹ": 7188,
      "ç¹ģ": 7189,
      "Ġè¿ģ": 7190,
      "èĩ£": 7191,
      "ĠåĶ®": 7192,
      "ä¿Ħ": 7193,
      "ĠçīĽä»Ķ": 7194,
      "åŀĴ": 7195,
      "åĲĵ": 7196,
      "Ġä¸Ģçľ¼": 7197,
      "æģĲ": 7198,
      "ĠçĶľå¿ĥ": 7199,
      "Ġéĺ»ç¢į": 7200,
      "Ġæ´Ĺæ¾¡": 7201,
      "ç¯·": 7202,
      "ĠæĹłæķ°": 7203,
      "ĠæŁľ": 7204,
      "Ġç²¾ç¥ŀçĹħ": 7205,
      "Ġçī©ç§į": 7206,
      "ä½ĳ": 7207,
      "Ġä¸¥èĤĥ": 7208,
      "Ġå¥ĭ": 7209,
      "ĠéĿ¢è¯ķ": 7210,
      "ç¼Ŀ": 7211,
      "ĠèĦĤèĤª": 7212,
      "Ġåįĳ": 7213,
      "Ġå®ŀè¯Ŀ": 7214,
      "ĠæĦ¿æľĽ": 7215,
      "ĠæŁ¥çľĭ": 7216,
      "æĮ¡": 7217,
      "ç½ķ": 7218,
      "æĶ¶åħ¥": 7219,
      "Ġåĳ¼åĲģ": 7220,
      "Ġç»ıçºª": 7221,
      "ĠåĸĿéĨī": 7222,
      "ä¿ĥ": 7223,
      "Ġä¸ľäº¬": 7224,
      "ĠèŀįèµĦ": 7225,
      "ĠèĤļåŃĲ": 7226,
      "Ġé¼»": 7227,
      "Ġä¹Ĳè¶£": 7228,
      "Ġå¯ĨåĪĩ": 7229,
      "å²©": 7230,
      "Ġä¿ĥä½¿": 7231,
      "ĠæľīæĦı": 7232,
      "Ġä¸¤åĽ½": 7233,
      "ĠåĴĭ": 7234,
      "Ġå®īæħ°": 7235,
      "Ġå½ķéŁ³": 7236,
      "Ġè½¨éģĵ": 7237,
      "Ġèŀº": 7238,
      "Ġçľĭå¾Ĺ": 7239,
      "ĠåºĦ": 7240,
      "Ġè§ĦèĮĥ": 7241,
      "Ġå®ļä½į": 7242,
      "ĠåĲ¹é£İ": 7243,
      "Ġçľ¼åīį": 7244,
      "Ġè¯¢": 7245,
      "ĠæŃ£è¦ģ": 7246,
      "Ġæ¼Ĥ": 7247,
      "Ġç¬¬äºĮæ¬¡": 7248,
      "Ġæĳ©æīĺ": 7249,
      "ĠçīĻé½¿": 7250,
      "Ġé³": 7251,
      "å°ĳå¹´": 7252,
      "ĠæĺĤè´µ": 7253,
      "Ġå¼ºå¥¸": 7254,
      "Ġä»ĵåºĵ": 7255,
      "Ġå®£ç§°": 7256,
      "Ġç¥ŀåľ£": 7257,
      "ĠåºŁè¯Ŀ": 7258,
      "Ġçī¹èī²": 7259,
      "ĠæĲħ": 7260,
      "Ġè¶ĬåįĹ": 7261,
      "èĢ¶": 7262,
      "Ġæīĵæŀ¶": 7263,
      "Ġç¾İå¥³": 7264,
      "ĠåĲ«æľī": 7265,
      "ĠéĴ»çŁ³": 7266,
      "Ġèİī": 7267,
      "ĠçľŁæĥ³": 7268,
      "Ġå¤®è¡Į": 7269,
      "ĠéĿĴå¹´": 7270,
      "å°ĸ": 7271,
      "åİī": 7272,
      "ç¼ĸ": 7273,
      "ĠåĲĽ": 7274,
      "ĠæĽ´æĸ°": 7275,
      "Ġå±ł": 7276,
      "ç¨¿": 7277,
      "ĠæĬ½çĥŁ": 7278,
      "Ġåĺ²ç¬ĳ": 7279,
      "ĠæıĲäº¤": 7280,
      "Ġäººå·¥": 7281,
      "ĠåľŁå£¤": 7282,
      "Ġå¤ªè¿ĩ": 7283,
      "Ġç»ĵå±Ģ": 7284,
      "Ġå¥³åıĭ": 7285,
      "Ġå±¥": 7286,
      "Ġå·¥ç¨ĭå¸Ī": 7287,
      "Ġåį°ç¬¬å®ī": 7288,
      "èģĺ": 7289,
      "ĠéļĲçŀĴ": 7290,
      "ĠåıĸåĨ³": 7291,
      "Ġåı¯è¡Į": 7292,
      "ĠèĢģå¤©": 7293,
      "èĻļ": 7294,
      "ä¿ĿéĻ©": 7295,
      "Ġéģį": 7296,
      "Ġä¸įåĪ©": 7297,
      "ĠçĤ®": 7298,
      "Ġä¸Ģç¯": 7299,
      "åĨľ": 7300,
      "Ġä»İåīį": 7301,
      "Ġå°Ĭæķ¬": 7302,
      "ĠæĹłæīĢè°ĵ": 7303,
      "Ġåľ¨æĦı": 7304,
      "ĠçĹķ": 7305,
      "Ġå¸¦ç»Ļ": 7306,
      "åĸĬ": 7307,
      "Ġåħĥç´ł": 7308,
      "Ġè´¾": 7309,
      "Ġå°ıå°ıçļĦ": 7310,
      "ĠæĭĲ": 7311,
      "ĠæĩĤå¾Ĺ": 7312,
      "Ġå¡ĳæĸĻ": 7313,
      "ĠæĹı": 7314,
      "Ġå¼ºåĪ¶": 7315,
      "ĠçĪ·çĪ·": 7316,
      "Ġä¸Ģé¦ĸ": 7317,
      "Ġæľ¬è´¨": 7318,
      "Ġå¤§éģĵ": 7319,
      "Ġè¿ĽæĶ»": 7320,
      "Ġæ°Ķä½ĵ": 7321,
      "æľĪä»½": 7322,
      "Ġåºŀå¤§": 7323,
      "Ġå±ĢéĿ¢": 7324,
      "Ġæ±ĩçİĩ": 7325,
      "Ġå¥³çİĭ": 7326,
      "Ġèĥ³èĨĬ": 7327,
      "ĠéĤ£è¾Ĩ": 7328,
      "æĸ¯é¡¿": 7329,
      "æ³¥": 7330,
      "Ġä¼ģåĽ¾": 7331,
      "ç¨ĭåºı": 7332,
      "Ġæ¨¡ç³Ĭ": 7333,
      "ĠéĽĨä½ĵ": 7334,
      "Ġæī«æıı": 7335,
      "Ġå¹½é»ĺ": 7336,
      "æĢĿè®®": 7337,
      "Ġä¸įåı¯æĢĿè®®": 7338,
      "Ġäººä½ĵ": 7339,
      "ĠåĬ«": 7340,
      "Ġå¢ĵ": 7341,
      "Ġåı¤ä»£": 7342,
      "Ġç¼ºéĻ·": 7343,
      "éĹ·": 7344,
      "ĠæĩĴ": 7345,
      "æŀļ": 7346,
      "Ġä¸İåħ¶": 7347,
      "Ġä¼łæŁĵ": 7348,
      "Ġå¹³åı°": 7349,
      "ĠåıĮæīĭ": 7350,
      "èľĤ": 7351,
      "Ġè¿ĩæķı": 7352,
      "Ġæ¨¡æĭŁ": 7353,
      "Ġåĵ¥ä¼¦": 7354,
      "ĠæĪĳè¯ķ": 7355,
      "éģ£": 7356,
      "å¢ĵ": 7357,
      "Ġå°Ħåĩ»": 7358,
      "æµ¦": 7359,
      "ĠèĬ¬": 7360,
      "Ġåĳ¨ä¸Ģ": 7361,
      "Ġå¨ģå»ī": 7362,
      "Ġæīĵæī®": 7363,
      "ĠåĽłèĢĮ": 7364,
      "Ġé¥±": 7365,
      "ä¸įéĶĻ": 7366,
      "ĠåĮĹæĸ¹": 7367,
      "Ġè±Ĩ": 7368,
      "Ġéķľå¤´": 7369,
      "çĶ¸": 7370,
      "Ġå±ĭéĩĮ": 7371,
      "Ġå¤§å¤§": 7372,
      "Ġå¤§åİħ": 7373,
      "Ġå¹²æī°": 7374,
      "ĠéĿĴå°ĳå¹´": 7375,
      "Ġèĳ¡èĲĦéħĴ": 7376,
      "ĠåİŁåŃĲ": 7377,
      "Ġæ¿ĢåĬ±": 7378,
      "çĮª": 7379,
      "Ġå®Ŀè´ĿåĦ¿": 7380,
      "Ġä¸Ģç¯ĩ": 7381,
      "Ġçħİ": 7382,
      "Ġæ·»åĬł": 7383,
      "Ġçłģå¤´": 7384,
      "Ġå¤ļæł·": 7385,
      "Ġéª¨å¤´": 7386,
      "Ġæľºåħ³": 7387,
      "Ġæ³°åĽ½": 7388,
      "ĠåıĸåĨ³äºİ": 7389,
      "Ġåģ¿": 7390,
      "æĪ´": 7391,
      "Ġå¹²é¢Ħ": 7392,
      "Ġè¶ħè¶Ĭ": 7393,
      "Ġåłµ": 7394,
      "Ġä¾Ŀæį®": 7395,
      "Ġå°ĸåı«": 7396,
      "Ġä¸įè®º": 7397,
      "ĠèĪ¹éķ¿": 7398,
      "ĠéĺŁåĳĺ": 7399,
      "åĲĲ": 7400,
      "Ġæ³³": 7401,
      "ĠåĶī": 7402,
      "ĠæĬ¹": 7403,
      "Ġæıį": 7404,
      "Ġç¬¼": 7405,
      "è·Ŀ": 7406,
      "ĠéĽĩåĳĺ": 7407,
      "çĤ®": 7408,
      "çĶŁçī©": 7409,
      "ĠåĽ°å¢ĥ": 7410,
      "çĳ°": 7411,
      "ĠæĪĳè§ģ": 7412,
      "Ġå¼Ģåı£": 7413,
      "æĻļä¸Ĭ": 7414,
      "ĠæĴĳ": 7415,
      "Ġåıĭè°Ĭ": 7416,
      "éº»çĥ¦": 7417,
      "Ġå·¥ä¼ļ": 7418,
      "«çĳ°": 7419,
      "Ġå¾Īéķ¿": 7420,
      "ĠçĶŁçĹħ": 7421,
      "Ġä»ĬæĹ©": 7422,
      "ĠçķĻè¨Ģ": 7423,
      "çĮ©": 7424,
      "Ġè¨Ģè®º": 7425,
      "ĠéĤ£æ¬¡": 7426,
      "Ġæĸ°åĬł": 7427,
      "Ġåı²å¯Ĩ": 7428,
      "Ġèĩ³ä»Ĭ": 7429,
      "ĠèĻ«": 7430,
      "Ġæ³°åĭĴ": 7431,
      "ĠåŃ£èĬĤ": 7432,
      "Ġåĸī": 7433,
      "Ġæ±Ł": 7434,
      "Ġè¸ı": 7435,
      "Ġå°ıå¥³åŃ©": 7436,
      "Ġä¸Ģåĳĺ": 7437,
      "æĿ¥è¯´": 7438,
      "ĠèĦ±ç¦»": 7439,
      "Ġè®¾æľī": 7440,
      "Ġæ³¢åħ°": 7441,
      "ĠæİĮæİ§": 7442,
      "ä¸»æķĻ": 7443,
      "Ġå½±çīĩ": 7444,
      "Ġå¹³æ°ĳ": 7445,
      "æ©": 7446,
      "Ġä¸Ģå°ģ": 7447,
      "Ġåľ£ç»ı": 7448,
      "åıįåºĶ": 7449,
      "ĠåĲ¹é£İæľº": 7450,
      "Ġæĸ°åĬłåĿ¡": 7451,
      "ĠéĽĩä½£": 7452,
      "Ġè¿Ļç¬Ķ": 7453,
      "Ġè¾£": 7454,
      "Ġå·¥ä½ľäººåĳĺ": 7455,
      "ĠæĬ¤çĲĨ": 7456,
      "Ġå¹³æĿ¿çĶµè§Ĩ": 7457,
      "ĠåģĩæľŁ": 7458,
      "è¾£": 7459,
      "Ġæ»ĭ": 7460,
      "Ġä¼ĺåħĪ": 7461,
      "Ġè½»æĺĵ": 7462,
      "ĠèĬŃ": 7463,
      "Ġä¿®å¤į": 7464,
      "Ġæ·ĭæµ´": 7465,
      "Ġåłķ": 7466,
      "Ġåľ°ä¸ĭå®¤": 7467,
      "é¥¿": 7468,
      "Ġç»ĺ": 7469,
      "ä¸ĢçĤ¹": 7470,
      "Ġæ©¡": 7471,
      "ĠéĢĨ": 7472,
      "å·¥ä½ľ": 7473,
      "åĸ»": 7474,
      "ĠåĳĪçİ°": 7475,
      "ĠåĩºéĹ¨": 7476,
      "Ġä¸ľéĥ¨": 7477,
      "Ġå¤©çĶŁ": 7478,
      "Ġæ¶Į": 7479,
      "Ġéģĩè§ģ": 7480,
      "Ġçĩĥçĥ§": 7481,
      "Ġå¤ĸéĥ¨": 7482,
      "ĠæĺİæĻº": 7483,
      "ĠåĽĽå¹´": 7484,
      "æīĭæľ¯": 7485,
      "Ġåľ°éĵģ": 7486,
      "ĠåĬ©çĲĨ": 7487,
      "ĠèĦĬ": 7488,
      "Ġå¿½çķ¥": 7489,
      "ä¹³": 7490,
      "Ġäººäºº": 7491,
      "Ġæĭ¿åĩº": 7492,
      "Ġæ´ĹæīĭéĹ´": 7493,
      "Ġå±ĭé¡¶": 7494,
      "ĠæįŁä¼¤": 7495,
      "Ġæ±īåł¡": 7496,
      "Ġå·´åĭĴ": 7497,
      "Ġæ¼Ķå¥ı": 7498,
      "ĠåľºæīĢ": 7499,
      "ä¸Ģå¤©": 7500,
      "Ġèµ°è·¯": 7501,
      "Ġéĩįè§Ĩ": 7502,
      "çĸ¼": 7503,
      "Ġæŀģå¤§": 7504,
      "Ġåıªå¥½": 7505,
      "ĠæĬµè¾¾": 7506,
      "Ġå¿½è§Ĩ": 7507,
      "Ġéĩįè¦ģæĢ§": 7508,
      "æ³ķéĻ¢": 7509,
      "èĸª": 7510,
      "Ġæľīè¿ĩ": 7511,
      "Ġå¸¦ä½łåİ»": 7512,
      "ĠæŃ¤ç±»": 7513,
      "Ġæķ´æĻļ": 7514,
      "Ġå½¢åĬ¿": 7515,
      "ĠåĻ¨å®ĺ": 7516,
      "Ġå¾Īå°ı": 7517,
      "åºŁ": 7518,
      "Ġèµĭ": 7519,
      "Ġéģ®": 7520,
      "èĪ±": 7521,
      "Ġç»ĿæľĽ": 7522,
      "Ġæķĳæı´": 7523,
      "çĶ·åŃ©": 7524,
      "Ġç¬¬äºĮä¸ª": 7525,
      "Ġåįļå®¢": 7526,
      "ĠåĲĮåŃ¦": 7527,
      "Ġå®¶åħ·": 7528,
      "ĠåĲĥæĥĬ": 7529,
      "ĠçĦ¦èĻĳ": 7530,
      "ç¢³": 7531,
      "å¤ı": 7532,
      "Ġä¼ļåĳĺ": 7533,
      "åĶĩ": 7534,
      "Ġåŀ«": 7535,
      "Ġä¸ŃåŃ¦": 7536,
      "ä¹ĸ": 7537,
      "ĠçĽ¸åºĶ": 7538,
      "Ġä¸§å¤±": 7539,
      "Ġå¼¥è¡¥": 7540,
      "ĠæĹłåı¯": 7541,
      "ĠåįģåŃĹ": 7542,
      "å¡ĳ": 7543,
      "ĠåŁºçĿ£æķĻ": 7544,
      "Ġè¯ĨåĪ«": 7545,
      "Ġçģ«ç®Ń": 7546,
      "Ġå¯¿": 7547,
      "è´º": 7548,
      "ĠåĽ¢ç»ĵ": 7549,
      "Ġä¸Ńä¸ľ": 7550,
      "èĢĲ": 7551,
      "Ġèµ°åĩº": 7552,
      "ĠæĹłçĸĳ": 7553,
      "Ġæ£ķ": 7554,
      "ĠéĢ»è¾ĳ": 7555,
      "ĠåıĺæĢģ": 7556,
      "Ġæĭįåįĸ": 7557,
      "Ġçģ«å±±": 7558,
      "ĠåŃ¦åĪ°": 7559,
      "Ġå¨ĺ": 7560,
      "ĠæĻļé¥Ń": 7561,
      "é¼ĵ": 7562,
      "Ġæģ¶åĮĸ": 7563,
      "Ġè¯¢éĹ®": 7564,
      "ĠéħįåĲĪ": 7565,
      "ĠéĹ¨åı£": 7566,
      "ĠæĬ¼": 7567,
      "å¥Ī": 7568,
      "ĠéĻ©": 7569,
      "èĤ¿": 7570,
      "Ġåĺī": 7571,
      "Ġè§ģè§ģ": 7572,
      "Ġç¼ł": 7573,
      "Ġæ´»åĬĽ": 7574,
      "æŁĶ": 7575,
      "ĠæĬµæĬĹ": 7576,
      "Ġå¹´åº¦": 7577,
      "å®ŀè¯Ŀ": 7578,
      "Ġçľĭåĩº": 7579,
      "Ġå¼ĢéĻ¤": 7580,
      "Ġåħ³ä¸Ĭ": 7581,
      "çİ°åľº": 7582,
      "ĠèĲ¥ä¸ļ": 7583,
      "Ġä¸»æĮģ": 7584,
      "Ġå¼ķå¯¼": 7585,
      "Ġç§įåŃĲ": 7586,
      "®åŃĲ": 7587,
      "ĠæĢĴ": 7588,
      "Ġæµªè´¹æĹ¶éĹ´": 7589,
      "ĠæŁ¥çĲĨ": 7590,
      "Ġæķ°æį®åºĵ": 7591,
      "ä¸ľè¥¿": 7592,
      "Ġè¾Ĳå°Ħ": 7593,
      "Ġä¸»å¼ł": 7594,
      "Ġçªģçł´": 7595,
      "Ġè§ĴèĲ½": 7596,
      "Ġä¼į": 7597,
      "ĠåĪ«æĹł": 7598,
      "ĠçīĪæľ¬": 7599,
      "ĠæīĢä½ľ": 7600,
      "ĠåĲĪå¹¶": 7601,
      "ĠåĮĸå¦Ĩ": 7602,
      "ĠæĹ©çĤ¹": 7603,
      "Ġå»īä»·": 7604,
      "è´¯": 7605,
      "ĠåĳĬçŁ¥": 7606,
      "ĠæĶ¿åħļ": 7607,
      "ĠåĲ¸æ¯Ĵ": 7608,
      "Ġä¸Ģå¤ľ": 7609,
      "Ġä¸Ĭä¸ªæľĪ": 7610,
      "å¯¹æīĭ": 7611,
      "ĠæĶ¯æĴĳ": 7612,
      "Ġè¿Ļæĸ¹éĿ¢": 7613,
      "åĲ¸": 7614,
      "Ġæĥ³è§ģ": 7615,
      "Ġå½ĵå¹´": 7616,
      "è´¸æĺĵ": 7617,
      "Ġçĩ": 7618,
      "å¹´æĿ¥": 7619,
      "Ġç¼ĵæħ¢": 7620,
      "ĠéľĩæĥĬ": 7621,
      "åĥļ": 7622,
      "çī©è´¨": 7623,
      "Ġèµ°å»Ĭ": 7624,
      "Ġç©¿è¶Ĭ": 7625,
      "Ġè¡Ĺå¤´": 7626,
      "Ġçĺ¦": 7627,
      "ĠæĶ¶è´¹": 7628,
      "Ġäº¤å¾Ģ": 7629,
      "Ġæľīç§į": 7630,
      "Ġåħ·å¤ĩ": 7631,
      "Ġç£ħ": 7632,
      "ĠåīĤ": 7633,
      "æ°´å¹³": 7634,
      "ĠéĢĥéģ¿": 7635,
      "ĠèľĤ": 7636,
      "ä»Ĺ": 7637,
      "Ġå¢Ļä¸Ĭ": 7638,
      "ĠåĪ¤åĨ³": 7639,
      "è¾©": 7640,
      "Ġå®ŀä¹ł": 7641,
      "Ġè½¬æį¢": 7642,
      "Ġçī¹å·¥": 7643,
      "Ġåį¡çī¹": 7644,
      "Ġç«ŀäºīå¯¹æīĭ": 7645,
      "Ġèĸª": 7646,
      "Ġæľīç½ª": 7647,
      "ĠåĪ«è·Ł": 7648,
      "æ°Ľ": 7649,
      "Ġé¡»": 7650,
      "ĠåĪ«è·ŁæĪĳ": 7651,
      "ĠéĢĹ": 7652,
      "ĠæĹ¶æľº": 7653,
      "Ġç»ıæµİåŃ¦": 7654,
      "Ġåħĳ": 7655,
      "ĠæīĵæŃ»": 7656,
      "Ġè¡Ģç®¡": 7657,
      "Ġæ¸©æļĸ": 7658,
      "Ġæī§æĶ¿": 7659,
      "éŁ¦": 7660,
      "Ġå¿ĹæĦ¿": 7661,
      "Ġåĩıè½»": 7662,
      "ĠçľŁæĺ¯å¤ª": 7663,
      "Ġé£İæĻ¯": 7664,
      "´è´£": 7665,
      "Ġåįĩçº§": 7666,
      "ĠæĶĢ": 7667,
      "Ġä»ģ": 7668,
      "èĩªçĦ¶": 7669,
      "Ġç²¾ç¡®": 7670,
      "Ġå°ıåŃ©åŃĲ": 7671,
      "éĵ¶": 7672,
      "ĠèµĶåģ¿": 7673,
      "©åºı": 7674,
      "Ġç»Ļåĩº": 7675,
      "Ġå®ŀåĬĽ": 7676,
      "Ġå¸ĥæĭī": 7677,
      "Ġä¸Ģåįĥ": 7678,
      "ĠæĮĩæłĩ": 7679,
      "ĠåĪĽæĦı": 7680,
      "Ġä½ĵéĩį": 7681,
      "ĠæĢ§æł¼": 7682,
      "Ġåı¤æĢª": 7683,
      "Ġåįłæį®": 7684,
      "Ġæ¸¯åı£": 7685,
      "Ġåļ": 7686,
      "åħĭèĲ¨æĸ¯": 7687,
      "è¦Ĩ": 7688,
      "ç§ĭ": 7689,
      "ĠåľºæĻ¯": 7690,
      "Ġæĸ°çĶŁ": 7691,
      "Ġæ·¹": 7692,
      "ç°": 7693,
      "ĠæĸĩåŃĹ": 7694,
      "Ġæĭľè®¿": 7695,
      "Ġä¹ĥ": 7696,
      "ĠåĲĪä¼Ļ": 7697,
      "ĠæĢ§è´¨": 7698,
      "ĠèĤ¿çĺ¤": 7699,
      "Ġç»ıåħ¸": 7700,
      "Ġè¡ĮæĺŁ": 7701,
      "ĠèĪĮ": 7702,
      "ĠåĬłåĪ©": 7703,
      "ĠèĤ¡ä»½": 7704,
      "Ġä¸įæĢķ": 7705,
      "Ġæĭħä¿Ŀ": 7706,
      "ĠæĽ´æĺ¯": 7707,
      "ĠèĢģåħ¬": 7708,
      "Ġä¸»ä»»": 7709,
      "Ġä¸ĢåĪĩéĥ½æĺ¯": 7710,
      "ĠèµĦåĬ©": 7711,
      "Ġåģ·èµ°": 7712,
      "Ġå³°": 7713,
      "Ġä¸īæ¬¡": 7714,
      "ĠæŃ£ä¹ī": 7715,
      "ĠæĶ¶èĹı": 7716,
      "ĠéĢıæĺİ": 7717,
      "ĠæĤ²åī§": 7718,
      "çĸļ": 7719,
      "Ġå¯Įè£ķ": 7720,
      "Ġèĩ´åĬĽ": 7721,
      "é«ĺåħ´": 7722,
      "Ġä¸ĵæ³¨": 7723,
      "Ġåİ¿": 7724,
      "ĠèĦī": 7725,
      "ĠåħŃä¸ªæľĪ": 7726,
      "ĠæĪĳæĥ³": 7727,
      "Ġä½ĵåĪ¶": 7728,
      "Ġå¤§æ°Ķ": 7729,
      "Ġæłĩè®°": 7730,
      "Ġçªģåĩº": 7731,
      "ĠçĹķè¿¹": 7732,
      "æ±°": 7733,
      "Ġç»Ŀä¸įä¼ļ": 7734,
      "Ġæ¯ģæİī": 7735,
      "Ġä¸Ģèīĺ": 7736,
      "ĠåŁİåł¡": 7737,
      "Ġæĭ¦": 7738,
      "ĠéĢļè´§": 7739,
      "èĮĦ": 7740,
      "Ġè¿Ŀæ³ķ": 7741,
      "ĠèµĦæľ¬ä¸»ä¹ī": 7742,
      "æĳĨ": 7743,
      "Ġèªĵ": 7744,
      "Ġä¹Ļ": 7745,
      "Ġè®¾æ³ķ": 7746,
      "Ġæµģè¡Ģ": 7747,
      "ç½®ä¿¡": 7748,
      "Ġéļ¾ä»¥ç½®ä¿¡": 7749,
      "Ġå¾ªçİ¯": 7750,
      "Ġä¹Ķä¼Ĭ": 7751,
      "ĠåıĹå¤ŁäºĨ": 7752,
      "çĩ": 7753,
      "Ġå·²æľī": 7754,
      "å±İ": 7755,
      "æĽ´": 7756,
      "Ġä¸ĵåĪ©": 7757,
      "ĠæŀģäºĨ": 7758,
      "æ·ĭ": 7759,
      "ĠåĪ·": 7760,
      "Ġä¸»å¯¼": 7761,
      "åĽŀåİ»": 7762,
      "Ġè´«ç©·": 7763,
      "Ġäº§éĩı": 7764,
      "Ġå¥½ç¬ĳ": 7765,
      "Ġè§£æĶ¾": 7766,
      "ĠåħĭéĩĮ": 7767,
      "Ġåĵģè´¨": 7768,
      "Ġç¾İå¦Ļ": 7769,
      "Ġåıĳè¨Ģäºº": 7770,
      "Ġåıĳèµ·": 7771,
      "Ġå±ķè§Ī": 7772,
      "Ġå¤§éĢī": 7773,
      "éĥ¨éĺŁ": 7774,
      "ĠæĶ¾è¿Ľ": 7775,
      "Ġä¸»æĿĥ": 7776,
      "ĦĻ": 7777,
      "ĠåĬłå·¥": 7778,
      "Ġçľ¼éķľ": 7779,
      "Ġçİ°ä»£åĮĸ": 7780,
      "äººå£«": 7781,
      "ĠåĽŀäºĭ": 7782,
      "Ġæİ¢æµĭ": 7783,
      "ä¹ĭä¸º": 7784,
      "Ġå¥¶éħª": 7785,
      "Ġè°ĭæĿĢæ¡Ī": 7786,
      "ĠåĬ³åĬ¨åĬĽ": 7787,
      "Ġä¹ĭä¸Ĭ": 7788,
      "ĠèŃ¦æĬ¥": 7789,
      "æīĢä»¥": 7790,
      "ĠåĽŀå½Ĵ": 7791,
      "ĠæĹłèĥ½": 7792,
      "Ġæµĳ": 7793,
      "Ġè¡¬è¡«": 7794,
      "ĠéĻªå®¡åĽ¢": 7795,
      "Ġåħľ": 7796,
      "ĠåĲ¬ä¸į": 7797,
      "Ġæł¼éĽ·": 7798,
      "ĠæĪ´ç»´": 7799,
      "ç¾ŀ": 7800,
      "æĸ¹æ¡Ī": 7801,
      "ĠæŃ£å½ĵ": 7802,
      "ĠåĪĨæķ£": 7803,
      "åĭĩ": 7804,
      "èºģ": 7805,
      "ĠæĲºå¸¦": 7806,
      "Ġä¸Ĭè¯¾": 7807,
      "Ġåĳ¨åħŃ": 7808,
      "Ġå¤Ħåľ¨": 7809,
      "ĠåĿıäºĭ": 7810,
      "Ġçº¤ç»´": 7811,
      "Ġæ´»è·ĥ": 7812,
      "ĠæĢ§åĪ«": 7813,
      "Ġç§»æ¤į": 7814,
      "Ġè¯´å®ŀè¯Ŀ": 7815,
      "Ġä¸ºæŃ¢": 7816,
      "èĩªå·±": 7817,
      "æ¡ĥ": 7818,
      "Ġçķ¥": 7819,
      "ĠæķĳæĬ¤": 7820,
      "Ġå¥½åĩłä¸ª": 7821,
      "Ġæµħ": 7822,
      "Ġé¦ĸçĽ¸": 7823,
      "Ġèī²å½©": 7824,
      "Ġå®´ä¼ļ": 7825,
      "Ġç¼ºå°ĳ": 7826,
      "Ġèľ¡": 7827,
      "ĠæľĹ": 7828,
      "Ġè®¤åı¯": 7829,
      "Ġå®īå¦®": 7830,
      "èĦĨ": 7831,
      "æĤ²": 7832,
      "éĢ»": 7833,
      "Ġè¾¹çķĮ": 7834,
      "Ġç²®é£Ł": 7835,
      "ç»ĺ": 7836,
      "Ġé¢ĨåħĪ": 7837,
      "Ġèį£èªī": 7838,
      "Ġç¤ºå¨ģ": 7839,
      "Ġåı²å¯Ĩæĸ¯": 7840,
      "ĠæīĵæĸŃ": 7841,
      "å¨ħ": 7842,
      "Ġè¾¨": 7843,
      "ĠæĶ¶åĽŀ": 7844,
      "Ġè¿ĩåĪĨ": 7845,
      "Ġæİ¥åħ¥": 7846,
      "ĠåħŃä¸ª": 7847,
      "Ġåĩī": 7848,
      "å®ļäºĨ": 7849,
      "Ġæ°¸ä¹ħ": 7850,
      "Ġä¼ļéĿ¢": 7851,
      "Ġè®¤åĩº": 7852,
      "Ġä»»åĳ½": 7853,
      "ĠåĿ¦çĻ½": 7854,
      "Ġè©¹å§Ĩæĸ¯": 7855,
      "Ġä¸Ĭç½ĳ": 7856,
      "Ġå¯¹æ¯Ķ": 7857,
      "Ġéĵ¶è¡Įä¸ļ": 7858,
      "Ġå¼ĹéĽ·": 7859,
      "ĠçĲĨæĢ§": 7860,
      "ĠåĪĳäºĭ": 7861,
      "åŁ¹": 7862,
      "Ġçĸ«": 7863,
      "Ġè¡¥è´´": 7864,
      "Ġè¾ĵåħ¥": 7865,
      "Ġçĭł": 7866,
      "æħķ": 7867,
      "Ġè¯ħ": 7868,
      "ĠæĦŁæģ©": 7869,
      "æ³Ĭ": 7870,
      "ĠåĻ©": 7871,
      "Ġæ¿Ģè¿Ľ": 7872,
      "Ġè°·ç±»": 7873,
      "Ġå¦®": 7874,
      "Ġåħ³éĹ¨": 7875,
      "Ġä»¥èĩ³äºİ": 7876,
      "ĠæĪĲæŀľ": 7877,
      "Ġä¼łéĢĴ": 7878,
      "çĬ¬": 7879,
      "ĠéĢĥèµ°": 7880,
      "Ġäººè´¨": 7881,
      "ĠçĽ²": 7882,
      "Ġè¯ħåĴĴ": 7883,
      "Ġç¦": 7884,
      "Ġåĩºåįĸ": 7885,
      "Ġä¼ĺæĥł": 7886,
      "Ġèĸªæ°´": 7887,
      "Ġæ·ĺæ±°": 7888,
      "Ġè¯¡": 7889,
      "Ġè°´è´£": 7890,
      "Ġä¸Ģçĵ": 7891,
      "ĠçĭŃ": 7892,
      "Ġåĳ¨äºĶ": 7893,
      "ĠæĹħå®¢": 7894,
      "Ġæ°Ķæ°Ľ": 7895,
      "ĠåĨ³å¿ĥ": 7896,
      "ĠåĿļå¼º": 7897,
      "Ĺä½į": 7898,
      "ĠåıĹçĽĬ": 7899,
      "Ġå·¡éĢ»": 7900,
      "Ġåı¯ç¬ĳ": 7901,
      "Ġè¶ģ": 7902,
      "Ġæ¥¼æ¢¯": 7903,
      "èļĢ": 7904,
      "Ġèµİ": 7905,
      "Ġé¢ģ": 7906,
      "Ġåı¤å·´": 7907,
      "Ġçºªå½ķ": 7908,
      "Ġé¢Ħå®ļ": 7909,
      "Ġä¸¥åİī": 7910,
      "Ġä¹ĭæīĢä»¥": 7911,
      "ĠåįĹéĿŀ": 7912,
      "é¹ħ": 7913,
      "Ġå§Ĳå¦¹": 7914,
      "è±«": 7915,
      "ĠæĪĲåĪĨ": 7916,
      "Ġä¹°åįĸ": 7917,
      "Ġæĥł": 7918,
      "é¹°": 7919,
      "Ġä¼łè¯´": 7920,
      "æĿ¡ä»¶": 7921,
      "çŃĴ": 7922,
      "Ġå¤ªå¹³æ´ĭ": 7923,
      "Ġè®½": 7924,
      "Ġæ³ķè§Ħ": 7925,
      "ĠåħĭæŀĹ": 7926,
      "æħ¨": 7927,
      "Ġå·´åĭĴæĸ¯åĿ¦": 7928,
      "Ġå¥Ī": 7929,
      "ĠçĽ´è§ī": 7930,
      "Ġä¿®çĲĨ": 7931,
      "Ġåħ»èĢģ": 7932,
      "ä»ģ": 7933,
      "Ġä¸īåįģ": 7934,
      "ĠäºĨä¸įèµ·": 7935,
      "åĩ¯": 7936,
      "Ġé«ĺç®¡": 7937,
      "Ġæł¼æŀĹ": 7938,
      "Ġä½ıå®ħ": 7939,
      "Ġç³ķ": 7940,
      "æ³Ħ": 7941,
      "ĠèĬĤæĹ¥": 7942,
      "Ġä¸įåĲĥ": 7943,
      "Ġæ²¡èĥ½": 7944,
      "æĮĤ": 7945,
      "Ġæ¸ħåįķ": 7946,
      "Ġéķĩä¸Ĭ": 7947,
      "Ġåĺ´éĩĮ": 7948,
      "Ġå¿«è¦ģ": 7949,
      "Ġæ£ī": 7950,
      "éĵº": 7951,
      "Ġå¹¸åŃĺ": 7952,
      "Ġæĵįçºµ": 7953,
      "ĠäººæĿĥ": 7954,
      "Ġæ¯ıä½į": 7955,
      "ĠåĿļå®ļ": 7956,
      "Ġä¸Ģçĵ¶": 7957,
      "Ġæľīä½ķ": 7958,
      "ĠæĢ»ä¹ĭ": 7959,
      "æ®¿": 7960,
      "Ġåį±å®³": 7961,
      "Ġä¸Ģä»£": 7962,
      "Ġåıªæĥ³": 7963,
      "åĩī": 7964,
      "Ġä½ľæĪĺ": 7965,
      "ĠæĶ¹éĢł": 7966,
      "ĠåĬŀäºĭ": 7967,
      "æĽ¾": 7968,
      "ĠåĽ´ç»ķ": 7969,
      "ĠæĹĭè½¬": 7970,
      "Ġäº¨åĪ©": 7971,
      "Ġä¸įèī¯": 7972,
      "Ġèĥĸ": 7973,
      "ĠåĨ¬å¤©": 7974,
      "èİĵ": 7975,
      "Ġæ¨¡ä»¿": 7976,
      "Ġé©¶": 7977,
      "Ġæľ¬åĽ½": 7978,
      "Ġå¤«å¦»": 7979,
      "ĠèĤĸ": 7980,
      "ĠèĢģå¦Ī": 7981,
      "èħĲ": 7982,
      "Ġé¦ĸæŃĮ": 7983,
      "è£¹": 7984,
      "ĠæŀĦå»º": 7985,
      "ĠæĹ©å·²": 7986,
      "æ®ĭ": 7987,
      "Ġåįĸæİī": 7988,
      "Ġè´©": 7989,
      "Ġå¹³å¸¸": 7990,
      "Ġæ¥¼ä¸ĭ": 7991,
      "ĠåĨ³ä¸į": 7992,
      "Ġèĩ³åħ³": 7993,
      "Ġè¡¡": 7994,
      "éĺħ": 7995,
      "æĪĸ": 7996,
      "æĩ": 7997,
      "Ġæ²¾": 7998,
      "éĻª": 7999,
      "èĪĮ": 8000,
      "ĠäºĶåĪĨéĴŁ": 8001,
      "Ġèĭ±åĽ½äºº": 8002,
      "ĠæľīåĬĽ": 8003,
      "ĠéĻįèĲ½": 8004,
      "è¯¸": 8005,
      "ĠåºŃ": 8006,
      "Ġä¸ĭè½¦": 8007,
      "ĠæıĲåıĸ": 8008,
      "ĠåĲįç§°": 8009,
      "åŀ«": 8010,
      "Ġå²Ľä¸Ĭ": 8011,
      "Ġåı¥": 8012,
      "Ġä¸įèµ·": 8013,
      "Ġå®īå¨ľ": 8014,
      "Ġå¹ķ": 8015,
      "Ġå¤§éĹ¨": 8016,
      "ĠæĿ¥å¾Ĺ": 8017,
      "Ġçİ«çĳ°": 8018,
      "ĠæģĲæħĮ": 8019,
      "ĠçĽ®åīįä¸ºæŃ¢": 8020,
      "åĵŃ": 8021,
      "è¿ģ": 8022,
      "è®¾è®¡": 8023,
      "Ġå¥ĸåĬ±": 8024,
      "Ġå¼ºå£®": 8025,
      "Ġåĳ¨æľŁ": 8026,
      "Ġæº¶": 8027,
      "Ġå¤ªæĻļ": 8028,
      "Ġå¸ĥåħ°": 8029,
      "Ġæİ©çĽĸ": 8030,
      "Ľä¸ĭ": 8031,
      "Ġä¸įåĲĪ": 8032,
      "Ġæ¡Īä¾ĭ": 8033,
      "Ġè®½åĪº": 8034,
      "çī¹åħ°": 8035,
      "Ġæ³¨å®ļ": 8036,
      "ĠåĽļçĬ¯": 8037,
      "åĻ": 8038,
      "Ġå¥ĳ": 8039,
      "Ġä¸ģ": 8040,
      "ĠåĵĢ": 8041,
      "Ġæµ·çĽĹ": 8042,
      "ĠåĬ¨èĦī": 8043,
      "ĠåĩĮæĻ¨": 8044,
      "Ġæľīç©º": 8045,
      "ĠèµĲ": 8046,
      "Ġä¸ľåĮĹ": 8047,
      "Ġç«Ń": 8048,
      "Ġæĭīä¸ģ": 8049,
      "ĠåŁİéķĩ": 8050,
      "Ġé¦ĻèĤł": 8051,
      "ĠçĻ¾åĪĨä¹ĭ": 8052,
      "Ġè¯¸å¦Ĥ": 8053,
      "ĠæĭĽå¾ħ": 8054,
      "Ġå®¢åİħ": 8055,
      "Ġå¾ĹäºĨ": 8056,
      "Ġåĳ¨äºĮ": 8057,
      "åįİå¤«": 8058,
      "Ġé«ĺå°Ķå¤«çĲĥ": 8059,
      "Ġå¾ĹäºĨåĲ§": 8060,
      "Ġéĥ½è¡Į": 8061,
      "Ġå¤ĸç§ĳ": 8062,
      "Ġç§°ä¹ĭä¸º": 8063,
      "é¥®": 8064,
      "èĨı": 8065,
      "Ġé¥ŃåºĹ": 8066,
      "ĠéĢļéģĵ": 8067,
      "Ġåħīæĺİ": 8068,
      "Ġåģļæ¢¦": 8069,
      "Ġæ¸¡": 8070,
      "ĠæĢ»ä½ĵ": 8071,
      "ç¿ģ": 8072,
      "Ġè°ĪåĪ°": 8073,
      "éģ¿åħį": 8074,
      "æĦŁåħ´è¶£": 8075,
      "ĠæĪĲå¹´äºº": 8076,
      "ĠçĲ¼": 8077,
      "Ġé£İæļ´": 8078,
      "Ġçľ¼ç¥ŀ": 8079,
      "Ġæł·æľ¬": 8080,
      "åĲĪçī©": 8081,
      "ĠåĪĨæŀĲå¸Ī": 8082,
      "ĠåĽ½åĬ¡": 8083,
      "Ġè¡Įäºĭ": 8084,
      "ĠåıĹè¿ĩ": 8085,
      "Ġä¼ĳéĹ²": 8086,
      "ĠéĩİçĶŁ": 8087,
      "ĠéĻĽä¸ĭ": 8088,
      "ĠåĩłçĤ¹": 8089,
      "ĠåĮĹæŀģ": 8090,
      "åı·çłģ": 8091,
      "Ġèĩªç§ģ": 8092,
      "Ġæŀķ": 8093,
      "Ġæĺ¥å¤©": 8094,
      "å¸½": 8095,
      "Ġæ¸Ĺ": 8096,
      "ä¸»ä¹īèĢħ": 8097,
      "æ»ĭ": 8098,
      "Ġä½ıæĪ¿": 8099,
      "ĠåĨ²åĬ¨": 8100,
      "Ġèĩ³åħ³éĩįè¦ģ": 8101,
      "Ġä½İäºİ": 8102,
      "ĠæĿŁ": 8103,
      "Ġè§£éĻ¤": 8104,
      "ĠæģĭçĪ±": 8105,
      "Ġåįµ": 8106,
      "åĢŁ": 8107,
      "Ġæ±½æ²¹": 8108,
      "ĠèĻĲ": 8109,
      "Ġå°Ŀå°Ŀ": 8110,
      "Ġå¾ĹçŁ¥": 8111,
      "Ġçº³ç¨İ": 8112,
      "Ġä»İä¸Ń": 8113,
      "Ġä¹ĭéĻħ": 8114,
      "ĠæľįçĶ¨": 8115,
      "¯åŃĲ": 8116,
      "ĠçĶŁçĲĨ": 8117,
      "Ġèĭį": 8118,
      "Ġä¸ľåįĹ": 8119,
      "ĠæŃ¤æĹ¶": 8120,
      "Ġåįİå¤«": 8121,
      "ĠåŁºç¡Ģè®¾æĸ½": 8122,
      "Ġå¤§å¸Ī": 8123,
      "éĢĥ": 8124,
      "Ġç´§ç¼©": 8125,
      "Ġéŀ": 8126,
      "è°¬": 8127,
      "Ġéĺ²å¾¡": 8128,
      "Ġè¯´å®Į": 8129,
      "Ġæķ´æķ´": 8130,
      "éĵĥ": 8131,
      "Ġç½ªè¡Į": 8132,
      "Ġæ»ĳéĽª": 8133,
      "ĠåĲįäºº": 8134,
      "Ġé¡½": 8135,
      "ĠåĲĦåľ°": 8136,
      "Ġé¡ºä¾¿": 8137,
      "ä¸¸": 8138,
      "éĩĮè¾¾": 8139,
      "Ġä¸įä¿¡": 8140,
      "Ġè¿Ļåı¥": 8141,
      "Ġèµ°è¿Ĳ": 8142,
      "ĠæĪĺå£«": 8143,
      "Ġè¯»ä¹¦": 8144,
      "ĠåĤ¨èĵĦ": 8145,
      "ĠåĪĨè£Ĥ": 8146,
      "ç¥ĸ": 8147,
      "Ġå´ĩæĭľ": 8148,
      "ĠåŃķ": 8149,
      "ĠèŃ¦éķ¿": 8150,
      "ĠèĩªåĬ©": 8151,
      "Ġä¸¾åĬ¨": 8152,
      "Ġä»Ĩ": 8153,
      "Ġä¸ĢåĪĨ": 8154,
      "ĠæĹ©äºĽæĹ¶åĢĻ": 8155,
      "ĠèŃ¦æİ¢": 8156,
      "Ġè´ŁåĢº": 8157,
      "Ġå¤ªéĺ³èĥ½": 8158,
      "ĠåĨĽæĸ¹": 8159,
      "Ġè§£åĨ³éĹ®é¢ĺ": 8160,
      "Ġå¯¹éĿ¢": 8161,
      "ĠåĩłçĻ¾": 8162,
      "éĶĲ": 8163,
      "ĠåĪĨç±»": 8164,
      "ĠåĻª": 8165,
      "ĠåħĭåĬ³": 8166,
      "Ġé£ŀèĪ¹": 8167,
      "Ġç¼ĵè§£": 8168,
      "Ġæ¶²æĻ¶": 8169,
      "ĠåĬ¿åĬĽ": 8170,
      "Ġèĩ´åĬĽäºİ": 8171,
      "Ġé£ĺ": 8172,
      "æŃ¤ä¹ĭ": 8173,
      "ĠåĨĴçĬ¯": 8174,
      "Ġé«ĺå±Ĥ": 8175,
      "Ġæ®ĸ": 8176,
      "èĶ½": 8177,
      "Ġè¿Ħ": 8178,
      "ä¼¸": 8179,
      "ĠåĪĽä¸ļ": 8180,
      "ĠåĲµæŀ¶": 8181,
      "Ġçıłå®Ŀ": 8182,
      "Ġå°½æĥħ": 8183,
      "ĠéĥĬ": 8184,
      "Ġä¼´éļı": 8185,
      "Ġä¸Ģçķª": 8186,
      "Ġä¿Ŀå§Ĩ": 8187,
      "ĠæĿĳåºĦ": 8188,
      "çº¯": 8189,
      "Ġåıĳä½ľ": 8190,
      "Ġå¾Ĺä¸įåĪ°": 8191,
      "åľ¨ä¸Ģ": 8192,
      "Ġæĸ°å¨ĺ": 8193,
      "ĠçĪ±ä¸Ĭ": 8194,
      "Ġåħĭæľį": 8195,
      "Ġæ´Ĺè¡£": 8196,
      "åľ¨ä¸Ģèµ·": 8197,
      "ç¤¾ä¼ļ": 8198,
      "Ġæīĵæī«": 8199,
      "å¸Ĳ": 8200,
      "Ġèµĸ": 8201,
      "Ġæľªå©ļ": 8202,
      "çĬ¶åĨµ": 8203,
      "ĠèĩªæĦ¿": 8204,
      "æ±¤": 8205,
      "Ġæİ¥æĶ¶": 8206,
      "Ġè§Ħå¾ĭ": 8207,
      "ĠéļĲç§ģ": 8208,
      "æµĨ": 8209,
      "Ġæµĭå®ļ": 8210,
      "Ġåı³è¾¹": 8211,
      "èĽĩ": 8212,
      "Ġç³Ĭ": 8213,
      "ĠæĶ¿æ²»å®¶": 8214,
      "ĠåĪ¶éĢłä¸ļ": 8215,
      "Ġå½ĵä»£": 8216,
      "çļĦæĺ¯": 8217,
      "Ġå½¢çĬ¶": 8218,
      "Ġæ®ĸæ°ĳ": 8219,
      "Ġä¸įæĿ¥": 8220,
      "ĠéĤ£ä¼ļ": 8221,
      "Ġä»£çłģ": 8222,
      "ĠåĨįä¹Łä¸įä¼ļ": 8223,
      "Ġçĳŀåħ¸": 8224,
      "Ġæķ£æŃ¥": 8225,
      "ĠåıįèĢĮ": 8226,
      "Ġé»İ": 8227,
      "Ġç©·äºº": 8228,
      "Ġä»¿ä½Ľ": 8229,
      "Ġè¿Ħä»Ĭ": 8230,
      "Ġä½Ľç½ĹéĩĮè¾¾": 8231,
      "äºĭä»¶": 8232,
      "Ġè®¤çŁ¥": 8233,
      "Ġä»ĬæĹ¥": 8234,
      "æĮ¤": 8235,
      "Ġä¾ĽåºĶåķĨ": 8236,
      "Ġæ¡Ĩ": 8237,
      "ĠéĻ¶": 8238,
      "Ġåı¬å¼Ģ": 8239,
      "ĠæĹłéĻĲ": 8240,
      "æĥħåĨµ": 8241,
      "å°¼æĸ¯": 8242,
      "Ġè¿Īåħĭå°Ķ": 8243,
      "Ġä»ĬåĲİ": 8244,
      "Ġå¹²æĿ¯": 8245,
      "ĠåĮħè£¹": 8246,
      "Ġçģµæ´»": 8247,
      "Ġæ°ĶåĢĻåıĺåĮĸ": 8248,
      "Ġæ³Ľ": 8249,
      "Ġä¸įæĪĲ": 8250,
      "ĠçĮ´åŃĲ": 8251,
      "æ§Ł": 8252,
      "ĠåĨįæĿ¥": 8253,
      "ĠæĪĺåľº": 8254,
      "Ġä¾ĿæĹ§": 8255,
      "Ġåħ¶ä½Ļ": 8256,
      "Ġé¢Ĺ": 8257,
      "Ġç«ł": 8258,
      "ĠæľĢå¤ļ": 8259,
      "ç«Ń": 8260,
      "Ġè¿ľçĤ¹": 8261,
      "Ġä¼ļè§ģ": 8262,
      "æ£µ": 8263,
      "Ġé¦Ļæ§Ł": 8264,
      "Ġè¿ĳæľŁ": 8265,
      "Ġå¯¼æ¼Ķ": 8266,
      "Ġä¿®æŃ£": 8267,
      "ĠæĬ¤çħ§": 8268,
      "Ġå¸ĥé²ģåħĭ": 8269,
      "Ġå¦¨": 8270,
      "Ġåĩłåįģå¹´": 8271,
      "èĲĿ": 8272,
      "Ġé¢Ħè¨Ģ": 8273,
      "Ġè¯±æĥĳ": 8274,
      "Ġè¿ĻæĹ¶": 8275,
      "Ġæĸĳ": 8276,
      "ĠåĪ«æıĲ": 8277,
      "ç»´äºļ": 8278,
      "ĠéĴĵé±¼": 8279,
      "Ġå¼Ģä¼ļ": 8280,
      "Ġé¢ĺ": 8281,
      "ĠæĺŁæľŁäºĶ": 8282,
      "Ġä½Ĳ": 8283,
      "Ġä¾¦æİ¢": 8284,
      "ĠåĻ©æ¢¦": 8285,
      "äººæ°ĳ": 8286,
      "Ġä»İæŃ¤": 8287,
      "æįī": 8288,
      "ĠçŁŃä¿¡": 8289,
      "ĠæĮ£æīİ": 8290,
      "ĠçľŁå¿ĥ": 8291,
      "ĠæĩĤåĲĹ": 8292,
      "ĠåĲİèĢħ": 8293,
      "«çĹ": 8294,
      "ĠéļıæĦı": 8295,
      "ĠçĶ»éĿ¢": 8296,
      "çİ¯å¢ĥ": 8297,
      "Ġå¤§ä¼ļ": 8298,
      "Ġå·¥èīº": 8299,
      "æģĴ": 8300,
      "ĠéĴī": 8301,
      "Ġå¨ģå£«": 8302,
      "Ġåĵ¥ä¼¦æ¯Ķäºļ": 8303,
      "ĠæĹłéľĢ": 8304,
      "Ġåħ¨åĬĽ": 8305,
      "ĠèĪį": 8306,
      "Ġç»´å°Ķ": 8307,
      "ĠæķĳåĬ©": 8308,
      "ĠåĤ¨å¤ĩ": 8309,
      "Ġå±¥è¡Į": 8310,
      "Ġå¸¦æĪĳ": 8311,
      "ĠçĥŃçĪ±": 8312,
      "Ġå¸¦æĪĳåİ»": 8313,
      "Ġè¿Ļæľī": 8314,
      "å¦ŀ": 8315,
      "Ġä¸ĢæĹ¶": 8316,
      "Ġæ²ĻåıĳåºĬ": 8317,
      "ĠçłĶç©¶èĢħ": 8318,
      "é©¾": 8319,
      "ĠåĬłå¿«": 8320,
      "ĠåĮħåĽ´": 8321,
      "Ġå¤ĸæĺŁäºº": 8322,
      "ĠæŃĮæĽ²": 8323,
      "Ġèİ«æĸ¯ç§ĳ": 8324,
      "Ġæ±ł": 8325,
      "Ġåħ¨ä½ĵ": 8326,
      "Ġåıįå¤į": 8327,
      "Ġå¤§äºĭ": 8328,
      "ĠåĪĨæŃ§": 8329,
      "Ġè§Ĩè§ī": 8330,
      "Ġå¹³æĹ¶": 8331,
      "Ġäº¤åıī": 8332,
      "Ġå§Ĩ": 8333,
      "Ġèİ·èĥľ": 8334,
      "åį¢": 8335,
      "Ġè¢«åĳĬ": 8336,
      "éķ¿æĹ¶éĹ´": 8337,
      "Ġä¸ĢæīĢ": 8338,
      "ĠçĿĢæīĭ": 8339,
      "ĠåĨĻä¿¡": 8340,
      "Ġæĭįçħ§": 8341,
      "Ġåįłé¢Ĩ": 8342,
      "Ġé©±åĬ¨": 8343,
      "Ġéĩįç»Ħ": 8344,
      "éĽ¶": 8345,
      "Ġç©ºè°ĥ": 8346,
      "èĤ¯å®ļ": 8347,
      "æª": 8348,
      "Ġäºı": 8349,
      "Ġä¸Ģå¤Ħ": 8350,
      "Ġæ¯«æĹłçĸĳ": 8351,
      "å¡Į": 8352,
      "Ġä¸ªä½ĵ": 8353,
      "Ġç¾İåĽ½æĶ¿åºľ": 8354,
      "ç¨ĭåº¦": 8355,
      "Ġæ¸©åĴĮ": 8356,
      "ĠåĬ©æīĭ": 8357,
      "Ġè¾ħåĬ©": 8358,
      "ĠæľīçĽĬ": 8359,
      "ĠæĶ¾å¿ĥ": 8360,
      "Ġé²¨": 8361,
      "Ġæĳĩæ»ļ": 8362,
      "Ġè¯´å¥½": 8363,
      "ĠçĮľæµĭ": 8364,
      "ĠçŃĸåĪĴ": 8365,
      "Ġç½ªæģ¶": 8366,
      "ĠæĹłçº¿çĶµ": 8367,
      "Ġå¨ģå£«å¿Į": 8368,
      "Ġä»Ļ": 8369,
      "Ġæī¬": 8370,
      "Ġå¤§èĥĨ": 8371,
      "ĠèĲ§": 8372,
      "Ġä¼´ä¾£": 8373,
      "çĽĲ": 8374,
      "Ġæļ´é£İ": 8375,
      "Ġç«ŀäºīåĬĽ": 8376,
      "ĠéĹ»åĪ°": 8377,
      "å®¿": 8378,
      "çĶľ": 8379,
      "Ġä¿¡å¿µ": 8380,
      "Ġæ¡Įä¸Ĭ": 8381,
      "Ġè®¾å®ļ": 8382,
      "Ġå¼ºç¡¬": 8383,
      "ĠéĴ¢çĲ´": 8384,
      "Ġéķ¿å¾Ĺ": 8385,
      "ĠåĲĵåĿı": 8386,
      "ĠæĦıæĦ¿": 8387,
      "Ġäº²çľ¼": 8388,
      "Ġå½¢å®¹": 8389,
      "Ġæİ¥çĶµè¯Ŀ": 8390,
      "åĸĿ": 8391,
      "Ġç³»åĪĹ": 8392,
      "Ġä¸ĬåįĪ": 8393,
      "Ġæį¢ä¸ª": 8394,
      "Ġè®¾è®¡å¸Ī": 8395,
      "Ġéĺ´è°ĭ": 8396,
      "Ġå°ºå¯¸": 8397,
      "ĠåĬłåĪ©ç¦ı": 8398,
      "ç¦": 8399,
      "åĪ©æĸ¯": 8400,
      "Ġçİ©æĦıåĦ¿": 8401,
      "Ġè¡¡éĩı": 8402,
      "Ġèĭ±æĸĩ": 8403,
      "ĠæľĪçĲĥ": 8404,
      "çĶŁæĦı": 8405,
      "Ġèĥİ": 8406,
      "Ġè½¬åĮĸ": 8407,
      "ä¸²": 8408,
      "ĠçĲĨæĻº": 8409,
      "Ġç¼´": 8410,
      "Ġè´Ŀå°Ķ": 8411,
      "Ġå¯Ĥ": 8412,
      "Ġåľ°è¯´": 8413,
      "ĠéªĤ": 8414,
      "ĠäºīåĲµ": 8415,
      "ĠçļĨ": 8416,
      "Ġæ¯«æĹłçĸĳéĹ®": 8417,
      "ĠæĶ¾å°Ħ": 8418,
      "Ġåĳ¨æĹ¥": 8419,
      "ĠæĿ¡çº¦": 8420,
      "Ġåħ¥åı£": 8421,
      "Ġä¸Ģåī¯": 8422,
      "Ġè´¥": 8423,
      "Ġèµ·åĪ°": 8424,
      "ĠæĢ§èĥ½": 8425,
      "Ġæł¸çĶµ": 8426,
      "Ġéĵħ": 8427,
      "Ġå¹³å®ī": 8428,
      "Ġä¸Ńåįİ": 8429,
      "ĠçĶ·çĶŁ": 8430,
      "ĠåĪ«æĹłéĢīæĭ©": 8431,
      "Ġå¥½çĤ¹": 8432,
      "ĠæĦıå¿Ĺ": 8433,
      "Ġèµ·åºĬ": 8434,
      "Ġæİ©æĬ¤": 8435,
      "Ġè¾Ľèĭ¦": 8436,
      "è¶ħ": 8437,
      "Ġæĸ¯èĴĤ": 8438,
      "Ġå·ŀéĻħ": 8439,
      "Ġä¸įå¤ªå¥½": 8440,
      "å°¿çĹħ": 8441,
      "Ġå«Įçĸĳäºº": 8442,
      "Ġä¸ŃåįĪ": 8443,
      "ĠåĬłä»¥": 8444,
      "Ġçķħ": 8445,
      "Ġæ¶ĪçģŃ": 8446,
      "Ġå»¶éķ¿": 8447,
      "Ġæ¬²æľĽ": 8448,
      "Ġèķ": 8449,
      "æ¡©": 8450,
      "Ġæ»¥": 8451,
      "Ġè¶ħåĩº": 8452,
      "æĪĺäºī": 8453,
      "ĠåħĶåŃĲ": 8454,
      "ĠåıĳéĢģ": 8455,
      "ĠçŁ¥ä¸įçŁ¥éģĵ": 8456,
      "Ġæį·": 8457,
      "Ġçī©ä½ĵ": 8458,
      "Ġå¥ĸéĩĳ": 8459,
      "Ġç¯®çĲĥ": 8460,
      "å°±æĺ¯": 8461,
      "ĠçĻ": 8462,
      "Ġå°ĺ": 8463,
      "Ġå¯Ł": 8464,
      "Ġåħ¨å®¶": 8465,
      "ĠåĪĿæŃ¥": 8466,
      "èĢĮæĺĵ": 8467,
      "å®īåħ¨": 8468,
      "åħĨ": 8469,
      "ĠæĿ¨": 8470,
      "ĠåįģåĪĨéĴŁ": 8471,
      "ĠèĢĥéªĮ": 8472,
      "ĠæłĩçŃ¾": 8473,
      "ĠèįĴè°¬": 8474,
      "ĠéĺĲè¿°": 8475,
      "ĠæŃ¥è¡Į": 8476,
      "ĠæĶ¶éŁ³": 8477,
      "Ġä¸ĳéĹ»": 8478,
      "ĠèµĭäºĪ": 8479,
      "Ġä¸Ľ": 8480,
      "èĮľ": 8481,
      "Ġåĩ»ä¸Ń": 8482,
      "Ġç¢İçīĩ": 8483,
      "Ġç³ĸå°¿çĹħ": 8484,
      "Ġæĸ°åŀĭ": 8485,
      "Ġå®³æŃ»": 8486,
      "ĠåĲīå§Ĩ": 8487,
      "Ġä»ĸæĿĢ": 8488,
      "Ġå¨ľ": 8489,
      "Ġç§ģä¸ĭ": 8490,
      "åĪĨæŀĲ": 8491,
      "ĠåĿıæ¶Īæģ¯": 8492,
      "łéģĵ": 8493,
      "Ġä¸ĢåĲĳ": 8494,
      "çĭ¼": 8495,
      "Ġçļĩå®¶": 8496,
      "ĠéļĶç¦»": 8497,
      "ĠèĨĿçĽĸ": 8498,
      "Ġå¯¹å¤ĸ": 8499,
      "åĪ¶åº¦": 8500,
      "ĠåĲįä¹ī": 8501,
      "Ġçº¦æĿŁ": 8502,
      "Ġä¼ĺè´¨": 8503,
      "åŁİå¸Ĥ": 8504,
      "ĠæĳĦåĥıæľº": 8505,
      "ĠéĤ£æĻļ": 8506,
      "å¾ª": 8507,
      "Ġå¹¶ä¸į": 8508,
      "çķı": 8509,
      "Ġæ¬¢ä¹Ĳ": 8510,
      "Ġé£ŀè¡Įåĳĺ": 8511,
      "ĠéħĴç²¾": 8512,
      "ĠæĪĸèĢħè¯´": 8513,
      "Ġç²¾èĭ±": 8514,
      "Ġæ·±æ·±": 8515,
      "Ġéĵ¶è¡Įå®¶": 8516,
      "Ġçĥ¦æģ¼": 8517,
      "Ġæīĭå¥Ĺ": 8518,
      "ĠèµĮåľº": 8519,
      "Ġè®¯": 8520,
      "çĽĨ": 8521,
      "ĠæĲŀç¬ĳ": 8522,
      "ĠèŃ¦å¯Łå±Ģ": 8523,
      "Ġä¹ĸä¹ĸ": 8524,
      "å¤ķ": 8525,
      "Ġæķŀ": 8526,
      "Ġæ®µæĹ¶éĹ´": 8527,
      "Ġå¸Įå°Ķ": 8528,
      "Ġéļ¾åıĹ": 8529,
      "Ġæ¸¸è¡Į": 8530,
      "åħ±åĴĮ": 8531,
      "ç£ģ": 8532,
      "Ġè¯ŀ": 8533,
      "Ġåįĵ": 8534,
      "Ġä¾®": 8535,
      "Ġçĭ®åŃĲ": 8536,
      "Ġæ¸ħéĻ¤": 8537,
      "ĠèĲ¥éĶĢ": 8538,
      "ä½¬": 8539,
      "ĠäºļåİĨ": 8540,
      "ĠèµŀæĪĲ": 8541,
      "æĦ§": 8542,
      "ä¸įåİ»": 8543,
      "Ġä¸ĭçıŃ": 8544,
      "Ġé¢ł": 8545,
      "Ġå¤ĸçķĮ": 8546,
      "Ġç½Ĺä¼¯çī¹": 8547,
      "ĠæįĲèµł": 8548,
      "Ġå²©çŁ³": 8549,
      "éĺģ": 8550,
      "Ġè·ĳæŃ¥": 8551,
      "Ġåī§æľ¬": 8552,
      "Ġè¶´": 8553,
      "ĠéĢļè¯Ŀ": 8554,
      "Ġæŀģä¸º": 8555,
      "Ġä¼ģä¸ļå®¶": 8556,
      "Ġæī§è¡Įå®ĺ": 8557,
      "Ġåº·å¤į": 8558,
      "Ġäºķ": 8559,
      "ĠçĶ±æŃ¤": 8560,
      "Ġåį¡æĭī": 8561,
      "ĠæĶ¶éŁ³æľº": 8562,
      "æļĤ": 8563,
      "Ġç²īä¸Ŀ": 8564,
      "Ġç¯ĩ": 8565,
      "åĲĦåľ°": 8566,
      "Ġå¤§ä¼Ļ": 8567,
      "Ġå¤©ä¸»æķĻ": 8568,
      "èİ²": 8569,
      "ĠåĨĽäºº": 8570,
      "ä¸įå®ī": 8571,
      "Ġé«ĺçŃī": 8572,
      "Ġç¥·": 8573,
      "Ġåį¡æīİ": 8574,
      "ĠçľŁçĲĨ": 8575,
      "ĠåĲİéĢĢ": 8576,
      "æĬĸ": 8577,
      "Ġä¸ĸçķĮåĲĦåľ°": 8578,
      "ä¹ĭå¤Ħ": 8579,
      "æ¢ģ": 8580,
      "Ġè¯´äºĽ": 8581,
      "Ġå¤Ħå¢ĥ": 8582,
      "ĠåĪĩæĸŃ": 8583,
      "Ġç»ıçºªäºº": 8584,
      "ĠæĶ¯æı´": 8585,
      "ĠèĬ±éĴ±": 8586,
      "Ġæµģæµª": 8587,
      "Ġè´§è½¦": 8588,
      "ä¼ļè®®": 8589,
      "ĠäºĮæ°§åĮĸ": 8590,
      "ĠçŁŃæļĤ": 8591,
      "ĠåıĳåĬ¨æľº": 8592,
      "Ġä»İéĤ£": 8593,
      "Ġè´¬": 8594,
      "Ġå¤ªå¤§": 8595,
      "ĠçĬ¯äºº": 8596,
      "èĽĽ": 8597,
      "Ġå®ļæľŁ": 8598,
      "Ġç»Īç»ĵ": 8599,
      "ĠæłĳæŀĹ": 8600,
      "Ġæ±Ĺ": 8601,
      "ĠçĽĳæĬ¤": 8602,
      "Ġå¸¸è§Ħ": 8603,
      "ĠæĹħç¨ĭ": 8604,
      "Ġè®²è¿°": 8605,
      "ĠéĢĥç¦»": 8606,
      "Ġæ²Ļæ»©": 8607,
      "å¡ŀå°Ķ": 8608,
      "ĠèĦĳåŃĲéĩĮ": 8609,
      "Ġå¦¨ç¢į": 8610,
      "ĠåīįæıĲ": 8611,
      "Ġå¾Īéħ·": 8612,
      "Ġå½ĵå¤©": 8613,
      "åĮł": 8614,
      "ĠèĳĽ": 8615,
      "Ġä¾¿æĺ¯": 8616,
      "ĠæŁ¥æŁ¥": 8617,
      "Ġæĺıè¿·": 8618,
      "Ġä¾®è¾±": 8619,
      "å¼Ĭ": 8620,
      "Ġæį£": 8621,
      "Ġæİ¨è¿Ł": 8622,
      "Ġåħ±äº«": 8623,
      "é¸£": 8624,
      "ĠæŃĮæīĭ": 8625,
      "Ġåĩºäºĭ": 8626,
      "Ġéĩĩè´Ń": 8627,
      "ĠæĮĳéĢī": 8628,
      "Ġæ¤": 8629,
      "Ġè¿Ļæīį": 8630,
      "Ġæīĩ": 8631,
      "ĠçĲĨæŁ¥": 8632,
      "ĠéĢĥèĦ±": 8633,
      "Ġè´±äºº": 8634,
      "æĦŁè°¢": 8635,
      "Ġç´§å¯Ĩ": 8636,
      "Ġä¿ĿéĻ©ç®±": 8637,
      "Ġå¼ķäºº": 8638,
      "Ġäº«æľī": 8639,
      "Ġè¿Ļçīĩ": 8640,
      "æµ®": 8641,
      "ä½ĵç³»": 8642,
      "Ġå·¦è¾¹": 8643,
      "Ġç¾½": 8644,
      "Ġä½ıå®¿": 8645,
      "Ġçľĭå¾ħ": 8646,
      "Ġåıĳçİ°èĩªå·±": 8647,
      "Ġèį¯åĵģ": 8648,
      "ĠæĭĺçķĻ": 8649,
      "ĠåĪĹè½¦": 8650,
      "ĠåĬłåĪ©ç¦ıå°¼äºļ": 8651,
      "ä¸°": 8652,
      "Ġä¸īè§Ĵ": 8653,
      "ĠæİĴåĲį": 8654,
      "Ġå»ºçŃĳçī©": 8655,
      "Ġä¸ĢåĽ¢ç³Ł": 8656,
      "Ġè·ŁæĪĳæĿ¥": 8657,
      "Ġæ½ĺ": 8658,
      "Ġç®¡éģĵ": 8659,
      "æĲı": 8660,
      "Ġéī´äºİ": 8661,
      "Ġå±ıå¹ķ": 8662,
      "éī´": 8663,
      "Ġä¾µçĬ¯": 8664,
      "Ġå½ĵä»Ĭ": 8665,
      "ĠçĽ¸æľº": 8666,
      "Ġå°ģéĶģ": 8667,
      "Ġçĥ¹": 8668,
      "ä¹ĭéĹ´": 8669,
      "Ġåħħè¶³": 8670,
      "ĠåĨįçĶŁ": 8671,
      "ç§ĳåŃ¦": 8672,
      "ĠæīĵæĿ¥": 8673,
      "Ġæ¬§å¼ı": 8674,
      "Ġèıľåįķ": 8675,
      "Ġä¸ĢçĤ¹åĦ¿": 8676,
      "ĠçĥŃåįİå¤«": 8677,
      "æ¼Ĩ": 8678,
      "ĠåıĺéĿ©": 8679,
      "Ġä¸ĵçĶ¨": 8680,
      "Ġç»Ŀå¤§": 8681,
      "Ġç§įç±»": 8682,
      "Ġæľīçº¿": 8683,
      "è´¼": 8684,
      "Ġåħĭæĸ¯": 8685,
      "é¹¿": 8686,
      "Ġä¸Ģæŀª": 8687,
      "åıł": 8688,
      "Ġæŀ¯": 8689,
      "ĠåĲĪæĪĲ": 8690,
      "Ġä¸įè¿ľ": 8691,
      "Ġä¸Ģç»Ħ": 8692,
      "Ġä¿®å¥½": 8693,
      "Ġä¸¢ä¸ĭ": 8694,
      "åĲĦæł·": 8695,
      "Ġç¼ħçĶ¸": 8696,
      "Ġç®ĹäºĨåĲ§": 8697,
      "Ġå®¶ä¸Ń": 8698,
      "Ġæ¶ĪèĢĹ": 8699,
      "Ġå±ĤéĿ¢": 8700,
      "Ġçĩķ": 8701,
      "ä¸ĬæĿ¥": 8702,
      "ĠåĬłå¤§": 8703,
      "Ġæī©å±ķ": 8704,
      "ĠçĶµåŃĲéĤ®ä»¶": 8705,
      "ĠæŃ»åĪĳ": 8706,
      "Ġåĭ¤": 8707,
      "Ġèµ¶åĪ°": 8708,
      "ĠçĨ¨æĸĹ": 8709,
      "Ġä»Ĩäºº": 8710,
      "éģ¥": 8711,
      "ĠæķĳæĬ¤è½¦": 8712,
      "ĠåħĪåīį": 8713,
      "ĠåıĤèĢĥ": 8714,
      "Ġå½¢æĢģ": 8715,
      "ä¾ł": 8716,
      "ĠæĢ»ç»ĵ": 8717,
      "ĠèŃ¦åį«": 8718,
      "ĠèĻĲå¾ħ": 8719,
      "ĠæĿĥå¨ģ": 8720,
      "å¤·": 8721,
      "æĪļ": 8722,
      "Ġå¼ĢçĿĢ": 8723,
      "Ġæ¯ıæĻļ": 8724,
      "ĠåĲįå£°": 8725,
      "ĠèĤ®": 8726,
      "Ġåı£æ°Ķ": 8727,
      "Ġæ®ĭéħ·": 8728,
      "ĠèĻļæĭŁ": 8729,
      "Ġä¼ļè°Ī": 8730,
      "Ġä¸Ģå±Ĥ": 8731,
      "Ġæ¢³": 8732,
      "Ġå·ŀéķ¿": 8733,
      "Ġç³ĸæŀľ": 8734,
      "Ġåį¡æīİèı²": 8735,
      "åīĳ": 8736,
      "ĠæľīçĤ¹åĦ¿": 8737,
      "Ġç¬¬åħŃ": 8738,
      "ĠçĲ³": 8739,
      "Ġç¡®åĪĩ": 8740,
      "Ġç¼ĺ": 8741,
      "æ»ŀ": 8742,
      "ĠæĻļçĤ¹": 8743,
      "ç¼ł": 8744,
      "ĠçĻ½å¤©": 8745,
      "ĠèĲ½åĲİ": 8746,
      "åı¹": 8747,
      "Ġç¾İé£Ł": 8748,
      "éĩĳå±±": 8749,
      "Ġæ»´": 8750,
      "Ġè¥¿åĮĹ": 8751,
      "Ġæŀªåĩ»": 8752,
      "¯çīĩ": 8753,
      "Ġæ´ªæ°´": 8754,
      "ĠæŃ»å®ļäºĨ": 8755,
      "Ġè½¦ç¥¸": 8756,
      "Ġç»ĪæŃ¢": 8757,
      "èĨ¨èĥĢ": 8758,
      "Ġè¿Ļå¤ª": 8759,
      "å³¡": 8760,
      "Ġè¹²": 8761,
      "ä½Ĩ": 8762,
      "Ġå¼ĥ": 8763,
      "ĠèĤ¡ä»·": 8764,
      "ĠåĪĩå°Ķ": 8765,
      "ĠèĤ®èĦı": 8766,
      "Ġè¿ĻåĿĹ": 8767,
      "Ġè¿ĩåĲİ": 8768,
      "èĤ¢": 8769,
      "Ġç¦ıçī¹": 8770,
      "ĠæĮĩæĮ¥å®ĺ": 8771,
      "ĠæĬķéĻį": 8772,
      "ĠæŃ¤åīį": 8773,
      "Ġç©ºåĨĽ": 8774,
      "ĠåĬŁå¤«": 8775,
      "Ġæķ´åĲĪ": 8776,
      "Ġè§£åĨ³æĸ¹æ¡Ī": 8777,
      "Ġåħ¨çĲĥåĮĸ": 8778,
      "ĺèĽĽ": 8779,
      "ĠæĪĲåįĥ": 8780,
      "æī®": 8781,
      "Ġåıĳçĸ¯": 8782,
      "ĠåĪ«æĥ³": 8783,
      "æģķ": 8784,
      "ĠåĿŁ": 8785,
      "Ġå¸Ĥæ°ĳ": 8786,
      "Ġæ¼ĶåĶ±": 8787,
      "Ġèĥ¡è¯´": 8788,
      "Ġæ¯ıå½ĵ": 8789,
      "Ġæİ¥å¾ħ": 8790,
      "ç¯®": 8791,
      "ĠåĪłéĻ¤": 8792,
      "Ġä¼ļåĦ¿": 8793,
      "ĠçĥŃå¸¦": 8794,
      "Ġåĵİ": 8795,
      "ĠåİŁçĲĨ": 8796,
      "Ġæ²»çĲĨ": 8797,
      "ĠéĢļè´§èĨ¨èĥĢ": 8798,
      "ĠåįĬå°ıæĹ¶": 8799,
      "Ġå°ģä¿¡": 8800,
      "ĠéķľåŃĲ": 8801,
      "ĠåĽŀå¤į": 8802,
      "ĠåĵĪåĪ©": 8803,
      "Ġåħ±äº§åħļ": 8804,
      "Ġä¸Ĭæ¥¼": 8805,
      "å¼¯": 8806,
      "ĠåŃĺæ¬¾": 8807,
      "Ġä½¿åĳ½": 8808,
      "Ġåĳ¨åĽĽ": 8809,
      "ĠçŀĦ": 8810,
      "ĠèĤ©èĨĢ": 8811,
      "æīĩ": 8812,
      "ĠåĲįåı«": 8813,
      "ĠåĽ½åĢº": 8814,
      "Ġå·´å£«": 8815,
      "Ġæ®¿": 8816,
      "è¡°éĢĢ": 8817,
      "æ³£": 8818,
      "ç¢ĳ": 8819,
      "ĠåŃĻ": 8820,
      "Ġæľ¬è¯¥": 8821,
      "ĠåĬłåī§": 8822,
      "Ġç»ıæµİè¡°éĢĢ": 8823,
      "Ġç®¡åĪ¶": 8824,
      "ĠæĹ§éĩĳå±±": 8825,
      "ĠæĢ§çĪ±": 8826,
      "ç§ĳæĬĢ": 8827,
      "Ġæŀģåº¦": 8828,
      "Ġæĥ¯": 8829,
      "Ġæ´ģ": 8830,
      "Ġè½¦åºĵ": 8831,
      "Ġæ®ĭå¿į": 8832,
      "ĠæľŁéĻĲ": 8833,
      "ĠåĨ²æµª": 8834,
      "çĩ¥": 8835,
      "Ġæī§æ³ķ": 8836,
      "ĠèŀįåĲĪ": 8837,
      "ĠèĽĭçĻ½è´¨": 8838,
      "å¥Ķ": 8839,
      "Ġå·ŀéĻħåħ¬è·¯": 8840,
      "ĠæīĢçŁ¥": 8841,
      "ĠçĽ®åħī": 8842,
      "ĠåĬŀçĲĨ": 8843,
      "ĠäººåĬĽ": 8844,
      "ĠæĶ¶èİ·": 8845,
      "ç¢Ĺ": 8846,
      "Ġå½ĵåģļ": 8847,
      "ä¼Ł": 8848,
      "Ġæ³¢åĬ¨": 8849,
      "Ġä¸įå¯¹": 8850,
      "æĹº": 8851,
      "ĠåĮĹçº¦": 8852,
      "ĠæĳĦåĥıå¤´": 8853,
      "ĠæĪ¿äº§": 8854,
      "çĭł": 8855,
      "Ġæ½ľåĬĽ": 8856,
      "ĠéĽĩä¸»": 8857,
      "å¤¹": 8858,
      "Ġä¸¤å®¶": 8859,
      "Ġæµ·ä¸Ĭ": 8860,
      "Ġä¸¾æİª": 8861,
      "Ġæ²īé»ĺ": 8862,
      "Ġç³ķçĤ¹": 8863,
      "ĠæĮ«": 8864,
      "Ġä¸īåĪĨä¹ĭä¸Ģ": 8865,
      "Ġè¯¯ä¼ļ": 8866,
      "Ġè¯ĬæīĢ": 8867,
      "Ġæħ·": 8868,
      "Ġä¸Ģå®¶äºº": 8869,
      "Ġä¸Ģåħ±": 8870,
      "ĠåĲĪçº¦": 8871,
      "ĠèľĺèĽĽ": 8872,
      "Ġé«ĺæķĪ": 8873,
      "Ġè½¬è¿ĩ": 8874,
      "æ¼Ķåĳĺ": 8875,
      "è´Ŀå°Ķ": 8876,
      "Ġéº»éĨī": 8877,
      "ĠåĽ°æĥĳ": 8878,
      "ĠåĪĩéĻ¤": 8879,
      "Ġå¾®è½¯": 8880,
      "Ġéĥ¡": 8881,
      "ĠæŃĩ": 8882,
      "Ġèµ°è¿ĩ": 8883,
      "åİ¦": 8884,
      "æħĪ": 8885,
      "ĠæĪĺèĥľ": 8886,
      "Ġæħ·æħ¨": 8887,
      "éĴ®": 8888,
      "ĠåģľçķĻ": 8889,
      "Ġæ£ĴæŀģäºĨ": 8890,
      "Ġåģ¶çĦ¶": 8891,
      "ĠäºĪ": 8892,
      "Ġè¿Ļè¯Ŀ": 8893,
      "Ġåĩºè¡Ģ": 8894,
      "Ġä¸ĭæ»ĳ": 8895,
      "Ġè®¤åĲĮ": 8896,
      "äº§éĺ¶çº§": 8897,
      "ĠäººæĢ§": 8898,
      "Ġç½ķ": 8899,
      "ĠèĢģå¤´": 8900,
      "å¥ī": 8901,
      "Ġæ¶ĪåĮĸ": 8902,
      "ĠéŃĶæľ¯": 8903,
      "Ġçŀ§çŀ§": 8904,
      "Ġåıĳè¾¾åĽ½å®¶": 8905,
      "ĠæľīåĲį": 8906,
      "Ġåį¸": 8907,
      "Ġè´Łè´£äºº": 8908,
      "ĠèµĮåįļ": 8909,
      "Ġç¼©å°ı": 8910,
      "Ġèº«æĿĲ": 8911,
      "å¸ĥæĸ¯": 8912,
      "ĠåĲīä»ĸ": 8913,
      "ĠéĽĮ": 8914,
      "Ġç±³åħ°": 8915,
      "ĠçĽĪåĪ©": 8916,
      "Ġè¯ŀçĶŁ": 8917,
      "ç½Ĳ": 8918,
      "Ġå¿«åİ»": 8919,
      "ĠåįĪå¤ľ": 8920,
      "Ġéªĳå£«": 8921,
      "Ġä¸ĢæĹłæīĢçŁ¥": 8922,
      "Ġå¤įæ´»": 8923,
      "éĤ»": 8924,
      "Ġç§įç§į": 8925,
      "Ġæ²¡äººä¼ļ": 8926,
      "Ġåħ±åĴĮåħļäºº": 8927,
      "éĺ¿å¯Ĩ": 8928,
      "åĮª": 8929,
      "åįł": 8930,
      "è¥¿æ´ĭ": 8931,
      "Ġåį°åĪ·": 8932,
      "Ġè¿Īéĺ¿å¯Ĩ": 8933,
      "ĠèĶĵ": 8934,
      "Ġå¦¥åįı": 8935,
      "Ġå¤§åŃ¦çĶŁ": 8936,
      "ĠçģµæĦŁ": 8937,
      "Ġæķ¢èĤ¯å®ļ": 8938,
      "ĠæĴŃæĶ¾": 8939,
      "Ġäºĭè¦ģ": 8940,
      "Ġä»·éĴ±": 8941,
      "ĠåĬ¨çī©åĽŃ": 8942,
      "Ġåºķä¸ĭ": 8943,
      "Ġéļ¾é¢ĺ": 8944,
      "Ġä¹°å®¶": 8945,
      "Ġç¥ĸçĪ¶": 8946,
      "é«ĵ": 8947,
      "Ġè¿Ļè¾Ĩ": 8948,
      "Ġä¸ĭä¸ª": 8949,
      "Ġç¨įåĲİ": 8950,
      "Ġç¾¤ä¼Ĺ": 8951,
      "ĠæŁıæŀĹ": 8952,
      "ĠåĮĨ": 8953,
      "ĠæĦŁåĨĴ": 8954,
      "ĠèĪªç©ºåħ¬åı¸": 8955,
      "Ġèº«åĲİ": 8956,
      "Ġæķ°åįĥ": 8957,
      "Ġå¤´éĥ¨": 8958,
      "ĠåºŁçī©": 8959,
      "ĠæĤĦ": 8960,
      "Ġæ©Ħæ¦ĦçĲĥ": 8961,
      "Ġæĸ°ä¸Ģ": 8962,
      "Ġä¸Ģå¹ħ": 8963,
      "Ġå®¢è§Ĥ": 8964,
      "Ġçħ§çľĭ": 8965,
      "ĠéĢĲæŃ¥": 8966,
      "å¾Ĺå¤ļ": 8967,
      "Ġæµı": 8968,
      "Ġæ¾¡": 8969,
      "ĠåºĹéĩĮ": 8970,
      "Ġç§©åºı": 8971,
      "èĩŃ": 8972,
      "ä¸ŃåĽ½å®¶": 8973,
      "Ġåıĳå±ķä¸ŃåĽ½å®¶": 8974,
      "¬éĹ´": 8975,
      "Ġéģ¿å¼Ģ": 8976,
      "Ġå¡ĶåĪ©": 8977,
      "ĠèĢģå®ŀ": 8978,
      "ĠåĲĥæĻļ": 8979,
      "Ġä¼łéĢģ": 8980,
      "ĠæĺŁæĺŁ": 8981,
      "ĠçŁ®": 8982,
      "ĠæīĶæİī": 8983,
      "Ġæ³Ħéľ²": 8984,
      "ĠåĲĥæĻļé¥Ń": 8985,
      "ĠæīĵåĮħ": 8986,
      "Ġå®Įæ¯ķ": 8987,
      "ĠåĢĴéľī": 8988,
      "Ġç½ªåĲį": 8989,
      "ĠçĸĹæ³ķ": 8990,
      "åħ±åĴĮåĽ½": 8991,
      "Ġå¹²èĦĨ": 8992,
      "ĠçĶµè¯Ŀåı·çłģ": 8993,
      "æĪĳæīĢçŁ¥": 8994,
      "Ġæį®æĪĳæīĢçŁ¥": 8995,
      "Ġå°ıå®¶ä¼Ļ": 8996,
      "ĠåĮĹç¾İ": 8997,
      "ĠéĢıè¿ĩ": 8998,
      "Ġå¤±æİ§": 8999,
      "ĠéĿĴæĺ¥": 9000,
      "Ġç½¢å·¥": 9001,
      "ĠçŁ¥åĲį": 9002,
      "ĠåĨħåľ¨": 9003,
      "Ġè§£å¼Ģ": 9004,
      "äººå¿ĥ": 9005,
      "å±¿": 9006,
      "Ġä»·åĢ¼è§Ĥ": 9007,
      "Ġé»Ħèī²": 9008,
      "Ġå¤ıåŃ£": 9009,
      "ĠåŁºéĩĳä¼ļ": 9010,
      "Ġé²¨é±¼": 9011,
      "ĠæµģæĦŁ": 9012,
      "Ġè®¢å©ļ": 9013,
      "Ġç¥·åĳĬ": 9014,
      "ĦĴ": 9015,
      "Ġä¸Ģè¶Ł": 9016,
      "Ġä¸Ĭåı¸": 9017,
      "Ġä¼ĺéĽħ": 9018,
      "Ġä¸¤åıª": 9019,
      "ĠæĪĲåįĥä¸Ĭ": 9020,
      "Ġåľ°æ¯¯": 9021,
      "Ġé¢Ħè®¢": 9022,
      "ĠæŁ¥å°Ķæĸ¯": 9023,
      "Ġé©±éĢĲ": 9024,
      "Ġæİı": 9025,
      "Ġèµ·é£ŀ": 9026,
      "Ġå¿ħéľĢ": 9027,
      "è®®éĻ¢": 9028,
      "Ġå¾·åħĭèĲ¨æĸ¯": 9029,
      "ĠæĬĳéĥģ": 9030,
      "è®¡åĪĴ": 9031,
      "ĠæļĤåģľ": 9032,
      "ĠéĢļä¿¡": 9033,
      "Ġè§ģè¯ģ": 9034,
      "Ġé©¬ä¸ģ": 9035,
      "Ġç¬¬ä¸Ģå¤©": 9036,
      "Ġåĳ¨ä¸ī": 9037,
      "Ġå®¡è®¯": 9038,
      "ĠæĪĲåĳĺåĽ½": 9039,
      "ĠçĦ¦çĤ¹": 9040,
      "Ġå°ıä¸ĳ": 9041,
      "Ġèĩ³äºİ": 9042,
      "Ġæī¿åĮħ": 9043,
      "çĿ¹": 9044,
      "ä¸½èİİ": 9045,
      "Ġä¸¤åĢį": 9046,
      "ĠåıĳèĤ²": 9047,
      "ä¸ĭåįĪ": 9048,
      "Ġå¨ĥ": 9049,
      "åĬŀæ³ķ": 9050,
      "æĲŀ": 9051,
      "Ġä¼ªè£ħ": 9052,
      "Ġä¸įå¤§": 9053,
      "Ġäººèĥ½": 9054,
      "ĠäºĭåħĪ": 9055,
      "è´¨éĩı": 9056,
      "Ġæ°Ķåĳ³": 9057,
      "ĠæįŁåĿı": 9058,
      "Ġè¿Ļå¥Ĺ": 9059,
      "Ġä¸ĭæīĭ": 9060,
      "Ġå¼ķçĶ¨": 9061,
      "Ġé¢ĳéģĵ": 9062,
      "Ġæķ°çĻ¾": 9063,
      "Ġæİ¨éĶĢ": 9064,
      "ĠåĤ²": 9065,
      "Ġçĭ¬è£ģ": 9066,
      "ĠåĶ±çīĩ": 9067,
      "Ġæīĺå°¼": 9068,
      "Ġç»³åŃĲ": 9069,
      "çľī": 9070,
      "èĤ©": 9071,
      "ĠèĢģæľĭåıĭ": 9072,
      "Ġåİ¨å¸Ī": 9073,
      "ĠæĬļåħ»": 9074,
      "Ġå¤©æĸĩ": 9075,
      "ĠçĶ·å¥³": 9076,
      "Ġèµ¶ä¸Ĭ": 9077,
      "Ġæ½ľæ°´": 9078,
      "Ġåĩ»è´¥": 9079,
      "æ²Ł": 9080,
      "ĠæĿĢæİī": 9081,
      "æĤł": 9082,
      "Ġåĺ´åĶĩ": 9083,
      "ĠæĪĳçĶ¨": 9084,
      "ĠæīĢå¾Ĺ": 9085,
      "Ġè¿Ŀçº¦": 9086,
      "Ġå«ĮçĸĳçĬ¯": 9087,
      "Ġå¿ĥè·³": 9088,
      "ĠåĸĦèī¯": 9089,
      "Ġèµ¤åŃĹ": 9090,
      "ä»¥åĲİ": 9091,
      "Ġæµ¸": 9092,
      "éª¤": 9093,
      "çĦ¦": 9094,
      "ĠæģĴæĺŁ": 9095,
      "ĠæĮ½æķĳ": 9096,
      "Ġæµıè§Ī": 9097,
      "Ġå¥½è±¡": 9098,
      "ĠæĢ¨": 9099,
      "å¿½": 9100,
      "Ġä½ľè¯ģ": 9101,
      "Ġè¿Ĳè½¬": 9102,
      "Ġç¬Ķè®°æľ¬": 9103,
      "Ġä½³": 9104,
      "ĠåŃĶ": 9105,
      "Ġæīĵè¿ĩ": 9106,
      "åĭŁ": 9107,
      "Ġä¾ĭå¤ĸ": 9108,
      "è¾¨": 9109,
      "ĠåľºåĲĪ": 9110,
      "å§ĳå¨ĺ": 9111,
      "ĠæĶ¾æīĭ": 9112,
      "Ġæ´ª": 9113,
      "Ġåĩłå°ıæĹ¶": 9114,
      "Ġä¼łå¥ĩ": 9115,
      "èħķ": 9116,
      "Ġå¿ĹæĦ¿èĢħ": 9117,
      "Ġä»İå¤´": 9118,
      "Ġå¤ĸæ±ĩ": 9119,
      "ĠéĹŃä¸Ĭ": 9120,
      "ä¼ĺ": 9121,
      "ĠæĹ¥è®°": 9122,
      "ĠåĵĪä½Ľ": 9123,
      "ĠçĭĤçĥŃ": 9124,
      "Ġéĺģä¸ĭ": 9125,
      "ĠåİĮæģ¶": 9126,
      "Ġä¸ĢåĲĮ": 9127,
      "Ġæ¯ıæĹ¥": 9128,
      "Ġä¸ľæĸ¹": 9129,
      "åĴĻ": 9130,
      "Ġå¾ģæľį": 9131,
      "æİ¨": 9132,
      "Ġå¦ĪåĴª": 9133,
      "ĠæĬ¥éħ¬": 9134,
      "Ġä¸ĵå¿ĥ": 9135,
      "Ġå¤¸å¼ł": 9136,
      "æĺı": 9137,
      "Ġå°ĳå¹´": 9138,
      "çĥ¤": 9139,
      "Ġè¢ĭåŃĲ": 9140,
      "ĠåĸīåĴĻ": 9141,
      "ĠèĪĮå¤´": 9142,
      "ĠåħĭæŀĹé¡¿": 9143,
      "éĴ©": 9144,
      "Ġè°ĥèĬĤ": 9145,
      "Ġæ¿Ģåħī": 9146,
      "èĢģäºº": 9147,
      "Ġçĸ«èĭĹ": 9148,
      "Ġå¯¹åĨ²": 9149,
      "éĢĿ": 9150,
      "Ġæ³¨åħ¥": 9151,
      "Ġåįķä¸Ģ": 9152,
      "Ġè´ŁéĿ¢": 9153,
      "Ġæīĺé©¬æĸ¯": 9154,
      "Ġçľĭä½ľ": 9155,
      "ä¸įè¶³": 9156,
      "èĬĤçĽ®": 9157,
      "Ġä»ĭåħ¥": 9158,
      "Ġè°¦": 9159,
      "Ġå°ıåŃ¦": 9160,
      "Ġå°ıçĶ·åŃ©": 9161,
      "ĠåĤ»åŃĲ": 9162,
      "Ġæııç»ĺ": 9163,
      "ĠæĪĳçĪ¸": 9164,
      "Ġåĳ½åĲį": 9165,
      "ĠæĻĭ": 9166,
      "Ġæµ·æ¹¾": 9167,
      "åĶĲ": 9168,
      "Ġç¿ħ": 9169,
      "Ġæ¸Ĳæ¸Ĳ": 9170,
      "ĠåĲ´": 9171,
      "ä¸įå¼Ģ": 9172,
      "ĠæĹłæķĪ": 9173,
      "ĠæĦıåĽ¾": 9174,
      "Ġåĵģç§į": 9175,
      "Ġåĩĳ": 9176,
      "ĠçľŁä¸įéĶĻ": 9177,
      "ĠåĬ¨èį¡": 9178,
      "Ġçģ«çģ¾": 9179,
      "ĠçĶľçĤ¹": 9180,
      "ĠçľĭçĶµè§Ĩ": 9181,
      "éªļ": 9182,
      "ĠåįģäºĶ": 9183,
      "Ġä¸»ä¹īèĢħ": 9184,
      "Ġæī³": 9185,
      "è´¸": 9186,
      "Ġå°½ç®¡å¦ĤæŃ¤": 9187,
      "ĠçĶµè§Ĩåı°": 9188,
      "æĿĲæĸĻ": 9189,
      "ĠèĽ®": 9190,
      "Ġæ¼«éķ¿": 9191,
      "ĠåĲĪä¼Ļäºº": 9192,
      "Ġæķ¦": 9193,
      "æĬĳ": 9194,
      "Ġå¹²æ¶ī": 9195,
      "çŃĭ": 9196,
      "éªĤ": 9197,
      "Ġéĩįéĩı": 9198,
      "Ġä¹¦éĿ¢": 9199,
      "Ġçº·çº·": 9200,
      "Ġå¼ĢåĲ¯": 9201,
      "Ġæīĭè¡¨": 9202,
      "ĠéļĨ": 9203,
      "ĠçłĶåıĳ": 9204,
      "èĤĮ": 9205,
      "Ġç§°åĳ¼": 9206,
      "Ġåī§éĻ¢": 9207,
      "Ġæ¦ľ": 9208,
      "ĠæĪĲåįĥä¸Ĭä¸ĩ": 9209,
      "Ġä¿¯": 9210,
      "Ġæĸ°å¹´": 9211,
      "éĶħ": 9212,
      "ĠåĶ¤": 9213,
      "Ġæīģ": 9214,
      "Ġæīĵåį°": 9215,
      "å¾·éĩĮ": 9216,
      "Ġåįİå¤«é¥¼": 9217,
      "ĠæľĪäº®": 9218,
      "Ġå¤ĸåĽ½äºº": 9219,
      "Ġç¥Ŀç¦ı": 9220,
      "Ġå¹»è§ī": 9221,
      "Ġå¸¦é¢Ĩ": 9222,
      "æŁı": 9223,
      "ĠæľįåĬ¡åĻ¨": 9224,
      "ĠçļĩåĲİ": 9225,
      "ĠæĬķè¯ī": 9226,
      "å¤ĦçĲĨ": 9227,
      "Ġçľ¼ä¸Ń": 9228,
      "ĠåĵĪåĵĪ": 9229,
      "è¸ı": 9230,
      "Ġå¾·åĽ½äºº": 9231,
      "èĵĿ": 9232,
      "ĠæĲŀéĶĻ": 9233,
      "ĠæĺĨèĻ«": 9234,
      "Ġåīįä»»": 9235,
      "ĠæķĻå®¤": 9236,
      "Ġæ£ĺ": 9237,
      "ĠåĪĽä¼¤": 9238,
      "æĻķ": 9239,
      "ĠæĻ¯è§Ĥ": 9240,
      "ĠèŁ": 9241,
      "ĠéĤ¦": 9242,
      "Ġä¹ĭæĹħ": 9243,
      "Ġä¾Ľç»Ļ": 9244,
      "ĠæĪĳä¿©": 9245,
      "Ġå¼Ģçģ«": 9246,
      "æŁĦ": 9247,
      "Ġä¸ĢæĹłæīĢ": 9248,
      "Ġåģ¿è¿ĺ": 9249,
      "¡å¦ĩ": 9250,
      "å·¢": 9251,
      "èĥ¸": 9252,
      "è£Ķ": 9253,
      "ĠåĩıèĤ¥": 9254,
      "Ġæĳ©æł¹": 9255,
      "Ġå°±æŃ¤": 9256,
      "Ġå®ŀçĶ¨": 9257,
      "Ġæµ·è±": 9258,
      "èħ¹": 9259,
      "Ġç¡¬å¸ģ": 9260,
      "Ġåľ°å¸¦": 9261,
      "ĠèĦ¾æ°Ķ": 9262,
      "Ġè¶ħå¸Ĥ": 9263,
      "ĠæĬĵåĪ°": 9264,
      "Ġå¦Ħ": 9265,
      "ĠåģļçĶŁæĦı": 9266,
      "çº±": 9267,
      "æľºåħ³": 9268,
      "çĤŃ": 9269,
      "Ġæ²»æĦĪ": 9270,
      "åĲīå°¼äºļ": 9271,
      "ĠåŃ¤åįķ": 9272,
      "Ġå¸®å¸®æĪĳ": 9273,
      "Ġé¢ĳçİĩ": 9274,
      "çĶ³": 9275,
      "Ġèĭ±éķĳ": 9276,
      "Ġä¼ªéĢł": 9277,
      "Ġåı¯çĸĳ": 9278,
      "Ġéĩĳåıĳ": 9279,
      "Ġå®¡è®¡": 9280,
      "ĠæıĲç¤º": 9281,
      "ĠåĿĲçī¢": 9282,
      "Ġå°ıçĭĹ": 9283,
      "Ġä¸Ģç±": 9284,
      "Ġä¸įåı¯éģ¿åħį": 9285,
      "Ġéĺ´å½±": 9286,
      "Ġå¤±ä¸ļçİĩ": 9287,
      "Ġèµł": 9288,
      "ĠæĿ¥è®²": 9289,
      "Ġä¸ĭéĽ¨": 9290,
      "ä¾Ī": 9291,
      "éľį": 9292,
      "ĠçĬ¯éĶĻ": 9293,
      "Ġæ¶¨": 9294,
      "ĠæĿ°å¤«": 9295,
      "ĠçŃ¾åŃĹ": 9296,
      "Ġå¸ķçī¹": 9297,
      "Ġç¥Ŀè´º": 9298,
      "åĲ¹": 9299,
      "åĨĪ": 9300,
      "ĠåĲĥæİī": 9301,
      "Ġæľ¬åľŁ": 9302,
      "Ġå¼Ħæ¸ħæ¥ļ": 9303,
      "æĪª": 9304,
      "ä¸įæĿ¥": 9305,
      "Ġä¹°ä¸ĭ": 9306,
      "å·¥ç¨ĭ": 9307,
      "Ġå·´åħĭ": 9308,
      "Ġé¢ĨåľŁ": 9309,
      "Ġæķħéļľ": 9310,
      "ĠåīĬå¼±": 9311,
[...]
